node {
  name: "keras_learning_phase/input"
  op: "Const"
  attr {
    key: "dtype"
    value {
      type: DT_BOOL
    }
  }
  attr {
    key: "value"
    value {
      tensor {
        dtype: DT_BOOL
        tensor_shape {
        }
        bool_val: false
      }
    }
  }
}
node {
  name: "keras_learning_phase"
  op: "PlaceholderWithDefault"
  input: "keras_learning_phase/input"
  attr {
    key: "dtype"
    value {
      type: DT_BOOL
    }
  }
  attr {
    key: "shape"
    value {
      shape {
      }
    }
  }
}
node {
  name: "LSTM_1_input"
  op: "Placeholder"
  attr {
    key: "dtype"
    value {
      type: DT_FLOAT
    }
  }
  attr {
    key: "shape"
    value {
      shape {
        dim {
          size: -1
        }
        dim {
          size: 100
        }
        dim {
          size: 6
        }
      }
    }
  }
}
node {
  name: "LSTM_1/kernel/initial_value"
  op: "Const"
  attr {
    key: "dtype"
    value {
      type: DT_FLOAT
    }
  }
  attr {
    key: "value"
    value {
      tensor {
        dtype: DT_FLOAT
        tensor_shape {
          dim {
            size: 6
          }
          dim {
            size: 256
          }
        }
        tensor_content: "\300\310\304\2743\220\212<\340n\275\275frm=\027\274\330\274C\203\213=-\377\340\274\331=\237\274\355\267\351\274\257\253\221=\230jA\275\214\326G\273(\353u\274\031\\\247;\220#\212<\214sp\274\224/\243\2758\003\261\275\214\274\361\275l\000\031\275\262\327\273\275RG\304<\264\013H\274?\'h>1\203\034\2755\330\032\274\233\267\177;\254\217h=\357\201\340\275j4s\2756\365\210\274\264Z\016\272\216\002\241\275\030|\314;%\355\020\275\000\345\030=\200\357\254\275\352\306\207\275\375{\037=\265V\031>\205\236\363\273h\213\255=N\326\027<\333\n\250\275v\237t=4\344\033=\n\326\224\275\002\235\260\274\351\245%<\346\261u=\311\256\007=24\216=\350\330\233\275\254\216\r=k\254\300\272\344\"\374\273AJ1\275\036\337\327\272bK\347<\036[O\275@\017\300\275N\201\273\274\332)\002>\303vR\275\325\251\300\275\021\177\025>.\317\255\275\212\235\203=\021\326I\275<\010d;\236\213\225\274a\007s\2757\244\202\273\261\341\226\275u\272\240<\227\306g=\332\330(\274~<\031=\326D\323\274\324[\004=a\256#=*\3026\275\260\256\"\275D\\8=\274\206\"=\222N\250=\324\035c\275\273<\331=\207\352\214\275\371\rF\271\367\251\226=TR\274\275\266V\274=`\022u<\254rU=\361\353d<\241\246\222=\034|\202\275\027r\n<\207,\220\274\301\307)<\306Uy=\207F\021\276\261\313.<\210\302\306<\377A\311\275D\n\200\274S\033\'\275#\354\344\274\277XN\273\024#\235\275\000\021\371<\216\360\374=\256\356:=\310\220\201=\004D.\275\023\307\355=\324\315p;B\215\010=\312r\336<\022\202\347=\256\311\\\275\232\006\n>mB\262\275\217\260\'<\250\004\271\274\026\200\322\275\314\315\306\272!iM=\210\205]\274\333\032\202\275\016&\231\275\2475\341\274$V\023\275\355\005(\274s\036+=\202\332\200\275\251\316\352\274\327mb<ji\310\274!\306\207\274?\276\222=\001o\227<1\330_=M\"\352\274\020Z\021=\321C\216<\304[\">\377pF<\200\325z\274\274\300\340=S\354\364\275\362\221\334\274\026\3500=\274\001\222\275\327\301\276=\300\346\023=\020\355\244=`\314\220=[\306\254\275\376\257\030=L\276D=5\371f;\323\222\223\275\271|\244<\227pA=\360JS\275\330\017\346=6Lp<+\371\303\272\351\031\200\275/\244\245=\340X\035;\030\234\370<\301d\005\275\264\317\221=i\254W\275?\302\357<2/\355;\3751\260=`\357\244=\216iI<\273\n\341\274\241\0131\275\355/K=>`\364\273\315\'\353\274\304b\n=\363\340\016\276\362\031\226=%\377]\275L\026\333<y|\232<\313\361\363<\255\344\275\275\005H<=\033\343\332\275\260\335~;v{}\275\362-\'\275H?\260=\227\312O\275\262\002\250=\272@\216=\325\025\362<\277\370 =\262\020\366\274~\017\026\275\223\236\003<\312!4=4\377\233\274\244m \2755\223\307\275^H\205\275=\022u\275\363v\241<\005\376\020\275\351\t\300:*H\210\275\0008\002\274\274\271\215=\371\341\325=ug\220=N_\362\274\014H\325=*\301/\275$\374t\274\310\006\345\274\273A\026>\267v\212<\002C`=`\000\271:\377\266b=\005\371\001=R\307\243=\017\311\345=ny\212=\316M\305\275\023\037\031\275z\307\342\274\237\277e\275\365C\316\275(\306\025\274\221\222^=\367\256A\275\021\240\210=\010\276\315=d\352\347\275S\0140\275b~\362\275G\273\232=2^\032\275w7[=\364\214\027\275\033\247\345<z!r=Rg\244=Tjk\275V&P=\274j\234<\334\270-=\240\177\306\275\354\257\251=\274\325#\275\256\213\032\276\204\n\337=$f*=\320\213\343\275\016\210\211\274\300\241\261=\375o\332=\347\226\204\275\266\333\r=\224\234:=:\020[\275\204\3610\275\314\033Z\275\013\305\233<\226\305\217\275cl\317\2742\026\224<aF&;\013.\025=\200\333\233<f\032g=\211BP\276\246\271#\274\361\223\302<\007\317\215\275P\326H=\243L\031>\2470\214=C\272\232=K\334\033<5\210\020\275\025B\312=\2517\000=e\303\254\275\223\312C\275\234`\353<\004\207\372\274u\2577\275jF\032;2\002e\275\2741L\274\034\350\004\275jq\227<n/\207<\214v=:\005_\214=\023K\206\274\013/\231<\254\360\335:\315t3=\003\031)=V\336;=\235|\202=\206\2510<{\257\277;\256\033B\275\243\\\034\275\024\236!=4n\266\2755\017\255\275\021\203\000=z\300O\275\276\376^<R\216\010\276\300\216,<S\026_\275e?\356<\240Y\022=\315\271\311\274Bk\002=o\362\034\275\256h\335=\352\254\317\274\254\211\225<\312\020\"<\006$h=\203\266\002\275\034T}=\203\242*=hA\251=\356\177\317=y\203\362<0&\273=\217\347D=x\223\010\275\301\033c\275\267\000\253\275\\\337\251\274\213\323\353=\207\'{\275\016\242,\275\244Kn=\321\006X\275G)9\275\237\312\256=3.\233\275\377\271\276<\376\223\310<Z\360\223\275\250\2378\275\276 \302\275\244\303P\275n\306\276\274\376\351R\275\370p\025\275\2231\177=\343\350\377\275C*\r\275\261\312\203\273&\223\342\272\224`\334=\014\227\330\275!<\205<\205P!\275\274\350\304\275r1|\275@;\006=Z\275\241<)\224\000>\202\025\300;\331\221\234=C\237\245\273_<\214\275\233\245\233\275\305\340O\275\031\303\002\274\250\372\256=(\266\223;\224\274\265=\'\\(=}\343\345<\325\363\036=~\225\342<\210\nQ\275oQ\367<p\037\223\275,B\274\275\243\370\026=\263\236\004<1;\241\275g%<\275\254:\t\275\273\t\261<4\350T={\366J\274:\273\n<\3762A;\313n\354\273\374\025\255\275\343\017{\273\024\020;\275\267\013~\275oR\376\274\234o\351=y\342\001\274\262>\231\275\313-\t<fy\377\274\227\331\352=\324V`\275\266\362\\<\314\346\206\275\364\324\010\275\277N\004=g\n\313\275WW\366=\247C\372\274\313\354\332=7\271\242<\350\304\006=\017+\227\275*\304\233;\205<\326=~\304\353=\273bq=\027\277\231<y\002I<\212\346E=\255\2150=\360\200\207\275=\200Y=C\262\277\275G\005\327<\302\301{\274Y\341\251\274\302\014\322<\304Z\242;\321\025[\2748?\375\275\207\205\243\274\261k\200\275\320\035!<\'\214\240=\330I\361\275\343\"\360;lI:=\010\022\266<w\212q\275\321\0053\275\177M\304\275\234\251C\275\255\212\300\274\213\357\365=wU\341\275\262>\217\274p\355,>W\271\276=:3/:\315\220S=2\342\013={\263T\273Q\347\r\275?\320\301\273\375c:=\2305\305=\344Y\371<\002A\">`I\345<\'\311\256\274A\301s=\275H\343\275\010[@=\231sK\275W{\243\274\336\224\364\275\310^\265\275\213\231g\275\245\260\316<\252`\034\275\237f\267\275\254\271\232\274K\371\365<\335h\236\275G\002?<\225\367\265=3A\007\275\020\225\345<\016\315`\275\320%\003=\344\342\345\274\233|\003\275I|\343\273\034\213Q\275r\206\036\275\223]\034\275\332d\307=\036\333C\275\217\216\264\275\212%\376=6a\273=\n0\340<\233\326y\275~\233\270\275\247\344\235\275\205\263\216\275S\177P<\235\016E\275\242\221\200=/ki\274|\323\336;\333E\t\275[\217\271\274\355\322\372=2\001k=%e\026=2h\n\274\361\265\353\274\274{\247<\322\220\307<\'\210H;\243\020L\275\034\004\354\274\270\232==\274\013\361<\336\276\373\274p\253\204\275\270\367\210<\220\304{;H$\235=\305\257,=\255)N=\265\310\354\274X\334\007\275\222%\014\274\322\025\370<\203\241\007=I1\036\276 l\'=\000=0\276&\267\t<\3511\017=\'8\362=\310\355\364=\337\316R=@\246\004=\240\313\271\274\006H\202\275\2568\005>\324\003\330;\250@\275=l1\035=gU\356\274\304\303\323<qT+;\245K\t\273\315\301\222\274\3472\204=\024\034\"\274\304\335c<\372\312\245<\224\030\035\275=G\337=\030\264\271;\037\345\252\275\332\245\221=9<\217\2759\227>\275w\232\224\275AQ\035=\362\2139=C\037a=\024g\327<\224\305\217\275\300ub\274\006\316~<\225\227\035\274\325\214\276\2742]\213=\306\246\237=\262\215\315\275m\264\310<{\035\033=^7\364=\237\315\333\274\003:\206\275\246\334\013\275-^\346=\322\267\314<c\325\206\2742\377B=\031\222b={S\214=w0u=\232\214\275\274wY7=\214\214\373=FX\203\275M\340E=\311\221\354<\014\022\232\274\030\326p<V\355\240\275\024\315\247\274\366\020\275:16\320=\237\264\201\274Y\310\340\275@\242\330\274\203\257M\274:\030\225<J\2049\274H\010\010=k\031\242<PN|\274\206\247\022=\254\364\341=\234\r6\274l\004\270\274\005\025\264\275\346\253\267\273\034\314\302<\274\006f<\254\316\224\275.o\373<\376U\334\274]\230\306\273qi =\331\330T\275\250i\351\274\006\347\376\275 \201\302\274\014\027<;\025W)\274\177.\222=\265\261I<[\320\244=\372\367\207<\030\325\205\275\032\177M;G\221\264\275[\3307\272\320\247\242\275\212\254e\274t\371\237\274j\237,>3\206\001>\013\374B\275\261*O=\313w\004<\332\200\375\274\024\201\242\275)w\231=Z~Y<\322\376?=\267\022\357=2\226\260=\017\025B\273\360\362g\275\204\335\235=\016\367\316=5\233\002\274\251\200\271\275\336\r#\275[\262&=\213\351m\274\2275f=\271Mg\275(\240\332\274\216Rd\275\200N\t\276\003\326\204\275\314)d\275\261n\374=\320\363\236=\022\376\n\274\374\002!=\252rH\273\254\266\261\275\203\326/\2756\241\275\274T\323\036\275\230\331 \275;R\244<\206n\261\272\215^&=\375\346\215;\352 \261=\333\261\270=\014\013v\274\231\273\357\275\215 \243;Y\210^\275S\377\351\274\004\357\233=s\236 =VSO=\212\373\177\274\026\356\020>fC\366<\363P\212=\034\2134\275.\203\021\275\320\301\323\274\r{\200<\200\0226\275\367\274\245;{\273#\275$\216\022>n\3038\275E\375X<\366\365+\275\264\336\301=\026h\213\275\230b\220<\373\320 =\302W\202=wX\247=[?\307\275\244\033\260\275!\226\036\275\316\241\205<\214\325\226\274\365\3105<\014\026\320\275g%\007\276NS\265\274\260\014\037>J&\001=\354\347N\275\324\"\254\275\022,\243=%\337(=O\366\225<\201\376>\275\256\302!\275\261\247\200=B\211\266\275\023\003|<@\002\226<\217\021\211=\342\231\324;\022\236\203\275\262\372 \275\022\204\260\275L}\266\275\300\030\002\276\006,\005\275\367\370==t\016g=\371Da\275\020\260\313\275CK\333=\326\235\333\274m\020\343=\230\345\361<\214y\205\274u\261\274=5\353\216\273$\324\020\275\352\036#\274\374\r\201;\252\347[;\253\333s\275\202\363\025\275\306\227+=Q\'\212=\344\277}=\266\177\205\275J\374\321\273H\370\252=i\n\322=\"\326B:ut\311<\217\310a<\231\tA\274Lw\305=\021JD\274K!\257\275`\340\362<\356\365\333:\025\217\313\274\253\247\274\274\233\236m<r4\233=\377\352\2719\257=\233=v\340\273\274\n\230b\274\262\261 >\020J%\275c\212\217=\361\177b;\247\332\002=\361^\243\275\271\r\351<\253[2=\007\027\332\274\214\265\246\274{\354\215=@\027\334\275\025\020\340<\226\305X=\177-\005=\241\037\005>DFi\274\360\274]=A\201\353<\037[B=j#\220=\252\031/=\212\n\013\275\313|\275\273\031X\340\274\362\276\271;\327\314T=W>\212=\243\'H=41\262\275\270\345\312\275\213\023\276\274\263\360\032=P\342\036>\277i\343\274\362\323\017\275z\373\342<z\' >~\"\277\274Z\205h\275\230n\371<;\324f=\344\212\311\273\242F\344\275\265\222 \271n<\224=\237R9<#]><\330\360\262;\325\353\301=?v/\276p}\341=\260\222_=v\375\262=\002\206/\275\'\303\007>C\016\355=Y\321\223=|m\017=\267\220$=:E\344\274W\205)\275u-\232\275\357\361\254=\006t\304=\032\203k;\033\225\244=\276Q;\274\275\211^=e\007\223\275\337#\234\274\270\361\342<\377\021F<`\256\225=-\300\312\275\033]\001\276Z/\004<K\254\037=N\300\337\274\257\2765<\021?\213=\\\270/<\003~\205=\212\372\022\2762>\317=\341l\247\275G\264O\275\200\274\253\274\002\350\353;\214\332-=\204By<\261+\220=2Yv=\025\235\243=Y\344\232\275\257 \316\274\356\261\217=\200w\253\2756X8=\344\347\337\274o\'\010\275\031\021\313=:%\n\274\024\255S:\3653\243\275\026xt<\'\277\263\275\366m\355\275\027\300\346\275\313\367\207<\371\351I\275\360\232\030<\030\027A<\242\372\274<z0\315=Gb\206\275\000P1=\257\243\272=\3744\301=\223\306\n\275\035\243\202=\301\330\034>p*\333\274 Jg\275\363\021e=\326\tZ\274\rG\\=\3736q\275\007V\202=\337w\325\274\347\025\241<\251\234&;+\324\177\275\177\241\365=w\036\003\274#\244\240=5x?=;X\242=\217q\317;?\355=\275\277\002\330\272\225\307\n;q\017\262;\370qY=\343\247E=\362\311a\275\373\266\200\275\217\375\303\275\021T\021>r80\275<\r\341\274k0L\275\335\2556\275Wa\311\274WlZ\275\324\241\231<\231.\266<\256\032\247=\313\322\272\272\200j\316\274\347\227%<B\255r\275\316C\257\275\272\257\343\274\274\316T=b\310\226=\0228%\276\203q\264\275\275\240\027\2751\267\215;s\314\237\274sXZ=\276K8\274\030\037\225\275s,\227\271\223,\013=G\212\313=\001\227\335\273\205\243\226\275@\302\255\275J\302\315=\310{\334\274\314\277\024\275~\210\211\275\305\267><)bH\275-\373\261\275K\014(\275\247\032\000\275\222\311;=\367\375\002=\001V\273\274\251!8\275~P[=\226\3104<< \206=\301\333\006=;|+:\314\346-=\361\355\006=\365IS=N\025)=\235 \211<O\013\271\274\274\013h=\332\376\316\273P8f\275\304+\254\2753E\010\275\370^\220=\255\216`\275DB\024\276\366\274\244=\357u\'=\246\362\213<[\313\350\274\325\265\023>\245\022\203\275\2725\237=\032K\263<\355\300S<r\311\372\274\3359\215\275\0232\005\275h\030\030=,Y\255\273\347\350\031\275`k\002\276\231\334_\274\363[n<\317V\t=\275I\n\275\277\021\232=\014\224\246\274\240\013f\275U\030l\274s>\377=\306w\032\276\005\277K<6u3\275 \035\207=>v\243=g\\\022=\016V\006=\230\"\024\276{\224\220=\265\357\377\274Y\337\236\275Q\317\315=\213X)\275\232\262 ;4a\244=\247`\206=\001\343\354\274\312\237]=\301\300\354\274\366\276\211=\364,\312=\340\214t\274P\245\203\275FVc=\355\002N\275\237\027f\275h\357\006\275\350\227\201\275!\327\205\275h_s<F\337\347\274\242\264\262;aF\264\273X\035T\274\201\360\234=!\003\242<<e}=l\272\037=I\030\256\275\020\2450<f\255\310\273\006\263.\275r\n\264\275\0355,\275\257\005j<\221\317\002=\034\245\003\271\347\376\327<\240.@\274Zma=2\031\307=I\234><\3001\320<J\037\364=\010\316\266\274!\300\024;f)\254\275\003\023\023\273\226\211\340<\204x\016=#\346\005<\306\244\274;2\001\257\275\267\312\031=\334\252s=w\"\217\274\270\241\205=a\230R\275<=K<\207X\002=\246\354\273=\014^$\275$\274\324<?\264\027\271\365\206\353\273\355b\203=\343\023\267\275\313(@\275\247_\260=\3737\t;7\377\316\275\226\247\251\274\037\253:\274\010\201\r=\377~\017=Hw\266=\261\315x\275\344S\321\274\347VV\274?\351\010>fI\027>\201a;=\347\201\234=D\267\217<\263\353\257\273c\227\000\275G\347A\274Eq\333=\366\007\253\272\032\230\273=E\010L\275p\335\360\273\3649\261;\333\001\237\274\032\250\211=~+\211\275\301\231\323\273\317\352\324<e\365J<\023q^\275V\205{=&Cv<Bd\013\275]R\211\275\013\256\023\275.\270\013<\341U\204<o\333\016=\214\361\037\275\367#\254\274yH\254=\242\365a\273g\337\262=\246\020\303=N\'\021<R\316\202\275j\0057<\306aE\274\204\'\374=\003d\305\274\242o^<\364\253\214=\337M\244<\215[x=\310M\316\275\237\330*<-\231\265;\360/\'\276\301\316D=z\323\274\275\375\2139\275rW\010>a\366>=m\255\352\273\223\323\\\275n@\313\2751E;\275/^\252\274I\340\247=\351\327\316<\374\343\226\274.\365\025\275b}^\275\372\220\003\275\311$\374\275\352x\261=3\023b\2741O\326<\236\373\264\274\314\336\010\275\031rJ\275n\327\022\276\3302\211\275^f\374=\251\3235<5$+\275\224\371\327\273\332s\002\275\353\210\220\274\244\360T=\331\274\017\275\025\021\322=\240+\342={jG\274,\217\031\275c\264\030\274\341\2039<V\220\207\275\244\342\316=\276\225+=\243\005?<;\261\270<\254\200\325\275\232V\265=\367q8\275%\301\370<Q\331\265;O\327Y=O\307\203\274\234\000O\274\026A\356\273\006\372\247\275~h\265\275\355\317w<\031er\275+\315\252;\031$\000=\213\033\354\275\265\205O\2751\036A<\216 \265\275m[6=\353\214W=O\270C;:I\257=\t\275\233\274\345\204\021\2761\220\373\275+\276e\275\336\026\266=\377\353\226=!\034\210;cS\022><\n\243\275\rt\321=]w7\275w\346\231\275r\247\317\275U\326\305=\306\305\305\274\1774\216\274\250f1\274\310\230\276<\352mZ\275\306\375\266\274\266\025\240;\3378e=Z\020\004>@R\005\276\270O\035>9b\203=\202\215s=\006{-\275\253\376\311\275\331\375\222:\036\323*\275I)=\275\234\224\253\275\204\025\211\275$r\3208*\267\361\273@o\217=y\301\225=\306\3105=\360\312\356<I<\021<\240xV;a\032\207;)\255\222\275\333\345\221<\332&J\274\371_\241=\021\310c=\276g*\275H\361\272\274z7\210\275\262-\265<\312\277\023>L\321\325\275\000\324r<\322\370\221\275\025\235\203=\023~J\275\273\260\227=\334c\201=R\306\213\275\302\243\323\275\331K\266:\r\332M=LI\000<5\030\216\275lD}\275\ny\201=\376k\"=\251\250\206\275$\233j=4Ki=\326\017\233\275\275\346z\275\327\\\342=\326\370\222:\223\243=\275=\277\236\275\312\274N\275\022\311\031=\251<E=0\253\201\275\347\036\023\275\021f \275\301o\263\275!\271\361\272\2411\217\275g<\276\275\017\010M\275\274\027\n\275`\020};\262\212\374=\330y+=d\336\314<\322\2235\275\346j\344\275H1\200<f\254\010\274\361\222V=$\204\247\274\032d\275<\234b\220<\345\036\236=G\255\342\274\324&\014\276\302\336\213\273\373\265\377\275\037NH=\250k\243\275\350\252\027\274\311\316\006=\270\370~<h\305$\274\247\310\225\274\272\242r;H\177\224\275]T\222==5\277\275\214\250Y=\254Sv=\231\016%\275\234\231a\273Sa@>\n\320\273\275\207\204.<.\363\266\273\321C3\275\244IO\275my\260<\326\266\315=T\236\352<\226Lv\275&{\216;\241\373\031=\213\351t=d\317C\275-,\266\274V*\345\274\243A5\275o\216$<D\355\225=\311r\207\275m\341}\275\220\226\240\274\007\322\024\274Q\246t\274\267*\247\274\'t\216=)\340s=LE\260\275\360)==\235\261\004=\340W\236<\t\351f\275\000f\373\274i\336\304<\372\262\036\275\215{\327\273\353\317\330\275\327\007f\274\2203M=\001\331j<\203\230/;5\354\274;n\370\002=\304N\201\275\004>\"\275\304\206\207\275\360V\317=\341n[\274\010\177\260=\271\244D=z\270A\274\030\003\224\275\250\241\203\275\366\275c=\300\372\350=\273\r\002\276*j\220\275\365\002<=\375\257`>\037~\203<\375\207\307<\361P\030\275lQU\275\325\276f<t\275D=\273\275A=\3716,\275{\365\003\274\264\377\003\275\264M)=\367\022\021\276\263\372\344=\005\275\322\275U\370\342<\004v\377\275\254\r\235;\211\200\231<\rY\250\275\234h\251=\3613\274\273\227\234\256=\276\034\025\2754\314\216=aOs\275\n\243\205\275\326k\275\275\004Hg\275\325M\277\275\ra7=\246\002\233\273\033\211\301=\341\344\206\275\236\271\232=\376\373U\275\223c\234\274\220\362\324=\3125E\274\020\021f:\212N5=z\220m\275\n\253\302=!\254/=\345Z!\275\013\217\036\275\350\232\017\273\246\244h=\025\365G\275SF\222\275NX\000\274<\021>:\3703\205\275\317E\271<\274\361\275\274*M\035<.D\325\275\2518\006\275\347\352\335\274\230\254\036>\232\313\325<s\366r\275\260\021\275=j\230n=\212]\022=j2-\273F\301\360\272\365sG\275\353\331.\275Z\276_<u`\\\274Q/\007>\204\034F<\336\344\244=\031n\327\275\251\344,<\202q\271=}\206\023\275\251\2649\275\200DR\274\221\367O=\335\000\217<t\357+=\254M\230;\322\376\n=r\204,\274\022\032\204\274\327\212O=\211\266E=\232X\200=\235g\037\275\351Eu\274\3350\343=\'[R\275f\327\256\275g7\027=4\261:=d\203\230=\021fT\275\373\376g\275\277\237\202={\243g\275\013\033\026\276\372\372\034\275\216\306!\2768\345U\275\346Y.\275\"$V\275\226\014[\274\014\241c\275C\207\204\275\341\354\030<"
      }
    }
  }
}
node {
  name: "LSTM_1/kernel"
  op: "VariableV2"
  attr {
    key: "container"
    value {
      s: ""
    }
  }
  attr {
    key: "dtype"
    value {
      type: DT_FLOAT
    }
  }
  attr {
    key: "shape"
    value {
      shape {
        dim {
          size: 6
        }
        dim {
          size: 256
        }
      }
    }
  }
  attr {
    key: "shared_name"
    value {
      s: ""
    }
  }
}
node {
  name: "LSTM_1/kernel/Assign"
  op: "Assign"
  input: "LSTM_1/kernel"
  input: "LSTM_1/kernel/initial_value"
  attr {
    key: "T"
    value {
      type: DT_FLOAT
    }
  }
  attr {
    key: "_class"
    value {
      list {
        s: "loc:@LSTM_1/kernel"
      }
    }
  }
  attr {
    key: "use_locking"
    value {
      b: true
    }
  }
  attr {
    key: "validate_shape"
    value {
      b: true
    }
  }
}
node {
  name: "LSTM_1/kernel/read"
  op: "Identity"
  input: "LSTM_1/kernel"
  attr {
    key: "T"
    value {
      type: DT_FLOAT
    }
  }
  attr {
    key: "_class"
    value {
      list {
        s: "loc:@LSTM_1/kernel"
      }
    }
  }
}
node {
  name: "LSTM_1/weight_regularizer/Square"
  op: "Square"
  input: "LSTM_1/kernel/read"
  attr {
    key: "T"
    value {
      type: DT_FLOAT
    }
  }
}
node {
  name: "LSTM_1/weight_regularizer/mul/x"
  op: "Const"
  attr {
    key: "dtype"
    value {
      type: DT_FLOAT
    }
  }
  attr {
    key: "value"
    value {
      tensor {
        dtype: DT_FLOAT
        tensor_shape {
        }
        float_val: 9.999999974752427e-07
      }
    }
  }
}
node {
  name: "LSTM_1/weight_regularizer/mul"
  op: "Mul"
  input: "LSTM_1/weight_regularizer/mul/x"
  input: "LSTM_1/weight_regularizer/Square"
  attr {
    key: "T"
    value {
      type: DT_FLOAT
    }
  }
}
node {
  name: "LSTM_1/weight_regularizer/Const"
  op: "Const"
  attr {
    key: "dtype"
    value {
      type: DT_INT32
    }
  }
  attr {
    key: "value"
    value {
      tensor {
        dtype: DT_INT32
        tensor_shape {
          dim {
            size: 2
          }
        }
        tensor_content: "\000\000\000\000\001\000\000\000"
      }
    }
  }
}
node {
  name: "LSTM_1/weight_regularizer/Sum"
  op: "Sum"
  input: "LSTM_1/weight_regularizer/mul"
  input: "LSTM_1/weight_regularizer/Const"
  attr {
    key: "T"
    value {
      type: DT_FLOAT
    }
  }
  attr {
    key: "Tidx"
    value {
      type: DT_INT32
    }
  }
  attr {
    key: "keep_dims"
    value {
      b: false
    }
  }
}
node {
  name: "LSTM_1/weight_regularizer/add/x"
  op: "Const"
  attr {
    key: "dtype"
    value {
      type: DT_FLOAT
    }
  }
  attr {
    key: "value"
    value {
      tensor {
        dtype: DT_FLOAT
        tensor_shape {
        }
        float_val: 0.0
      }
    }
  }
}
node {
  name: "LSTM_1/weight_regularizer/add"
  op: "Add"
  input: "LSTM_1/weight_regularizer/add/x"
  input: "LSTM_1/weight_regularizer/Sum"
  attr {
    key: "T"
    value {
      type: DT_FLOAT
    }
  }
}
node {
  name: "LSTM_1/recurrent_kernel/initial_value"
  op: "Const"
  attr {
    key: "dtype"
    value {
      type: DT_FLOAT
    }
  }
  attr {
    key: "value"
    value {
      tensor {
        dtype: DT_FLOAT
        tensor_shape {
          dim {
            size: 64
          }
          dim {
            size: 256
          }
        }
        tensor_content: "\025\333>\275\363\366\016=@\304\231<\334\271;<=F\362\274\010\311\320<\017 \004\276=M<;K\001{\275\352b$=\234\035\214<\222\354\366<\277r\350\274\277/J\275\377\227\305=VL\033\275\262%\202=Q~\233=THV\275$\005\253\275;\213\361\274\233\217?=\376\242)=>pL\275\n\215\r\275\354\264\303\274\305l\211<M\200\201=\272\252\024=\342\214\001\276\307\367q\275\243Fp\270\271\305\002\275j\264\216\275\3153\350<\245\277D\275\310=\252\275\206\263\026=\275\245@;c\016\253\275rr\303\275\310\315v=\233\357\250\274\274\261\337\274=\026\347\273\226\216*=~\353\227\273?\221\031\275}\215\241<q\0258\275\330\370c<\'lA\275]`D=\264\231\322=/[\220<==Z=0\275\244\274\265\352\263<`Rx=\010w\313:\272\310\t=\247\271O\275\031Xc\275&\223O\274RH\224;\277\260o\275\264\005\201\274\214\276\234\275\222R`<;./\275\354u\037=1\253y\275<\275\003\275\232\313_\274\014\205\031\276\232\300g\275$\225W=\214\324\314\275\027<\301=6\246\242<_\252H\275x+\007=\006\330z\275\026J\234=\302\025\020=\323JD=D\032\306\275g\356\247\275\354_\215\275ls\013<\373c\363\274\347\022Q\275\031\n\032\274]\201\"\275\312\310\224<%\303\215<\323?\366=\270\2457=\233z\214=0\0030=\314\\\201<3-S\275@O1\274\354\362\016\275v\002\272\275\365\244\304\275B4\301\275x\211\275=\220Q6\274\3362\000>m\3168>\377\335\322\273WR&\274\231\2761=Z\207\351<i\271Y=\031\352\315\274c|~\275\217\312_<\326[,=\200q2>\305\027*\274g\304y<\330\037\234\274\034\227\356\275i\337-<\026\257\307=l\216\002=\274\235\235\274^\335\313\274\274\033[\275\351\025\237\274\376\026\340=\360\367\226<\037t\211=i\331\304\274,\r\211\275\262\257\n\276;.\317<\237U[=mKy=+.\016;\356\204*\274P\317\003=\205C\200<\241\265\t;\376\346S\270\362W\236=\364\352\337\275\257\344\311\275\242\337<<\2440\235=\275\000\226=\355\306\361\274\010\355\263\275\301\013\201:=Pe<L\254,=\025\037\333<L,R\275\346\033\216\274\207\341\227\274\377U\204\2758m\025=\032\013O\275P%g\275C\023\337\275\022\216\t>h4\207=\327O\343\275\362/|=\233\346\000<\327\014\312;\213i\211=\212+\315=\360^\'\275A\201\3708\376a\225=a\034\243\274\013\337T>hFz=\217\216\007:\242[)=?\222\037=\347\3111=:L\264<q\265\266\275\300 \357\274\215>\225\275\017\365G=\222\216\004=\267$\235\274EC\360\2749N\375\275\r\030\364<\tMP=\235\204\302<\351\n]=\t\217\325=&)\263=\352d\314=A-\022=\354\347\n\275\275\031\213\275\035\221a<\272\320\357<\317\nt;G\220\250;\340\177\206;\307\375\250\275 \325\340;o\221\223=\010\322K\275\207F\235<\217\201\025=]\000D=.k\324=\034%;>\202\032\355\273\006\000\371=\313\214\023;\307c\221\275\2164/\276\255\343\230<i\347#=f\260\203\275\355uq=\352\364p<\024\367K=^)w=S%\337<\275\263\315\275c\305\\=1o\362\2749\205k\275\274\374\271<|b\254<ZN^=\221\305\020\276vci=\300\234\235\274\371t\210=\247\035\035\276,\003\036\275\177\002N\274P\322>:I\253Q\275\216w\224\274)\242\232<\310\367\372\273Y\0071=\366\221\014\275L\231\301<\314^\234\275\225\024\211\275B\215K=Ya\331\274{E\277=\223\267>\275\261\261W\2747Uf\275\251e\355\275\240C\272;#0\343<\0071d\275\240b\033>\337~~<\270\317\212\275*\273L\275F1\306\275\033h\301\275\344\356\337<\n\024H\275+\370q<,\272\314=iW\303=\354~>\275!\036\000=\021=\347=r\r\241\275\271s\330<9\303\247=\310\322\260<~\0376;:\206\266\275\034\373\320\273\0372\214<\001\316\202=\331\225\206\275lsH\275\371\016\363\273\\Z\254\274\233`\221=\023s\n=s\032z\2747h\350\274\337i!=%\315;=\217\263w=@\357\013\275\341\310\247<\207\016\356<>\314\333\275h\267\204=\303\327}\274\271\327e=q\220\341\274\357\020\245=\312\247O\2732\371\304<J\376E\275H\301\377=\200\316g=(%\364\275P\371\251<\231\264\250=\037%\367\275\217\221\362\274b&\276\275\026\345\200=\253i;\275\234T\021\276\275J\037\275R\263P\275\177\320r\275Q\351V\275\363x3=W|\310\275\r\313\026=F\261l\275\364\306\027\275\327\212v=\310\264\034=b\306\037\274\342\003\023\275\030\003\265\275\022\001C=\252\022\216=%>\307\275\002T\254\274\214}\245\274\236F\264<\310L\342<\371\231&\275\316\266\255=\327$\033\274R\030\224<\257\251\237\275\324F\376<\354\226\240\275F\261\235=V;\342\272h\277\030=\t3J\275\314\312\335\274\336\305B=2+\371\272<\"Q=\232\206\027\275yBq\274!\270\233\275N\374\">\306\317\224<\260\006\302<Mko<\"ZT=\024\373\253=\372X\224=\237\364\311=K\215[=\250!\255\273\307\317\026=\266\322\326\275\201Yd\275an\001=\263\370\226<\231\010\267\275\266\214w\274\315\325\214\274\020\351\351=\\\236\210=\222V1=Z\355\303\275\361Mz\275\265\215[<\250K\253=\300t\332\273y\027\004\276\\\031\266=\274WR\275\320\222\026\275\201\376C\275\3353\204<v\2701=e?9=\323#)<\235-\253=;O\200\275 m\013\276\214\367\263<^\244\251;dU\026>\360t\016=\030\257\244\275\2704\323<\\1\211\275M\026\242=\232\272\301=!\017o\275\244Z\201\275\253`\374<)\021`\275\232t\200=\026\334\214:M\304\220\275\016\215\246\275\205\314\315\275\300\014\204\275\311g\217=\375\306\001=\'P\301\274\204J \274\231\346\355<\260\232\021\275\260[\\\275\316\212\000\276Z\036b=\233.\222=-qE=V\006\216=\372H\025<hm\233=\003\252]=\255\205&=\230\030p\275<\377\351\275\255t\267\275\310S\326\275\215\236\234=_\343\233\275;\260\350<\303U\207=1\017\335\275d\302\021\27474\206\274F\300\353\274\332.\230=\023-\221\274\013@\005=c\340\274<6\330\010>\276T\021\2752\360\031\275W\271\207\274\261w\347\274\306G\356<\2173\177\275j\270\201=\"\241\367\273eb]\274.\273\200\275\352\010#\275qN\201;h\371\017=\024*\017=1\212\014<\016\370#\275#B\234\275T_\301=\200\006\251;\365\006\226\275\276\304X\275\336\264\335<\214\232\020\274[\244:\275\262g\n>(\223\370\275\266?#\274A\245\036>\230\244\331<\2148\037\274+\265\375<\212\0037=\270\353\272<hY!\275y.\035<\340G\253\275\004\016\215\275\264\2301\275\257\231\222<\002L =\367\3242=n\376\235\271U\024\252<&j\r\274TG\324\274\"\322\232\273\010\265m\2759\341\313\274E\242\246\274\201\224\001\275\'\262\261\274\337\241\305\275\374\227V\275\255\024J=I\375\325=\2474\321=\301\027e<\307\005\177\275\026\255\300=\372\025\341\274\317\371\004\275\375\266\003\276\347`P=\216\260\231\275\032\021+\275e\251\361\274\024\321\224\275~\241\340=\250\316\202<`l:=UN\354\274\3468\025=J\374\247\274\217\200\364\267S\3127<\225B\245=\223\r\204\275\246\306\224:uN)<5b[<\\Pv\275\376\217\261\275\301B~<yB}\275\256|\364<)\372\326\275\215\032\213\275e\376{<\341\333\035=\003e\365\274\361\352V=\307\237\371\275\226\365\t\275tWw=`\365\272\275O\006\204=\354\026\224\274\340\274x=\213\205\336=:\177\021=\237\245\021=\020\373\322<p\236\216=\224\230\375<\na\263\275\006\273\342;\014d\312\275\346:\177=\270\025\243<\223\3462=$~\t<l\016\017=\232v\312\275\365\341\030=\200\220\234\275z}\233=\225\271\016\276\273\211]=M!\034=\031\323\214<M\211\'\275\n\214\021\273\021\202\251\274\240\204\234=\210\030R\274\221\005\326\275$u\000\275O\324_=+B\001\274z7\233<\322)\010\276\321\202@=\010\372\265\275\244\231\016\276eW\222:\251\340\232\275\203)\205<f\337\276=Y=\037\275\341\304M\275\036ak=\002B\037>\312c\301\275.N\265\275\n\211\t<\343\273\337\274\356x\217\275G \254\273f\205\206=\360\325\230=\377m\213\275\265)\220\274\350\330\257<%\331\275\275vY9\275\261\370\251\273\371\364\233\275\020\211\241<]\205\266=\325\004~=\324\243c\275ju\332\273\262?\242<l\335\230<\032\367d\275\265\274L=\365l2\276\322\361n=\232`\365<\027U\210=\255\300\033\276\335,\251\274|\244\353<\000\232\361=\2656\001\275\266\305\324\2744\2610=\254\236\240=\355O\032\274\246g\225\274\374\013\204\275\221\361\017\275\330/\233\275js\341\273.\264\003\275\326L\210\275~_\262\275\366\267\347\275\3158\271\275\230\320\257=\262\243\357<\347\354\001\275l\315-=\370\275\206=);\212=U\313r=*;\367<\271\002 =*\005\016\275U\202\206=\n\254?=\236F\257\273T\347\252\275\255m\214\275T\370\242=\227\001\227\273\t\tp\275\013\026\253=\'CU=\037!\270=9\212\353;`\330\270=\013\310\276=\210\326\r<J}C;\007\r\021\275\321\253\353=3b\002\275gvf=\204\002s=%\337\222=\354%\024\275\374\237*=)\326D=\337\033W;\224\212\026\274\311\016i\275n\037==\266\030C\275\363h9\2730\215R\274\340\323\250<\244(\243<\363a>=\231\351\007<\243\006\344<B\317\034\275\322k\235=\364\014J=\272\225F\275\224\317G\275MO5\276\326U`=\370\305\214\275\225\204\220\275\251\253\234\274\304\3679=\257*Q=\004\274\271<\343\245g<p\3555\275\354\320\322<4vz\2757)\364<S\333\357<of:<\301^\310<V\366\022\274\207\342\177\275m\377P\275C\322\322\273\340\273\223\275\356\273e=\3753\242\274=%x\275$\252W\273oF\203<RZ\036={|f\275@\260\007:\373q\256=\265@`\273\362J\246=\247\315\221\274\301\353*\275\336\033\207\275\003F\n=\006+\246\275\274\025\374\273\036<3\274SCc=\351Bj\275#\235P;\346\361\027;_\340\211\275\311 \345\274\344\352\030=\361\0349=\344%\211\272\r/\346\275\267m\214=y\235\371=\345\235\311\274\\\354\320\274j\005\271=q\256\220\275B:\277\275c\263\252\273\303\271\255\274e\370\374\273\\\3224=\031.B\2744\0347\275V\346\211\275\343H\356=,\n\"=\2237\000\275\220\226R\274I\032\004=\241\207\347\274\331\261\260\274!\360\205=#\250\372\275\246K\332\274\214\343\223\275\373\334\000\275\236\255\201>\312\252q\275\372\034\300\271\212\243\222=$\002\376\273\252\273\001\275U\352T=\'\227\336\274\350\353\220\275\366m\006=M\205\221;\346!\237=\370\322\020\275\257\214\003>\026h\365=\033\253\267\274\335a\343\275\256\310\260\275\316\203\014\275\273%\343<\300\213\260=\261\317_\273\222\377\206=@\204\244\275\264\000\212<\002\001\006\275h\276\301;w\250Q\274a\363\025\275\323iq=\356\"\000\276M\260\016=\375\311\207\275\006\227J;\325\352\237=\233<\233\275h\242^\274\233\236\200=\357\005[=u5:= \251\005>K\265\023\274T2\241\274f9\001\2764|\235\274\204\362-=\245\002I\275\007\037\036=oB%;\213M=<%\267\203=I\350\213\275\365\202\307\275\032k\010<\2450]=O[\266\274\345\254\275<#A=<`\007d<Q\013\306<p\232\362<\273\233\321<\032W\330\272\225\330\330\275x\252\357\275\302n\356<d=\006\276BG\202\275Fs=\274\251G\253<\246M\316<\242\235==\271\223\271\274\257)\342\274\274@\211<\245]@\276*\n\266=\217%\375=\225\036k>rr\207\274\371\242\311=\322\025D=^\375D\2740|\204\275+\350\204\275i\020\243\275\305:\367<|\342\n<c\343\026<\375s\266;\325\010w=\360t:\276\252\257\035\275hY\263\275\327\254d<\247\372\010>\005\345\202<\321\347\\<d\241\220\274%\352\373\274\327\254\304\275\202\324\032\275\333k\350<x\325\221<@M\002>\030\261\262\275l\006\360=y\227\253\275Np7\275e\200\360\275\313\3641=\362\006\372;\215\232\"\274\264\230\267<\310\363#\2746\254#\275\241\320\204\274b\3101\274)\265\335<\305J\204=S\310Y\275z\324w\275\363\304\317\274\377\364\255<\215\276\003\274P^\222=DL\020\276\214!\354=\037\207\022\275\271\265\237=V\211\234=\245\220\t\275\362\0131=\361\214}\272bP\331\274\231\rP<\347\276\016=ZE\333\274\257\254e\275\261n%=\270\\S\272\3012\226<Co\322<\302\367\215=\375\035\333<\335\3170\275\322\361\001=]\312\222\275\202!\313\274\230B\200\275.TL=\202p\000\275]\025\207\275\006`\344=\003\223\362\275\027j-\273\200\356\305\275,p\377\274\323\247\003>\013\347r\275\037+N\275\t\246p=\006\312I\275\205\020\r=\3515\025=\225*j\273\362C\354\274\253~\210\273\240\233H\275\263\313\'\275\356\312f:}z\014=\323Rk\275z\226z\275BN7=6[\347\275\231I\005\275$\010\300=\312\3521=\035\013\317\274\223\330\035;\332\233L<\010\351t=\3135F\274\377q\253=\257\262\023\275`\276\212\274\340\242\343<\252\351\310\275\241\263;\275O\351\310\274\323v,\274\370\331\220=\000wP=d<\303\273]\206(\275~\314U\274v\202\254\274,\324\373\274\312\315\263=\315;\t=q\333\316<\314]D=\211\007\027>\277\317H=I\256m\274\20110=U\316\374<\367\254h=\204\2349\275\334J\245;\2039W\275/\300I=\333A><q\372\026\275\301\">\275\316\037]<\t\340\037\275\0203\035\276\322)\312=\206\2151=\007\312\205\275\001\337\225;)%g=\304{\212\275GJ\262=\363\224\264=\373\240.\274\261,K=E_\010=\301\"\250\275.\320\242=-\245I\275\n\303\343<\204+U\275\016v\002\274\026-\356=[\235_\275\355\235\262\274\002\\\376\274\007\354\234=\204v\245\275\021X\242=\267@6<;;<=\226\017\306;\270\377\237\275\356GY;\254\032_\273\361eR=\376-9=\037[\276\275\341nr\275\302-^=evR\275DI\253<j\200\030=\341I\240<\374\036\216=\361\016\244\275\311l!\275\203K\023\276=yb\275\301}e=_\322\355\274_\277F<\0322K<-\305\253\274^\305\252<\322\271j\275\025\223b<\006+\270\275\007 \004\274\232\025&=_j\377=\234B\321<\353\3752\274\270\234\004\275f:\230\274\227\2738\275\303\326\346\275\254\246>\275\365#\036=q\377\314=I9\221\275\214\255G=\356m#>5\333/=\275\034\275\274\305\325)=\213k.=\244\347\376=\337\312\266=\334\215\216;xx\271<\'z\247=3\213\241=/\251\254<\372\n\350\272\326a\022\276^i\'\275\261\370t\274\322^f\274y\224\212;&\034\325<\312\rm=f_\200<\324\231\017<\273\023\314\274\352\003\310=!\221\307;\216\257\017\275\371\250n\275[\337\016\275M\022\235=~\002\004=\304(\275;\267\215\204\275\325\002J<\375\213\200<\032F\350\274j\023<\275\"}\233<\213[\256\275V`e=\t\260}\272\231\363s=\3635\316<\232@\031=\276\330\217\275\036YE\275\274@\266\275}\250\027=\"\227\206=\241\326\257=l6\250<\376q~=\325\341\000\275\2149\260=p\353\023>\2371<\273;\317\245=\036\230y<3\211g\275<?\215\275`\027}=H~\201\275\262g\261<\t\206\307\272\345\3419>\373\236\222=I\355\332=&(T\275\230\320\005=\305\275\320=\203\306\210=%<$\276\354il=\017\351\215\275n\360a=\327&\010\276V>\231=\215\377\025\275\337\377t=\020\240c\273o\005\227<\r\306e=\240\2205\274\363\207g=h|B\274\266\314X\275\263\341\255\275\343\225$=e\233\233=\305C\226\275%\262\350\273\340/\246\275\nv\377\274\316\007]\274_L\275\274\035\330\255=\224Z\236\274E\r\235\273\357\027\265=\032\330\250\275!z\'\274\210V~\275\225\013\254=\216\376\034\275Z\314\336\274\273H\223\275\037&\200=\033\335`=\005@;\275\"\206\230\274\270\256\311\274K7\372\274\305\215\376\274\014\036\201\275%v\031\275\226\024\010=\220^8=\222E\032\275\335\240\367\275G\333\020;\241V\326\274\037\004\337\274\327\227\037>\347?_\274D\267\305;\\\223\357=\355\034\307=\210X\013\275=H\315\274\354\376*\275\263\307\361<\231\032\211\275[\220;\275\326\025n\275\n\351L\276@ac<\251;A;\220\254:\275s\243\207\275\220\333\335\275\303\377k=\373\005F\275\302\243v\273\3438\274\275\010\035\256\273b`\205<T\377\022=\0059/\275\303\231\365\274\367\313\374=\243&\206\275\337\366\373\274fv\317=l\376\250<\251\245N=.W\247\274\267\222o=\307n\r=\0059\255\275d3\266\274\236\345\236<\244\020N\275\022\276\373\271-Z\264\274\325\255v\275\355\212s=\364\031Z\275\303\273\321\275|\ru=\023v\n\275p\323/\275ft\207=\265]\311;\216<y\274\205(\317\273\177Q\220\274\342\255\203=1Oa\275\367\342K;\237I\234<\214`\352\275o\264\032\275\006\202[\275w\033\315\274\031\302\272\274\252Tk<V\025\236\275\365Y5>\243q\240<\020\035\217;\024\353\314\274\206\247\213<\374\363\252=\205pX=\344\351\270=eC\014>l\263)=7\273\312<FI\021\275G\341\253\274\261\321!=X\347\032=y6&\276F\002\220;E\233 <\240\346\014\275\251\347c\275\335\212I=D)t=\036\266\013=8\364\262=\210\027$<\254j\243=\023\343/=\024\346\226\272\262E\022=\0002l=T\274\355\273\t\252\356<5/q=\236\335\021\274\327\246v=\263\276\335<\341p\273<\305U\333=\363\203L<\254V\204=\317\366\021\2755\371,>\313\340\250\271\374\272j=R:\017=\321\"\346=2\317\000\276\037\367\307=\035\034X\275HpA\275\306UF=\"o\230=\262\024\026\275\213\233\256\274{\021\232=\207sc<\325\223\';\356\347(<\023\203z\274\326\372\327:\247U\266\273\221\200\026\276b@\300\274\352\210\243;0\272Q=\033\2674\275\314#\254=I\222i=f\374\020\2757L\230=TI\256;/\003\366<9\265\322<\335\202\013\276\334$\204\275;\304>\274\237\273\372\272\037\340\377<\223B\315=\351\035Z\275\337\267T=\210\262\201\275\010\333\356\275\007u\272=\334V\002\274\335 \357=\207!a\274\256)p=\023\320A<\242\371\342<\212tf=47\230=\362\334\207;K\210\n\2761\255o=\004J\226=\321/\017\2742\260\225=.\336K\275\277\237!\276\322z\224<&\000|\275V\364\010=$\300\266\275\010\354\026=\030\343\215\275-\362^\275\005\376\336\273g\372Q\275\337\334!=V\003\316<<5p\274\024\266\307\275\374\177\351\274M\313\242\273\200\240\226\274si\332=X\3400=+\023\214\273\361\036\335<m\334\031;\227\247U\275L\372\243\275Tg\201\275\3031\255<\306\n*\275\2030\251\275\2135B\274Qq\261\275\303\206%=|\010\215=$\032\013\275\022\370\375\274,\035Q\275\312\036\250;\262\013G\275\210{\215\275H&\026\275\371\266\330\273\t\303\324\273\013(\366\275B\335\361<\235\030\357\274iea\275\014\'\214\275&\270\203=\260s4\275\214~\201\2746\273{=\276~8>\366\266\364<#\364\333\275\035g\013<\023\010\205=\2545\026\275<\324\337\273\247\322_<YEu=\007B\201\274d\300\352\275\332\331\340<+J#=/\262q:\243\302\366\275\310\203\273\275\210\367T\274{\r\301;A\000\227\275\244\343p\275ZkE=\2646\202;\335\376\226=[\231`\274\220N\203\275\300\236\n\275%j\271<{@\260;\366n\217=\260Ae<\324\327\353<\370\365\013=\273p7\275\023c\337;\202>\315\274#\242\220:\267\211\230\275\330\013\241:\252\022\231\275q\272\035=\324^r\275\333\334\262:\017b+\274\312\225\024>JK\323=!\233|\275\352\356\022>\257g\264;B\225-<FQ\273<;\027\232\274\r9!=j!\206=\212\"_\2753W+<&\330\206=[\301K=\022\210:\2755$e\275\n\364\217\275\237\225\020\275f\306\301=\245\332\307<\206\260n\275\320\374i<k\246\r\275\261J8=C^\203\274\321D4\275y\240D\275\257_\312\275\213\017\202=\007\273\204=\250_V\275\007\017S\274*\215\371\274\330\225`\275\001\343\002=kv.=\323\367\270;)\310`\275\035@\201<\243$j=\256\2372=\366)\204=up\263\274\241\224\002\274\023\276$\276\204\341G<\226-\203=\361\337\r\2743x&=\203\215\353<5\233)\274\024\373\315\275\227|\276=B)%\275\323\302?\275>\304\225<p\nY\275\357\263\201=\334\224\272\275,+Y\274\227\365\341\275Ey0\275\t\232\233;1I\265=O\006E=j-\314<\2458o=\375I\364\274Fp\007=\014\245G=\246\301?\275\202\004\323\275u\302\212\274\236\254I\2755\352\331\274\336E\325=\301:\207=!\352\321\274\352\231j\275F}h<q9\336\274\362\273\264\274\325\230\304\275\255\322)<\367\331Z=\220#X\275\201\301\263\275$+\024=-Xx=\331\220\324=8\326\366=\023!\353<\326\330\225<\260\004]<\365\332%<K\007\250=>x\223\275\213\326\222=\002\342\000\276oa\010\276\006\2436\273\261\003Z\275\241\001\360<\303\227\372\275Ny\033\276j\200\250\273t&P\275\321\004\205\275O\0355=\177\304\026\275\n\177=\275\353\352s\275~\320X\275,[\236=z\307\253\274i\026\222=\254=\333\273E\201\024=\345\"\300\274\251\016\266<\211\025\326=\337\256V\275\346\205 <z\034I=\025\327\004=\356\211\345\273\222\234\261\274\315\312\243<\232\343\274=\233W\312\275C\312\017\276\250\204\220=\005\210`\275S\216\312<A\262O\274M\3622<\327\026!\275a\177j=x\300\306=\233Sw=An\t\276\032\006\001\276<+\006\276}sg\274T\315Q=\225I\303=i\026\'\275\322\237\335\273\0177\320\275A\355\223<\347k|\274,\264\340;\202\251\312;q\374\324=\316\325\336\273\360\273\216=1Ga\275\020\036r\273q\rr=\331fY:o(\251=\345\007c\275sf\212\275\235\310\200\275\277\263\261\275\243\312\370\274\351\323\026=&J\217\274Q\034\275\273\303\333Y=\342b\226\274\312\337\002=?\325\207=:\036\256<\214\243H=\212f\221=D\035\021\275g\247\257\273\373\003{\275\204\326\235<\254\271\232=\350h\260=]\236\030=\210\272\177=\'E7=\254,\226=\326K\354\274\351\352\005\275\201_\277=\203\261\245=\031X\304\275!b\273<\301\353\251=\255w\371\2747\2519<\032\010P\275\334\006\'\274\354m\261<\267G9\274~n\033\275q!\276\275 \032\345\275W\370\363=\321\322\311\275\346L\022=\334{\312\273RX\367=\024\347\232\275i\007\234\2741G\257\275\001\211\310\275V\305\227=\212\2203=m2\265=\214\232\322=\336\200\337\275M\277\252\274R\355\204<\303\326\314=\254DG\2753w\016\275U\257\262\275\332)3\275\262\315\213=\\[\307=\333\203\245\272\220\2538\275\306\210(\275 \353\254\274\355\235\334\274\273\323i<\007{\"\273\325\345\213<\362I1\275\320\342\264\275\244\330\265=\337\304\204\275DA,\275C\211\315<W\352\346\275\014\225\000\275m=2<C \240=\271\023+=\366s\304\274\305\250\211=k\323\256=\3330\007\275\357\366\021\2752[\275\275\267\340\236\275\362\007\024\275\356\264\216\275J\310?=\377\377%\275L\216X<\323\243=\274\247\222\221=<x:\275\260`\301<\301\td<\311l\356\274\264\t\377\274\323\005M\275\274U\022\276\244\322`\274\034\271\243=\205CR<\0260i\275!\222Z\2753\211\350\273\253\350\200=\332/\256<\022\213e\274U\270\274<\3741\215\274\020\025\303<\336\3666=\314!\327\274\300W\370\274\326\005\t=SE\010\276\317m\232=\224\265\300\273Y;\370\275BX\323\274q\037\356\274\371dN=\314\247\345<3\326\247\275\243\323y=\260\030~\275\017}E=\336zL=\311\241j=\277\323\251=%\036P\275\315Fs\274\353\370:\275\206\355@\276\251M\254=\373F\362;t\027\001>\363\021\326\274cM\330\275\343q\362<eyG\273\034\'\371=\002(\307;\016\247f=p\266\037<\355b\304\274\340\210)\274\007A\004=U!\262=\036!\230= \362\225\273\253\2571\274\r`\214\272\037\341}=^\253j=\236A\336=z\244\362;Ds\002\274\331\035\206=I\274=\275D9K=(P\210\273.W-<VO\312\274\322\365\360<5&\274\273\r\367\361\275\nl\232=\363\343\303=\323\n\274\274\217\304\255\275\016\177\006\276$M\346;\313\352\227\275\316\030\375<\242\340\252;y.\310=\376\020\024=R\\\363=@\202\013\276f\225\016=\272~;\275]%\326\273\225C\271\274\366\366Z=\313l}\275\257\360\227\275dD(\275\005\213U=\006:\225\275dP\232=L\256\244=\026\227\217\274\023C\301\275\203\274B=\307\370\317\275\342P\376\275\216\304\021\275\031\033e\275 \265\224=\231\234~\275\341\204\':\035\264\343=$\177\300=\262\333u=\274J{:\334U\301\2750\026\367<\025\355\026=#P6\274\027\306n=/\362y<t\361,:@\035\310=\266b\210=\254\022\316\275\376\260\244\275\273Dw\275J\202F\275\tA`\274\326WT\274/V\000=/\234o=v*\325\274\337\331\332:Q\352)<x\377;\275L\274\232=G\356\236\275\'\025)\275\301H\256=:v\225=\211\360\204\275\243\334`\275\200\373\241\275\373\337$\2755Q\315\273\225\264\211=\240\361\026=\346t =\000\372\265<B`b\272\227\025\301\274D\031\372\273\242\312\234=\224:\243\275?V\350\274\355\000\361\274T\272\007\276k\236!\275x\235\206=\207]\276;\376!\232\275\351O\224=\236\326J\275@\215\214\275\014\217\352<\r`\271\274\251\327\335\274A\366H\275\346\331(=\227b!;\245}\207=sE\303\272\276?\210\275\213Ia\274\337\020N\274\223m2\275\\.\226<dj\205=\326\016h<\336\315\264=\212\350\215\275\324\007\366<E\037*>\304\332\031=\354|U<\017\013\016\274\314|\023>4\027\214\274\342\334\344<\242b\366\274u\311\326<d\241\207<\213\014\256\275\037\260\230\275\013R\252=B\325\360=\026\\]\275;\030Z;\\\017\317;X\222\005\275O\327\265\275\004x\227=c\0351=\336\021n\275.\035Y\275_\361n\275\n8[<\236\223&\275\314l1\274\375\371\316\275\363\000\245\275\236\363\022\275u\245\005=\027\376\246<]\376\217\274u2\034=\310\033z=e\001\024=\210\334\227\275\266*\031=(&\204\275\247?Z\275<\031/\275\233\351\344<\325\237\022\275DY\017=\242\376q<\316\245\305=\236\206\005<:\343\210\274\031\017\322=\204\355\216\275\312v\t<\356\024\224\274\t\201\266\275\344=\260<6\204\303\275\246\200@\275\352\242\264<\267\251\230;\210\217\210\274\002\036u=\276,\014\276\005\302\244\275\246=\213=}D\360<\332\333\376\274-\352\250:t\347\344\274\026\272L<\003\270\222=8\300\220=\251\n\200\273g^X=,\365\340<\032\345\010\276K$\227\274\305 2=1\374\263=\034\330\005\275\204\306T\275\'j\262<\241v\314\273\200\230\226\274H}\001\275\\\335\025\27427\206<\346\244\010\274\263\207)\275O\033\302\273Y\350}=\246A\206=\262\3117=\326=\031\2752\312\345<K:\305\275\233<y=\266\226\267=.\252\363\273)\344\035=\330\242\203\274\306\212\332\275\325\316\310=\247\243\200\275Y\2746<\n\010\356<s\3435>5\006\332=fE\224\275\020\024\377=\032\016\234<\345\310\300\275\306\255/\275\203_\271\275W,\241=U\371\321\274\365\033 \275~;!\275%~8=\224\355\020>\305\005\022\276ACH=\263J\244\275\327\360\021;^\324#\274B\026\027=\257l\206=\205>\245;\214g<\275\005F\246\274\254(\323<\227\202\231<\273M\365\274\375\332-=\261. <R\310t\275\032*-\275\264\250\247=\243\201\022>\010\246{;W\217\311;,\n\206\273\300\177\226\274a\364\000\276\245\"z=\206\342\367;X\260\301<-DF=M{s<l\341\223\275\362g\205\275\360\314\264<\342e\221<\'I\004<g\026\222\275\205\236\214\275\224\355H=(\177*\275$\017p>w\302\374;\320y\032\276\266\235]=a\376q=\311\320\311=x\354\275=\235l\367;\362\210\354<\033E\213\274\243\271\240<\016\023\021=\231\'\227\273\003v\024\275z;_=\302\246\000=\366\366D=K\255\"\276a\330Z\274tr\226\275\377\004\002\275\324\365\260\275\030\233t\275k\216\345<\362\232\025=\367kP\275\255\362\200=9xF=\343\273\000\272lH\305\275\235\234\354\274\324\353\211=z\010\357=nj\220\275_\265\350<\312\351\232=\020\312\237\274\274|2<X\345\004=\275{C<\354\242\204<}\360\324=\256\365\241\275MX\237=\303@\213=t\215+<\2219\021\275A\036\215=\314\3045=\006\017#\275\241\036\022\275\343;\242=\226I\235=\rF\211\275\\\242\331\2739\356\353=fs]=\3531[=;\262\334\275\237O\020\275\355\364F\274\227\241;=\020\014\222=\202\377\272<\014\235\306\275\224\247\3439\324}\016\275\327\326\014=4&\010=J\310\304:k\247\301<\300N{=\276\021\336\275we\203\273\225\340\006\275\215\344x=\306NG\275\316\345I=\220\016\270\275\255+-\275T!m\274\220\363\320\275`T\216\275{\277G\273\027%\250\275s\261\215\2755\211d\275\303\204\375\274\324\247\217\275qE\007\275\310j\002\274\332\014\203\275\2079Q=\353kx\273\364\273\266\273\024\347\324<qn\352:\003\240\376\275\356%l\273\031\213\254;\334\314\235\274\2127L\275\226IO<\"\247\016\275\206\312\233\274(\271,\275\241\310\315\275\315\'\032=\225(o=0\360A\274H\177\273\275\373\243\315\271\310\200\205\275?M\017=\351\325\211=\237\215\267<\0078\353=\226\\U=\271\231n=\346\211\350<\022\376\207=\256+U\275\005\277\324\274\336^\233;\320J\246\274\270b\224\275m\2424=\336\224\255\275\300\311\226\275A\t\030\276\010e\373\274\345\306\010<\351\253#\275\347\365\277;N\260\217\272\261\314\203\275;\010\255\275\\\360J=u.]\275x)\327\275\203\206\335\273Dy\026\275\030\273\232\275\202\034\315\274\3553&\275w4c\275\003\317H=\264\320#=\372f\206\275I$f=4\300\264=5\032\367;\276\333\002=K\334_\274\330@$>\313\370S\275\235/\377<\260\242h\275\253\345\305=\352!@\272!W\361\274?\307\323<\233q\303\274\255\331\216=>\025L=\312|\221\274w\313\262=16\221\275\3532W<\324\360\337\2749\326\314\275l\242\323=J\336\000\276}{\266=\377\020\237=\177\217\205=\352t\344\274\331*/=lo6\274\261\223\341\274\203\262\337\274\007u\023=$\270\350\274\350$\326\274f\246\345\275Td\241=\251\233i\275 f\317=\377\201=\275\211\356\037\275\240F\232<\273\016\022=R\374\221=YV\356=\212\230\233=\335:m=\325\247\013;\226x\216=\256\007\306\274\220FV=\207!\"=x\353\005=\014\231\210=--\017>\360y\273\275\242\347S\274%\340\276\275\201\'\242<\377y\003\275\272Q`=a\342n\275h\256\324\275\370\017\037=\220\010\037>\317\201\325\275\024\327\304<S\275\247\274\300(I\275\337%\253=!l\216\273\203(A=\246)\310=7\267\244\275%\016\363=\245\333\236=%\177\361<{\352\212\274=k\303\273\rg\246\275.\343\307<s\270\\=\205\2500\273\010B\234\275\373\373\336;]rP=h\347\034\275\036\344\310\273V\220Q\273\317\3204=\254bK\274qoN=\261\031I\275\300m\320=5\216\272\275\377\3502>\300\212\000\275\034\310A\275c4\216<\360\025<\275X&m=\313\313g=\254\377\226=\235\360S\273\264\177\377\275\365\007\306\275\013\177\246;Hy\t\275s\013\344\275\335M\336\275;\303\232=\271\201\t\275\245Yp=\363\376\236<:\226\356\273\231\023\244\274\242)R\274rd\257\274\377v(=\207\013\036>\025\014\360\274\214G?=oZ\275<&\223\\\275a\213\265\275_\327S\275\3636\316\275\275}\332<\235T\371\273\320&\250<\r\024\253\275\"\230\032\274\000\255\177\275\240\263\214=\237\013\'=\367\\\256=\032]\'\275\316\3169=\206\247\263\274t\366\303\275\375\221\265\274\342\000\004\275\200\230\242<>\223\375\272\270\276\357\275\263H\003\276\366d4<\203\026b<\023\036v=y_\311\274\336<:=\347\034x\275\257Q\003=\351O\341<\367<\336=\301KU\275\214\243b\275\n\027\304<\360\311!=te\006\275\375\213\353=\006d\301\275\315\"a=Tr\254\274\272\000>=\306\034@=fF\001\275\002\271s=\002\010\211\274=g\030=\250\256\226<8Tt=\"\242\263=g)\210<\010X\246=\324\250o=\220\036\211=\204\030\226\274\340\365\010\275\356<==\223\025\037=\226e\261\275$\204\343=t\201\315==\205X\275K\373i=\350w\007\275\366\324\227=TV\205\275\226\253\024\274\021\021\337\275R\254\377\275\335\265;\274\351\202.=\327Y\240\275\204.\036<\346\231\203=\304\226\276=\200\017\363\274\202\216\255=\033\336\277\275\353\017e\275\031N;\275\327\274\037<\265\330\177<3\372\006=\344\007\215\273\231\366\212\275cs\005\274X\003\202\274\207\021\301<\203\274\006>\261\327\223=GX\220\274G\355>=\256\014\241\275\345\274A\275B%\340=@\n\272\275l\313\025=a\033\002\275g\252f>M\340\334<s\344w=Y%_=9\022\032\275\274\327t=\231+\014<\271\'\203\275\025+\311=J^\330<!o\241\275eeM=\264\274+=\031\213\343\274@\241\321=\336\370!\275\232\r\252\275\316\257G\274k\373\310\274&\240\217=\r\327i=\321\211\305\274)\232d\274^R\246\275\257\377(\275\020\207p\275\222j5\275zI\206=L\316\r\274Z\270\374<\252@R\275B\031\244=%\365c\275\217\306\264\275\001\222&\275\034h\346<\322tt\275\220\215T\275\371\020N>}\301\023\275\3417|=\222\236\322<\216@\277\275\215O\301\274\361)_\272\344\"\003\276\026\377\370\274[\354\211=\222\004e<`\251\273<\275\354\020={O\r;\003s\375\274_\315k\275\202\005P=X\204\261\275j\354\251\274\0023\333\275ho\262<\313IF\275\345\205)=\031\n\033\275\326\330s=\027\t\214\275-\267\211\275/\273\021<\025\354i;{\344C\275*\265\017\276B#\351=\034j\010>~\274\313=\362\020R=\021\260\227=\263\322?\274\232\200\036<F\267\313=A\300\375=|8%=\274\024S\274\233r\253=\017\352\257\274\230\363\266\275\212$\265\275\300\355\216=&\317\352<\376\373C=N\005\220<*d\244\275\177\202E<L\026\030=\336\242\243\274\352\356m=\301\363\004<\252b\334=\242*m\275\252\003_=\202\3607:\177\037Y=@\034\366\273\246.\342\274JrP\275`:\353<\331Z\227<\031\275r\274L)\027=\006q\314\275\014x%\275\022}g=\025\262\037=\204O\241\275\236\270== ~\237\275\357\356\232;\010$\227\275@7\025=nu)<\322\030\265\274\3730&=\271\223\023>\247\332f=-Hf\2753%c\275\245\3606=\324~\031\274\223\263\021\274R\370\257\274\2460\213\275\014L\371<4\2065\275?\366\023\275\233D\345\274o\024\231\275?\243(=]\037\222\275@\342%\275u\004v=L\203\206\274\362w;=\026#A\275\212\020u;\372\'\277\275\033k\313\2743B\262=P\326\311\274\226\364\314\273ASa<\242px\275\2704\270\274W\221\312\275o\031N=h\257\216=\206S\223=N\377\263\274\006\'\256=\210\306\271=\371 \201\275\251\343b=\262i\026=\352\332Q<\027+K=\300\376\227=wk\313\275\331Z\270\274\301b\275\274\316\013^\275\037L\324\275*\347x=\236\272\350<J]\311\275\203\2721\274u\336q\272\321!\331=\014e\200=\337n\210\274w\017P\276\350\243\376\272@\335e:!\275\373\273\324~\230\274\343\376\335=o)\014\275(W\306\275\245\300K=\231Qw\274\273fT\275\017\326\r\274*\346\277<\037#\233\2752\n\306=\317\2127\274C\241N=\231\333C=+\"\315;\223b\n=\225z\002<\235\236\212\275\347\246\213\275\214\215F=\022\005\344\272\036\260\262\275{5,=\346#\223<O\223\213;\330\322B=;\010|\275|\227\304\275\317WL\2748\023*\275\201\361\226\274z<\334\275\277\030\263\275q`\263\273\232\025\254<\210J\303=\025Y\004\275\032t\201\275\312K\307=G\0366=\304\312+\274if\252=\232\026G<\270\214\274=\233\300\205\274\n\r\323\275\364\\\257<\243{\334<s\266\242=R\211\'>\273$A\275d\250\220=\235\3433;\333\252(\275\2363<\275\242\016\241<?\217\272<;?\216=M\331E\275\272\026b\275*\317\006=\316v\336<\302\325\340\273n\342\\\273\3273\250\273\227\3638;BW\303<yK\200=\030\356\325\275\361\3250=(\251\030=\353\277\344</\234\243=\315\315\026\275\302\354\314<\375$n\275\310XI\275\264\272\013\275#\336M\275j\3350<\036\027>\273Qi\r=Y\033\315;\323\257\221\274\352\353H\276\310v\252<8\200\224\275\320{%=\375\227f\275\356cJ\275NR\241;\2119\352=/B\340\274\212\300\002\275\'Ft=4\203\013=\021\242\255\273@\306\315=#\217\205=\'j\006\275g\002w\274\236\"\364<\303C\301\275l\231\356;\323f\260\275\374\325\277\274\001\"}<r\264n\2756\010:\275\353h\005\274\013\250;\271s\342\202=A1\256=\272\321\260\275\270$\366\275\330l\214\275\336(\006\276\257Yj\275\317(.\274\214\247\237= \361\023<\327{\r;\033\325\010>\204\326\007<Uf7\274Ke\303<\336K\034>Mw^\274\031\2156\275\224B\223<Q\013Z\275\256\301}=R[\014=\273\027\275\275\265\022\030\275\237\360\364=\230o\215=O\002\226\275g\247\271<\221\021)<\205oH;\204\327\226=\203\320\002\274\240\'\216=\312|\337\275\265\362\036\275uk\272\274#\035\211=\265\352]\275i\240\266=\356o\343<\\-\234\275\375{\223=\013\223\357<\343\254d=\304H\0229\215nl\275\017\365@\276\305\361\352;\216\321y=s\022T\274b\301\216<\322\022\241\275\r$\200\275g\260\247<r\343\224:\213\371\003>T#L\275\t\0025\275$~b;\020u\374\274\365\262\252\275\355\306\222<\331\306Z\274\375\372J\274\021\0213=&AY=\243\212\177;\217\010M\275+2{\275\r\367\034\276\333\342u\275]\3263\275Q\206F\275$~\306=\263\241\251=\256\001\256=\304\337\263<T\335\203\275\310\303\342\275\327\261\223\274\210\337y=w\360\005<])\260\274\352W\247\275\367Su\275\331\301\375\274~@\214=\235\325S=\261K\036=\260\246\022>\264\331\236\275\336\\\307=\237:\221=\035)\002<\376F:\273IA\204;\242\331\\\275\271\346r=\023(\032\275L\337O\275#\237\365<c\016\210\275T\342}<\006\215\242\275\311\315\002>\232x\325<\362:\001=\344\217>;\024G\361\274\237zN;d\256\271\274\260\241\231=@\337x<\215\362]\274\367\363:\275\2019\375<B\313\n\276&\352n\275\t\340\353<V\210\325<\\\302\337\274\335\373\216=\225m\220\275\352\010u=Q\343\245\275\000\310[=\204\346\231<\262\267\226<\037i\300=+\'\213\274\303\021\222=\354\233\202<l\254\375<\366~\230<\326\301,\275\200T\362\275\031\356$<b\034T=tC\207\275\n\310\307\275\n\302\243=\243_\370=&\247\261=\344\000@\275^3\034\275<\355f;5\311\316=\022J2=$\002\020\274\'\340i\275zE\243\275\360\260\355=\262\207\213=\243\226\336\273\356z\331\273H\317\310\274\350\254\355<\207\017t=\177\315\026\276\373\266q\274*]\t\276\307\363\'\275\220\030\265=\252\271\366=\n\227\335<\323g\276=\001o\207\2753\346h=stU\273\307\2508\275\2228\324\275\242KQ\275\005m\370;\206\"\240<\021)/=\177\025\215<:j\177<\260F\033=\324)\032=\356\373r\275\315\322f\274<\330\026\275\272t\000=\033h\242\274\341H\n\273\260\327\036=>x\020\274\355:\354<\013\250\240<,\017\311\274\372n\252=\217\351\351=\312\033\202<\213\037\332=\\\266\223\271y\226\201=\371T\231\275\220{\004;\354\226\343\274!\236u\275\352\230\006\275|\3042\274\006>\216\275\326\245\212=#0{=Kg\007=\265\263\306=\034\345\220\274\226e\261;\323\022==\306/1=\317=\342;\021\231I\275\376~+\275OP\220\275b\227\375\274\304\322\'=O4l=D\377-\275\232\3567\275\357p\001\274\302\014\210\275\314\177\317\272\206\205\305\275\005,Y\2746\221\026\276\302\252.\275Ukv\275\264\260\220=\210|@\275\236\006\032\276r\362T=\032\235\273\274\025B?\275[\317\207\275\337\306\216=\t\'\223<m\337\014=\230\356\233\274\345\n\"\275\217\260\306=\023]\r=\010\023\017\275\260,L=\014\201\233=\2551\033< \240\315<\002`7\275>\263\202=&6\366\274\270\202\237=\355JA<X\317\213=\230\244g\273\225\224L>\254\320\207\275\362\204S\275]\234\"<\201\334\027\275\036\223\250\275\277\316\227=\013\020\234\274/]\006=\346V\306=t7{<\220\257\n\275\353P\226=\246x\233\274\224\345\277\275L\307\306<\014p2\275{\336\227\275\312p[\275\031\213\261\275\371\370v\275\355-\033=\237\234\231=9\017\346\275v@\267=$\327\221\275\'\376\223<u\020a<\306\327\010\275\004\001\276\275\035G_=\373(\202:\024\325\233\275\314z\233\275\370q\301<>(\226\275\220\241z\275\024x\356;\213,\314=\"\010\216\275\037\301\243=\216\003\334\274sb\201\275\257\020K=\225$\013\275\242\003\252<\245=\254\273\266q|\273\307]U=g$\224\275,\217\220\275\211\357\r<\241|\356\273V\360\2469hu\260=\354\303\032=\337\333p=\350{\360=\232u\010\274\0225\267=\030\361\274\275\240\351\337\274\272\325%\274;\3016\275TT\306\275\002\216\233<\347[\242;\020\301\214=\204)\354=$+U\275\212\270=\276,%2=\343\271R=\201\210!\276\037\210\221\275E\r\033<\356\323\002\274\246C+=0\300\005\275\031 \327<\003\017\000\276aU\r\275\'P\324=\r\257N\275\032\342\013\275\020\226z=sO\355;/\335B\2746\354\207=\n\330\266\275yK\352\275~s\324\2744\224\232=\rs\030=\362\237==R\014\205\275\216\311\307\274\322\006\323\273\225\021\006\275\031tA=W\211\025\276\317\003,\27509\256;\307\361V\274\024\224\206;\372\372\311<\300$\227\275\374\245j\275\276\300\201<\217)=\275\020\233l=\237\240T\274\320Db\275I\371\225\2757\216l\274%\240\261\273\005yN\274\303X\272\275\365\250\303\275\032\241\352<\364\261\257=x\006\207\275\037\354\005>y\'\334;\000\322\303<\004\301%=\3044\016\275\344L\323:ov\203;(\345\217=\363\276\271<M\276\007=\357\321\037<a\232\225\275p<\266=2P6\275h \204\275\212\251e<\243\035\234<;p\346=\300\374\025>\033@\t>\352\2324=\202C\236\274\222\205\247\274k\010\036=\311\001\313=B\033\016\273\351\212}=I2\337;\253\nZ\275\250\235;\275\037@/\275\310\371\260\275\241\321\013\273\245\222\211=z\334\231=sq\334\274\352`s=4\343\025\274\335\'x:\370d\300=o\304)=\264]\234\275\256LP\274,\323\020=\336m\343\275\336\331T\275*\257\200<\335\253\323\274\2066\\\273\202S;\275/\207,=R\325\232\274\t\212(\275n\205\342;\337P\n\275L\232d<j\277\205=\222\356\027=\261\354#<u_a=\354o`\275\324\371\276<n\221\261;\344\003\223<#\t\325\275a\364\245\274\312\004\332\274\035\334\231=\001\315%\274\332\016\223=y\014\253\275j\221\271<\277$\222\274\250\215\265\275\272\315=\274\220\230\267\275\246\2034<\243\267\035\275\347\340O\2751\240I\275\332n\212=t\256\322\274AO\201\275\257\251.=/\204?\274\213\377\247=\362[N=\206\275\261=+hM\274\237\304\241\274\361w\335<\366\270n=\372\332y\273\027\331o\275\323.\234<1&\234=v\007\035\273\301\353|\274\005\004b=n2\235=\264{L\275GX\253<\032D\343=\262q\r=Wr\246\275\246i!\275\261\005B=\215\312\310\275\325\023\035\275\255H\251<\341\301\245=\353\361\036\276\035\307\026>\037\036\315\272\341.x\275\026\362\022=\314\r\217\275\013\312\350\274\031\334\n\275\247p\032=\335\335+\276T=\325=\351&3=\0025\256\274\216VX\275Pv<\275\024\207^=\013\020\226<}\220I:(\331+=\346\372\">Ru\313=M\000\207;\325\333\027=(9\237=\'\337\013\275{7\310<;T\023=0\t\355<\357e\036;u\006\020\275\027\021\206=J\004\316<\236\342\'\275\366\016\310\274\322\3352\275) \263\275\0324\210\274\373\251\025\276\257\316M\275\264|\365<l\243\036;\000\211\010\276\177\371\266\275Q6s\274Z|\373<\013#\302=\337\002%\276\360\211 \275{C\034=\223d0<\n*\335\275&\233_<\276qb\274`oy<\177<\254=\267\257\363<E\0360=X\274\221\275l\243\032=\365\211\274\274\336\037\000\275\226*n\274F^\026=\250t\\=\315\365\217\275\236L\026=hi\216\275\251IT=\263\365\307\274\021\344^= I\337\274\217\335+=\356\007\274<\351\246$<e\'\371\271\201@W<\335\r\035=\003\201\301=\001K =\223we=\324-\306=\276t]\275\210rl=\300\320]<9\n\352\275\274\247\312\275\007\375%=-t\327<N\200\200=\204\234\232=\014yR=\307\033\267\274CN\240\274\204\316\016=\365\253\267=&\200\226\275\270@\002\276\267\216\324\274\364\027\006\275#\327\n\276\203\213\212\275P\231m\275X\222\356<\245\035\027\276\256B\273<\020\255<\274\245g\250=\354\322\250<:}\177\275\376\023\200\275z\345\027>og\203\275\306\230\253<\207\355\005:]3\230\274\323\220\255;V\332\340=\334\351\013\276s\205W<^>\340\274\256\217`==\207\"\275\316^\220=A\007\227<\201Y\037\275}k\020=g\237`\275\370\216q\274tne=t\214\246\275\r\305\344\273\343\266\301\2747\365\272=eR7\275\203\0145\275\216QX<\306\024\205\275\367\343&=q\231\001=7\326\220\275\302\177\210=~\200\">\272G\314<\316Rz\274\311](\275\252?O\275\304u\307\274Y\202\312\275\305>l\275v*\003\276\201\244\254=\016\226\036=T\244\301<\363\337\254=U\272O\276k\307C;\004i\207\274p\363\014\275\'\234\221\275\300z\204=\247t\033\275\017\014\201=:\037\022\275q\334G\275!\330\017\275\277\200z=\242Pi\275E\201\010=!\021\237\275[\234\215=\020\312,\275;;\327=\265tW\275)\302\210=\346\371\262\274L\007\207\275(\270\322=\204K\031\275\324P\205\275\230\005\374\273.\247\013\275\316\362\231<U11\275{\205\250<AR\t=\276\000P\275\n\"h=\362R\247=\030oM\275\222\366\017\276R\253\372\274 \211\265\275{\232\251\275\255\036\251\274o\251\227\275\235b\n\276\352\304S\274\253\300\014=\210\205\314=\361\320/\274\270\326\240;\320GH\274\036\276\233\274~\t\211<\222\246w=\310\0054\275\374\362N\275\032\014\263\275}\240i=2{t=\177\331\331<\371Q\211\275a\354\275<\373\221\242<\001\231\235\274@\210\230:|\242.<\314\302\027=\353\352\314\274P^O\275\317\364\216\274\004\000\233={+\212\275\240\332\264=\250\3629\275\227\250\026>k\263\020>\361\004\\\274$\270Q=\3748\231=\262\312k=a\000)<4\250\365=\232\303\000>\335\376\301=\'\216\204<\r\213\257\274\232Y\246\2741\360\001=\245\253\236=Q\201l=9>\223=Q{\374<\030\276\220=)\037\365\274\354\331\332\274?\236\301\274\307{\010=\352\321$=8\213Y>\375\241U\2757v\035=\313}\021=\342\313>\275\267S\247=\233|\000\275\331C\345\274\230\273\025=\207\222\337=iD~\275\341\2663\275f\200\022\274\2118z=\333\241k\275\033\035\227<\031?\t=f6f=\020\203\340=w\333\220\273\225\360\037>gn\232=We2\275\304Sn\275!\343R=\345\211z\273\001bo=\355F\372:\261\276Q=p\377\354\274\365\251\020\276l\202\372=M\032\331\274\242\006\256=\360\017\227=\367\314\332\274\\\234t\275\215\337\030\275\270\312\226\275\245\207\263=\211\211\213<`TS\275;\253m=\177\237\230=\227\242\241=A\001\300\274\'\207h=\264\324\321\274\246\342\347<7\037\261\273\354\375\236=\372.b\275\231*\032\273\363y\334=\374o\253=\037$G\275\237\3263<?\355\350\275\217\317\257\274\347$&\275%\320\310<\356\354i<\333-\347<E\237v;]#\240<\205>1<\241~t\275\251\322\001\2756\312\022\275\000\207{=\034\240\213\274\226\377\211;\325\000\262;u\035\360\275\222\336\n\276|\274\223=F\002-=\214\272Z\273\261\363\253=\210\236\025=\345\2137\2755@\221\275\353\'Y\275k\232S\274\265\371\206<\001V\374<T\344i\272\361y\277\274\026\273\036<\220>\357\274\264y+\273\311\352.=:c%\275\211\202\365\273)#\324\274\341\256\222\274\337t\031\27632\245\275\245:\221\273\224\213\014\275\014\236\357\274\223~\277\274\253[2;\237\214\366\275T\217d=Bz\270<\026\311\006\2749\333H\275\025\355\232\273F7\264\275\235\272\272<\341zC=\241\241 \276I]$<[Ql<\372M\202\274\307(\370<\302\337B=E\243\333<5\257\214=\331\273\342\275\013\256j\272\377\373\213;\264\030+\275F\223m<\201\004\333=\2332k\275\306\350\247<\307Z\365\274\212\tV\274E\024\244\275\177\373\320=\251\"\233\274\201\370\002>\272\020\370;H\216\3029\337\300x=\361p\321<\314\'\254:\021\237\001=l\2672=\276\372\326=\377\327\007\275 \264l\270_O\335=oF\264<\315\266#\275\256!\006>\332O\304<W\032\273;m\351s=\036\3638\275*\201Q\274_\004\272<\"Y\306\275\321ow=\210\301\316\275\370\010O=\312Y?\275\251\036\202\275\223\346\310<\366\371K=\202\\\201=\326\320\004>M\225X\275U\300\024\273L\021m\274\303\353\202<\315t\232\271V\020f\275 \372o=\036\315\316\275K|\306<#;G\275\356\202\265<F{T\275\343\310\221<\206Hq=o\035:=$t\324;\256\371,=\010\273\231<\320:\301\275\3357\247\274\207`\302\273\355\2762\273\020\016\303\275\246~}<d\301\212\274\311\r\027\275\212\324\312\274J\2305=\247!\241\275\013\200o<\200\311|\273\312\210\262:]F\020\275\237y\372\273S\0020\2750\330\255\274\033\211\003\276\353r\334=Q\001\255\275\277\373\235;\316\205\264<L\353\361=\231xl\275:xR=`\2530=M\177d\275\232\250\234\275o\375\n=p\3664\274\215\314\277\275\346\253[\274/Q\271=\324#\002=\276?B\276h\274\273=o\303\346\275\265\256@\275\365\2320=\000t\246=\221\215\254\275\263R\210=\272xm\274\224\301\013<\364\254f<\266\204\240=\257\246\006=t\242D\275\2615{=\263?\306\275\303Aj\275,1\217=F\2541=jk\003\276\005\312A<\327\025\250<\036\214\320\274\366-\312\267e\007\'=\316\021\352\273O\305\027=\022\n\201\275\243W\365=\310\344\037\275n\351\231\273\021\251\253:\336v\017\275\317\220\314\275\251}\005\274\014U.\274Q\024\355;x\212p=}\255\372\274\275\317\207\274G\020\225=?\002&=\352\007)<j\200\241\275\000\222\311\275u9Z\275>d\206\273I\021\271=\304\227\257\273\350\261\263=Z\311v\275dV\003=JJ\037\274\003\356\030\275*N\321\275\0362\357=sj\370=U\200\267\275vg\014\275;\366\204\275{\327\244;\200{k\275\246\264\217=\232\274\202\274\3732\034\275\313/\226<{\235\206=+\267\367\274\364\004\000\274)\345\025\275\356b\241;v\227\316\274\250)\357:q{\231\275=\313\240\274\212\006\246\275\021+\030;\325g3=\365\201\026\275\222\2548\275\300\3738=\375\316\004\276@\256\245\274~\273\202=\206O4=.M+=\234\344\200<\000\255*\274\277\250\274\275\370&\223=\354\034\353\275\312\013\201=\371\347\212=\364\010{\275s\333\274\274[\014r<\010\300\320\274\366\023\261\275Wp\006<\360\345b\275+\344\212\274rL\357\274L\370\340\271\"ZP\275\0179\254\274\010v\235=\033\2548\276\276l/>\267\256\302=\207f\213=O\214\202\275}p\020>uQ\210<\2238\276\275\277\271\210\275\322}\261\2743\242\230=\220\231\215=\230\363\027\274\005\333\340\273\270p\225=\017}:\275\244\250\266=#\307k;\376\340|\275\254\226\331\275\003\276[=\007\026\003<\261\205\213=4\023\031\275\034\250\313<\025?\326\275\231&\274\275O\274e\275\327\313j\275C\256F\275\335\322\001>>\036\374\273c\357S\274c\003\016<\266\231i=\006\307\261<\223\243\003\275\222n\322<\266\303\'=\201\231<\275;\351\330\274\025\377\n=\002\374\030=>:);\217\316S\275\266\212y=Pq\034>\216J\346;z\237\023=\222\266\337=*\270\006=\230\370*=l\203\335\275\020&\026\2746\030d\274V\371\003;g\367\254<\266\372\372\274O\321\251\2751E\232\275\216\013\227=\237\216\241\2748D\307\275\024\233c<\\\216\363<B\211\030\275\302-_=q\270\267\275\227\323A=%ty=h\244\207\274\200\306\373=\033L\324=\377\342\244\275\361\367X\273\233\004s\273Q=\336=\375\2367\275\305\242\213=\243h,=\000\230\307\275\2009.=\351B\314=\303X\243\275\374\371\243\275+k\344\274)>\334\274\242\350\014\275X<\230\274\255\263Q<\036\"\335=:\216\362\2738|\007\275\366\273\020<e;\202\2758\0060\274\342\253O\274\256\003\021\276Rd\337\274\027\273\240\274I\241\350\274\272\226<=\r\257\337;\024}\004\275tE\267\274\276\025\221<#h\306\274\271\315k=\227\251H\275v]\207<\022\014/\275\236\003\322\274\250\277\304\275\274\356\267\274\027\343\337<t \313\274=;\'>P\205\014<\013[\021>\320\230d=\340w^\275\347>\361\275%$\262\275a\'K\275\352\316\233\275\323eK=\300\317y=\306\357\027\274G\315\010>\363\277\250\275-\343\002>\215\366`\275<@0\274\247\341\231<\326\341\371<\300\305\372\275v\177\321<\3465\261\275\351T\211\274\234\372\201\2756!=\274q\240\215\275\200m\345=\002\366Y=_<\214;\311\027\312=D.\207<\205\'$\274\356\373\231=\222v\002\276Vz\001=*\003\020=\222\324\026=>\216\253:\302\037\003=\313x\017>t\t\362\275\224;\"\275s\265\256<\344.\026=\255\217\260\272\350\314\275\275\303\215\243=\025(\322\274\252\274\014=\347U\214;j2\274\275\307W\215<\352\324::E\033$\275;gd\275m4f\274X\276\032=\265\217\321\274l\262\322<\222F\271=\027\2170<&\367\033=.U\260\275\341\334\351<\370\035\207\275\265\026\004=Q[\220=\2239\347<f\017r=\376\325\255\275u\033\225\275E\306\327=#\211\337<~?+\274\350\320{=#zK=KH\263<\003\211\305;#l\n\275\207\303\261\275\267$D\274\321\037\341=\036\236\347\274\r\227&;\266\371\\\273\201\271\361<\203\233p=\377E\005<\201\035\031\275\237y\005\275\3253\310\274?=\027;\325\336S\274\034\222\336=\253\006\347\274\311\025\343=\355\\\010=\352\017g\275t\007@\274\002\036p\275\321\203z<\022\315\316\275A\317O\274qb4<\335\227\375\274\037z\231<zOP\275\243\301\317=\036\341\322=\252\363\205;\271\013\010>\034^\036\276\341\267\375\275t\320~\274\226`\346<\355x\"<\033X\342\274\3125\265\274\256tW=\335k5\275\242C\247\274,T$\275\253\276\347\275\215\254\313=\347\010\0309\302\"\314=\261\250\001\275B&m\275T>J=\374\007z\276$\374\354<\241|\257\275\t\002\376<\272\003\221=\256\245{\275\332L;<\236\343?<\313k\243=\007qJ\275\225h\204=R?\274\274\303\344\023<t\t3=i%\213<\202\236\236=F\003\240=R\256\230\275\t\2434;\210\025\247<i\247\237\275Z\t\201<{YC\275\026\243t\274\303\332\320=\236<\005\275C\217\245<\231\342\357<\274,\r\275r\0017=>\351\352=^S\331\274\237d,\275\255\333}=\247\333\\\274\325~\247=+5\355=\204\213\254\273\372<\250=)\256\253=\210\021U=\225\033\247\274g\221\361\275\345\235\004<~\363\262\275\276\230&=\027P,\275\270\256\020\274\202\\c=\355\027\\9tF\212<O\370e<\2108\320\273\016\024\223\274fn\203\275\203\321\205\275v()\274\003k\263<f\255h=\352\301\353\274\034\0025\273(K\340\275LG\037=\311h/=\273>!>1]\242\275\275\0337=\223\303_=\254\234g\275\242\003>=S -\275\266\020N=\273|\002<N\366&\275\335\371\263<\204r\024=\0002\273<i\370\000\275\305\007S=W\033\210\275\t\302G=c&\264=B\035\235<\034\300\023\275\000\337\222=\'\367\r=s\2521\275_\037\325\275;\214,=6\354\t\275f*\362<<>\206=\346\035\'\275\267\207\352<\351\222\332;ln\014\276\302\021\256\275\257~\023=\201N?=\327d\\=\327\251\232=\024\343I<\267\024L\275\267\221b\275o\216\n\274\027\221P\274F\366\270=\352\250\210\275\227\205<\275#y\253=\247M&\275\027\343V=\254\212\036\275\263\2577=\310\227\030=\361\240G<\367tq\274\003\207\032=\335\n\341=@n\013\274&\314\315=\204\237\357=9>*<\2524\267<\364\210\220=\037J\n>\231\267\207\274\354\271\035>\007\022\372<\306\004r=\207\021\202\274Y \034=\'\005;=\300\010\031=\264\351n9\247\321\273\275\370Y\022\276\214\013\355\274y(\317=l`y\275\251T;\275\353\211\204\275\224\210\354;\244\217\027\275\270@5\275\203\370\021\274\270*o=\304\016\227=\342\232\266\274Q4\033>gX\247=-\'\250\275\356$\341\275\225\001\272\2714\0327<\305S\342\275)`\344=\235\"E<\000\025\303<\277\261X\275^M\001\276\217\310\244\273sx\344<\266\207\217\274U`\003\274/}\375\274\351\313\230\275\267\352\222<]\302\206\275\356G)=p\305\034=4\306\221<\010y\334<\324\247T\275\302\310\013\275M\242\366\275\265\221\252=\326x\333\274`\357c=\277\370\023\275\006Zx\275\300\356\215\274\022q|=\216\317\303<\330\254\315<\373J7=b~<<\266\227\344\272\252\334w=\214CP\274\305\0137=gM\224=e\237\311\275\211\332w\275\324\314\314\275\332\327\261\274\342\214\303=\270\215o=\352c]=\031\301\260\273x\375\026\275}i\030\274k\377\212=\207OP\275\322\020\"\274\3322\177<6\227\267\275\020\007z<\247>`\275+\375\220=bO\013\275\311\217Q=\\\264\030\275~\352\236<\016J\366=d\323\206\274i\341p\275\255_\307<\307\226\204\274\250y\310\275E\177\343\275\3377\300<\203\245\200=\037\324l\275\026\236V\275\361_\254\275Zgh\274t_@=\211l\372\272#\203\262\274\265$\220\275#\377\375\274\261i\220\275u\237p\274\342\357\021=\016tP\274l2\006=e\304\354<\323\227\247\275\252\314+\274\241\323\210\274\014\256\250<\034\021x\275\302L\330=#^X=\030\367\354\275}\340J\275c\271\263\274\234\361r\275$y\226\275\270\014B=xt&=\025:9\275\350\273\005=\000h\302<@V}\275\261/\325\271\211]T\274TWA=\017$\240<\021\357\014\275\367\020\034=l\230\212;\000d\236\275e\020\"\275\26421<\024{w<\003\351\013\275=\344#\275\361\000\272=\340C\022\275P\034V=\023\247\313<L\251\035\275Zc\314=`@\263=\007a\235<\217\254\303:tG\331<0\323\322\274\374\215\270<\230\201\333\273\364J.=\357\366\034\273\204\220\370=\372\317\207\275\363\212\242;hN\2738\323C\274\275\246J)\276\300Do\275Bu\023=\360I\207\274.\022\207\275\020o\003\276\207\304\031>F1x\273d&\252\275\026n\200=8f/>\337\'\264;:\207+=\312\344\346:\313\220\356=^WX=\\\222\211\275\246\262?<)@\013=\035`\023\276\027\000Q\275\'s\241\275\335\323\270;\244\321\241:\202\306\254=\263\034\242=1\016\212\275\310\003\023\2750\004<\275\r\212O=\252O$\275`\217m\275%\032?=C\2272\274\331\'z\275\265g2=\021h\020\276\366\277|\275\362v\003\276zS\237\274\313\236\013=\243\245\371\274Sx\360\2759|\221\275.\327K=1\320a=$\307\203:\010\302s=[\302\362=e$\213\275\n\372T<\255--\275)\373\316<\212o\375<\242CO=\014\220\007=K2\007\274\371@\341<u\247\260\275\'\264\341\273\363%\001\275\242\224]=\364\325\314<\216m\356\274\003Y\253\274Z\371\005>y5\370\275\304\217\374\274\\\323\277=%\037\3749\374>d\275{\247(\274%`\210=vz\211=\253Mo<wHw=N@\2479\020!\202=F\362\270\274\371\356q\275Ge\204\274\346vp=\263\300C>\264\316\244\274\265*\020=z\251\360<c\265;\2759\014\365==uZ\273\341j\017<$e\352\274\017\274\033\275\363\215\030<\204\233\231\273\352\267\324<z\245\247=\204\217d\274\316\360-=\314\026b=\025\270\247\275S\301Q\274#\307\313=\231\244\014>\001|\246\275\000nP=\216L\247\275*|4\275\305_\374=\\A\240<\321g\373<5\274\013=\312\000\007\2766\036\270\275\033\317\211\275p\200_=f\207\225=U\310\236<K\r\204\274I.\362=l~\212\2757\216e=y%\030\274u\355\264\274<\213\256\273\324\367S<\276\367\204=\010\275\020>n\034?=\303\303\206\2755Bh<\275\354\212\275e\013\211\275\206\270\204\275\263\334\211\274\332{\354\273\337\241\r\274\362\367\216\275\225\361\236=+f\211\275\211\373\350=\334\006\016<\221\213\006=(\331\341<b\\\022\275rFG=\234\0163<\244\230n\275\255\334\200\275\212\342J\274\226\025\001\275\245W\204\275\021\034\322\274f\266\t<\007\370\255\274Y\227\332\275bc\231=\026\t\375=m\000\254;OC\270\274/\317\035=\335i\223\275\312$\205\274d%\230=\346V\342=\362\020S\275e\024\365<:D\264\274\273e\265=~\230\227\274\272\262\355=\025\271\030=\227\240\306:B\204\t\275\372a\005>P\021\206\272\017~\271=\007\027\211\275\200\034\222\275_\007\214\275\030\003\032=\273PX\274\272SY=y\366\316\274F\323\246\275\310\'F<k\\\207;\206\031\247\275\032U3>\202\3744<\2206\204;\036\014\023>\032\342q\275\342\211H=\263Pw<\321\266\3568\275\243\233=3\221\222=\030\221\201=\370d\260\275\274 }\274h:\203\275^\201\266=@\2570\274~\376\023=\256%\200\274\010y=\275\316\002\360\274\000\201A<\313.\312:m3\252=\177b\025=\336\362\270\275`\370\265\275\326\n\276\275$\356\033\275\321S\t>\267\317\220\275\026\264 \275k\004\275=\372\272\302=V\032\375\274\204P\207=d\265#\275\001\270\210\274\267\335\024=P\206J=\016\317\241\275\371\t\221=\343\362\331<\355\210\273\275\272dr\274\0046.\275r\303\216\274\312\357\326=\002\237\267<\255;\205\275\313j\207\274\264\375\264\274~\315\226=\2431\226\2755x\244\274\373l\"\276J\311\306\275\0273\237\275\030C\r\275R%\037<-g\336\275x:\217<\354%\270<\277\321$\274UG\036\275\272\274\246<l\"\353<\331\367\003\276\177\360\247\274\203z\200\274\274\214\227=\275\032\265\2755a\016\275\365\204\274\2758}\t=6\234`\275Y8u\274\0309]\275\n\372\'\274)\340}\274\202l@=\257\374W\275%\327\333\2752\r#\275\360\010t=\307_\226<e\353\026<\347s.\275_E\006<L\216\222<\343\024\217\274\224\203(=\316\342o=\315\330\341\274>\362j<\211Z\346\274\211!\347<\033N\303\275\312\276\256\275@P\233<\235C\010\276\247\364A<d\255\210\272\322\246\262;\004a\036=\220\320\340\274\253\211(={\253d;\302\250S\274\037[K\275-\340\t<TL\245\275-\240/\275\314{\225=\340\364\030=\351\373\276=\375\347\247<\337pU\2750\244\360=u\224\231\275\203<-;\271\377\215=Y\260y<\2750-\275\026\245}=\317\327\205<G\343\342\275\177\242\332<\374\254 =vGh\275k\207\016<\2423\027\276l6\205\274\017w\231<\271}\216\274\352\006[=4C\343<)<u\275*bv\275\212\212\326=el\302<\362\361[=.\313*=\326H\211\275\304\002\'=B\353\320=\354.\037=\24234\274\207\2720<\240\310\253\275\254L\227=\300a\316\275\266R\026=7\341\275<\220r\210\275s5\316\274\246\363\240:\272\201\372\273\302\364\304\275\271\2135>{\270\354\274\337H3\274\254\337R\275\262\217\t=\212\034\223=\236\032\026=\210\377\270\273\242\27656\272\356\213=\"\024\271<\225/\300\275\267\305\002=\277\261s=\317\305\002\276 \362j=\312ot\275\376\022\205=\'\350L\275y#\224<\360\335\230;H\r,=\363\204\315<\335\001S=\"#\023<\352<\257\274c\2640\275P?\326\275\273,\026=\327V\201=\255s\247\275\027\002\364=&7\217\275\001\224\023=\010\324\n=~\275\323<\304\3477=_\017\345\275s\024:\275\024\247\'\275z\255\304<aj5<\212\313\000=#\361/=\216RD\274k\023I\275\353M\'<\217\035\211=N\360R\275\213\021\225<\360n\326<v\273o=\014\020\017\275\0045\221=\367\370\353\274o\005>\275\346*\r=\017\016\216=9\226\023\276\345\030\353<J\220\247\275\307\020\327\274<z\265<(o\003=\237)\313<\"\236\006=\0102}=\221s\233\274Z\327Z=#f\376<3\235s\275\002g\001\276}\tZ\274\325y\246\275\336\035\210=\325\333T\275\351\023\230=\267]\377\273\2049^<\330\243\200=m\037\206\273U\034$=.*Y\275/g\377<\347`_\273\002\030N\275E\324S<\002\343>\275f\331<<G\244\252\275m\205]\275\036W\253=jtn\274\363\003\277\275\364\375M<\363\330\200\275\344\006:\275O\367\377=\374p\256\274\357\2564\275\315\226\002>\033\365\372=\374*-\275\007\253\251\275R}\225= \210-\275\217z:\274G\322Z=.G\002\276N[\226=\2738\224<\327\177q\275\003G\256<\201Xs<\276\246\004\276\014\231\371=m(\323\275\214\235\367\274M\300\214<eb\256\275ud\220=\230\376~\273s\020c=\2724\342\274\nd~\275,\306z\275\0210l\274\022h\201\275\264\2376\275\177E~\274p]\301\2756pm\275\013\306p=\364X\305\2735N\331<\324Ao=(\r\013\274\343\2271\275\276S\247\275i\2640=Kc\371\275\372\210\376\273!\347\177=\232\204\275\274\022\234\335\275\337\307\325\274\004\357O\275D\343\334=\023/\230\275R\373\364<X\220c\275\031\262k=\344V\005=\323H\024=\004\212\254=\354\363\200;Fj\323<\341\326\313\271\267\t!<\267\352\n>\3250\035\274\001\331\250\2753\304\240=1\022\260\275\336yT\275\237\265+\275\027>\000\276\345C6=\360\022\215=\207\326\037=+vB\273E\222\002<lL\225=\345\236\272\275\212\240]=\024t\325<\314\331\275<6\306o=\355\373\371\274\332\226\010\2768\260+=\276\314\000\276fe=\274\343\033\267\275\377\326L=2T\206=\247w\202=\300\020\265<\000\363(:C\t8\273\331\322%=\272\362F\274\225\335|<0_\267=#\276\376;:\177\003>\246/\030\274ai\340=\325\245\000=\331\372&>\177\377\004\275\313\007\206\275\355\244\035\274\330LW=\241\225\214\275\2727\2608\3020\205;\307\235\014=\365\300\322\275IA\003\273\303\315\026\275\204\306$=*v\001<\320\365\272==\223\262=\371\213l\275\364\244\222<K\220\243\274\202\372\216=\246)\307\275\223\\\315\274\355a=\275<\303f\273\025G\303=\314C\022\275{\377\211\275ep\375=\025\376\035\276\001\211/=GkV=\275\031\234=\246\205<=\022\252\010\275\374\344\202=yot\274\203}\222;\022*\316<\024\362|=3\037\014\275^W\200\275\274\364\275\274\244{*\275\201\245Y=\023\r\216<\026\210$\276-t\370\274\311\372\363\275\355r\223<\334P$\275\240\303\362\274\343\310R\275\272\n\007\275!\3019\275T\267\032<+\315==\357\327\373\274\274\020B\2744-E=\365\003^=V\224/\275\254\277\n<\2667\272<,\340\363\275\332\020\317<\315\334>\274\327\326d=^\251\251=eR\277\273GP\256\274YlB<M\204\030>\343\310F\275)\277\250<Lc\344\275\375\225\353\275{=\323<\rGB\274\'\255\311\273<\\\221\274i\317\215=}r)\275&s\272\275\356\344F=mm\005\275<\006D\273\342~\321;][\227=\032\222\264=P\223\303\275h\325\231\274\260\0062>\016\317\234=\254\030\305<\271\341\200<x\260\037\275W\207\202=\355\273$=x}v=l\337\200\274v\3421=?\\!\276\260>\321;\312\271\361\275\325\314\013>\317\215\333=&\373\203\275\225\020=<\361\013\245;\226RJ<<\360\222<\314E\010\275\214\255\372<9UZ=\3424*\274\013\031\262\275\002T/=\200r\306\274\020\312\023<NS\033=\313(\301\274\236\270\305\275\260\3331=7\250\004\274\333&\212\275\324\347\370\275\352\326\243=\310\243\344\275\355\036u\275\357\322\023\274\244\323\213\275,rW\275\310\224\254=A\341>\273D\365\264\273}\366x\275\276\014~\275-\025\201<\262+M\275M\000\223\274\272\024\'<\0347\337=\360\227\031\274\200D\303<(X\345=\220}\350\275f\224\250\275j\310\240\275.\274Q\275\'\323\213\275\273\371\232;\271I\n=LS\206\273\337\233(\275\311<\032\275N\323\227=\361\305k\275\367\332\230=~\264\340\275\273$/\275g\324m=B\332\205;m@\200\275\'\261\032\276CJY\274\246\300\270=&3\031=\272r5\276,\331\245\274\377h\227;X]w\275\212\256!=Hw\204\275\"\013\350\274\270\367\220<\253\311\275\275h\t\271\274\207\321\317;\020\005U\275\036L)\275\3575\213=s\320\224<\241\347\224\274j\213\222<\310i\2708\037\353\331\274\026\371\350\274\037\347\337\274\217\205\004\274\275\033+<\245\366A\275\356,R=\022\2205\275\330Z\231\275\365`d\275\031~\'\275h \305\275\026|0\275\242\361{\275\016p\031\275 \017\225\274\240Vh=(\227t\2752\241\213\275\266\311@\2750\247+\275\217\246\214=F\336\234:eP}=\361(\323\274\257vm\274\303\237\376\274,O\211=f\234\003>\362\010\203\274\207\227X=\034\226\225=+JM\276\rO:<h\014-\275\250\370\017\275%i\216=^f:\275\230\325\010>\002\337d\274(ZZ\2750\364O\275@A@=A\352\016\275NL:\275\264\316\021=\237-\325\275\310\360_=\275\205\021\276Gy*=E\346\277\275h\246\202\275lH\355\274\t6\033\274\262\033\311=\363b\211<L\324S=\314\177M\275\2134\232\275\260\302q\274\370\377\343<\366\002\220=\205\223\230=\332\377j\275\312\"\'\275\233\2271=\273\374\377\275=\362\342\275\323\256{\274\330 q\275\360(\023\275\301R.=\263\037n\271\360\014\204\274\317\202\205\275\354e9\275(\260y=xQ0=\337o\253=\301\273\025\275]:X=\021\256\360\274\301\351\022\274\341\025#=\201\254I\273nP\225\273\233\356Z<\333^\300<\n\311\t>\356Q\266\274\267\201P=\262\n\010\275&\007h\275\302\341\254<\262:\354=YG8\274\211.\027<QZ\320<>\301_;\300\351\333;\213G\274\27587\221\275\211\240x=\246\272b\274\374Q\344\275B#:=/\315\003<\321\204c\274\310\272\213\275f`[\274b\374*\275\003bv<\016J\263\275\212\253\345\272\224\020\255:\314\224y\275\266\211\016>v\346\273\274\343\360\250\271\260jK\274\241\250\344\274y\373E<\236T\000=\256\3559=\266N\021\275\330\320\264=\230C\363<\371\256\261\275\245\367\352\274X\3615\275Y\330E\275\254\353u;\262<\345\274\221\221\260\274\004\270K=-\005(\275\2024\225\275_\342j\275\2370\037\275\277\233\370\274\363L\225=\370\307[\275\035\271U=\236\346\300=\253\370\232\275\250qI=\334\250\220=\332\236H=\213>\223\275l\204}=\344\252\t\275\005\212\266<\234\356C\275T\001n\275\335$I\275\244kx\275\032\350\274=\031-\312\273\314<\032\274C\001\251\274~\014\350\274\201a\306<\374\361\021=i\2019\275q0\035=M\032<\273\267\235\006=\376[\032<\230\020\224<G6\027\274x.\302=\005\016\026>\037\027\333<>&\017=\303A >\264\276\337\275\346\025\352\274\236\222\256\274\016\014\323\275M\334\256\275\215\322\203\27425\242<\266\017\343\275 sQ\275\271/\275\272\343\352\233\275\266\013\223\274\262\361G\274+\205`<?e\230=\302\026\006\275S\246N\275\373\336\250\275\260\377<\275\231\370\302\274\027oi=\365\371C\275L\232\320<{\n\214=wH\374;\261\013\262\274\213\000\331\275_\337\001\275\023\373 =\032\0355\275\t\257\340<,\343\025=<\271\225\275\330\260\177\273\373\302%>\344ku\275\257Q\310\275\375\016\020=04\032\276\\\223\343<\276X\311=L\237\000\275\022\031\374=\306\313\260\275\023\246\212=\276;\244\274\013\3517=/\272\361=\361V\300\275\242n\227\275D\224\246\275\373\276\020\275\324%s\275ei\241<\306\001\323=\320\202\005\275\334\017\333\274\374\316\000=z\326Q\275n\210\016\275US@=\323\267\241\275\326\014F\274\370\277(\276\305\251u\273\001v>\275\272\243B=\200Z!\274|\242\262\275\013N\207=\361\302\365=\371\365;\275Hz\244\2759\232\362<o\342.=g\300\001\275\247\301!=X\366\323\275\302;\310\275e\021\315=\307\030\317<\005\323\321=\"}\231<5\250\010\275j\326\200<\345Cu\274YiB\274\261\255\323\274\376g\025\276\343\352\006;\347Q\300<\356}I<\374\025\235<\031sU=\307\227T\275\\\217\272\275\354\206\024=l\226\210=d\243\\;\035\277\245\273`\364\354\274\306\2534>v\265*\274\253\236\216<\023\345\315\272\035H\246<\211Q\'=\314\333<=\353C\010\275I\316A\275 =\211<h\020\213\275\343\277\301=\364\363\034\275\245\206\336<\203\2326=\327\304\224=k\342\204\275I\364%=\361\316\222\275\353\357L;\367\024,\276\217\246P\275\373\374\237=\327%\017=z4\212=\260:\252\274\360\376\270\273\372(\264;_\272\030=<\007\223=\340\\\223\275M\266\002>t\371k\275\302\033\212=\234\257\321<c\273\031<ve\227\275\215\271\002=I\010\374\275\245\236f<\005 !\276\203\335\264\274\363\232\263\274]j\254=\372`d\275q\034u\275\333\203h\275c\223>\274Kl\271\275\324\373\341=\342\025@\275j>|=\261P\274\275F\007\252<w\365\272\275l>\212\275\031\031#\274\350@\216\275N\270\252\274\247\365h\2741cU<7I\214\275\017\325\326<1\277^=\355|m\275\265T_\274>\021\252=\034\365\362;I\215&\275\375\\\372\274\340T\024>}\001\301<k\222:=c\202\272\274\037\204\307=\0333J\275Y\216{<\365\nf\275\205\213\300<!\210 \275Z\236)=\243\327N=O\323\006\275\037J8=u\325<=t\246\251\271\273h\t=U\010>\275\222\343\231\275\010h\227\275\036q\306\27340l\275\320\246\201\275-\244\025>\265\260\315;\3117\334\273X\222\037<s\314\027\275\025\373\254\275\271a\217=\333\221\r>\376\036u=\3770\017\275x\354\224=\336<w\274\205\275\340\275\205\371\214\275\341\\\334\275\221\224\204=\353[\255\275\273\205O=m\014\007\2753\235?=\245\rj<\234\226\005=\357\327\202\273\003\357\332=\237\367\226\274\007\027\005\274f\363\340<9\020\305<\274\026v\275\340]\217<X>\005\275\324]\243<^0B>\257\316\375<\007\000\031=\352A\274\275\355\341\250\273\266\022\025;\034\030\034\275\330\365\224<\340\347\254=\007-6\275\372\2446\275\346\177\276;\200\\\377\274\221-\241\274\025@\223\275w!\030\275\364\021\212\275[\372\277\275\271\216@=\226&6\2758\020\242=u_\214\275\314,\020\275\312]!=g/I\275\354\2017=\326\370}\274\023\031/\275\332\006\271\2756\026\333\275e\221E9\326\033\231=kP\200<\177\037\270\275\310]\241=\025f\314<4\220\024\276s\272\r=\342\246\222=\353eh\275\224\252\223\27485\213\275\310\367\214\275p\244\215\275i}$\273i\375,\274m\020c=z\003\236\275\350M\n\275\346>m=l\023\304\275R\032\030>\312\367\224\274\350F\356\273O\220\177<\315\325\224<\354\2632=\027\323\351\274N\336<=\212\316\275\274*\303\032=\237\311\274\273\026\007\356<\014\001\215=\304\207\242\275}\340\204\275\204!A=\247\037!=\321\321O\275\177\373\320\274T\372T\275\322;3\275U\302\005=\267E\216<\307\022\256\275\331\267\235<\206\264\245\275*\301\305=\246\210\003\275\233\353\371\275\302\335r\275\262\016\204<F\230\367\275\377\213\374;_\334y\275\212\244\323<1\205\275\274\032\037\376<\"J\036>\266\330\263\274S\300\365<\030\2026\276\213\236\275;\301\217\212=\247.a<\321$\230\274l\322e\275\tB\364<_\026\007==\305\357<\026\361\300=\021\010\262<\204!z\275\\\327\267=\372*d=\345$\205\275\237\242\226\275B\223\037=\"N\036\276\346\014\267;{(>=\250\237\343=\3604\322=}\312$\275#\005\031\271\357?x\274j\002\260\2759(\361=Z$\222<%\245\316<B\022\332\274\354\333Q\275k\267U<\315\255\331\274+3\354=\275RQ\275\377a\317\274\363\310+<\302[\342\273h\323\221\274\251\212\273\275\203d\373\274\374\235\230\273\3374<=\260\276w\274*\270%\275~\341\034\275\005\354y<eh\212=\215:\304\275}\202\311\274d\267\207<!t\206\275\242Uo\275\017\231\374=\343c\251\275\014|\037\275\020\025\204\275\177]\262\275\037\261\371<\035i\361\275l\021\t\2739\207\336\275\204\345\322\274]l\227\275\361\366\260\275K\374\035\276)\263!=\235\034w=\256\216\246\274#\256\357\274([\203\274\362v\321=*6?\274\364\313\003\275x\023\210\274r\3123\275\014\'\264\274\370E\035\274A\367\301<=\212\230=\202\177<\273\261\r\333\274\3057\263\274D\034\234\275\313/\014\275y|\301=?D^\274\004\364\317\274!\343\350=\225\255\253=\n\036\257\273P9\017\275E\206\036>\244P\275;\026\305\022:\334\177\177<\250\022\240<\324\266\222<\376\332s\274\256\014\271\275\234\316\200=\311\224\351\274\334F\r<L\230\301\275\276\005\030\275\265\2324\275\253P\375\273\275\347j\275\202\206.=\036\237-\275\3611\260<\322\301\251=*[=\275\253\335\216=\t\316\003>I\334w=\352fw</_\221\275TO\240<h3\240<Y4\343\274k^\010\272o\026\364;\206\370/=\372Z\205=\334\244\333\275ncX\275`*\355<\225\313+\275\031\205\310<\025\030l\275\r\205\035=\351\241;=Hu\253<+\251\035<\305\336*\275+\3023\274wXi=P5E\274\366\223\344=\250\rP=*/\316;\270y<>\272\273f:\346=\006\276\3024\022\275(\247!\275\265\231\014;\202d\356\272\027\211\264\274\030\330\355<\036\332V\275\013\323*\274L^\311;\240\257\340;\327Z_=~h\214\2755\377\243<m\226\306=\342\373%\275~\214\201\273V\004\303\274\007]\315\2741\353\305<%>)=\361\377\225\274\223xM=\360zy\275cK\354=\022\364\201<\211\230\037=\3708\233\275\033.}<\270u\273\275M\346\222\275QY\311=Rx\307=\241\007\304<\001\021I\274\273\361A\275\255\022\002\276l\335\331<\361-\001\274V\232\352\274\317\027`<\370\310\241\274\t\253U\274|Gn;y\335\022\274\262\362I<\320{\r\275\260\375\024\274f\2631<\275\303\024\275.\313I\275\314\262\255\273|\n\252<\002\376\372\272Ov\367\273&\252&=\2727K\273T\326\035=AbW\275\t<\263;%\350?<H%\216<}\267\307<\323\216.\275t\016 \275\226\235\265\275\344In=-\2608\275\212e\242=\271\200\252<^\200\355<\003\214\352\2756\025\315={\034\013<.\311\213=\203d\260\274=\210\265<\303\207\316\275\306\365\332;!\351\330\274\301>Y\275\320\035\035\275\312\237B\275\022\214\343\274\002\350\211=\3275\344=\272\014\275\272\034P$\275\300\227\373<knA<\203\n\032\274\246\202\275\274\345\035\n>\315\324\256\274\022\267\273</\250\203\275\031p\201\275\206\201\027\275jee=C\264\262=\005\250\001=\252\346\342\275\275\355\017\276\243\202\215;\251\306n=\037\341P;kS\341\2750\037\265\274\301\236\032\275w(\261\274y\326-\275\337\205\253=\3324\253<\353k\006<6\232\325\275\312\r\017=\315\316\372=0\376\220=\357\374\'\275\250\r\024\275QSd<[\014\234\275\241\336S=\277\\\241<\261\034\025\275\r\324\"\276h_\346<\273%r\274\036\233\n\276\3569;=})\320\274\036\225w=\033$\200=a\341\203<\304\266\270=\364D\351<\356\2621\273\314\316\033\276\262K\036\275C\233\327<\274G\255\274\354\302\300<]\3415=\324\266\037\275\337\2047=\017^\256=\274\263=\275\026)X;+\231\006\276In\211=\256\231f\275\217;\367\275ho\002>e\227\366\275|\257z=}\315\272=\204\036b=\030A\333\2745R\240=\345\327r=dZ\245<\n\274\247\275\351\247\237=e\014+\276n\244\335<F\361\022<\3708\206<\351\022;=\n\\\233\275\217!\275=O\213W=\241\201\247;\215A\212=\205\2402\275\312\330\r\272\304\357\240\2757\343e=\332;\031\275\323\214\231\275\357/\366<1\334>=epW=\023\325\205\275\342N\335<N\326\277\274\262R\356\275bM\220<yq\341\274\033k<<\325\253\230\275\300\224.\274|\021\014=.(\254=\376\320\037\272\264\346\225\275\214Z\342\275\305=\202=p\207K=2T\250\275#\017\032\276c\347f=K\006m=@\234\013\275T\252\211\275\306\216}\273]0J\275D\267P=\024\316\215=\362\014t\275\241\234^\275\353G\212\275i\002\016=W\377U\275\261\252\024\275o#\260\275\025\024\201=L\320\t=\004\370x\275\272r\r\275\240\352\'=\266\363\370<\270\331&\275\014w\211=\\\000\326<\330\242&\275\034m\310<$\351\213\275\005k\277\275\262\377Z<\000\204r=`\255\257=\247A\253\275\220K\214<J\206\221\2730\234\220;r\255\037\276u\322,\275\232\225T=T\233\220\272\251<\327<\222\323\307=\376\267M\276uB\240=\000\355\223\275b\247\221\275\271\211\230<\022\253\273<\242\3160<\352\033\'\276\361\357\016=[\330\002\276\223P\200=\372%\362<\377;\320\275\005\255m=\033\366\323=\252\361z<\006t\332\273\306p4=\302\177\213\275\0023\232\275\375\334\274<_\345\037\275\240\204\220\275\177*?\275J\036\004<\232\356f\275\242u\000\274\270\254\226=\344\367\206;N\3174\275\2472\030\276\260\311F\275Y3D\274Li\200\275|\206;\275\026c\325\275\260X\017\2759|\035>w\263\266<+a\212=(\202\317\275t\262E\275\307\302L=W^3\274\344J>=z\t;=e\224\224\2744\003v\275\031\216$\276\230\203\214=|\222\262\275\021\324\266<\215\177\320=^T\373\274\213Dg<R\351w\275\251\221\033=\330\352\003>\377\3439=yg_:\327\317\014:;\351\325<\305\257\227=\300[g\275\354\227S=\321\323\312\273$\352_=g\364!=zY\271\275\202\305\363\275|\250\222\275\244\242u\275\263\333\037=Y\363\266=(F\310\274=-\227\274\215\023\370\274uh\337\275w\343j=R\315\010\2754t\211\275\253\262\240;\332]1\275P\323\321<\204\2649=\007\206\250\275\375\002\264\274\374)/=\3520\335\275\234,\247=\'\327R\275\346\202\207\2723\346\207<\304\200\254<u\021\205\275\347E\320\274\242+c=\321\247\021;\254\317\257\274\361t}<iX\251\275\235\310 \2742\200\373\275\022\304\365<E\225\026\2755\274\325\273Q\254\276\274\320\n\245\275\260c\226\275I\017y=\304\250\327=_\257\177\275\201\221\227\275\303\353\311=\331\263w\275)\347c\275\241Rc=*\225\"\276\212c\332<\200\"{=\3514\032\275\002\031\032=\231\345\035\275\256\305\201<\317\202\217\275\005+\027=7@\267=\242\230\277<\340\376O\274\204\007\265\274\315b\234=\260\261R\2754\377\335\274&\363a\274?\007\007\275m\233\177=oF\333\275\346\276\t=\371?+\275g&9\275.\213\212< )\010>g\204\021\275\321\3641=\364l+\276H\274\014=J\256\202\275k\255\360\275d\020o\274\202\2236\275-\353:<\311p\247\275r\353\005\275\304!f\273V\240\000\275c5\232\273\016\254N\275\224\313h\274\256S^=\022M\277:\002R\222=\3137\013\273\241[\250=\021\365i\274@F\210\275n\332\'\275+\335.=\351\342\375\273$\2653=\367\035\271\275\333\033\006\276\003G\037\275u\032\210\274\245k\227<\3622\375\275\261\023\227;\020\\\214\275\3742\026=v\276%=\351\020A<hN\376<a:g=Y\350\374<\242\034\347\274\250\031E\273\'6K=\023\365\246<\233\361\231=({\253<\267ex\270\2718\345\275\rj\277<\241J\334\274}\262\013\275G\2728\275\225,\366\2751\016\"=\317\314$<\250\177\210=\002\013\313<\353\325\306\274\246\366\236<,W\032=4\203\241\275wH\270=\355\022\227\275rw\255\274j\327}<\301\255\335\274\221\017\027\276*\252\256\275\240\211`=dc\265\275\215\316\214<r\376S\275R\331\260=\332\035\265\274\024a\001>@\016_\274p\324\321\275\035Z\233=\000uS=\2666\026\274\237p\333\274\216\202\370\274\304\273\373=\234\241t;}.\020\276\223S\337<\363\003\210\275\214@)=\001\201M=\352\036\322\274\330U\200\2751\275a=vJ\216\275\242^\003\275E} \275\251\364\001\274\177\335\264=[\313\373\274B,M<\224H\216\275V\260\264\274\304\344o=\366\205\212\275QL\304=\363\027@=\2659b<*j\321\2734\332?\274\246]\310<\330\301?\275Q\035*\274\035#;=B\221e<\317\027\274=K\'\312\274\203\210J=\346x>\275\345\025\275;.+\352\274\217&\240\273)\220\203<&v\326=\026H\r\275\376[\017\275L\336\206\275_\363;\274`\024\223\274\270\026{=WY\331\274\\\256\344\274jd\256\275\315\241\250\275\213\221\310\273\254\240:=\371Z\211=x\'\345\274\000\357\332=5qC\275\037\216_=\022\345\234\272B@\271\2747A\233=\333\321\210=\0244\031=H\252\034=\031h$=\032\361\231\275\305\0036=\320\020\367\274\025\224W=\227\254x\275$\016\253<\254Ln\275n\317s<\372\022\214\275\230\254t<\372\001\223\275<\235\365\274UZ_\275L2\001=\2430W=,\374\216<\216\211\303<\203\2622\275\013PB=f\275\304\273\267\355\003<u\013\213;-\222\020<\362\323]=k\\\360\274\030\321-\275<\250\274=\357_\275\275\227&\247\274\007\345G<\364(\204\275\266\242\037=\303\337y=\201\006{=\246\326\331\274\245\023W\274\247\3078\275\245\224\242\274\216>A=\204\307\031=\377\343\302=N\265\032>\315R\234\275\346X\260\2741\307#\275\244\264A\275\350\004>=\274\023B\274\257\351\324<\303\267-;d6\243=\177\021\301<cR\203\275\2452l\275C\247\306=\310\374\200=|\216\246\275\217F\t<\271$\312=\222{\267\274\030\002\026\275x\205\034\275\233\346\275=\377\371\017=J\321\3439\373\304\033>\3269\207\275\336\336\260=\035\334\330=3\362\210\275\261,-\275K\004\352\274\276\376Z\275\342\345<=X[F=7\206:\275a\266<=\224\"\313=\240@i<\030\3408\273u\255\256\275\372`\003=\231\036\372\274\251\303\242=\366\367\252=L\353\005>\376\007\016=j\246\277\274\034\254\255=cmE\274\t\331r\274\372S\312\273\215\333\014\276\237\241B=u\370q\275t\245U\273\033R\330\275\"\205\360<F\367\207\275\254\247\363\274k0F\274 JL=\320\234\266\274%\014\234\275\214\013\354=F~\377:k\347t=\004\231`=\021\230\224=ngh=t\302\204<\222\275\325=\226$\214\274\\k$=\245f\224\275>\230\233=\021\032B=t\336\215\275\264\3158\275\355\231\017>\333\250\311=\026\245\276\275pq\267\274IR\322\275bh\335=\205\032\006\275\007.\r\2769\033#\276j\036\300\275\3454}\275\272\301\224=EY4\275;=B\275\177A\237\275\300:\221=\017\311\027\274\203\350F=\356\2723=\244\277\264=\036\037S\274\274\260\021\275G{\021<\253M\n\275a\240K\275\262\350\213=\267\036\336=\277\223R\274Y\236\n>\340\013\247\2755\312\022\274\231\256\226=\277J\242=PGm=&\272\004>I\346^;\014O\002< \177\320;EE\236\275\nn\252=\037\233\250\272\364%\274\274\024\261\222\274\216\234\\=z1\014=\301)y<b\377\023>Mg\241\274\020k\244\272C{#\276\240\014\367\274\242\345\246\274_>;\274\303\245\204=\201[\244\275p\217\034=\352\2549>\027\307\321\275\001Q\030=\305\210\021=\377-\221<\033\241\334\275\017\224Y\274z~\200\274\301\n\022\2755\213\350:\324I\377<\273\350\234=\370\337\300\275\311\376W=<\220^\275\3158\253\2730P\233\275\036\003\251;\361\262\243<(\001\366=\032\332\357<\362\355?=\027\372\320;Ce\320\274X_g\274\331\272\215\275\371\327\\=\177d\304\275&\370\341\274V\314\033<L\247f\274\242\215\327=KA\361<\256|\006=i\233\340=\246\276\354\274?\320i=\200\365+\275\215a\017<\266\250\355\274D\242T<\264\247\273<\352k\316;\337\272\305=\023\230+\275\225Q\'\275\231/3=#\343T=RD\271\274\230<\330=\225\323\t\275\324\202\232=&\227\224=y\230W\275S\002\022\2756\270V<\0335\n=\374\237\024=`l\246\274\030)1=\355t\364\274p)\306<\232g\372<\3212o\272kJ,\275\2122\221;Fv\277=\333=^\274\226\265\227\275$\026B=S~)\275d\246\313\274x7:=\201\341\230<\177\242P\275\360F\023\274\205\344H\274\'\033_=\246\374\020\275\224\244\006\276\316\307.\276\363q1=\027\371\375\2746\301\264<@\226T=\3450\3118{6]<a\361\212\275k\032\007>\203-\033=\336b\267\275\345e^\274\177\220S<u\0010=\342[e\274Nv\377\2751t\002\276\014l\231<6P4=\345\033\207\275[\3159\275\033\205\320\275\344L5\275\010\370\244=\3728\003=\266u\277\275\373w\225\275\263\344\225<\362\226-\2751\365\243\275%\312\227;G6;\276~\215\027\274\357\033\037\275+\225\301;\242\2409\275y\216\230\275I\324=\272\357w\243=\357\334\370\273\277^\007=\"-\245\273\036\312%>\024Q\212=(\253\\\271~\322\250\274ey\030=\271}$=\350\372\213\274\303\363\203\275\206q\023\276\204\"e\275hcS\275\214\213M=\257\303\326\275Z\361\267\275\356E\206=\247\251_=\006p\340;\357\2252\274\343\202N=-\212&\274\353&\200\272C\252==U\035\236\271\241\326\007\275?\263\217<\352-z<\204d\352=\303\217\337\271\2657/=\375\2745=^\375\343\274\275\351\244\274V\376G\275\307\301\033=\343\222M<\025\306\032\273\244Xb=x\013\013\275\321\217J\275\t\356\331<CT\357\274\227\245\362<dCN\274,U\001\276\316\225\340\274>\021\031\275M\025\213<\201\372\271\275I\005\010\2746\003\227\274\006\352A\275\314\271\255=\314\017T\274\360\003\202\275\303p\257=\'\274\221=iZ\264=n\nQ\275*&\300;\360\221\202\275\243\220\010\275\370\270\214\275\232H\006\275\365\331u=`\177\240<\243\306p<\212\251\'\275*9\213=\0234\024\274\301d9\275,\353\372<Q\305[\275\350\325\330\275@}%\275\375_\030=\252\237\202=\'\251\265\2751\264\316\273\200\t\231\273X\022\203\274\035J\235\274&\007\243=\025\242\n\275\347\347\034=\334+\246\275h\\\025\275P\223\306;\235\2551=3m!\2752\033\233=O\326\366=o\1778=\322;\201=\001Z\216<|\022\331=D\300o=\271[\352\274K\033\367\275\274\006r=\365\3657=\177w?\276f=s;[\214\340;\371E\201\275\2075\200\274/\245\247\275q\223~:\275\350\343<@q\367\274\370\364Z\275v\035Y<\0135\352;\342n\013< V\214=\2370\226<\352\353,>\301\300\016>\315\257\342;o5x=\363\265\024\275\037\202\262;$a*>\021d2\275\026o\266\275\310S|\2750[\275\275\007\2471=\252;\227\274\312\244\016=\367\254\213:\331G\356\275$\234]=B\326\017=\257&\031\275k[r={E\327<\221\226:=c\006\337<\343\332\t>N;\034\274\rG\236=K\336\006\275\007\343m=\375\307a<x\234\336=\364\263s\275qe/=\247\217!=\237\"u\275k<\010=\213\306:=a\\\374=\037\242h=\026\'6:\254}\260\274\262\324\336\275\201\357\020=4\330(\275\'\337\236\275!\312\354\275\372&\317=*5M<\360P\327=\025\'d;\242\317X=M\256\215=\335\343\255\2749\001\223=\341\2671=C\rm<w\251\347\273$3\355\274\266\323&>\365\014\214\275\346\341\334=\355\221\263=}\014\310\274\022\3759\274f/\250;\002v\356\273\024C\236\275J\370\034\275\363h\231\274:)=\275EI\310={\331r\275\215\r\260\275\2142\027=gA\334=\347\037\002<-\004\221<dCu\273\304\210W=\005\247\214=W\300q\275\256\306\322=\007\345m=\234GN<\316\340\355<\245LJ=\2424\360<!\232\362=\233\0231\2753;\265\272\034I\244\275\232\324\250:\361\323\357\274T\221\204\274\244\320\364\274?k\337=\320\276A\275\225\252d\275\203(\261=\315\300\263\274\362:\027<\220 \r\2757K\'=\374v\273=\366i\324\273\t\304\367=\226\351\216\275\201\016\210\275\017\027I\273\264\246\200=\373\236\226\273\2306\221<\347\357\266\274\023\tf\275\352\\#=S\014\213\275\305\376\177<\330x\037\275\037N\361<\245\320\330\275\037\221b\275)\006\303<\355\234\023<\331L\213<\005\366\326\274\243%\255<\242\316\267\275$\034N=\242\030\303=\035\302\220\275\220\306\250\275\302\355p;\\\314\017\274X\022\207\275\232\213\306<D\363\030\275\241*8=\272\352>\274i \037\275L\222\221=?P\324\275\344\347\005\272t>\201=\376\337\014=o\262\274\275\240~\370\274\014\373\326\275\365\210\364;-\245\227\275\377\255)\275\363\373\034=Y\243\246\275\021E\013\274\340\035\223\275u\324j=\240\362=\275\343 \013\275w\001\270<\253\337\251<A.\315<(\316W=\250\000\344\275\277\247\222\275\2339\240\274\317\276+\274?\204\232\275\320\034\r=\257\232\321\275\313\200\n\276\246\017\n\275\210\022\262\271\310_\010\275Q\204\246\274H\211\031<\205\r\325\275\027wJ\275\254\277\253\274\356D\311</\302\334=\364.\206\275-\221F=\201\355\221=f\353[<\237\360\201=\252\270\207\2759\222\\=v*\216=\032I\210\275-\022\334<x\240k\275&\325%\275w\333\r\275\243UR;\362\363\'<\002\322\317\275\304\353\241\274q7r\275\361]\000\276\333,\310=f\005\214=\256\364#=\306I\370=\254\354X=HW\201\275g\275\260\2758\372\202\275H\204\326\274;\2766=\301Y\r\274\020<\033>gu\261<\271P7=a\034\271=\3779k=L\243\266;s\257\370=\322\213\354\274\326W\324\274V\353\205=`\233!\276\337R\301\274\237e\251<\345j\027\274\223\341\235=bi\251\274\307\037\220\275a\3151<\245\260\\\274^\010\206\273\337\334P=\374\366\223\274\357\032\255\275\273\257)=\376\372}\275t<\237=\25114=\323\257`\273X\363\335\275\312\276\366\274\354\210\206<,\362\004\275\025ZQ\274\237\371~<\210D\363<\3646\r=F\264\002\276m\003\277=\000\242\303\2759\230\'=\261!\023\275\356C/=\234d\362\274q\"\201<\272\004p=\232\364\006<\360\251\220\274>\213Q;\022_F:\231\251\002=\360\233\324<Pd\337=d\r\220={\356=\275\314\255c\275y\226{\275@\030\000>\370\262\017=\344F\362\275t\020u\275\315i\327\2752\214\216=\351\277\256\2753\334\235\275\220\255X\275\364\371!\275\002\240\263\273\276\217\242=\347\n<<\t\017\t\274\374Z\270\273\271O\235<MW\372=\203\003*<\250t\374<\356\362\312<5\317\245=\033\216\274<\202\004z=\354\230$\275\252;A\275\265\004\032\274 G\200\275\257\374\006\276\'\242\322\2732+o=\353G\340\273I\373\302\275\n<X\275\373t\360\274T\260\222<\322H?<\000,