node {
  name: "keras_learning_phase/input"
  op: "Const"
  attr {
    key: "dtype"
    value {
      type: DT_BOOL
    }
  }
  attr {
    key: "value"
    value {
      tensor {
        dtype: DT_BOOL
        tensor_shape {
        }
        bool_val: false
      }
    }
  }
}
node {
  name: "keras_learning_phase"
  op: "PlaceholderWithDefault"
  input: "keras_learning_phase/input"
  attr {
    key: "dtype"
    value {
      type: DT_BOOL
    }
  }
  attr {
    key: "shape"
    value {
      shape {
      }
    }
  }
}
node {
  name: "LSTM_1_input"
  op: "Placeholder"
  attr {
    key: "dtype"
    value {
      type: DT_FLOAT
    }
  }
  attr {
    key: "shape"
    value {
      shape {
        dim {
          size: -1
        }
        dim {
          size: 180
        }
        dim {
          size: 6
        }
      }
    }
  }
}
node {
  name: "LSTM_1/kernel/initial_value"
  op: "Const"
  attr {
    key: "dtype"
    value {
      type: DT_FLOAT
    }
  }
  attr {
    key: "value"
    value {
      tensor {
        dtype: DT_FLOAT
        tensor_shape {
          dim {
            size: 6
          }
          dim {
            size: 256
          }
        }
        tensor_content: "\257\250\233=7\222\211\274\2217\266\274\374\340\3618-\024\242=\353\240\302\275\231lS<\375\037[<\025C\307\274\216\233d\275\345\341\352\275`\327\327=\314-\216\275\033\r\304=3\270\275\275\371_?\274\354\243\010\274l\027\326=8\"\274\273\260\374\n\275Z:\232=83\210\275\313\301U<X\347\202=\240\374\303=\304=V\275\033\241\217\275\036\022\276\2758\321{<V\205\201\275g_\003\276\\\261M=\263\254\302<\025\241\002\276Q;Q<\2245T\2751\001\221\275\236G]\275d\324\216=\030\031\006\275\257\205\031\274\205\270\315<\346\362*\274\n\360k=f>\"\275\211\026\033\275Ru\250=\215-\020>)!8\275\022\036\266=\017\346\372<\345\207\014\275R-\223\275\023{\220;\374\000\303=\206G\345;\343<V;-\225D<A}P\274*\346I\274`F\016<oL$\275\340\r\203\275\222-\254\274\351\266\220\275\353\034C=a~\021\275\247\317\305=\304L\036\275\315\307:<\324\321>\275@Qa\274\000\202>=E!8\276\211I\000=\327\254\013\275\n\'q=\334\322};\374\273J=rK\\\272\361\343\207\275\370\034\376\274\341\344\300=p\373\242\275\367\310\032\275BM\337\274\341\330\240=\364\360C\275_\216\224;S?\356<\277\\\261\273\365\366j\275F0\204<\004oH=\014\360Q=\177\321\320\275]a_<\022\363G\275+\351\004=\360`\353\275c5\341<vQ\205\275%\255\357<c\231Z\275d\006\000<\221\243\003\273\365\371\335<=\362<=@\232\034\276\032\211\266\274\030\177\305\275e\307\251\275\372\310U\275\014\306\244\274\233\361.\275e#\206=\350\264\212\274\2037\262=\317\313~=A9\352<\347\360\243=\237<\343\274ti.<HR\220=%Z\347\275\330\215\246\274\254i\224\275u\353\235<\003\351u=<\333\017=\317K\214=d\343\375\273\260T\021\275] 4\275x\300\273\273\213\357\204<o\372\350<\245\r\232<q\364\257=\340J\002\275\243\036\013>\277\t\276=\345\206\323=\357\'\346\274\207\252\331\274\305b\314<s:=\275>?e=\r\365a\275e\362\r\275S\227\037=\353=\007;;\220\257\274\204H\241\275\\\270\000>\257\246\316=\305\034\250;\210|N\274\324\241\344=7\245\366\275:\343n<\035\277\214\275L\352V=B\222\n=\317T\214\275of\256=\241\263J=P\217}\272\354\245\034>k\344S=\'\213\223\273\354\335\013\275b\262g=\334\333D\276m\237$\275\220\2274\2753\206\231=\370\n\004=\343\350\334\275\005\003\355\274\240\312\252\275\372)0<E\212\204=\336\372\36398\2321\273\274H\022>\226a\241=\345B\032\275qw\364<@\376\n<q@\207\2751\373n<\266\020\300\273\t\251)=\247\266\010=6\254>;E\231\000\275\246a\242=\261y-\273\005Q\000=$\337$=>)0>@\224\357<u\370\220<a\355\217<\000U\322=7v#=,D\253;\375\002\355<\236\217\351\273\317\324\033\275\365\300\361;e\327!=\273\243\356\274M},=RyC\274\351w\211\275\\pT\275\001\245L\274\215\0249\275\337\251->\355\301\330\274\244Z\217=\027#\000<[ZG=\t\274\311=\220\274\373\274\342\304z\274kU\350=\006\217\016\275\303\247*=/\352\005>K\215\202\274\245\3470:\326r\254=9^\033=\'\'\330\2744\000\237\274\010\2126\274\2504\251=\355\225\341\273\266/_=P\217\251=\225\005\016\275\245\364\035=,<+\275\201\205\351:j]\220\275YT\223\275\232\177\220<*y\353=\316\266x=\222H\263<\024;\254\275X2c\275]s\037=\030\3427<&\224\363<\226\036\021\276=2\257={>4\275\305nA\273\372\n\234\275\323\303\247:\216}\212\275D\215\027=jz\320\275\010\330]\275o\016\030;\007\312h\275G8\261=\252\241h\275\235\346y\2759\033\037=\\\221\305<uw\311\274\316\002\007:\276\022\371\274UR\270<jf\004<\364\032\314;\262a\\\275\311V\001\275%I\030=\022\363{\275\300:Y\275sfs\275\344\330`\275\247\352\227\274\213`Y<\332\252#=\347\364n=p\331$=v\017m\275CN\007\275\331\246<=v\233\234=Fik<\266\317\212\275\273p\245=\206\276\232=r\034\320=V\253\264\274\251\000\311<\177e\304=\033\302 \275C\307\217<6?C\275\375y\010=J\254\231\274\260\257\250=3\021\224\275z\213?\275\224v\001=/\232\334\274\322\300\276=p\025\234;\n\222t=NZ\213=\026\t\355<\200\312\270<\262\016\255=s\221\000=9\t_=H{/=\357\315\204\272\231\022\204=#J\305=\355P3\276\272^\334=\307\271\237<\021\013\007\274S\016Q\275\363\270\260\275\324\210\343\274WC5\275\212l\256<\374\261\343\273\3030\030<~\341-\275\324\033\206\272\332\230\037\275?\374\230\273r\331\254\275\240\235\221=\304\314\247\275\355P\206\275\031\342#=\346\222l\275\r\351&=1\1773\275\246\0175<\372\024\276<_\230\246\275\004;\020\275L\036}=p\346\310=\016\241\225\2752\3157=\354w\330\274\r\262\357\275\257\221\303\2753\315\330\273\343\3524\275\032\335\221\272\342\211\233\274{\342\202=\324\336\317<\307`\362\274\247\025\204\275\203/\224\275\360\274\242;\373\214\032\276\003I!\275\353\351\216=K\010\236=\371\262\225\275\304J\340<)\013R<\033\233\263=\231i\256\275\006\361\322=@\314\200;\202q\"=\362\021\277\274\251\256\331=\034\200\200=#b <\340;\226\274g\342\215=!\254\276<\317m\362:Q~\260\274\356?\034=\345\325}\275.\211\277\275\334o\205<\354\273R\275\352\345\224\273\033\216\222=\0071\030\276H\342\026\274\004k\035=\273(X=P\230\200=y\305\212<\205\243\204=\310\342\255\275v]\177=\212\253\376\274v;\320\275\256\016\234\275\005V!>\346\202\251=\311sy\275Y\260\246<\332L\036>\032\203\362<\037a\326;hJ\005>f$ \275\222\027\352\274\362\360<=\352\327q:\226\200\262<\224\327\014=\023\357]<\270\027\330\275\303mT<S\334\222<B)K\2753\233O\274\371\353\024=\\\311\271\275\364\224\005\276e\377\272<\343\013^\274\202\251\227=\372g\263=\203\336\303={p\024\276%;\022<vOF\274\243\372\206<\210.0<\2401\255\275\004\n\331;\267C\246\275\304\314#\276)\007\373\275\241\312\335=\2014\213\274a\374}\2749\331\317=\241\364-=A\237\327<j\237\355\275\036>s\275\371\224[\274\217\232E\275\2636;<]\201y<\233Z\223\275\342\334\034\274\027\275Q<CK\253\275\207\205998y\364<&k\370\274M\n\237\274\214\272G<\004k\331=\204\365\203\275 \3207\275\2033\023\275\247\330\341\274\014\202R=\265>\206=/\316\317=&\036 \275\320ay\275?4\250=l\007\242=\222\262.=\351\252\224\275\212-\361;\200\223\220\275\317\307\364=\202\202\314=\\\235V\2756X;<H\022\216\274+\007\362\273^\230u<\351O\236=2=\032\275\344E\337<\212J\023\275E\203q<Ur7=\305\006\007=\242&5=A\377\007=\206\325\316\275,p\027\275\355\340\275=\201$\236\273;Y\232=uF8\275\213#\021>\317\2101\267\343\3664=\3472\276\275\267\335\030=s\227\301<\266~F=\271j\231<\211v\014\274{:-\276\202\245\250=\211\320\302\274B\026\247;\026\034\254;\370\003\214=\304xZ\275n\177O=\335ul<\265\365\234\275j()=\343\020\362;\361\024\206=d\372\300\274\366\2054=\032R\231=\240.\242<\255\373\215=r\021\307\274\345\236L\275|b\222;N$r=\244\347\355=\021\260,=}\":\274\336\336\030>\261AG=\271\207F=N\'\250\275Rx#=\363\247\204\275\346\231[\275\216!\367\273\345\362\007=E\315q=\306f}\275c^\217=:\030\255=(\300K=\363a\';\213\367&:\241\310\270=W%\202=\010\216\276=\334\211\017\274\334.\200\274m^Z=\231\',\275\'\241\026=\ns\246=\245\205z\275($\340\275\200S\221=?v\270;\300\276\316<x\034\232\275\220&;\275\320\007\351;*c\347\274\266\311t=\326S\274=\351\245\252=\354\010\272\275\215\215\025:\002b\034\274\322\226\257=\264\203I<\374d`;\324\207\303=\271\320\036\275q\300\255\275\204\214F\275\025:\320=\332\303\204\275\\\244\210\275\213\314\270<;\362!\275\'K\215\273\251}\007\275\320T\354<>\262\304\275\3159\240=\356\027\236\274?\0071=4\022\233;\364\315\254\274\311a\n>\235X_\274\260\027\211\275\362U\365= \327V<Q&\276\274\350\227\242;\274%q=@O\021<]z\260\274oM\355;[ A>\263\332\344=\006\3170<\260\002\004\275\205\352\351=]4\254\274\276\321\207\275Y\256\034=\300Y\266=\257\213\334=p\206\317<\005\323\235<\372@\240=\345\n\022=\036\013N>\251\377_\275\201\277\224=\362\351\"<\022\332\272<\344\301\261<\201N\026;U\264\'\276\267\274\251\275\217p\243<\345\202M=\307DA\275\' \227\274b\207\241\275\335T/\275\247\037\276=\316\214E\274\234Cb\275\202\263n\274\264\357\340\275\314\217\202=\273\357?=\300\363\017\274\245\254\377;D\230\277\275y\215\305;h?2\275\214\003\205<Mv\037\276\337T\345\274\242\341\230<\tn\334\274\355G\206=\275_C\274\351\224\212\275\203IK<\262C\003\274,\212z\275\222\232\217<D\355\035<\364\275\325;\320j*\275\301\014\304<\330\344>\275\310\031T=7]W=PZ\224\274[\352\221\275\273\243\235=\353\212\354=\320\303\261\274\342\325\037\275\357Q\300\273\213\031\270\275]\337\333:\377\344\000>\315\275\375<wH\266\274A\372\354\273\\\243\266\275\367z4\275\361\356\326=\230_Q=I\361\204\275\370Y\374;\302\206\224\275\202\'\2069\302\tO\275Q\007C=V3\331<f\010\354=\025\260<\274H\"\324=Q^&<u/P=\340&\021\2755\362\212=\\\262\225=)l\224\275\302\255/\275\207\'\322;>\365\317\275\327\362\264=Q\250\310<\226\225t<\353b\232=\303\265\350=y\341\035\275\277\031\216\275\3330\021:\223\322\231<\347Zs=co\300<8\341\017<\313G\310=\'>\303=%\334v\274CG\366<\207\354m<8\262\022\2752a\220\274\337\207\367\272\261D\325:@\374\005=\241\'d=\243;\014\275\0070;=a\023\241;wf\301\274\377\001\035\276&\3153\275kg\221<\233\276\352</\001<;\313$\274\275\004u\\=(\304\377\274\357=9\275\363\2312;R\236\217=&\277\007=\0362\343=\236\263B=\013 \213\275C\354\322\274L\202,=\357\336\231=\240\216\312;v\r\343=e\226h=\356K5=\341\303h\273;\221\215<\231\356\202\275x\273\020=\301\244\\\275\005\320\034>\3040\024<\360rz=\332\000\356;\246\3448\275\3431\201=:M8\274\211\356\251=\364\310\351<aq\236\275z\347\365=r\304\237<\276\346\002\276\366\252\204=\212+\330\274I\031\267=\200r+<rL\204=\020\374\314=\242\326\334\275\265\332\346\274/\256M=\253U\307=\233\275\210\275\375\276\326\275&d\211=\235Ss\2737|\317\275\334\"\203\274\207A\207=\243\223\235\275>\025\\\2751\227\014=/v#\275?k\377<\263\337\315\275@b\241\273xD\373\274|\317\311\270z\276>\275\214Xr<t\325\337\273W:\014\275\t\004j\275,??\275a\'\263\275D\373h=\2538n=.L\356<N\"\226<\314K\206\275\004\361\013=>\\\222\275\232pP\275\250\036\231\275\376\216\273=\234*W=[\201.=\337f\250=?w\363\274z\025\006\274\306\201)=\372w\310</\264\344\275\026zD=\n\215~\274f#e\274\221\004\033=O\344i=O{\037\275(\t+\274\250\'o;t\217\310\274spa\275B\310[=\036~\034<K\360w=b\326\364\274\223_Y=Fz\027=\270\331\275=\211\037\204\275\360m\206=\307~\035\275\004\264\022=\226\203\256\273\351\023\247\275\374\323\206<\232\242]=\346\026\207<\322\372]<\331\010\307<\2446S\274\376\016a=\215\212\313\275\367\277g<\325\270\355<\364\"\026=\006\251L=b\033\213=\377&M=\211\377\326\272\025\351\261\273q\265\366\274\211\361\201=8\330P\274C\243\221\275\266\035\204\274%~\326\275\324\022\233=4s\342\275\213\007\334\274\243\016\014\274c\211.\274R ]\275j9\256=\000\356\017>\350\312\352=\276\353\345\274\2645\252<<\017\\=\023\204A=-)C\275\343\027\267\273\240.\344\273Qr\375\274\372R\276\275<\354v<\200B\270\274\240wd\275\265X\036<\237\226\031=\301\264g=\003-8\274\201\250\254\274ub\300\274\027\250\203\273#\317\217\272\000r=\275&G\237=\304o\237\273\321._=|\251\026\276\031ZM\275\211\247\024=f\347\255\275\354\246~;\002\246_=\314\315\212\275\356.c=\363vX;\206\236O\275\263Ie\275\016\014j<\220\371+\275\270\0068=\277\256\217=\322\016\304=\256\200:\275\227mG>\017\026\315<1\366F=\014\005H\274\204\274\211\272<\314%\275\371B\344;L\316A\275\221c\232=\247\331D<\200\253S\274\232\324\343\275\0058|\275\371\341\345=7\211\345<\"9\026=\201\352\205\275\346\233\003\275\257\324\002=\241\353\003=3CF\275!\325\307\274\2214a=\300\316\227\274\r\366\037\276(\251\223\275\363@\315\274\007\253\016>CV\325\275\025\217\032\275m=W=\366r\370\274\320\237\331<\301\r9<?\360%<\323t\257\275\365E$\273c/\372\273}\272\302=qA\242\275;\177\017\276\335W\235\274\377\320\321\275Vl\240=\361\0109\275\357&K=\3351\361;:}N>\032\303!\275\374\235\224=\023|O=\211\004{=\200\021\376=\321\002A=D\360\204=\335\340\325\275F\253\256\275S\200b\275\246J\t=\247\333Y=\350t%\274\252\006\343=\236%\353\274\006\212?\275\177\375U=\302\217\243\274Q=\242=\002\347\223=B\270\004\275\374\022\310\273\227d\220\275\254\306}\274O\227\316\275\274z\362<<N_\275\215j\243=)<`\274\221Y\223=\344g\275\275\276P\017=\341\241\263;Q>\036=\177\206\235\275x@c<g\003\317\275+\250a=!C\264\274\316\351\375\275\337\234\312\275Q\372\212\274\330\236\001>\025oq\274\240\005s\275\252\\F\275\246\'\221=\313\177\370<\006\315\251\274\177\235t<\246\364\031\274\330L\362\275\013\351\244\275\235\260~\275\2557\252=~\305\217:u{\200\275\376FZ=\265\315\365\275;\342\242<\315\210\360\274t|D\275\255Q4\275\371\330\033=&\273p<\216&\331<2\016\220<\017<G<h1\222=I\330\350=\213\303\2269\221\205\323=\005\001\032=\2507\206\274\301\037%=\327f\313=\202\004\227\2740\252z\273\251X\252\274\346\307\324=q\306\270\2750m/\275\017\355\244<\327\201\034=\334\207\373<\271\305\301=\027\316\214<\231\275\003<\227\313\347\275\257\221\006=D\001\024\275\372\006P=\317m\031\273\315\220\341=oK\010>\264\327\212<\007\352\"=qz\"\274\243\242g\275\025\301\013\276\325\214\007=\351\371K\275[\372G\274\244\030\241<\n\306\306=\223\341\256=;>b=\'P.\275\337\332\337\272\206zi\275\240\nd;\013\026\372<\222]\341=\014R\201\273\004\253\303:\312Y\317=\2215\224<#|\t\275^\301)\275\256\001\211;\206\n^=\274\213>=\246\226+=\222\307\036=\227\370\005=\354\367\341\274\r\347\025=\332\367[\2736?\315<\220\2765=\30796\275\357x,\275\236R\000=\205\356\225\275n\0145\275\225\373\276\275\364\177@\275\232\226\245=\335J\023=\201\033\233=\352\211\243\274\367\257\303=\030W\232\274\000\216\240\274\003\234!\274\214\030\006\275\224\301\002<\336\261\260\275\336\320\252\275\242\363\016=\022\314\024<,\261\t>\032>\331\274\3744%=o\355;\275r\037>=\342P\326\275QO\232=\203\335\241\275\311\305\332;\203\226\365\275\223\223\031\276\305\362\216<\'\3116\275u}\363\275.`\322\274\352\013\225\275\202l\036=W\365\260\274\242M\n<\200?\255=\244\362k=\254NN\275\211\002u<\346\320\200\275\361\021\222\275\373\023\022\275\311\363\005<\216K8\275\204\346r=\367\217\366<\251\253\236\275,\303\214=\274>W=3\037\324<\007\254\224=\002\245\364<\037\016\316\274\237Qd<\000\312\016;\204\252\331\274\2074\225=\200\002\226=,\033_=\200OP=h!\221\274g\037\246=<Ol\275\236\276\024=\'\234\256<\321j\372\2753\205\201:\017\016\277\275\200\2468\275N\035\"=gX\306\2758\256\244=@O\200:\0212\212\275\303\300\203\275@.\367\273\273Xo=\220bs=\236\377\343\274D5\272=\345\222$=\205^\006\275\227((\275\300\375\366\274\335\022E<\324\003\200=\220\366\313\274\275 \177<\014y\353;\206Y\313\275\231F\315\274\235=X=S\217\353<\2323D\275\340\320\024\276tH\002\275w\017\010\275nl\n=<\235Q\275\242\346\t\275\023\330\006\275;\246\214\275\366\374\n\274\2763\322=\304}\202\276\233i>\275@\213\217\275\211W\t=\305;\273=tx\003\275\230\023\203=\234\004\226=K\263\333\275\355\277h=M}\316\274\303Y\326=6\031k<\212\255\223\2738\2628\275\376\257\343\274\364H\014=\307\017\000=\221\314-;y\305\256\274\246\240\305=\335F\265\274u\025~<\003\205\276\274]b\326<M\243[=<\027_8\035\\K=W\263\211\272\356\305W\273\225\207F\275gM\010<:B\247\275\331s\211;\246\242\325=\\3\201\275\377/&=\277L\212\274\303\000\321\275X\333\201=\235\374\207\273\214\026\246\275(\017W\274\213\000\267\275\215\221\252<\000G\326<C\333J=\332H\256\27494\223=k2\">j\234\030;\035d\235\275)\256g=@c\341<o\005\347\275\266\256\272\275\307x\240\275/\373\247<\313\210\374<\341r$\275\326\t\205=, y\275\260\2771>\364\220\230<!\304\317\275EP\365=3\263\272\275}\301\346<\2035Y\275\324\313\266\275cY\034\275t\n\225\275x\036\031>\271\030\331<D\215|\274\343\367#=\033w5=`5U\275P#\303\274\320:\273=\363\346\266\275e\263\253\275W\260\017=\005\t\023=\037v\244\274.S\337\275j\246\355;\312^.\273\335Q=\274g\361\277=Wh%\275Y>\262<T\310\250\274\272\341\r\275\321<*\275\021\342\363=)\315>\2764o\201\274\344L\021\275\017\022\252;W\222\212\273\237\217\000>2l\201\275\217\246\202\274)}C\274\307 |=\030h\304\274\356&f;\00532\275Z?,\275\200\266\235=be >\220\342\262\274\"\346\317=kz\"=\266\261\'\275:\246#\273{\230e=\273aI\274\217\013?\274\253\310_\275\202{\r;e\306X\275\242+x<\r\353>=\202\365\014=)\253\001=\'\346\353<}M,=\254\277k;}c\234\275`\220\220=E\333]=h\005\246<\275\365\205\274\350\200\226\275N\354\241\275H0\377\274\347(\232<<V\331=\254\344-\275\326\204:\275_\210\222\275\352\303M\275P\016;\275[\344\222\275\350\345\207=`\r\237\275\255\213\307=\227i\374\275\005\300\314=&\365\240\275\177B\352\275[\017\006=\227\234\"<\364\370\031=\232\373\272=\344k\016\275\236\320\235<\306\303\220=\224\031\030=\246\\4\275\277}p=!\353\323=\304U\221\275\"\272i=a\216\010=\345\264\010\276\256h9==\213\225<[\367+\275!\035]\274\313\263\202=j\004H=s\366\326\274\354R\211\275\305`\007>V\371\r=/\3257=\334%\376=>\265\367\274\034\022\253\275<\3779<?\334\241<j\310\273<\351_\271\274Ix\214<B\204\031>\\,u<;\303\212\275\031\321\010<\376\037\000=\252n\222\275K(\341\274\244\r\357\274\346\357\026\275\362\257\251\275L:\014\276E\321\202=\367\r&\275\252\213\222=\004\366X<\307\234\223\275\2721\237<\337\301\270\273f\310\323\272\245h~=\004\330p\274_r\007\275V\207\260\274\253\3603=\373\350u=\233\373\261\273\n7|\275\376\330\000>\214\036\213=)\253\032\276m\273\215\275\315\300\353;1\303n\275w\270\000=\276\334\222<M\212\203=\224N\205=r1>==\204\210=!\\\211<\306)\302\274NM\342<\tl\"\275\201F]=3\235Y\275\336W4=g=\"\275\303R\363<\257\220\367\273\316\323\225\274\236\033\014=\031\264h\275B=X\275\\\371\035=\317bc=l\013\234;(@s<\034\354\361\274\267\236\002\274\023D\001\275U\316\210=\270\023$\274\235\336@\275r\\\373=\345M;\275\345]x\275\335 b<\023\007b\275V\001:\275\rE.\274@\005P<\302S\204\275\210\037\334\275.\354Q=\234\272&<1\240A>\006\254\352\275v\361\252<\304\212`\273\323\021\231=\312\017\220\275\272=L=\354\243\254\274\361G\022=\032>\036=AF\277\271\334m\230;\244\035o\275\345\366,\275\246\255\201\275\303\321r\275]\231\020\275I\013\t>r\353\344\275W(<=hC\205\274\261\232\334\275\250p\310\274f\2550\275\237\200\244=get\275\'(\343\274\242\006\005\274\231\275\261\275\037\207$\275\345\233f=\266\rF;\256\245-=\314<\365=\t\314\322<O\2263\273r^6<\030\250\300\275\346\313\214\274<\257\333\275\203\314\200=\246\310\257<\326\327!\275q\270\010\274SQ)=\263?X=\240&\312<f\027\203=\310\205j<\311\365\216=Y\354\004\275BF\317<-?\030=[\246\020;w*\330\275a\356~\275c\'\312=\341U\306\275\023Z~=\307w\"=\017-a\274\271\"\033>\365\ni="
      }
    }
  }
}
node {
  name: "LSTM_1/kernel"
  op: "VariableV2"
  attr {
    key: "container"
    value {
      s: ""
    }
  }
  attr {
    key: "dtype"
    value {
      type: DT_FLOAT
    }
  }
  attr {
    key: "shape"
    value {
      shape {
        dim {
          size: 6
        }
        dim {
          size: 256
        }
      }
    }
  }
  attr {
    key: "shared_name"
    value {
      s: ""
    }
  }
}
node {
  name: "LSTM_1/kernel/Assign"
  op: "Assign"
  input: "LSTM_1/kernel"
  input: "LSTM_1/kernel/initial_value"
  attr {
    key: "T"
    value {
      type: DT_FLOAT
    }
  }
  attr {
    key: "_class"
    value {
      list {
        s: "loc:@LSTM_1/kernel"
      }
    }
  }
  attr {
    key: "use_locking"
    value {
      b: true
    }
  }
  attr {
    key: "validate_shape"
    value {
      b: true
    }
  }
}
node {
  name: "LSTM_1/kernel/read"
  op: "Identity"
  input: "LSTM_1/kernel"
  attr {
    key: "T"
    value {
      type: DT_FLOAT
    }
  }
  attr {
    key: "_class"
    value {
      list {
        s: "loc:@LSTM_1/kernel"
      }
    }
  }
}
node {
  name: "LSTM_1/weight_regularizer/Square"
  op: "Square"
  input: "LSTM_1/kernel/read"
  attr {
    key: "T"
    value {
      type: DT_FLOAT
    }
  }
}
node {
  name: "LSTM_1/weight_regularizer/mul/x"
  op: "Const"
  attr {
    key: "dtype"
    value {
      type: DT_FLOAT
    }
  }
  attr {
    key: "value"
    value {
      tensor {
        dtype: DT_FLOAT
        tensor_shape {
        }
        float_val: 9.999999974752427e-07
      }
    }
  }
}
node {
  name: "LSTM_1/weight_regularizer/mul"
  op: "Mul"
  input: "LSTM_1/weight_regularizer/mul/x"
  input: "LSTM_1/weight_regularizer/Square"
  attr {
    key: "T"
    value {
      type: DT_FLOAT
    }
  }
}
node {
  name: "LSTM_1/weight_regularizer/Const"
  op: "Const"
  attr {
    key: "dtype"
    value {
      type: DT_INT32
    }
  }
  attr {
    key: "value"
    value {
      tensor {
        dtype: DT_INT32
        tensor_shape {
          dim {
            size: 2
          }
        }
        tensor_content: "\000\000\000\000\001\000\000\000"
      }
    }
  }
}
node {
  name: "LSTM_1/weight_regularizer/Sum"
  op: "Sum"
  input: "LSTM_1/weight_regularizer/mul"
  input: "LSTM_1/weight_regularizer/Const"
  attr {
    key: "T"
    value {
      type: DT_FLOAT
    }
  }
  attr {
    key: "Tidx"
    value {
      type: DT_INT32
    }
  }
  attr {
    key: "keep_dims"
    value {
      b: false
    }
  }
}
node {
  name: "LSTM_1/weight_regularizer/add/x"
  op: "Const"
  attr {
    key: "dtype"
    value {
      type: DT_FLOAT
    }
  }
  attr {
    key: "value"
    value {
      tensor {
        dtype: DT_FLOAT
        tensor_shape {
        }
        float_val: 0.0
      }
    }
  }
}
node {
  name: "LSTM_1/weight_regularizer/add"
  op: "Add"
  input: "LSTM_1/weight_regularizer/add/x"
  input: "LSTM_1/weight_regularizer/Sum"
  attr {
    key: "T"
    value {
      type: DT_FLOAT
    }
  }
}
node {
  name: "LSTM_1/recurrent_kernel/initial_value"
  op: "Const"
  attr {
    key: "dtype"
    value {
      type: DT_FLOAT
    }
  }
  attr {
    key: "value"
    value {
      tensor {
        dtype: DT_FLOAT
        tensor_shape {
          dim {
            size: 64
          }
          dim {
            size: 256
          }
        }
        tensor_content: "\213\024\253=T\252q<\026\007\203\275\214d}<\2402C:\000v-\275_\230\013\275\260\020\246<\210X\353<\310\354\206\273N*\202\275\346\366\237=-\333#\275\'\211\'<\223+\005\275\035\313$\275h\255\314;=\204\320<\025\317\003\275\267W\331<\251\026B\275\352pA\275\241Id<\303\001\333\274T\363\236\275c)\346<Oj\363=\004D\301;)C\235=\032\004\252<\265@$=\234\004\252<\272\266M\274V\037\370\274\242\t\003\275?\001\232\274F\221\346;\373ID\275\215\336\021\276\376\177p\275\013\314\372\273\007\221\235=5/\234\275S\2224=\031\005\245\274;\245\210<\344\227\310\274\364]\247=\201\201\t\276\347\177\370=\256\370\260\275\231q\"=\237 \255\274?LM\275R\207==\"\020W=:\321\354\2757\234\027\276\255L\371;\363((\275\305\311\226\271u8c\275$\245\217\275Rr&>\n\2344\273\006\3571\275\024\261\016\2757\216\245=\252\010\350\274b\031k=\246\211\031=\247\257\223=\2722Y=\202\023\210=\353\002#;]M \272\220\215\341\275~i\220\275\314H\216\275\363\304\340=[\317\331<W\031\014\275V\3263\275\275\321\230\275JR\225<j\336\030\274m\210Y\275\336\260\265\273/\036\200=a\306\364\275\215\250\004\276h\372\200\272N\225\216\275\023g\225=\201\371\343\275\350\221\331\274\266\335,<\"\353\326=4\211\375<x\313\243=\235\272\377\273\207\354U=?\002\204=\272o\010\275\206R\t=\031#\004=\027\"\036\275\343h=\274\324\265\305<h)J=4\330\007\275h\313\313\273\2407\315\274\304\365U=[\031\314\275D\224\006=\340\375\213<\320\267\273<\350_\214;V\200\'>^\nr\275\366\231\372\275\275\372\203=\214\232\200=\014\230\372<Jm\221\275\021 \262\275q\t8<\244k\264\275gF\272\275\r\246n=\343\203\252\275\022L\222\275\237l\300\275\003\344\277\275\310\372\325\274/s\341<2\243\010\273k7J<\257\022\210\275\250wa\275\337\3516\276\354\345\025\275)\022\234\275\"y\204=\036]\222=\202\345\"\275\375\376\251\275\036\225\325=`\235\236\274d\211\236\273\"`\355=\021\224H\275\254\350\036>w/,\275n\206\241\275\245q\373\2752\037\017=A\277\352=6i\232\274jJ3=\223\304F\274\020\253\225\275\2131\017=A\006D=\352\264\354=\377\306\220\274\317\277\210<\267\306\303<@\203\332=>\022\346=\233\036g\275V\371\343\274\225M\375\274Q\202<\274\250\266\033\274\314\272\000>\356\224\037\275~\014!\274\034<\275<S\0309\273G\3237\274\201\215d<\366v\224\275i \020=\267\275\340\273u\033c=x\267B\274\266\255_=\322\373,=-\335&=U\312\233\275\277\210\352=\027Q\276=\001\372\n\274Z\017\211\275\025\307\003\275\255\254\263<\274(\211\275,pI=^e\232\273\007h\217\275\300\346\'\275\366%\253\2751\262\234\273\257\332\224\275\333\2108\275\354T\351\275;\262\006\274\335\304V\275\232\273J\275xs\357\275\207\334\301\275Y\347\254\274\037\344^;\321x\341\273\010\274\325<\226\342\016>\321\237\200<\334c`<?|D=\222\327\270\275\347\371\344\275\361[B\275\341_=\275OF\222=\314\375R\275\377\2712\273\013\023?=\256\373~=S\210\272\275\254\\\026=\325\nM\274`3\312\274g_\365<\363\357\255=\250\263\r=b\233\354<8{\216\274\331\225f\274G)K=\271\004\277\273 \006\010\275\332\317\231=t^\301=.E\037\274\021\303\302<\213\200\231=\322:\357<\350l\037\274,\260\212<x\014&\275\310\347O\274`C\000\274\371\275\214\275\221\300\026\275\324\371\240\275\263\306\001\275\303U\376;\361u\374<\315\377\202\275\213\311\022>\320C\'\275\274\256\330\274E\0212\274s\235\231=r\001\242\274zV\270\275\037\323\217\275]r\353\274\367x\002\275\340\335\371\274\372\221\275< \334\226=\204\263\310=\027\331(\274\367J\330\274D \320\275\177\212Q\275\205\341\260\273.G\374<V\263\214=<Hp\274\277T\306\274\277\337\271=>e\020\274\205\300\250\275G\365\315\274\322\300\010<\2205\022\276\333\352#\274\020I\003>\265\375K;\241Bq\275\3540\002\276-g\3429!9\245=\375M\300=\317\321\246\275\320s\002\275\203\355\213\275.\304\005=h\211\016=\337H\220=\230\243Q\275[\261\222\275\242{\217=o\333\004<\275\315\244\275g\362\207=\225\236\371\275\367\'\270\273-\306~\275}\245\030=\224\344\272=\210\244\023=\311Q(=%\260\242\275t\356\254=|\306\312:\233\351\3158\233\323P;\326\322\376\275\236(\211\2756U\023\275(9\005\275\313E\347\275:3\'=\301\231\371<\340\340\215\274\266\277\215=G\024\263=KO\023=\364\301`=Kg\341\273\350\177\265\274\0202\254\2744\363!\275\252 H<\004\177\305\275\234\371\317\275]g\216\274\366R\240\275_\366\013>h\314\"\273263\275\242\376z\275\243j\324\273Y\346w=M\250\357\275\337\214\263\274\322\225w<@\272N\275_T\016\275\360x\234<\001$\313\274=J\212=;\013\235\275\225og=\035\324\003>d\010\013\274R\335l=\244\307\256\274\200t\'=\'\305\321<\245\302\327\274\266i =\266u\225<bf\262\274y \351\275\'b\322=\315N\224\275)f\257<>\262F\274\027uh\275\236\354c=\260+\272\274\221\302\230\274\355b \275\232i\257=\035\006\234\275&*_=1\035\r=\316\210\267\2750\204\003\2759\316\373<\003i5=\371\277\242\275\026+\275\274\321qa\273\336\016\222\275\364\202\026=\352\202\225<N}\277<\266X\254\274\346Y\247\275\036\341\344\275V\376L=N\233\377\273N@&=\010\217\220=\370\216\214;?<\r\274\257YB\275\333>J=v\306z\275\230\200\245\275\232]\351<\026aB=\333$\207\274\361\220\334;< l=\355W_=\237\351&\275\305\250z\274\321\'\313\275\253\343&\275\016\337\000=\217[Z=Gi\242<\3573\324<\3553\031=\276\233O\275r%\035=\326@\264<\030\022\005\275\271\342\017<\270\371\313\273\234\346\">\261\247\033;\250\300\233\275[JA\275\243p\034<\357c>\275\344\302\265\275\311\024\222=\006\312\031\275\036\355\246\273\232\355\201\275\202\021\225;\277\024\t<\022k>=\270\300\342\274\257N\301\275~\237H=\262s|;G\207\273=\246\356\337<\r\332\020=\027\217\027\274N\"\201=\335\353g=p\330\260\275p\202d\275\225\367O\274\\\234\332\273@\215A\275\2759\002\276\331\340\267\275\222\271%=\341\320\217\275\376_\244=\302\341\274<\326\374\211\275$\367\310=y}\206=\212$\335\274:\244\264=/\212\346\275\374\014\223\275\307PI=?\233\303\275\201\376\034>3O\254\271\205\221\022\275\204;\362\274\"\240\370<,\3619\275\244\250F<\324\331\327=$1G=\272\t\010\276\023\230b>\"h\240\273\017|\227\2756\216\336<xi\226\275F\277\204<\\\322\265<\004\221\237\274\210*W\274\373\033\025\274\037\210\367\274\345\276{\275X\263\205\275\025\021\311=\n\234\341\275\237JC=C\274G=\257\322\355\274\203\357\231=\322\305\314<\262\330\375=W\n\t;\255\262\300<]\225\036=\270\271\357<\n\374\305=g<:=w&\314<eE\277=\343\252\204\2759\334T=\263O\263=\366B\302<W\210\317\274\253\343\323=\010\243\317<\030\312\t=\225\305\343\274xn\314\274>\351\006=\013\252H=\020\221\343=\325|\206<MEZ\275\000\313\304\275~\034\353\275Mm\231\275\200&\026<(r\216;Y\221?=\244{=\272[\346\347;\302\222\252<r\310U=\360\357|=\240\241\216\275o\252L\275\330\366\252=\262`\333\274\037\0055=\010\273Q=7+T=\241\034\226\275\030H7\275.\371\257<\026Q\353\273\251\255O\275\337y+>.\002\205\275+\273)\2753\230\354=\266`\254<\375\002\320\274k\322\311=\177\001\2509\177%\347\274\241d\020=\337l\027\276\360\024\371=\327\357]\275\274\225\233=\236\223\007>\026\241J=\256\010\020=$[n\275\264\313\263\274\352\207\003\275\321\327\263;\251\272u\273\000\030\231\275&xi\274\275\031V=K\232*>\376\226\202\2755\230\250=/N\267;~\232v=\242?z=*!\020>\317kF=\306\225\241=^K\007=0\233\373\274\350O\367<=d\216\274ov~\274\364D[=\230\t\215\274\265\000\212\275m\344%=^QK=\323\225\300\274\274\272\321<\277\215\370=\251y\";\322l(\275\314\311^\274:\206\267\275H+j=\344\t\001=\217\013)=\235\210.=\033\'\353\275\2436\361\273NDL<\032\214\266\274\215\232\036\275\366U =\261:\220\275\347U\'=\2324\276\274X\357\022=\311%\336\275\360\301\276\275qe\214\275\312\330~<dr\023\275I\206\276;cy\311=6\007\367=\320&V;\234\016\217=4\2749\276\274U\216=\316\247y\275\323\334\234=\035^\r\273\037\326\014\275\t\377?=X-\202<-~V\275T\252(\275\031\244$\275\337\207}<@\226\213\27503:=\377\374\016\275]oA:\372N\030=mS\245\275\024\375\342\274\236\240\341<z\331\256\275#P\230\273\233\251~\274O\0375\275+r\234\274\362\336\360\274\"\000\025\274\204\203\337\274=\214l=c\230\251\275\351\361W=\211Y\001>\307@\245<\227=C\272\307\033\216<\r\346\256<\363\202K\27462\355\274k\3441\275\223\361\022=\0254\320;\324\"\221\275\267\250(=\007\210\032<lt\264=\301\252\336=vnO=\321\214\267\275\t\276}=\237\350\255\275\215gx\275\374\224X\274\'\230\224=\004\271\036\275\226\000`\275\267.Q=\001!\252=^\342\034\275q\321\037\274\257,\351\275\207\375\000\275\207\306_\274l\327\331<$\010.\275\273_\212\275\312\330\335\274\032\033\254\275\374Z\277=`\265\262=\335\2648=\214|N<\271\354^\275\035\303\265\275\031\354\204=\205a\213<6\262\013=.\366\315\275\003}\351\275\207\363\337\273\037<;\275\366$_\274c,\316<\313D\275=|\276t\275\363w\231=\320E\306<\234\346\271\2755~\306\273\271\342\227<2\341\232\275\3636\354<\"\016 <\244\025\311\274t>\032\275r\334 \275\027g.\274a%\324=\177\324\240\273\275\353\241\274\345P\004=\\u\254\275\234\343\035\276\r\266H\275Q\201\270\275o?\016>\211\210\240\275\221Q\371\274\023\331\210<\254(\225=\333f=; \246\010\275\026\331\303\275\371\3051\275\200\221/\275\322D\273=\353\243\030\274(=\034\276K\325\240\275^\004\203\273#\343\023=q\277><$q\227\273/\200D\275o\245\315<\220d\002=0\267\344\275\265/\033\274z\0148\275\231K\225;z\352+\273\224O\353\274\323\201\370\274o\204\312\274>H\245<\2773\312=\007W\004=\224\364\331\275|\236{<\254\217N<\206E\343=Q:\362\275\311:\250<\3262\205\275\262\\\246=\273\340<<.\320-\275\002?\350\275$\226\211<~\"H=\024\\\023\275\263\306\035=O\016\006\275\314\332\003=\330\223!\276T\007\250=\004\272\204=|~\323\274~\267\303\274\361\r{<IH@\275\306\261\262\275\276a\340\275\036P\016>(\370\335<\002\357n=\021O\215\274\276E\212\274\327G\313\275b\353\001\274\224\224\330=ov\315<\225DJ\274\277\216@\274\211;\233\274\026>\226=\335\371\223\274C\254\347\274T\221\203\273\004\010\206\275gt8;9\252\344\275;b\233=\313\217p=\344\013#=\355s\326\275\340\264d=\236\376G\275\035e\241\274\223\275_=Ui\352=\253\2713=\026\264D\275\272\312.=J\337];\302i\256\275N\270\372\274\333\373e>L\203\220\275`l\355\274\222\354\216\275\335\277k<\021/X;\320\3116=\247h\024\275G\230\013\276\355\226\361\274b\027g=\273\317\035\275\310\003\276\273K[\241=MH\231=n\337\033=\177\303\337;B\263\017=*\033\035\276\277\364\311<!\240\263;gt\226\275\311\215/\274\005c\236\275\0237L=i\265f\274\370<\022\2756\236\017\274`\377o<A>\212\275\335\361\021\274u\313\316<\223-\010=\234\314\237=c\367B\270I,\313<\3279,=\202\241[=O\353P\273\272\212\247==\021w=\246\200\337;y]\330\274:\262\245:\214\037m<\022\2013=\251O\306\272\212\203\236\2746\327\027>E\226)\274\240}\323=>0%\275\272&g\2758\022\026\275!\272r\275u\'\204=\314\205\027=\222M\226\274\n\212\213=6\014\035;\216i\357=\236\240\275\274+\227\273=\004J\n=\222X\341\273\376x\313\275f\021\306\275\341t\010>{Y\002=\030\353\216=\3664\222<\210\355\350\272dM\253=\177N\237\274\220\367\016<\244\230\177\2747D\272\275U:\005\273E%6=\262\366\303:I5\206=\203po=6`\t\276L\262\032=Y\"\334;Q\035\004\275!O!\275\tVP\274\223A\007\275\213\2752\275J\024\002\274Q{\324<\217ZW=\034\317\372\273\377\017\320\275\r$/\275,\375\371;\230\310.=\037`\261=\235\235\311=\312^\263<\010\221\355\274\025Z\270\274\277\005\014>\250\232\237\275Z\201\264\275\210\036\356\274\r\023\002\275\277\276a\274\004\304\010<\220\355c\2739YY=M\360\224\274\304\354\n\275RH\321\275t\210\016\274k\214\224\274\304\300\022\275uG\244<\303\367\320=2\014\243\275@\033\271=\312.\r<\237\211.<\272\366\177\273\202\353\361\274N\205\007;\337\262~\275\0313\253\273e\371\324\275\035\236l\275\020\031t=l\345\022\276F\034\036>\207*\375<5R\370\274\210X\277\274\232\273\303\274\275\010i=^Dj=\332\006[\275\336\325\324=\223\r\276=\370\025u\275\0202^=\032\311$=\r\\\215\274\"\274\261=\0262\367= \005\'\275\241\243>=K\000\367;r\010\225=y\025\222\275g\022\251=\240\245\217=Y\307k\274dl\210;\324q\314\274\212\351\033=\342\340\343<<\304\225=\375s\254<0\343m\275M\376\220<\220o\222\275}0H;B\332\264\275s\247\330\274N\261\253\274yM-\275\005H\235\274\266S\022\275)\2302=\262\334\007>\217\200\027\276G\013\241=\214\264\325=]\020U=\342\263\220=\274\236\265<M#\013<\325\000\274\275\t\271\032=1\361\331= N\037\275\017\231l<\311\370X=R\023k=\347\346\337\274?\010\037=\005:\364=F\333\'\274I\317\331=K\205\240\272\203\370)=\274\370\302<\014\354\305=\201\213a;\336\307\325\2746,\306<&a\313\275\353\252E\274ip\264<\246\275\230\274k\322\250\273\276\364\201\275%\247@><Q\237\274\017\367k;q\267\026\275\267f\306\274\243\007\321=\236\231%>}\364\226\275\350\341\347\275\265\203\204\274\257\334D<|\025\236\275\t\340 \275\214\\\315\274\3059X\274,\375\271;$\000i=\032\270\360<\224\250\201\275\235 u=\374u\017=y\201\010\276\251S\331\273_m\037\2755\203\237=y\341\"\275\026\341\325=\201\203q<\031\035a<e\301\320\274\t H\273\336\351\036\2751}\320\275\003N\252\274\263\2352\2744\206\235=0F\263\275B\374y\275s\335\023\275\322\021i\275o\225\231;P\277\014>j\354_\275k_\027<\022\270\265\275\251\207\276\274o\004\210<5\230/>\254a\355;\027%\335<\212\227H=\301\264y<\241\207<\275\341\343\312\274\2537n<\362\265=\274\303\274\276=\007\366\227\274\010\201\211\275)\355\311\275\362\r\306\274$\357\037\275x\023\255=y\243\274=OL\002=\357\017%\275\303+\035<\220\261&\275\275\354\022\275i5c\275hkS<$\235<<\356Y\337\275\004x\203=\336[#;\342m\244\274Ag\335<\223j~\275\315E\002\273[\354\263<\236t\241\275\030\217\253\274\215^\222=\222\024\001\275-\313\222\273QE\304:\350\037\233=\271\020F=\007\277\n=l\371\370\275T\375(\275f\236\255\275\251\367q\274x\205B=\213\322\223<\365\036\302<p\325:=\322m\250\275\262\277\345\275\2300\275\2750\314-<\014P\"\275\027\303\033>\344w\271\2755\t\356;YP\035\275\\XJ\275\202\377\235=\2215l=\221\3458:bY\370\275\250\260\304<\255K\345<\314\021\213=+\327\224\275B\235o=\211\020\256\274\265!]= \220\275\274 \205\\=\022\361\360;-\004]\275\376\371R=\341\254M\275<:\345\274\362\302P\274F\220\023<1Z\016<G\342Z=\235\276\366<\002\nO;\005\341\300<\000\235\311\275\351\033\256\273\020r<\275$\271A\273\006,E=3\006\363\275B\032c\275\363\024.=\272\013\314=_-\"=\327F\305=n\1779<\212\037m\274_X\031;/y\377\275\013}\342=r\202J\275\276z\255=\250\002\013<\345\210\256=PPS<\215\010\342\273\213\316\337\2745\220\327\275\355P\270=;\016w\275\223\010$\272\211\373a=c\205\203=x\253~=\214\362\202=\337Z\356\275k[i\275\340#>\2764\3568=\266\342\264=\313\376\233=\257\266\377=\336\255\312\273w\312\222=\317\242\024\2740\347\n\275s,\'\274G\226\211=\035\337\331;C\354\330\274\337\214\224<\031<\353=\003\005\316<\0330\311=\014\306\253=D9\214=\273\023\310=\232N\272\2746\022\200\275\3435\336\275pP\016\275\352/\346<\200\037\034=\217\036\325\274N\362\336\275\253:\001\276\324\016L<\373\344_\275r\316!=\322U5\275Y\234\210\274\037\203,=G\254\007\273\357x\255;$a\207=\347\006\374;5{\276<\214*}\275\265\010\016=M\263\214\273\212\250\256<\n\254\212\274\nE7\271D\365Q\275\020\000\361\274\333\310r=~\321=<\212K\304<\244Ny;\004t\250\274\343\331\210\275\215\311\205=E\313\032=\364Q\324\274x\t\215=\222\356F\275T%\204=\342\302h\274\312\313\263=\025\024\343<V\322\240:\375a\006\273\025\255c;\224\204\333\274\377\302\027\275*C\032<R\355\024=\010\263\243<_\270\213\274\341/\263=\243\363\323=x\220_\275;\270\371<\364G\374<W\237\020\275|\306\261\274\360*\032>p$\200\275\266W\240\275Lj:\275+)R=1k*\276\031\305\261\274\263\251\334=*f\220\275}{\265;\312x\217=\335*\226\275\272\271`=9\332\277:q/v=\313\3015=\032I\014\276(B\266< \332\331<\"\002\234=j\241\267\275\203>.=UT\271\275$X\272:\203\021J\275B\300\357<\365\272\206\275\321EC\275\025\2619\275\376\355\215\275^\376)\275\322\333\361\275\242\363\215\275B/\253<\247\324.\275T)\204=\336`\202\275\313C\027\274O-\031\275\007\030B\275t<*\275 \3625\275\312W\250\275\246\002T\275\303\226\200\275a\225-\275A\201\360<\207O\222;B\320-=d\367\374\272\n\013\205<\314WM=,\037a=C|\272<\214\370\207=\34116<\270\nl\275v\035\276\272\033\200`=\200\'\305<\350n\013=5#\243\273\031\331\357=\342\010\255:\335\216>;wi\261\275=\356\272\274\274\177\251=\205\250%\274\032\222\021\275\2761\304<&ED=\3073f<d\257z=\226g\327\274Ds\003\275\005\266\271<yj#=H\202#\274\212\330\242<\037\204\222<\361\265\230<X\330)=\211\233\242<\374\305 =+\236\005\276\3206\370\274\364u\004>\307\007|\275\220\205\311=\260\3078<\320\023\327\275b0\227\274\366/k\275-U\356<$\211\017\275?\013\371\274\235Vu=D\016Q=\375}t\275\240F\232=\305\340\212\274\204:P=e\377\252\275\032\250\017\275\320\336v=\342HK=f{\002\276\264\007\243=\023(\026\274\017\\\364\274\263F\260<aa&<w*\221<\037\247\214=\346\330\346\274[\202\315\274\t\235\023\275\250d\032>K3N\275\004\322X\275\315\014\204\273}+s\275tF\317;\356\376\342\275\331\317\202\274!\304\374=\031Vy\273\0164\201\275\036\373\027>\3321\260<\273\314\n\275\277\363\304=\274\206\035<\257\336\220=\207S\210\275vF\n\276\255\307\003=\003\354i<\346g\270=\347\215\317=\275\007\026=\033\305X=\264`\204=\020\177X=\321\267\267=\236\366\261=\362\036\201\275\325\313\356=A\346\215=~\364\365=\214\274\021\275\344\215\323\2734\351\345<\271;\021=\001{W<\2068\275=\322\273B<+\354\263=9.\204\274\340s\332=O\303\274\273\257\003r=\337k\025\275\023=\342\274L@8\273\277\301_=\371\377\212\274\343\327\010>\340;\254\273\026\003r<\364\302\027=\016\010{\276\261&\215=\305\216K<\326V\270\275\357x\310\2755y\014\275\343\244\255\275\017\376+\275\236\017\214\275\020\370#<\'\250\300\274U(\234\275\263Q0\275A\262\'=D\277.\275\366A\330<\324\273\022\274h\334\224\275K\217\000=\310\330\367;\360\014E\276\275\315\031=\3777\271<\266\2619=B\314\032\276W\224\214\275\237\373\202\275\312<\026<\344F\374<\350\316x\275\201B\351\274#\353%\274\354\006\277\275\020\225c=\n\030\210\275gi\245=\025O\220=\227I\336=e\027\036\275A\313m=\253/\366\275\361\006B<\270d\341<9\2046\274\034\271\306=\347\345\204=\205\315\275\275\037\250\177\272FQ\226<^R\305=\217( \2751n-\274!\274M=\327\366\032\275\340\263\305\273\355\263\204=\007Z?=o\333@\275\006\316\356\273\365\330\202=\302TM=\270\237(\276\'2n;\247U><<\213\231<<\007\001=\023\255\203=\014v\371\274\266\237o\275\365(\247<f5\366<\242-c=N\304\014<4\345#=\nF\216\275A\234\330\274\366=\031=v\t|=\370\013\212<^?C\275]A\270\275\005=)=YzQ=\262\331s\275\371j[=Z\003\350=?\274\211<\210\256\207=\236\304\365\274\214\337\200\273/\016~<\232\376\232<\013m\365\274\2016|\273\303\217\250<\232\356\201\275\226\202\337\275 \202{=\326\220\213=\0255\214\274\264*\311=8\271\203\274\210G\235=A\336!=\026L\000<\260\222\306\275\357\272\r\273\277\364K\275x\314\236<\300$\310:P\311n>\344)4\274\361\2437\275\366\006\312\275<@l\275Y\271\322\2742N\306\275\r\"\202\275\177\344v=+9\364=fD\201\274\260\020\220:\347\236\264\275\n\362\232\273\307\033\003\2722,\\\275\237\245\277\274\263u\207<_\266\256=C\004\202<\377\355\360=\267\227\363:\330\375\215\274\344\356|\275\254\203;\275^H\206=U\345\236\273\245e*=>\031\020\2755\036\271=;\'\213=\367\336\231<\300u\353\274\021\274\252<Z\016\265\274\324\025\325<$\244\257\275\347\330P\275\333\177\020>\275\323P\275hQ\346\274\201\250.\275\rg\346\274\272\270$\2754>\220=+,\330<\314\226\241\274\004&\371\2755~\213=\323\211\264<\010\235\356\274A5\\=\323\332\226=t\0162=\320Y*\273\217\265\014=\025\363W;[m\032>z{\263\274\322\224\334=\251|\236=\225\330.\274\014A\374\275\013\017\247\274\366\376\322=^j\257=\220\336\253\275\352@\005\275^\334\002=~\224F\27423g\271\rs{=\240\370\201=t]\205<\341\312/=$\024\204\275\261\r\027;\241\352\033\275\361\317\302=f!0=-BC=\255r\262\275j\260\314\274]\247;=\374c\305=\254#\215=F\251\242\274\001\210o\275$\267\372\274\025#J\275\242\210\205=\016\034\207\275\2327\272\274\251\271\321\275w>\227=\362l\300\274\017\226\316\275s\315\000;fr\216<\372\370\244=\307-\305\274\235\355\221\274d\377\250\274\373\364c=\345g\224\273b\275\332<\303\346G=\006\336\313=\204\253\033\2755\215\200=\376\335,=\212\355\250=\033\244\364\275\352O\331<\356[><.\364\004<\017\377g\275R\255\215\275\320\303S\275\242.\247<\244\272\340\272\375\010\027=\244_\260\275F\rV=\262\205\273\274X\250Q\275\000Q&=J\255\025=\212\331\221\275\340\0370=\345\324\253\2747\213*=\266\021\325<*\'\316=I\206\240\275\255\032\215<\256e\224=\244C\230\275\350\317\261=\247\002\\\274\033\377\002\276\313\306\304\274$e(\274\307\300\021\273\342\330\266\275 \277\026>\230 j\275Bf\224;\327\347\306\275\337\360\321\274R\037\331\275\203\3228=\315O~=\t\234\037\275\2342X<<A4=\321|\315=Gy\355<\026[\340<\220\027\003<\253\327\343\273\312\006\037\275\234\216W\274\243\241\212<K\317\270\274\220=\244;\306\320R<\025\262>\272\343XT\275[\274\372;\204\201\276<W;Y\275\022\227\035\276S\306\354<\361\032\352\274b+K\273=\265A\276\000P\013:\350\252\321\275\224\036\226<\031\266\233=@Z\375\274\225\005\352\273\344\263\216=\217\237\353<\002C\255<\357+\013=\212ax\2753_\265\2753\201\225\275\035_\351:5\3649\274\333\234\023\276x\203\345<\371\236\237=\312\177\243=@\001\177=I\212V=\227\005\324<\365\242\"=\240\2723>\007\362\014\2759\030\231\275CG\217=WO\005=\310\327m<-\002 \275\230\261\234\274\220\n\221\275$\030\205\275}f\275=\357\037\254\275\204|a<Q,]\275\221\303\216\274\177\356\262<`\260\005\274\367\005A\274\370k\360\274\371\226\240\275j\235\204:Q7=\275\221\010/\276\032\315\216<6\276\273\275\217\314\317;&\236\252<2\320z=\271h\201\275\025\323\272<\274\317}\275\031\313P<`\300\213\275\347+\305\2736\026\n\275\224\267\364<x\341O\274\355\256R=\213\324\266\275\355\323b\275|\212\t\2747\037\234=@\241\214=1!#=\371\261p\274\276\251\t\276\t\300\304\274(\335\215=0\016\000\275Mtv\275\021j\030\275\200i\257=\014-\275\275X\023a=\322\201]\275QG\307=\030\257F=\330F\260\274\327wA\276\247\032!\275\323\023\371<\226\004R<\310\036@\274R.p\275\357\315\373=r\355\341\274\376\364Q=$,\020>\214<\231\275\254\001\366\274uK{<\200\214S=\'\213\375=\375\2543=\\\027r\274\366\231\274\273\022\264q\275\232\370\326\274a\233\273\275\033\324\322\275\315\222\365\274\370\020\024\275\366 \364<B\207\262\274\334\354\264=\024\220\026=\024\0018\274\376\205\025\276NV\227=x\016\325\274\342\231k=`!d\274:\314\214\275\035\277\264\274)\265\031;kfw\275\265Ht<)Ou\275F^\226=\303\227)\275*c\033=\331C\251=\017\251\326\2734!\243=\336\237\261;j\211s\275P\215\205<\235\331\311=\347\371\002<\r\'\263\274\261h$\276\212\265\202\274Ff\333\274\253/\242\274\243k:\276\254\027\215<o\003\210=\242o\036\275\205\234q= \344\277;\364k\350\273\n\233\177=o\241\205=\362d\277\275\356:\367;Pg\313\273\005\2255=\226\230\001\274\260\216\276\274\036\346\263=i~\261\275\213\344E\275|\0163=p|\232<\263m\306=\005c\202\275D\034\262\275N\340\341=\341\254\337=\376\367\t\276\310\370\271<\350=\244<\366\000;=\033O\300\274\343V\263<\344A\375\274y\337\314\274\262\360\265<\0368\027;\316\034\253=b\212\221\274\000\000\266\273\306\260\251\274\245D\223=U((>\r\\4\275f\360\211<\023\240\273<\214\016\331\2756M\201<\240\177\010\275\000\tL\273\231I{=F\256\304\271|\257@=\244\302V;\344N\301=\020z\356\274`\003\300\273H\021\246\275\306\256==\314d\036=\325\271\200<c\211\362\275\205o\033=\251Ta<2\346\221\273\255\227\214\275\2732&=?\030\026=\213\306\264\273\303\030`=\262m\030>\r\325\244<\332\333\021\276b\342$\275?\377\363\274\016\327\345=\336\227\234\274\200a\270\275M\272C;\334\213Q<6X\321\275\337\307\244\275\002\232\223=O\301D\274\213\225\"\275\334&\265=sM\027=\021\325S=\353L\261<\227\225\262:\316f\362\275@\274g=K\331W\274S\214\354<\021\007m=\322\225\025=9\221\210=\270\332\276=\214\367\017>\252>J\275\355\026\037:\247\345\214\275D\272\223\274\017J\305\274\226\031&\275|I\370\274\246\221\036=KoZ\275\2769t=<\365k=e\031\016\275\0167\210<\000\326H=fN\023\275P\2217<$\007\232\273:\347\303<\007\260\321=\243UH=)q(\274?E<=far:\016\216A\275\031\223\'<\242\252E=\3505\005=\034\014g:=x\201\273\311{)=?\355`<\000!m\275\227&\274\274}6g\275\374\303\231\275J\007i=AC\005\274\237F\227\274\202\201c=\201\253x\275\374\257\214<\252\243g=\004\336\200<f\320\000<\305W\343=\"\210\213;\312\035\214=\014n9=\346{T\275W\307\374=\\%\005>I\211\002\2767\215\203=\3558 \275~\342!=\333\347i=T\025\226<\243$D=:>\352\275\206t\007<`\034B=\2671\367\274\362g\265\274\356-v=r\264\211\274o\354\257<*d\262;[\3604=0\227\263;\031jS<\242\327\017\276\371)\221\275\330y\332\275\213w \274]\220 \275T\3164=\335y\270=\305\021\223=\233o\177=0\212\315\272H\001n=\235\336k=\337r|\275\277\317+=\360\353!\276\212\261\311\275\222\256\000\275\262o\026=\317\244\014=E\354{=t\227\246<\214\000<\275\217{\217=\224a\262<\364\267|:\'\304O<(\376\032;\304@\n\274b\377:=\261\230\247\274FTU=\214@\300\274\350q\305\2742\214\202\274\017u\014\275\312eb\275\003W\321\275\014\311\270<\201\032O=cLE=\205\007\217\2756\337/=\366`?\274\326f\026\276\306\277\362\274C\202\253=\337Iz=P{.<\264^\217\275\306\0228\275\276\311b\275\255V\251\275\206,\341=\036\307\n<\260\310;\275\265Q\005;\':\014\274\266\302\264\274\207\313\236=qq\215<2\201\216=T\020\366\274\271\234\004\275?$Y\274\214\376\333\272H\302K\274sJ\366\2748\202\224\275\211\2116\275\370P)\275V\222C=!\325x=\026\265\213\274\r\256\301<\204\002\022=\034\335\217\275H\347\320\275\021D\317=\031\3544\275\r\2041\271\224fR\275\256\317s\275\177\2114=\205\356\214=\305e\243=\233\360\345;\313t\221\275\360\354\235=\027\027g=V\255\260\275g\227\370=x\305\246<\321\006\220=\252\275;\275\213\203\264\275b\022?=\r:\246\275\252\267\272=\240\325&\275]\026%\274:\324\005\275\335\3137\275Y\251\250;R\343\034\275h#\022\276\355\310\241<P\332\243\274\231\242x\275,\026:\274\203\257\227\275S\3601=\314\375\262\275\303\326\204\274u\367C\275\213\304p\275O[\331<\221\321\\=z|\310<\006\312/\274\351\353\205\274\277\303c\274[;k;[\025\202<\362\370k=\216\327\247=[34<\261[,\276C/\275<\224[\211\275Zv\266\275\032\033f=D$\263;Q/\017\275JL\365<X%\307\275\003p\325=\272\337\327<\360\332\"=\000M\340=I\343-\275-#\247\275i\006\301=\3734\311<\273\021\344\275\317\346\360\275\002\334\020\275\341\256c\275X6v<j\232\216\275\023\260\335=M\361\222\275D\"\016\275n\346\235\275A\375&=\364\334\036=b\233\311<\215A5=\320]\344=\271~;;-R\023>ay.\275\373K;<\264\331&=\253\013\223=\366\244\342=\246\311E\274k\003\000\276z\377\230\275\177\032\250\275\177X\3219\200E\375=\002\035\035\275W2\020=_8\017\276+_T\275&\204\023;\223\236\271=\274\002\226\273ND\204=7\"\003\275I\231\271\275\213m\210=\353@x\275l\"O=\301\272%<\207\0351\276[\246\241\275I|\032\275\324\234|=\234\323\023\275R\315h=\337\033\027\275\201\355\270\275\370\376\250\275|\320\200\275\377(\314=\306\363 =\334/\377=/\021\350\273\326\237\210\275\347\263d\275\276\345x\273\205|\325\273\343\342$=\000\307\237\275\252\303\213<\372\251\026\275r\257\302= \\\270\2742\337==\363\020\r\275es\006\275/)\001=\350\211&=\t\245\201\274;\355\321=\332\374G;\036\256\202\274\311+\320;\342\302\214\275\365\364\327\274\3775\350\274\024-+>6D5\275\373\266\250<\373\007\225<\234\035\270\275a\036\370\274\342\na\275u1]=&t\002\275(\022\213\2757V\242\274\322\314l=3\334`\275\341\300N=\031\224\334\275\rT\360=\177\031?\274\37532\275o(\005\275q}.\274\3127\224=\270\224\000=\322\323\343\274\376\272\271\274T\313N\275\302A\263=\262\211E\275y\200\362\274\241\255\340=\357\007\333<\220D\031\275\026\344\233\274\333\234\235=\267\307K\275\234p\207=\371\353\320\274\336\256\215=\343z\300\274\216@\333<\r\245L\275g\274\026\275-\236\366<f\235\372<\342\277\231\2751\345\222\275\256\246\001\275\2226\307\274\200u\332\275\270]\322=\246\227\270\274\034v\026\276q{\277\275\340\272\210;\2135\004<\276\033\007\274%\177\022\274E\311\255\272\273\261\234\274y\n`=\002\021\033=\235\3510>x\331\210;v\235\224=\267\240\000>\272\236\265\274\0208\007>\205\311#<\366y\214<\233\353\340=\333\202\213\274~e\271<1]I\275y\3741\274D\333\214\274\375\262F\275&\246\314=\002\202B=\370\307:=\267\'\215=a\256\000\276^\301\002\274\305\273\034\275\325\373Y\275\3063\305\275\215\341\000\275\211\312\310=\372\301n=po{\275\274w\245\274\202\024\243\274\354\207\n\275\374\023\t\275\2113\360\273\232J\242\2742\215<<\267\305\n<\363H\351\275#\364P\275\200\307b\274\326iU=\026n\361<\025\367\242=\200\354\033\275\215\272\372<\256\353z=1-\247<\311af\275l\374\221=\357\'\030\2759M^=[z\337\272\200\363\313\275?\020\231<2\007\034\275u%\223=\235\202\332<\216j%\275o>\027\276\254\232\225=\027\213\224\275,\025b\275\034C\300<\333D\273<G\353\317<\253\305\002>\241\"\216;h\301\371=\301\364\351\275=\323\001\276\336\344\226\274?Zs<\214(\004=W\260\264:\324\350\002\273d\266\373=\236u\221\275\260\234%=\035\306\014\275\301\241\001\27525\004\275\375\207\225<i\211`9\351\357\203\275\225\205\214\274\200\271\021\2751\332X\275\212\033\245<\305N\227=\335\252\333\274b\024\t\273\026\013\272=\263\020\357=&\253\310\273\004\321\256\275\234\337\253\273\373\201\004\275\024h\343=\211Pk=j\307\023=,\354E=\320+\222=c\314\356<\211\330\334\273\"\277\313\274e>\250\275\211\2575\274\251U8=\276\327\r=\266\254\273<r\276\306=.\275\301\275I@\010\274g&d\275|\212X\275/\264p<M.\372\273q\263\307\275\274\006\265\274\247\241&<\344\335\006\274\207u\255<1\245\373\274\335m1\274Y)\323\273AZt=\033\357\327<\347U\211\275)A\342\274\367{&\275\256\301\205=\3756(<\226A\024\275MX\230\275\006\216\226\275p\233\331\274M\246\353;\363PC\274\000H\242\274\254\366A\274\262m\272<\271\304\n\276\226|m=ap\270\274p\225\000\275\361\237&\275G\031;=\007\301\022\2747\224\230=m\033\215\274\224\322\320=\242{d=\213\377\t>\22012<b\314\024=\337\272\343<LI\333=\3464\210<[\002\272\2756\241\232=\214j\242\272\007%\333=\361D\241\275\321i:<\371X\271\275Q\374Y=\322\312\035;\026mX\275\206\032#=\344p\r=;#K=\344\253,=\336}\311\275.\360\221\274\250\013\204\2752T\222=s\376:\275?\025v\275\266~\014<=B\307=\345X\317\275\3753==\'p\224\274\335\355\022\274\177\371\035\276#\311\\=\217\223\t\276\017\301\332\275\352\367\211\275\374\204\244<7\241\267\275\3713\"=K\360P\274\323X\240<\315\353b\275v\346\352\275\304\261\225\274w\017,\274\343\314\263;\220\376\360=#b\314\271\037T\364\275\302\316T:\207\261\241=\226.\277=\201\246\203<\245d\270\274\375\235\321\274V\305\256\273\252\365 \273\250v\310=#\370\347<N\323\377\274R\220\234=\230\310\017>\257\375\366\272U(\210\275\312\310R\275\353*\214=Z\210\211\275X\244\324\275\371\020\206\274\301;\370\274,\262y\275\311\371\324\275\346Og=\272\177y=\024\024<\275\204\367\'\275i+\235<e\257\210=N\235\226=2\0170\273\353\2461=\217\330\367=K\327\214=\270\324\255\275{\352?\274\245K\227\274\030\327(\275\323-:\275qu\236\274\231\000\331<\243=\265=\236\364\251\275\211\366\225=3\232><\374\354\343\275wd\212\274B^?<<\353\226\275\361FY=\037<y\275\340\224\001=&\2314\2752\253F=\256\243t\275\213v+\274\255\306\216=\350\310\252;_\250\202<\006\216e\274/\242\353\273\312\352\002=/\223\322<i\235\014\275bq\206\273t\205\211<\205g\274<\264\345`\272M\037\271\275\257\010D;\213\267\022\275B\313==\242x\256<\275`5\275\377\025\245<B\213\253=\000\322L\272A\343\315=w\224\241=\230\303+<\326\261%=\210\375\010=\232\331e\27534\212<\305\305\275;L\031\033=\303\307#\275\364\354\365<\342\003\t\275\366\312\003<\264\214\030=\326\245J\275\337n\007<|\240\024\276\326\302c=\361gL\276\r\367V\275\037Q\026\275j\240 \276\023I\214\274\233\";\275\275\207y\275\336\317j=\023=,\2757\251\\\275\2468p=]\311\227=\331si=x\t\250=\010\307\264\273e\363j\275A\215\212\275\2574V=\244\271\216=\203P\177\275\242\245\342=\357\364~\274\021\347\346<r/\254=\203\313\375=\226\212\026=\230.\227\275lYx\274\322k\315<=\242\021\2763s&=6\332\363=\205\351F=\301\235\216\274\021\345\177\275\333H\202=d\210\364;|\014/=a\321\034=LYA\275\371\246\211=\217)U=A\342\210\275\262\236\206\274\241\324\255=\207S!\275%D\300\275\267O\357\274\3705\016\2762\376\231\275}7\221\275\2452\246\275\361\336\204\2721\026\177\274mo\243:OI\025>\004\3501<gm\305\274+\316 >\376)\211\273\007\366\354<d\277\202;\345\3451\275jk\241\274\320\316\247\272\0075\361\275\216\036b=Y\010p=\325\251\200\274\205U+=\212\021)\276v\264\210\275\377\203\212<\206$==vb\237<\371r\203\274#\312g<\321\353\263=\256\365l=\270\274\360\274\225\316q\275\304\\x;s<\213=\034\320`\275iMK=\003\033\376\273\303\001?;\313\034\320\273\033\016\215=:@u=\021\374\214\275\235V\'\272\177\366;=\357\025P=r\347/\276=\306\347\273\373C\306=\0338\343\274\345\377\034=s\025\276=\337Y(>n\361\256\274\220\206e\274g$\200=\207\371w\273\034\251\210=\001\322a=5\373\262\274{\344\210<\267\233\274;\201\213q\275\371Y\220\275\232f\035\275\343\'\220=\352\341W<\214ab\274\241\341\035\275\2165\264=\317\256\016\275\207\021\331\273\261\300p\275a\004{\275]y\321\273\201\366\004=\254/z\275-g\241<\247Q\344\273\236\263\341\275\3239\241\275\177\234\221\275{.\033=\273G\006<\350\365\314=E\314I\275bK\312\274\010\022==L\263\225\275\233\332\035=.\224\261=_ \315\274\364\371D<\313\211\340<#7\264=jh$\276\243\261M\272&3\300<\352\203\235=\nd\250\275\010\014\331\274Z\262x=*\215\227=\177(\177\274\342\020\256;>\035\250\275\016G\231=qn\000\275\212\346C<\014\262\202;\257\316H\2748\275\264<5b\203<\335_\212\273\360\264\204=\314\023\244\274\013\254\025\2750\355\005=\\\263\363=\2215\032\275\236\024->\216/\312=g\341\310=\277\344|\270\205\275\013\275\260\315\223\275\031\303_\2743L\233\275\361\211\274<\253_h\275\004]\221\275\343\357\243\275\323\310\n\276\324\226C=/X\030=t\'\251\275t\027\224\275_\320\351\275Bbn\275>\233\377:.d$\274\241\366A=\303\002z;7\355\267\273\023U\305=S\373O\275\306y\327<\371\010%\275\331>\226\274[\374g\274\030\275T\275\344s\335\273\350{\212\275\301\023\242\275\313\266\247\273Ak\235\275Z\003@\275\342\351\353<\361\360\242=\361\217\320=Ma\002<\"\254\252<}\024\277=\346<\220=h.\246\275\260\304q=j+\365<{\360\325;\205{\242=Nj\025\275\002\227L=$r\245\274\357\301\336\275\212=\320=:\354\027\275\002l\323\275\263\027\236=\240\207\034\276\274\035A<\222\271\224<l\373*\275\276\030\223\275v\266\000\273\323r\272\275rd\'\274\3455R\275\346\":\275\226\035\251\2750\333\244\275I*G=\322>\036=\362\200.<\246o\246\275\303\212y=\256\362\261\274Uq\373\274\321\311\310; \305\372=\323\263o=\334\0077\272\035Q\357\275\347R\027\272u\345\032=:\365.\275\315\350h\275\205\207\340\274\r\"\301\275\332[?=Z=\004\275\335\364\334=\223\002z\274\344,I=>\036B=(\337\361<\205\004-\275\366B\340<NI\314=\274\027\237\275_{\351:\r\207\005\275 \200\026\276}\234\356=\213\276\205\274f\273w\275K\023\037\274\234a\262\275\2704\034=}q\343\274\254\373\255<\002T\341=\312\272\203\275\3225\t\275\030t\211\2751\253\223\274\233\265\373\274x\233\226\272q\237\256\274\254\272\342<\357vz<r\277\270\274\205\375f\2744\341v:\304g\247=|\370\260=\300\360\313\2752\033D=\341f\267<\t\313\003=\252\334\336=q\267\367;\263?\027\275\177J\314\275I\337\327=\367W\310\2755\326\235\275\243\031\032\2754&\347;\355\312\233\275.z\213\2748H\217\274C\351\357\274lJ\037\274\035\344*\271\251\242\203\275\207\252&=\022K\307\271\366\213\225=J\363\201=N]\022=\362#\376<\252\306\205=E0\036=^dy;\033\t\266\273j\277\340<3|\367<\255FH\275\335\227\340\274`\261\366\274\247\330\204\275\333\310\r=\021u\244\272\035T\017\276I+\325=\003\027\341;q\314U=\227\311\';j;\230<\211\005\354=\264\262\204\275~Uz\275o\373v\275\234\337\004>\236\030H<t\262\031=9\272\207=u\237\354\274\377q\271\275\036k\017=v\206\202\275`\303\333<\301\366\241=\3651\362\274\306\220\322\274\215\240\274\274P\325)\275\256\362\312:\364(v<?\017\235<`\351U=\001S4=\236\2415<\213P\337\273z~\336\275\177\2004\275\246M\010=z_\346<S\013==X6\344<\336p$\275\321\010\312<*\311\254\274/\003\037\276\212\372\020\276\177*1\275\225GG=\356\305\224=\230\221\002\276!^\340\275,\027\004=\350\231\010\276\233$d\275E\220\021>\267m\252<\326\277v=<~\246<\036\364\267<\0015\311=(mQ\275\031.\327<\205\202\024\275\321l\274\275sb\235\275e7V<\356K\315<\315\207\205\275\005\2336\274\202*$;\321\322\266=.\205\003=P\213\273\274\373\357y=0I\251=1 \201\2741\177\005\274fT\010\275\337\336\032\273\032g\235\274\323~\212\272\212\302\240=\375\357t\271\215;~\275\225\021\322\274\005X\000>_\273E\274@\002\331=5\021s\274\237\205\216\275ipB<~L\243\272\025ya\275\3159P\275\215\234\';\306@\334=\244\237}\274\020\000\024\274\315Zh=\014e\302<~Z\222<\000\246\254\274\345\213\246=\246\244\364\275\364\310\\\275\334\035\245\275g\376i=\264x\006=\023\267/=\032\251\327;\331\271`\275\226z\230\275+L\241\273\004\250\013<\202Sj=\246\246\014\276@G+\2754\320S\275;\016\202=\212\036H\275[Z\210\275\020\t\356<\255\214\014\276\255*\025>n\246\013\274\245[^\275\272\375\257\275\203`\337\274\003\347\245=\367\233\270=\312\377\367;\217\350\350=\365?2\275m\n\321<\272R\225\275Oo\037\275\303\333\201\275\031\223_\272\300%\'\274Y W<\024\203\001\276\222-\262=\214a\034=\365\200\032>\3738 >\222\206\224\275\341\254 <\264x\030>\321l\200\273\324\242g=r\205\221\275\032\r\233\2750\027\266\275\366\345\205\274\341\310\223<\346\372\222<\2732\342\273\306\304\333\275\234\3520\275\014|W\275\374\271v\273_\004\n\275\327\223\017<\260$\370\274A\302\306=8\337\375\274\355\216N\275\376\353\210<\006+e>\202\021\021\276\336\236\357<\346\376\033\275\335\317Z\275\321\026c\275[\370\261\275\356\205\334=\220\006\305;\330\004R=\372\246A\275N\211=\275\354\216z<\037\201\010=\250\212\216\275\031\3468\275\351\366t=v\367k\274;\265\177=D\020\332\274\367\035\n\276\273j\323<A\213\212=+\347\366\274;\253\r\274SC\021=\027\327\216\2753z\013\275\343f\203\275\270_[\275\343\342L\275\264P\305<\272\314\340;\r\023\020=#\321\230\274\374E\351\275b|\217<,\377r<\014\360\303\274\037r\014\275\277~\220\275\360\226\001\275^\205S:\226n\014\276\332m \275\360%\203<\227,\222\274\251|\004=\206\274x=\274\363\017\273N\236B=\270\240U=\201h\203=ZW\357\274\233\016l\275\211+L\275\207\307{\274~\036\306\275@\364\252<\025M\217:\350\342\001\275\0315\000>\313\217\275;\033\277>=\365\r\251\275\316\306z\275:($\275F2\304\274\377\237\036<\374\357(\275\200\263\234=\205d\261<\274\271\030>\003\330\026>\307\270\n<A\365-\274\t,3\274\354\244\243\274\200\331\234\275H\230\253\275\246\247\206\274J\331\005=\211\312)\275\232\334\377\274\315P\324=R\2675\275\243{O=\314\277\272<\257;\316:\300\257\002=\364?e\274\n\343@\274\343\360\337\275\021U\324\273%Nz\275\004\357\007<\367\350\247;=\247\277\275o\241F\275\250\225\212\275p\202\030\275\024\305\222\272\264\333~\275F!*\275\276\321\n=Ec\203\273\366\277\022\276\2767\232<\242[\264\275\250Z\314\274\002\263n\274O\372\317;\202\307,<\267\0208\274\237a\000>\006\372:\274f\370!\275\027\265\234\275\344R\330\275\006\235|\274\310\326\212\273\252X\320\272N\234S>\266\353r\275\333\226M\274\320v\242=\257:\202\275\244I&\275\022\311h\275\214#J=%\245`=\215\352c\273#\\\267<o\010\200\274M\027$=g\013^\275\220\300P\276JH:\275Tb\255\275\214$1\275\r\302\242<?x\326;\303f\225<\226\302\034\274\262\347/\275\241-\335\275l\0162=\360\353C=o 1\275\316\376\313;\244m|\274\0166\207\275\005F\222=\003\266\233\274wY\357<W\267y\275}u\032\274;&y=\007\373\332\274\241\"?\274Z\355;=l;`\273\254N\371<\247\324\222=\310\032\322=S\220\000=uXR<q\363\307<\362\324\231=+\021-\276\234\277\374\274\330SJ\275l\312\356< p\341\274\344\225!\274@(*\276\021\"\233\2740\033\031\275\300ma\273\331t\310\275b\216\007<F\230\007\276\017\357\334<\037\2629\275\'\303\314<;/\217<\241*\224<\025\257\372\274\007\312\207=\334c\214\274d\212C\275\343\r\301;\211\320\302=N\375~\275\033\344/<?\267\242\274\260\037\227=\022\316\336=I5#\275@\353#\275x\254\r=\300\031\202=f|\200;\212\347\014=\202\323u\274B\307H=R\361\313\274\215\213\224=\264D1\275\274\324P\275\320\301o<\326\232==\341.j<\376\013\251<M\203\204\274]\337\324=\\d\251\274a\377\013\275\032\232\277=\250\305A<\331Oe=\372b\361<\2779B;\366M\237\274\315D\327\273\345\222\256\274\356!D\275$\341$\275,9\233<sQm=u`\275=\251&\265<\3714~=L\304\377\275\226\367*\274]\224,\275\252p!\275\240[\247\275\273\267K<G)\270\274\3127*\275f\177\225\275\032#\317\275\371\276\236=\323\231\017>\311\370!=]\353\243=\302\010}\275\334\340\221\275\226\026\026=.C\277\275A\342_=\037\216\024\275C.\310<\022H\2209?k\217<\254\031\001>\324\333\026=\316:r=\241\346\331\272\331rV=\357J\344\275%\265\010>v\027\310:\023m]=a\017\310\275-\016.=ME\233<\233n\033\272\3135\343<\2212\024\276yY\275\275a\270\035\275q\2457=\333\035`\274\036\334+\274]xy\273P\206O\274gh\'=\241\317\362=\362\243\014>\256\313\247\274\222\254\323=\246\323=\272\002\023\307<V\270\231\275\017O\335\275J\003\335<\317\274R\274\226\017\277\275\375^\306\275\306\n\007=\024\200\232\275\276x\234:K(j\275\224\353}=\362\300V\275Zx\205\274\246\236\001\275\221\336\325\275\027\"\371\275\265\301\247\274\305~.=\343dP<U-\257\275\207\226\323\274z\343\331\275\323\364b=\224\332\022\273E\030\031=\205\021=\275|\3511;\312\312\257;1\247\"<\336\330\207\275\271U~<\016\264\306=z\013\272\275KM\211=\034\210\315\274\210\273/\275\026\372\030\274\307OW86\246h\275\241\344.>\324\314\231<o\232.\276|r\224=\371w\t\274\350Kh\275\201\277\327<\004 \020<\375\002\210\274\301\301\227=6V\214\275p\333y\273pv\247\275\240R^=M\313\025=\031\030\337=\205G:=\255N\265\274\202\325\230=/\215\355<\'\350\210\275v\t\027\275r|\354\272\274n4<H:==\213\303\220=\215F\206\274\245N\261\275v\005\211\274FP\357\275\017,\237\275\023\367\244<\020\003\372;\310\307j=\026Z\317\273\261\237\374<\005\266\010\276\n\\M\274v\263\230\275\373\227\t\275\300H\014\276\333\206t\275CDT\275\375\331B\275\244.\032:\247\252\323<\331\253m\275\330\346\302\275\370\326w=N\022^=z\216c<\216\213M\275\230\340\247\275\207wA\275R?\351\275\2658\343\274\023\275\324\274^f\263=65\305=z\247n\275\3154_=K\266\036\275O\230\377<\025\327\340\275\321J\357<G%\207=\345\252\205\2753P\242\275&\331\311\273^\342h=\022\2248<\341\361\007>\033\221\223;]g\262=\013\254\245\275\361V\355\274\200\204\r=\300B/=\000a\356<\377M\317\275\000\306C\275\340\'B\273\334h\010\275\260\022z=\2019\355<n\303\257\275x\242\225\275dc\031=wS\001<U\375\215\275\317\020?<\014\"\013>\220\036\013=l-\321\274\274\010C=\217\354\240\275\323?\224<\203\030\230=\035*\315=\251\323\300=2W\252\275%A\026\275\301\207\316<\206\251\001\275\365\311\224\275\244X\034\276|\322\002=\016I\372\273\316\207\034<\323\356\253\274\034\335^<>\300\004=\031\371\217=\372P+=\374\376^\274\263l\\=\\\351\340<\357F\231=R\2165\275A\217/\272\264\030\037\274L\225\334\275v/\177\274+\362N<\205U{\274\206\225\356\2748\345\266=\230t\202\273f[\247<_i:=\211\035\216<\313\271\235\274\3550\260=`\272a<$*:\274\035\035\210\275O>\236=\377\337\333\2741M\234=\031\026:\274f\317v=O\370\342\274B\365H=\245T\327\274H\020\000>\027\177\250\274\344y\265\275\325\261\241<d\374o\2754;\255<\036\210\355;ZF\007=\004np=\377\347\346<^.b\275;\333\205\275[\223\374<\315}9=#P\370\274sKE\275\007\360\302\275\336V\007=9\010\277\275\217\361P=d\006\224=\361\272/\274\316S\034\274\377\345<=T\010X\273ol\257<\3561\256\274C(\302:\361\353P\2754\240\356;q\351d\275\340eK\275\322O\210\273&\000$\275\255\343M=At`\275\210\311\n>\262t\314<\000pJ=!\306\310\274\243\tk=\252\315\002>\266\237\302=B\204\220=\242L8\275}R\270==\217\006\275\034\036\"=\327\213-<\363\320\236=\337@o\275\260\347\260\275\t\273\265\274\241\r\354=a\021\257<\246\254\325=\032O\223\274a\210`\275\022\214F:\243K\215;\375O\361=\343I\022\274\340\326\325=\rY\336;\213\360O\275\200!\215\275\020n\000\275\000_\005=\337u\354\274\351\353*\276\340=$<x\267\013\275\n\213\334;i\361\355\274:\324s\274\243\2175=\327N\213<\0337U\275xL\005=\307\314\035\275<:\221=\037v\001>G\325\356\275\234.*;`w\243=\334D[=4\342\344\275\346.K=\352\217f\274\366\377\221\274\322\237\303=\333\323\241\272\360\312\217<\026\253\304\274|8\255=\255O\"\274]6\326=>o \273\341\256\010=MH\260=\2075\016\275\247\0143\276\345\367\222<\001^\251<\351\230\265=\t\342\253\275Mh\304\275\204/\262<6\353\302\275\004s\356=O[<<}o\277\275\327.\303;\226\255\233=\240\311\360\275\220x#\275\352\374\202<\2253\332\274\022\337\243\274\234\3311=\343l\217\275\366\324\014=\302\233\343=t\003\234\275>#\202\273\315W\021\275\324\250\374\274\362_<\274g\207b=\350\246\027\274\315e\343\274{FG=^;\246\274$\033\202\274\227\031\304:\022\014\325;KU\361\274\027\007\025=Hu\307\274f#\304;\001\320G\275>\204\\\275\313\256\021>\003\374\366\274zw\033\275\016\253\231\275\210\321s\275*V\276=\201c\277=\324x\325=M\265\242;\256\265\241<\245K\000\274J\003]=\205\340\274<\307M\010\275\'\203\337\275`\030\363\272ou\335<I\375\267=a\026\000\276\201\276\201\273\025\347\353\273\201\024\032\275}\260`=\005,\003=\321]\310\275\357\002\225\274\370\270\267=\211\342~=~\232S<~\245\004\274sz(:\004\235\010>_\377,=\026\303\265\275\317\035\374<\237W\362<wx{\273\372>\302=\353\264\205\274\247\002\324\274\211\344\377\275\r\177Q=\337\275y\274\317s\210\274\237\250\275\275\374]\205=\216\207\004>\321\323\265\274\217\1776\275\227;\247\274}\206\302<X\262\242=E4\306<\336\327\231=\220y\277=\032\035\340<\200\243Z=\323R\344\274\200\325+<c\300\220\275\272j\224=\240!\357=\334\375\360\275\300\376A<\'\353j=\311U)=\331f!=S>&<\341\341C\275\201\240\026=\021kS\275muF=\361\r\272=U`\340=\321\245\223\275i\240\211\2757\236\232:6\333\324\2745\224\236\275\'\245\347\274O\335\353\275\313\256\377;\333\335\230\274\315\034\216=G\261s=%\r\214\275\226\221\025<\334\'\233\275Hw\001\274j\323\013=\264\351E=\2448\205=\t\010\254\275\216Df\275\004B\207\273A\tb<2\251\244;j\304%\272s9\373\275P\0228\275\266\023v;$\377\020=W\'\300=;r\243\275\265\204`\275\030\215\203\275s\207\246\275\034\006\202\274 f\254\274\364\360\311=^\201\217\274`\010\'\275\271\373\347=\023\233\240=\365\335\376=\242\273\241<\013\241\273\274\234\276\265\275\021\365\230<\372?Q\275\365_\001=\311\263\211<\340\'\021\275\250\342\267\275\250\251\310\274x\377\024\276{\220\222\273\226\256\275\275<\313\010\275\000\320\010=\200\371><\006\203\030\276\320!]<\033\304T;\220A\360\275[{M\275!\0269\273\263!\323<G5\204<u\221\000\274b\353\307=\305^\r=M\010\325\274\200\220 \275\371\034\260\273\320\021=;\353\200z<\322\365\t\275\263pZ\275\363g:\275\226\017h<7\223\341\274E\364!=\265\234F\275\0045\231=\236\251\024=\215h\210\274\235\314@=v\345\372;r6R\275\302gG\276\260\002\006\274p{\227=U\304\311=p\347\211\275\356\226\216;6B\356\274\211\334K\274\303\004\225=\307IQ\274\364\267\313<j\233\301\273~Z\261;\341\300\002\274w\250\245\275\201\010\242=\177R\364<-\020\253\274A{q\274\031]\246\275\353\213;;N\207\014;\250\033\331=\254!\024>\257o\310\274X\375a=\321\036d<R7\201<\002\320`=\353\224p<RJ\204\275\210\206\253=G\344\227\275\362\307\206<\177\257\010\275\023{H\275\242Q\210=~DU\2733\274\027\275\334\374\246=\361:\342\274\206\334\021\2759t\037\275\332\257W=&\341#<\272oX7\246\330\201\275\332\364\250\274\005\023\013\274hT}=N\n\370\274\214\247\223\275H\204\302:\375s\251=bE\034\275\036R\224=\365,%=\267\177\253;:\240\013>\301\344\017<\224a\227\274\031\030\357\273.%<\274\216x\005>$&R\275+\r\020=\336u(\275\337\320\210\275\016\320\273=\344\237\317\274\"d\252=K;\322\274\256\273\243:\271q\315\275\217\003\033\274k\260\240<\373\370\007\275\215\302\327=V\301\316\275\341\252\213\272\237 R<\000\231\255\271\347\331\351=\244\314\264\273\372\265\357<K\352\256=\003\345\261=\306\031Y<\322>\014\275\"\331\t\276F\302\231=\351\020\002\275\337V\315\272Y\202\224\274r\336\241\273\207_\023>\235=%=\244\022%=\224\246\304\274\313zP\275k\267\361=\230 \326<\210\315\355=A0\263\275\256.\266\275\261\312\227=\213\342\365\274\310\345\361\274\024z\002\275iXn\275\362\275\021<\033\203\021\276\275\330_\275\272\306<\275\342\341\245\274&\340\024;\316(\003\275\277M2\275\2527\002=0S\214\275D>S;\3127\306<\250\034\007>[\rf=\212\267\210\275y\021g\275J\351\345=&\332\201=7v\220\275]\233\024\276\332\231\346\274\326cQ\276\303{\257\275\027\243\021\275-\262\265<\325\030\212\274\300\302G\274\3030\301=\272>\221\275\267b\370<\270x+=\r\307\230<.\256`<\203C\252<H\355,\2756\362\002\275^Q\242\274b\2358\275\212v\261\274.7\031\273\240H\327\274T\nq=W\177\037=\2703\010\2757\037\006\2714\305\236<Xd\035\272j\340,=\324\200\337<\257\353\221\275]\377\207\275^\005\010=\261*\260\275\307\240\242\275xto\275\374\202\204<r&\223\275\335f9\275\203\204\303<!\024i\275\272\266G\2752|\241<\362\221\316=\240\220\216<D\364\201\275\031h\024\275|\361-\275\250\364\034\276-7w=6\340{=\310\3224\275\232\rA=R\363\243\275\203\3468<\035\202\307<\363\246=\274\360\276\223<\262D\221=\273[4\275\2042\364\275\217\002\025>\0205\232=\212t:=\331|\007<\365\202\233;r\323\036==0\037>/m\347\275\254z=\275\322O,=4\375\365\274%\223\364\273f\177M\274\313\"\024\275\221\254Q\274\017\227\370=\255\317H\274\374CE\275\345\363P\274\025--\275\021\274\340<\247\024\r\276I`\353\275\335Q`=|\243\241\275\367\377\275;\216\3031\275SQ\212\275!$\260\275\340\026\301\273\333\003\332\275\322\273~\275\274\014\252\275;\342@=& \362\275\316\006\r\275\273\034\025=\310\322\353\273\335\006\020=vc\274=\326\'j=!\267\252\275<c\260<\236E\314\274\300o\316<\303\255o\275\014-_\275\271\320\244=\350G_\275fG\035>0J#>\260v\020<cv\036=\340\312t\274wT\007\2757\217\246=\177wa\274:\337\335<d\327\363<\\:\023\274>S\007<\336\324\321\274kGv\274m\261\375;\313\0021\275_\000\360<+\241\030=zz\"=\nZ~\275K}\331=a\237\013\276\3738\'\275%i\016\275\nW\235<\0230\367\275xR\025=t.%\2760\321\271\275\235=\333<\225.\275=\226`v\275\021s\205\275\273\311\376\274\300\036<=\320U\300<?}H<x\255T=\001m\006>R%b<\\TY=\225\275\223\273\211\373\234<\273\213{\274PA\201=O+\016=vw:<U\375\240\275\346|\250=f2I\273El\206\2753\007\251<\026\016l<\020\341t=\231,\215\274\356V\254\272\246\373\343\275\256\361\354<\024\323\377<\370\2438\275q\216X\275\262h\345<\246\350]=\036\276\354\274\271X\t\275)D\264;\036\257\270<\354\354\251\275\2402a\275\346c\352\275\017~\363\275f\033\t\275\371H\323=\r\255\250<\326\210!>!KL<\033X\367\275\374^\004=\221\005\322<{\220\254\275\345\026K\275.U\3469\3475\206\275\375l\204\275\320\243.;nJ\362=\354\016\236=\340j\037\275\004\177\006\274\007#\000=N\357\272\275,=\230\275\017\247\210\274\333\216}\275\333\177\333\274\007\211\250<\344B\223\275g$\222\275AV\204=n\177\205=!^@\275\036\334\222\275\334R)\275\372R\246\275\205\271\201;\030\256=\275*\016\217<($\n:\351\347\024\274\276\343\004>\253hh\274\227\352\003\273\307y}\274\204\213,<\266r\253\274>\305\260\274\277\307\240\274\274\300\207<\t\302\272\275\264\357\344\273\257} \275\240a\301=\361\353\226\275Yf\201\275\243\207\352;\306\230\231\275,e\273\275\267\242\362\275WR\020\275\\\343\221\275\347\242\342\274\323w\031<7\255\373=<.\301=\310Qx\275\002B\361<\32293>\3544Q<\027M\225\275\223\222\316\271b\032\240\275\002p\312\273\036\253\265\274^\274\277<\314\201\215\274\271\241\026=\027I\211\275\300\311\343=k=\204=\0139C\274\024\374\244\275I\311\026=\317\3457\275.\365\273:\013\030\351\275\000\264\032\275M\362\214<\260o\204\275UG\260<\343\016\225=\3214\'=s\036\247=\227n\031<|\360\203=\226#\223\275\224q\303\275\\\235\307<\345\001\303=\024\207Y<\220V8\276\216d\223=v\355\261;\024\303\177=\202\362*=f\'\213\274+\n\023\275\177]?\275\006\237X\275\3633\265=\225\\8\275\356\016\326=\3241\237\2737P\247<\"\324j=\032\226\334<\331\370\344;\221\332Z<nV\361\274\034\320\257\275\315\302\377\274r\214\366\275\017\220\271=\033b\253\2758\223\310<\273\2761<j\013\235;\235\354\240=u\261\314<\307\320\265<EE\200;\310\'i\275\332*\033=\327\033\027\275I\327\305\275\rR|=\344\221\366\274\341W\023\276\254\244\030\275}\3208\274Av\003\275Ad\026=\366\337\271<\331\322\214\274\222\017\010=\335\232 =\022\211\326\274\274\326)\275\017jR=]\210\220=\356}\252=t\036\212=^\2264\2756\036<;<\377\023\275\333\335z=\205\231\357\273v\263\252\274&\324\242=E9\202\275dI\336\273\351\220o;\347rv\2756na<q\023\343=\271(\240=.[:\275\203\207\010\275\\\330[=-\325\032\272\032\232\240\275#\250\032\275\373\360\304<\227n\244:$\023\234=3\240n=\352\254\007;\240\275\023\275en*\273\006C\311<\274\236\207\275z\247\017=\214\036\357=\201@\247\275\267\326.=\267\222\236\274\3500\361=\240\217?\2755\362I\274\'\222\037<b]\255\274\226\034\233\275\277-\317<\3377\276<\305\017\312\275\021\364\302\275\t\236\"\273\312\331\312=p\340\270\275\337\324\206;.\323\234\274K\221\212\274P~\204=y#3\272\247\262\330\272\373\270-\275b\035u\275>\241\t<M\275k=+k\307\274S)\264\274\314\214\225<\337\3760;\306X%=\344\237*<\233\n\000=( \273<t$@\275A\261\233=\213\351\316\275{\330\005\276\t\200\320\274\321:R=\355\237C=\357S\304\275\234E\r\275\260\026E=}{\340;\002\210\031=\354|\026\274\351Y\005\276J\371\232\275ly\315\275\020\\\313\273\350\207:\275\030ZE=M\301\265\274W\360\001=\361\023\"=\225\021c\275\342\023t\274\256\016B<\217\252\025=R\351u\272\367s8\275\351b\311=\007\215\321=\242\254\366<\236o\217\274\000\3515<S\315\313\275\252\022v=\330\244\336= L\237\274\260\277.=\372fQ<\032e0\273\312)\025\274\263_\344\274\205\033\207;\016\275[\274\225\007\246\275\207Q\263\274z5\274\275>\n\256\273\205\241\206\275I\274\027\276\\\300,>\272h\205<3<\270<f\254\337\274\320\263\222;\\\3734>\261\320\336<C\375)\275-\025;\275\245i\270=K\020/\275\355\361\376=\252E\271=\275\266\217\274\353\247\037\275X\223\323<\005\267\275=I\025\363<{\327\312:\3262\331\273\010\326\225\275K\256\n=g\r\004\274\267Q\223=\177\347F\275z\005P<\003r\306;\314O\261\275\203X(9\374\3761<,Z\244=\242d\317<\366\304\3179\362\033\270=\016\276\t\274\3259\010\275@LV\273Q*{\274\342\262\272\274\201o\350<\364\r\r\276\243Hw=@\\\332\274\373\235\306<Z\365\037\275\0059\275\275\266\357o\273\370u =\320\252\277\274\264a*=\207.\370=]yt\275f\257O\275\240\263\204\274\014)\307\275\255m\326;\256\0307<\242\204\r<Q\235\023\2756\343&>M\t\036>\340i-=\3165\354\275\334f\332\274oF\177=\215\221;=Ww\372\275`\003\330\274f\217\350\274\265y\346=J\365g\275\327\030\340=5\331r\275F\214\260=\257\222\217<4O\212=t\0026<\003\003\300<\227\222>\2754\273\307<6\030\000=\374\377\335=\332X\"=t\363o\274\302n\307<\024/\360\274N\234\232<\034\020\202=8\010\234\275\034\2206<\376$C=\247.F=W\373&\276\0051g=n\247\314\274\016\002\221=\256\025\357\275<[\343=\243\2101\274c\233_<\032d\271=t\310\311\275S\353\006>\364z\227=\376,\214\275\346\202\006=J\017\'\271$\351\r>7\267y<\203]\211<;\026\266=\233(\363\273kTn=jT5<\230\200\366=m\037\020<\014,\360\275wG\277<\"G7\275\201%\256=\355\361\364\273\266\254\261\274\261B\304=\277t\330:\226T\206=\354\003\204\273\017\362\270\275\212\272\330\274v\3277\275f\327\330;\211IQ\275J/T=C\001y=\000$\230=Q\375H=l\245\353\275\343\321\017=\354\374q=J44=\235\036\352<\366/\306<z\027\377;\316\373\212\273\327\360d\275\313K7\274\322>\235=\227\035\245\275Y\365\350<j\275\237=\240K\016<Q\034\002\276\2257@\275\252\317><\207\313L=\210L`\275\274\3131=\035\372\331\272\006\333R=\nK\261\275z\036\025<\177\007\310\274\235\204.\2759M\244=\013\277\224\275\\3\213=\236\371t;\266\377\267<&\240\370=\355\017j<\000:\266;;^(=|W\035>.\371\241<a\223\021\275\247\201\221\2754G\336;\351>\332\273\003\373\n\2763\021N\275\347\210.\275Cr\216<\315\020\272<\266v\206\274\006Z\266\274~\024\"<\006\021\277\274\234\313\354<\342\202\371=B\243p=\214\320\302\274\315\233(>\332D\313\274\300\242\245;=\245\360\274s\201\306\274\230:\265\274`P\215=a\205Q=\240\001\312\275w\334\351\275J\001m\275\302OM=-7H>F#\254\275\033\233\013\275O\200\256\275\342\311\330\275\206\204\036\275\016\327R\275T\'#\275\226V\341=\3010\225<,(\331=\226@\307=\214R\310\273\267\327_=:\0148=\303\352\002\276\010\263\230\274[\330\263=\304\001\001\272\256~\306<\013Zb\275EQ\244\274#\3627\273S\370/=/\025\013<\025\243B=\t\201\332;.@B\275\203\037\022\275\"\330\342\275n(\013\276|N;\274]\273\324\274\241\357\021=\317\355\336\275p\214\260\275\317 \020;k\311\227=\330\267\205\274\213\371\246<\310R\320\275\313\314\362\274\341\220}=\307+\230<\036\023\373\274\361\367\304\274#\364\211=\365\022e\274\222YN=u|\262\274B\372B=[4n=\304\016p<4\211\242\274\177\205\231\275t\275\355\275X\355p\275\212\r\026=\341\207\004<\213M\201;#5\207\275\373Sb\275\223\025\355\274`\240\376;\235\203A\273\315\364\"\275u\007\223=\327\367\204<\333J\256<\251U\256\275x/)\275\303ui=\005\030\205=(`\225\274_\235)=\221\022\206\274\205\302\233\275\241\332c\275U-\227=\323\270\336<\304\360Y=\261\343C\274\235]o\275\360\271H\274o\220y\274G\214\311\274I\0346=\030ix=M\346\024\275W\244\212=;H\334\275}0\304\275z\256\003\275<h\245=\034\345\245\275<\221W:\210\331\241=F\237\200\275\370\317m\274\026*\242\275\005~\000>\330u\200\275U\377\025>O\007E\275\013j\253=;\372\207\275\275\n\214=5\306w=\344\362\212\275L\210\035=\265>\303<~\026\231<;\376\326;T\317\300\274r\301\352;\261}\325\274\035\335\177<B\024C=\267L\034\275E\275!<\2321\204=\264Z\334=b\265p<\204\214\302\275\303\270\316\274H\346|:K0\362\274\000\336\n\274\000\021P=\013\312s=\330@\031=\014\240\277<\374\275\300\275u\316\200;\\pQ=\216\350\343\274~\204N=o|G\275~\023\267\2750\324\210\275V\021\210\273fY\275\274pe]=\265\376 >\313\273\311<1\177\250\274$~\327\274\030\253\302\275\330\007\244=\300\223\267<\2612m\275+\323\252\275\315\006\335<\347\244\344\274\242\233\001\274~\331\213={m\253\275\237\034\035=\300)E\274\242\335\223\275d\273\276:\030\264\376:\236\240\256=\323\t\322\275X\224\345=v\346\227\275\014\365\324=J\347\255\274\"\373\257\273\216(\266==\322\304\275\220\262\310<\204@\254=\032_w=Sm\204\273c\300a<\207\362\367<\027\013\213\275\237\276(\273V\362\331=\203\363\365<:\335(=\364\330\336=\336\003\263< L\271<\374\n\236\275I\242\006>\363\315\245<\331\311\r<\215\366\347<\275\2711;\303\rz\274\200\033\203\275\204\235\375\275T\230\317\275)N&\274k_\325\275\335\033_\275*\277\253<@P\025\275]\343\274\275\246\241\031\274`\nF=EO\330\275d\267\177\275Z\036\212\275CV3\275\364\277(=\001\266\315\274rr\230\275?\301\034\274\2204,=R\227\210\274 \327\215\274\232\320\213\272J!\n\275p\354\261\274\346\013\334\274`W\334\275\245\270\373\274\265\'q\274m\010\260=\024u\206;\264\200\241:\315\345\022\275_\247\215\275|]p\275\244\311\342\272\347\331\016\275\225\335\307<79\t\274_\217m=@\376\342=\017\352\247\274?/)=?\256\226\274=B\242<\230\036\276\274\030Q\013<\354\021\254\275A3\326<<Q\005\274\226\311\230=L9\226<g\217\231\275\004\021\200<\202\250\037\276V\235\315\274\257\313\273\275Mn\323\275\025Z\372;\254\353\326\275\244\341\017\274-\025*\275\211(\342;x\357\341=s(i<E\364&\276s\310\036=\330\250\307\274\023H\205\275\274\234\271<V\243<<\345@X\272\002\355\230=\376?\210\275\213Y(>\376\2704>\230n\343\275\002\252\212\274\344\320b\275(\022B\275Pc\261={\212\212=\001\227t=\036N+=\267\201F\275\336\210\352=P\021\226\275\2173\265\274\262\324\322\275\221\352\205\275Y8\366<\377l\374<\327\372\334\275\0021 \275\377\220\214\273#\307P\2755\005\255\273\215\007\205\275\3329]\275\226\310\211=Z\010\020\275pSj\274\366m\205=\256?\310\272\275\001|<.\305\277\274.\211\245<\301\231\"<@\033\321\273\307\006v=\277\204\245\275\3461\344=\2031!\275\031\375d\274>\315\236\273\270\275v=\237}\254\274Q\302T<]\314\243\274\'\226\222\274\325j\236=\021\034\346\274\344\275 >\306\"L=KI\203\273\000M\343<\007\365\246\275`\271\305=p\204F\275\375H\027\273\275u\221=7\242\245\275\344P&=x\274@;/+e\27576\021\2750\371\231<\200wm:\225a\204=\373\305 =M\031\306\274n\331\263=\036\t^\275\340]\226=\215\202U\275\343_\212\275$u\'\276z\275\210=\343\037\371\275W\240\206<z\320@\275$\261\303<[\215\262\275\300\253\261<%4\353\275+k\305\27427\321\275\355\332\346<h\337\023=\373\334\034=S\320\265\275\217\035\217\274\206W\010=\rMZ=\227@\352<\010K\"<mFH\275\376\211\315<\362\r.>\230\016\272<\233b\207\275\032\323,=\013\004\022\271\0221m\275t\005\360\274\266\027&;@\271\254=G\277_=\004\rh\275U`\201\273K\257\253=\025D\005>T\354\273\275X\303(=Z*\340<\305\320\t\275\243\371\220\275i\033\240=\275=\223=C\322\017=\226\r4=\232\263\211=\352\306\026<\2652\023\275|\013$\274\\Q*=\260\215\244=\311\300\302\273O *\275\204qb\275\376y\213\275\024\334*\275\303Z\003>\203A\006\275\302 \017\275\305\212\250<w\242\206<\303\227\033\2765\3261=\332\333&\274\260>\230\274\312{\257<\013\307\251\274\000=\370:\321(\001\2741\035\035=0kS\275k0z<&\021\207<\350\311\361\275\2178\355=\rCb;H\316\251=\315\251S=I\003\211\274\232H\313\275\203\343\201\275-\352\375;\030\301\365<\337&:\274p\225\006=3\202P\275\016,\302=\367\353K=\226U\032<m\252v=ic\306<\304@\013\274\333\367\237<\006\247}\275\275\320]<\202\306.\274\200\352\364\274\235:\342\274n/\315\275\032\331\274<\307}-<\036\314\306\273\037\270]=E1\207\272~ +=v\242\204\275\351\365)\276\245$\277\274\300\t\244\275\017\252\322\275K\"#\276\341:\n=\rX\r=\256\300\033>v\366j=\033\271\031=\237Z\251\275w\260\236\275\024\320\034\275\rj\203\275\362\202:=@\345\020=;O\303<k\314C;9m\243<\270\2530\272\221\224\036<U\312\313=\326\240Z<\356l\353\273\356\272`\275@\222y\275\343\033\252;\320\336\250=]u\371:\306\256e\273q]\243\2749\265\254\2746T\\=\001\245D\275r0\016=\030i*=j\303\260< \256\244\274\2258\366\274n\226\221\272\366S\373<=\313G=B]{\275E\205$\274\232;0\275\276?I<\262\264\034=\357\254y\275\200\033\367\275|d\254=\370gw=gg#=\307\250\325\27527\325=Wl\246=\2216;\275\314\301\"\275\004\177\223=\220\252\230\273F\366p\275\364\376.=\224\261?<{\304\027\275\3316\257=o\346\201\274q:b=\366\2546\275$6\255<>\014\304=Q\251u\272\350K\237=r\302:\275B\251\331\273V\343\332=\232+\221<j\t\265;\226\305\t\275\264P\242\275E\317\014>\016E\032=\006\001\315=!\273\013\275:rP\275\243 G\275\030\033\217\272?R\266\275\'\376]\273gdR=\274Z\001\275\266\305\355<\370l\315\275\373\277\215=<x\005=\3318\331=}(*=\266\025\240\274Pc`\274m\360\343=\260\314\316<7\227\301<Q\\\273=\275\201\027\276\221\232.=\031*\010>\230\024\364\273\024\333\221\275\3730\203=\007\267\200\275\362\252X=\274\371\\\275\020\006\212\275\342\3271\275f\216:\276\017\352\224=\354g\333=c\274\333\274O^\227\275\026\036\031\275\020\343\243=q\272\225<M\256\363\274)\2718;\013\257,\275n\324H<}\356\007\274\003\021\032\275\020\217\270\275L\340_=\220\260\335=\034e3>\220%\010\274\333\204\021=1,9\2753;\377<*\225\276\275w\202/\275-\261\016\273>\236\036\275\350\024j\275P\303\204\275^\377d=Q\251\362\275\3366O=X\266\267\275n\312\261\273j\032\335\274\251K\026=8E\t\276\352;m\275\373L\266=y\302\344=\362\004\236\274T\304\305<\310S\310=|Jh\275\266\353==\237\177B<@&\340;\r\202\363\274\374c\207;\007\272&\274\005\325\300\275\227M-\275\253\360x<R\021d;e\246z\2743\2501\276\202\374\231\273\n\250\302\274\312\232\250<*\273\027=\036\345P=\254L\305=V\273\204;\230\003(\273QK\026>\365@\316\271\031]\231\274\270\364\351\274Y\003\220=\032\314u\273\341\363f\275\325\210:>\3237\223<\026\352\216=d9w<^0\032;n\235\355\274*u\245\274\214\353\032\274\025\216x=S\326\265\275pH\204\274P2y<mN\221=\350\345G\275\020?\272\273\244\014\\\275\357\213p\275QU\205=\247t\333;\244\206\274=\035v\357=\207\361q\275\247!\376;\307\326\227=\303\250\n=\223!|\274\033{w=1H\245<$\031A<\305\272\346\273(\212s=3F\317;\372\'H=\2539\026\274:T\201\275x\337g\275\361p\'=\267\351\035=s\000\211<\236\245\217\275?\265\010=\256\332\023\275\024\362\321<\300\000\256<\330\244\034<\225\355R\274&Q3\274f_\036<\267\267\324=\243\315\005=\364\316\003>\314\332\200\275\364\213\023\276.\016\345=T\335\215<\354\017\033\275m\327J<\363\310\240=f(\025<\215xN;\262\250U\275\220\321\r\276<\241\312\272\007\373\364\274u\263\301\274\344:K\275\227\270\363<~\227\320=\230\353%\276\237\007)\275\014\302\336\274\371\035*<@\024\200\274b\264\n=M\004\365\272/o\201\275fk\004\276\277\035u;E\343\371<\0256\316\275\212\316\n\275\016\275f\275<Dv\275\010nS=\016\355P\275\216}\375<\232\271\336\274\215\3101\275\334\374\232=\226ET\275n\017D;\260>%\275Q\267\247\275\372H@\275\333\tQ\275O\2305\275\314\222\255\275\374\264\022<\332\216.<\021b\347\274l}\013>\331\373\335\274\255\213w\274\020@\306<\370X7<\376\275t\274\324\367\002=+;Z=\273n\207\275\330^\222\2751E\343=-\276\261<\374I\020=\251n\237\274$~r\275\211T\200=?q\360;\035\312\355=\027\006\313\275\005\373\\=\000\027\215\275\351\274\304=\210\375\023>\215\320\242\275\323\\h\275\374\017\200\275\217\241\241=\232\213#<\2262\274=\004\232\256\272\255\222R\274\202\343R\275X\306\316<.9z\275\300(\244<\0013\3147\277\267A\275\211\271&\275\203>5>\244\346\260=H-6\274N\350\027\276\273x\232\274\245\0271\275kh\206\275?u\'=\316{\000=\362_q=Qe\231=x4`=j\332\002\275\342\017\240\275\016B\253=\220/(=>\233\313=|\247\\<\220\271g=L\276\251\275\340\230t\273\264li;\260\037\030>\260f\t\275M\331\247\275n\010V=\223\3608;\264\327*\275V\307\232;(\373\332=\313\277R\275\276\"\035=\030\314\037\275pod\275\t\300\303=>\022-=\272\253\203=.\371\223\274~0\327<npX=\372u\216<\247Qd\274\242\232\224\275\"6\227\275\244\201\004\275\276_\t=\221\025\335<5v\250\274\251y\252\274\305\350\013=1V\205\275\225+\032=\211\255_=\353\'<\273\255\326r=]$+\275+\200\273\27374\270\273\371\271l<T\020\205\275\016\375\327=\254z\265\274\027\374\'=\322\272%=r\021{\275\312\244n\275&W}\275\307\325a=&\255\215=9\337\207\274d\265L\275\270\\o\272\221\n?=Q\006\274\275\251\363\306=\365\'\221<\346\365\216=0r\340<p\344\005\275\256\026\232\274e\002\027\275\035F\r\273\260\343\242=\341b\325=\370\210\337\273\204Ut=gq!<\3759,=\3505\t=*f\235\274%\234\377\274|\345\234\275\343\001\000>jhU\275\014\270\275<\n.\353<d\261K=\320Dl=\354\245\343\275\373\224\225\275f\004\204=A\344\006\275\205\254`\275\30428=\342w\272\273\304G\274\273\347\337\333\274\360\202\221=PI>=\257Q\250=\301\275\301\275\327\004\360=\223\027k\275\036D\231=\373\252Y>\365\353\323\275\371D\002>\250\254\303=\342Nv=\233IV;w\035\r\275\207S\021=A\237~\275\336Yd=\277^\355\275\212\256\305\275\020\257A=o\320\r=\273\023\262\273\247\355\316\274\273\364\007\275\253D6=\346\324\023=3\201\301<\304\204\017<6\334F=\356nV\273>\2540<\206#\260\275/\317`\275\335z>\275\246H\013\275zI\216=(|]=\332)6\2758\211a=i\t\264\275\220U\227=\360\264\374\274\344\300\316<&\216[\275/\256\353\275J\221U=\344\024\037<\013\245\222<P\222\033\275\030\263\210=\000$6=d\022\t\276[\262d=/^\001\275\337\337\237=\0372\204\275\302\370\00193\267\232=\024\272g\275\234B =\200\315\211=\271\\\006>\260\214\244=\003\261\206\275J\340\'\274\234(\215=\240\317/\275A\362\251=\214*\231\274{@m<}\207\217\275\256\223\026=s?\250<>3\210\275\322\211C\275\331\245\246\275\222\231\377:0{\367=B\340\206<O:\304=\265\355K\274\025f\324\274\031\205\345<\365\t\361\275\201p\252\273;\252\270=UB\321<] \222\273\264\255=\273\004\221\252<\310\230]\275x\206\n\272\370\270\021<\350>\246<[g\216=Vn\306<\251$\234\2732\000j<\207\321I\274/\026\304=\315(\377\275\365\0209\275\313\257U\274\2242p\274\360r\221\274S5&>>\210x<\213U3=\3448m=j\023Z\275\363V@=d\241\006\275\nB\373\274\035\202\270=\\\305\231\275\313E\327\274\310s\332=\315w\324\274\370\374\020\274\006?\230=$\025D=\200\016\020=\322\206\341\274\200{p\275\337\017x\275\226\032\321\274\226A\333\275?\017\245=Q\277I\274E\230\353\275\211\230\212;\251x\201=\364`z\274\1770$\276hK\372<R\225\311=\265N\006\275\010E\347\274F\035\003\274\024\266\357\273P\302\314\275\r!\230=T\035^<\315t\210=q\354\322=HfH=\024W\204=<\035.\274\271\037H\275\2648\177=/\224?=\336\256F\276(\234\261=\364\235\\=-\271\231=\331}\204<\371\322\252\275\n\376\346=\016Ef<\326\010\257\275\324\275\221=\250\210o=\200W\354\275\3600\031=\341Cu\275\3015\250\273\3574\214\274$\"\254\275\034J\267=\214\377\"=\363A\201<\373\377\204=\344m\217=\316\322\257;\331\033^\274\022\006\331<\322Hs\275\356\332\274\271@\210q;x4E:I\025\032\276\216I\241\274\324\013\322<\334q\230\275h\214\022=\236\351\302=f\226\242\275o\317\320\273\345\014\214\275\r\223I=\306rr\274!t.\275C\312\266<\262\305H<$U\025\275\353\207\211\274G)i=\346\222\325<g\330\221=\220\254Y\275\202\t->\210\330\311<R\016\350<\370\021\222=-\264d\273\215$\264\273\245\270\021\275z\003\321=\014\255\202<\340S\274\273@l\220<8\252\246\275\230\354N=\343\'i\275\321X\260\275\251\002\025<\331\376\277<\031G\374\273!B\305<\226\204\212\275\323+\366=\362\021d=z\212\225;\'\352W<\221\270\303\274Nm\271=\367\342\276\275o\025j;f\266\t\274\232\034\341<T\025`\275\000\206\353<t(+\275P\201\035=x\022\177<H\222\253\274\002T\006\275*#\022=\246\272\224\274j\321\235<\202\242A\275\\\370\230\275^\003\323=\001\326\322=\"\322\231<\352\337l\275\206ow=\300\230\264\275O\371\3609\025\277\365\274\273O\322\274A\270P<\375A\357<\376Nb<j^\211\273\346\276\331\275\231\261f=\271\200\016\273\2002\233;9\210\037<]W%=\215&\204\275W\255\262=JK\351\274z\271h\274:\037r=@@U<\217\253H\275\036\2658\275\226?5\273\223Q)\275\320^\233;\332\211\250\275\3572\213<\022\345\256\274\013l\322\275\003(z;\340\366c\275Io.\273\217\230Y\275\224\207\262=\027\026B=\300\240\036\274\370\037\017\274\376K\341\274\330M\226;\330h2\274%#\036\275\273\347\312\273\3042\013>2\315s\276P#(\274\257\215\204=\347\350\n\273\014\213\233=\251\317\207\275\236\245E=\363\273\206<m\351\224\273\353?==\231+\210=\250\277\205\275\266\325\303;=\226\t=\017\016a=TDT=Z+R\275\321~\033>\3537\222\275p\236?>\327\270)\275^\375\265\275J\364l<\245=\262\275\242\274\263:\2470@<\2239\214<f\311\276\273\010\254\262=\373.\341=h\0319\275\250\t\020<\t\260d\275,5\004>\261m5\275\213\377\033\275\n\346\000>\'(\350\274\350\004i\273\3575\202\274z\326\024\275/@-\275\350=\021\275[]\360\274\"\347^\274\372\347\251=\343\342\277\275\217_A=\r\341\235\275G\372H<\321\033\350\274\217\342#<\3220\215\273\207Fr\275\014\177\377\274\216\034\r=\200ph=\213\372\n>\211\221\277<PU\376\275\276\263\026\275\177~\016<#\350\272\2733\201\254=\340\335h<\303\2457=\202\310\275\275(\372\034=\322\253\016<\0228\217=#,\324\275\273\260\223=\372*8=\255kY=S*\206\274\333h\276<\273\207\240\275\312\016<\275R;\216\274\2124\325=\001\017*\274\364\t\177<\235\303\355\274pQ\255=\353\353\206\274\2162\017\273\"\375\320\2740\"\t\275w\236\031\273o\274;\272\310\305\377\275B\010\205=\r\"\335=^\332f=\315\244\302\275\2566{=\275W\341<\023\331\036\275Y\221}\275\003e\201\275Ex\266\275qR\207\275\204XH=K\334\217\275\214e\207=\026\233\242\275,\002\016\274\2264\246;n\353\001\275\236cj\274\203\367s\273\231\275\033\275\222\246\321\272\245\211x<\000q \276\357\275\242\274\373I#<\236\263\260\2745\364\340\272<\312\222=\3624\032\275v\302r=Z\336>=\326JC=\030R\033\275\rEr=\212\257\275<\234\277\267<\355UW=\223\256\025<w\304\232<\350\\\232\275y+\220\275\201C\277\275X\350F\275R\270z\275f\215[;\223\247\372=i\321\354=K3\231\275r\273)\275Y\322:\275\302\266\233:_\363\356\275\226\263\203\275\250\350\026=\364\037t=\326\232\277=\305\2735\273E\344J=p8\263\274\276\274\322\274\246\214\223\275dt$\275\377\000\225=-\227\222=\236%\204\275\242`*<m\245\021\276\332\310}\274\243Xm=\036\036?\274.\323\352\274\255\343\211=\256\251\224<\337$h=T\336\361=\200_\037=\203j\022\2752z\n<\t\202\277\275\001\302\243\2745\244\235\275\212>p=\343\022\341\273U \257\274\025\375\217\274\363F\005<n\210\262\275=^\356\274\245\013\322\274X\033!=\231qn<\313\025D=^\363|>V/\245=3\372\313\275\3272\254\274\350\254\026=.\004C\273\253\257\271=\355c\"=\276\205*=\014\031+\275\017l\\<\206\036\001\275\306Wl=\354\307\030\275\376\344I\275\273\031\005\275\332\250\205<\232\025\200=\311\267:=\016\032\036=w\213\235\275ms\000=n\257\313=\032\326\013=\202]\027=\006\237\r>\267I\000\275&\030#=\\\325\374\275\263\033\234<L\342Z\274D\230\213\274\300\001\026;\321\372\211\273\256\024\363\275\335u\023=s\333\213=\226\034\257=e\245^\273>c\336\275\372w+<\210a\177\274\247A\340\274\377:\200<m%\377<\306\224\024<j\314\017\276O\035\341=E\343\236=v\243\243\273\232\233\262\275mv\002=\363\304\340\275\275q\326=\220C\361\275y\3724;\217}\237<\205\337\215<\307d\351=\354\214\036=6\327\356\275\354s\227;\r\373\000=\257\237\354\274\311L\222=\032\277\361;_]\300\275\204\331\211=\356g\222\275*g\n>S#\253\275\303\334\366\274\024\213\261=-5\204=c\013\207\274\334B\307;)\2533<m\243\203<\254\355\225\274\2174\305\275\344\240\330\275\335\347U\275xp\312;\335,W\273\\\212\313=\225\255,=gm\252\275#@\344<\272w\223\275\236V+=4h\350;A41=\245\006\027\275\004f\272\274r\265\355\273\240\276=<\216G-<\367\321\247\274!X\243\273\376\254t\273-\345\225=\236)l=\266V1=6E\255=\324\322j\275\275\026y\275.w>\275\242N\320=zxq\275\023\251\233=Jf\354\2739\005i=X\347\004<\301{\375\274\300\365}\275\231+\352<\235\022\212=\2740\264< \237S=\335\0352\275\354R\331<\315\344\235<\023\267;\274\303lZ\275g\277\035=Ne\312\2744\".=\205\375&\275\006\326\254\275\313L\007=\336\026\243<\243\332\313\275\246\354\016\276\273\261\306<\241\205e=>\355>={ \315\275K\032\031=\272\023\273\275J;\003=\365\312a\275\033\002\005<\3732\002>g\226J=\235\022\362\274\242\027\'\276*a\216\275\037T\332\274\223\003\364\271\\\367\004=\354`\240=\"\224\025>\345\r\315<\340\'\303<\331\016\353=Q\375\244\275\022\235\264\275\263\036\264=\0328\022\275le\246\275f`\007\274\362\264\016=\236\353\360\274\213\207K\274\036\335\006\275\357\236\032\275\331\370\223\275\212\036\245=\335\321\340=\265\313/\275<c\263:N\370D\275\342B\371\273\227:\334\275\250\335\315=&\265\007\274\314]t=\362\341\037=Y\204\331\2742\177%=\326\205\020<5U\346;k@\241=\257\027\213=\234v\023=\005 Z=\034\232\220=Q\276\335\272OB/=\257X\377<\343&\233=\'GD\275`\270$=\010\302\001=\306-\377<\326X\233<O\t\313<\'\234\252\275b\354l\275\207\017\"\276\003\206E=7\025\366\274\307,G=\355\004m<]B><XN\000=..\013\275\352\366\240=\304M&\275\322W\024=\331\334\023\275\200[e=CJ\337<\317\251\302=\334$J;I)\013\276\272\263\031\275OL\272=*\242R=\013\315\260\274\320\013\023=\211=\004\273\230\310V=\'\306@\275\213;\224\2754\201N\275\020&\027\275?\205\235\273{\211\316=\353$\3259\362\ta\275 \276\266\274\251\327-\276zb\014>\217d\205=\257\004\212\275\364\037C=}\025\366;\016\312\226<f\016\230=}0 \276N\r\226\275H\336k=\202\367\214\273Dy\333<o\343\276\274%<^=\225e\013\275j\200\274\270\364\350\234\274\013Q\343\274\244\341\215\2745l\204=.9\250<\t\364\t\275\307\216]\275\233\037i=\370\"U\274\256\336\376\274\361\276\376<\2125\024<\001\244\271\275\333j\261=\\\261;\275G=#=\211\335\204\275\001\306W=\034\305\004>uO_=QA\024<w\224\227\275\021\300\206\275\027\235I\274\364]\025\276\241\335\215=\027G =Rg\022=\206a\345\275Yo\255=7\014i=0\240S;\252\322\n=\342\303\365\274\314\236r=\000d&>@\232\327<On\347;@?X=\'\224\n\274\332\207\246\274\327o\224\2754\322\202\275M\\\007=\204\005\027\275\246\264c\275{\201\367\272r\032\267=D\005\245<\243Q!<k\344\004\275\024\004\276=\341j]\274\332\253\336=\200B\216=6)\217;\2032\374=5\262\345<\273\016\225=\323\357Y=\331\307=\275c+\235\274\033b\260=\332\261\212\275\214C\344<t:x=\305\200\246=\337\254\326=\345D<\276\002\2303<-F~\274\201*\001=ji\216<L\245X\275\273p\036\276p\010\023<F\332\220;i\241\262=\030\364*=MGQ\275z\013\313=\262\027e\274.\332*= \207\207\274\313i\220;\033\350(<\027{\034=\212\245\301=\210~o<k\320\017<\205\n\317=uL\316\275\310\317\215\273\265\307^=b9\230\275\243\221\222\274\2667\231\2754Bi=\241\260{\275\013.u=\223\007T\275\346\234\276=\366\342Y=\244y\224\273F\036\002\276\323\\\n\275\373%a\275<\352\320<\336B\244<\262Q\202\275\004\310\261=4\211\243\275I\326\035=\364t\342<\301\350\336\274EM\031\273\002\343\267\274\"!\025\272\'{\031\275\020\341\016\275\352/\'\276[z*<d\245\256<!M\316<\023\316\341<\347\270(<xj\242\271\256S\315\274L\201d\273\027\333\344=^R\241<I\312\024\275\226\326\035\275\026\314\004\275\327\277\374\274\260U\010=\322U|\275\014\326\014\273\361\2627=Z\3211\275\022\373\346\275\364\206s\275F\353\235=\370\232\367\273!N\205=\215Y\262\27466\377\2701\014\224=\222\312i\274\353\317M=\352\273\014>Z\234\323\275\000:\034\2750%\030>\014\222L\274\366R\240;\217\017w=Y7\275\274\273J\004=w\355\033>\336\355R=\027\203W;\004\202\033=\216\272^\275\310\271\030\275O\t\212\275\304\027\276\273\205\260\315=\370!\002=,<\316\274\341\302\347<\251\222\261=\354\016\313\274\262I\202<hH\363<SY\021>\327\204\361<u\001\343\274J\004\365<\025\361M<\003\033V<@1Q\274\340\325\262=\316\n\317=\335\001$\275\375\326\215=,g\020>E\337\341\274<-\037;\307M\252\275\t\250\031=I\203%<\rf\210=V\271\266<R\241\270\274h\203\311=t\360I=\370+\013>PT\377\274g\020\212\275\3436\351=R\273\320\275\206\304\n\276\251\017F=\002\346\201=\215\021\276=@\337T\275\362\0304\274n\341\236\275\263)\223=X\261|\275\312\006d\275Ej\245\275\237\265\014\275\340\377\034=,\317\303=6\307\260<\"C\013>\000@\216=\244qF\275vx!=\220\340\023\275\347\006\330=&\373T=\333e\322\275<\320\t\274\227_;=2\303\327\274\315\276\214=\375\013\325=\212\364\036=\006\002\001>\007b\'=5\022\262=`\304\200<\210\247\r\275B]\357\274\r\314`=\312\021\256=\344i[\275\342\317\235=\3323\307\275N\254\217;=\001{:\342\315S\275\373\254\231\274{\203\211<j\214\032\275\322\262Q\27563O=\027\223\210\274\332\006\227\275eH\364<\351\031\261\273\n0Q\275\003\261\211\274\260\270\307\274\021\240\253=%\025\276<LVI=\004\351]<\322\247K=\207\t\263=^/\215=d\233\312<\026\\\365<[\254\313\274\227\370F\274\363i\027\275\354-W\274I\364\351<\003\271\360\275}\300\271:tp\375=\361}e\274r%\237\2739\275+<u\n\r=\337\341g\275M\336;\275j@c\274\242X\357\274\354\260\370\274\026\276\212<\261\222`\275\213\236\217<yw\202\2743n\357<\354\267\321<\305r\317=\245\315w\274\352\356V\275bm\202=\027\257\271\274z#\200\275\202\320\230\272\007\305\244<\306\231\312<B\203\030\2758$*=d&\277\274\037\310(\276\243G\211\275N\021(\275\354\307R=U\304k=P_t\275VY\231\275\216}i\275\036-\022=\254\234\036\276)A1\275\035\177\326\275\214\240$\276\326\221L\275\372\220\020\275\023\362\013\275\177\352\336\273\030D\240\274\223\020\030=qR >Z[\311=\314\010\003=s|K=\335WD<\257W\210\275\274{\216=$N\256\274\262$\244;\010_\202=\325\354\245\2749\017\343:\216J\354<\246\340\020=\231M4=1\317\236\275\216\314w\275\337^\304<\227\260W\275\360\240\216=K\216\227<J\362\322=G\311\325\275\024,h<B\322\231=\277\205\007\274\314T\264\273\262\312\013\276/\327\237;|$\t\275K\365\000\274\275\314c;\215\023\245<\301>\352\274u\n\220<.\222f\274\223\3515\276\343V\255\274u\234\373=z\2633=>\035.=%l\306=\231x\217\275}t\324;\265\272\341\274\247\365Y\275t_d=C\023h\273\t\033\032=\245\350\236=\247T{\273\256\327\003\276\323\to=\336;s\273E\236\223;\300\016\314\275\224;\014=\230\333\032\274x\201\246\275a\321J\275mb\352<\327\033\235\275\377\211\020\275\323\265)=\354\355\307\274Z;\027\276\341\204\260\273\260\'\351\2721\211j<L\305\021\276\377\321\020=;\205\r\275\254\3749;\241\230g<o\263\237\272]\237\332<\031\317\001=\306f\276\275\026+\301\274\022\300f<\253\254\325=O\323\237\273s\206V=C\034!=\243J\267\274~\\@=b\'\300\274Rz =`\302\234\274YO\301=\274\237\244\275#\245\021\275\374\035F\275\262@\256<E<\247\275V|)>\254\346\242\275\221\202\326\275-\001\033\2759;W\27505^=4mx\275\352\027A=?}\006\275\274a8\273\252\316Z\275\243N\017<\277{e\274\303\303\314\275\340b\231\275\260ez\275\303?\230\275\263v\007\276\2074@\274pr\260\275\332\271!\275K\250M<\004\301R\275\221]\r>\002\020^\274\234Ot\275\232\022\323=M\220\364\272\204\310\025=e\361\201\274(\347\236=G\363P\274?\277~=I\374\320\273\227\034\033\274\265\3034=h\215\225=\274c7\274\352\2620=\2470\005\275\235\331\023\276\336\266\254<h~\222\275\241=~\275\326\342\325<^\247n\275\242\r\373\274l\371\216\274\320\262\255\274\211\335\217=\212|\354\274b\327 \275\254\3139=\250R*=\204\264\262\273\022\367\021=V~\211\274P\371\361=\235\315\004\275\353D\332<\255T\234<\252w\365;\344\307\'=\312U\222=\351\223\214\275\303\313\207<l$\342\272\366\254\243=}\266\271\275\255t\364<V\006f=cY\303\2742\273\023\275\253k\013>\312\255\250\275\222\310\212=\016\021\241\275+z\352\274\366\\\010\275\252\263b=\352|\321=\344\270\273\274\377\374^=}y\306<\232\353\312;\2211U\275I\356D<\006\233\256\274>JT<\300\322\360<\323\373\357\274\316\335\300\275g\001\226=\230\215\030<\230\215\023\276n\313\210\274\000W\217<\034\331-\275O$J<\020\275v\275\256\017\252\275\263\335\375\275F\361?;\300!\211\274d\023\240\273~\"m\275\260\365\023\275\002Ez\275\376L@=#\016\250\275\352\207\031=\375\2314\276\224_\211;\215\253\336\273PT\205\271\240R\204\274\245:F\276.\035q=\r(\277\2750\227\254:\004X]\275p\362\204=\267\240\014<\361\255\333=\373\235!\276\202N0=\333\346w\274\335\260@\275\016\207\2138\267-E\275>\014,\275\325\270\177=e\264\232<\221\334n<\026\226\354=\355\034\215\274\002/\373\275:\236\252\275U\343\336\275\215\023\221\275G\016\273;j\267I\275\021r\206<a\020C=\323\016~\274\2527\227\275\322v/=\373\035\010=Z\215\276=\354\254\246\275S\367K=:\034\322\275\031*$=@-\202\275\276\320R=\257\277\324=L\261\223<\304\250p=\241\242\334=\331j\307\275\367\344\002=\310\334\243<p\200D;4m\3059\006j\327;\010\"c;k>\360;Q\026\346\275\323\317o;K\243\017\275\3118\211\272R}x\275\274-Y=@=\313=\321c\223\274~\244\031\275\324\177\014=\337\230\202\271}\235\244\275y\206v\274w[\223\274\r\200==@\300\350\273\324ly\275b\243 \275,\252\247=\037X4\275\024\010\211\274y\035\270<\277\375 \275]\017\312\275}[\327<Q}.=\201\313/\275D\352\002>\371+f\274\227\213I\2759\334h=\242F\314\273\257j\003=c\362\371\275H\233\301\274\221}-<e^\330\275>\272\320\275\354\314\242=\306\240\305<\273\027\312=FaA\275]\356\232<c_\222=@A\255\274\330\325\032=E,