node {
  name: "keras_learning_phase/input"
  op: "Const"
  attr {
    key: "dtype"
    value {
      type: DT_BOOL
    }
  }
  attr {
    key: "value"
    value {
      tensor {
        dtype: DT_BOOL
        tensor_shape {
        }
        bool_val: false
      }
    }
  }
}
node {
  name: "keras_learning_phase"
  op: "PlaceholderWithDefault"
  input: "keras_learning_phase/input"
  attr {
    key: "dtype"
    value {
      type: DT_BOOL
    }
  }
  attr {
    key: "shape"
    value {
      shape {
      }
    }
  }
}
node {
  name: "LSTM_1_input"
  op: "Placeholder"
  attr {
    key: "dtype"
    value {
      type: DT_FLOAT
    }
  }
  attr {
    key: "shape"
    value {
      shape {
        dim {
          size: -1
        }
        dim {
          size: 180
        }
        dim {
          size: 8
        }
      }
    }
  }
}
node {
  name: "LSTM_1/kernel/initial_value"
  op: "Const"
  attr {
    key: "dtype"
    value {
      type: DT_FLOAT
    }
  }
  attr {
    key: "value"
    value {
      tensor {
        dtype: DT_FLOAT
        tensor_shape {
          dim {
            size: 8
          }
          dim {
            size: 128
          }
        }
        tensor_content: "~U\247\275\"\206\304\275_?<\275v\017\3249:u\324=\006\231\263\275x\024\255=\307\254\271<\330\317\024>}\\+\275QC\367:H\364\326=6\333\370\275\204\010\351\275\353f\026\275]r\021\2724\222\216=\325N\221\2747\214\006>5\025|=\202\361\307=\301\200:\275\230\217j\275aF\251\274\313\272*\275\235\273\r\276[\371Q\276$\335\217\274\322\367\270=\312\233Y>\217\323\344=`I\007>\226\262\314;\016D\232<\t\270I\274\257\362\377\274\375\316\025\275\251F\321=\004\321\217<\315\0300=\\\230\260\274\033x\360<\232\361\020\276\3007\213\275\221\3408>\017uB\274g\245O\274\213\220\266\275,\262\007>{\261\365\274\3070\331<\224\252\017\274\352\214\031=\206Z\014\276x\260\032\275K\223\343\275\031\225\325=\270*\255<4\254|=\021\237\217=\217\010\006;E\377\266=\177\361x\275\353\373\005\275{<\007=\276t\310\274eW\230={\320\000=(p!\275d[\315<\224B\'\275\254\0253>G\034.>5\231\266\275N\215-\275\034\251\'\275\271\004\337=\376t\023>\361\t7\276\2605\220\274wT*>h\332\233=\247z\007\276\320@\377=\002\225<\275\312\313\023=RD2<\263\262\334;T7\302=?\331\245\275\264\267\215=\353\326B\276\326\241\323\275\364\332\267\275\013h\212\275\206\236P>\177\213\241=:\365\213\275\353Mk\2759xT\276\363\202{=\273e\250\275Q\206Y\275?&\247=\203#\036<\341\211u\275|\220\242\274\363\336U\275F*\204=_\236\273\275\332\351\034=\252\021\300=\360Y\307\275\350Z\207=\250dy\275jF!=\335\200\317\273@\326\037<\225\257\037\274\344\000\353\274}=\000\274I\371\373=uf\274\275\203L\234\275\264oT\275\376\231\251=fs\014\276\253\275\344\275\317\303\010\275m\326\013\276}f\272\275X\372\277\275\272\301a\275\032\254\023>>\227\204\275\007\235\000\276\202i\314=<\376:<\\X\370\274k\234\r\276q\0373\275\030\230(>z\204\020;\027\263:>\243\r\305\2753r1\275Ks@=\367\326\013>\222\026\211\274\224x <\237\013\014=L\331\316:\336\365\332<\217\313\214=fK\270\275\"\236j>\355f\201\274\334\257\330=7\352\201=\357\t\224=\252\0050\275\261^\356;p\326\365=T^\313=\'\233\223\274\232\375\376<w+\306=\230S\000>DO3\275\232\351\241<5N5=\367\016\276\273\001\304\023\275\350\351t=\255^\272=\207<\227\275\344\232-\276\356Rq=\202$\320\275Bb\252<\347\002\037\276\n\370\245\273$E\255=\253\303#=\243+T\274\000K8\275\020\335\223\275\331\226\033>Gs\032\275\001\233\207\275\361U\023\275|\247\251\275\2742\036=.$i=\025>a\273\267\026\244\275\317&L=\3565\307=k\265\322=\376\306\251\275\013\r\n\275\332\376\002\275\311.\301\275\006b\035\2761\374X=\017\254\210;v_\202<\343\362\325\274\033\\\267=s\016\331=\000}\r\275~\342T\276\310Mt\274-}\212\274\303\371\204=\034\037\237=#:M;m\306\215=\265\331\314=\'\254\020\274w-t\275\r\010-\276\032\343\212=\304\323u<\260\232\243\274u\035\3628\222\244\253\275!\344\337=\335\203\302\274\311\345\016\274t|R=\233{\347=u,}=\034O\240<\021\010\352\274$(\016\276Sm&<\345_]\276\270\214Q\275|W\201\275\335j\317\274\373/,=c\014\207\275\211\375h\274\375\340L\276Ae\244=\362:\350\275u\216N<\020\212Z>\214(\232\275\334\260\321:\274\361\320\275[\266E\276z\277\321\275\312;\001>\2414\340<\327\031\336=\266\367\236\27468\301=\302\241V\276\224\237\264\274\363\261\271\274\006B\251\275!(:>\030n\035\275A5\032>\221$\r\276\200_\351<i\362\210=`\263\022<\374#4\275\221\030\232\273\301\264\313<b\363\"=\237\177\255=\230\342-=\307\247y\275b\307:\275\267\016\206=k\224W\275v8\036\2761\020<>\006\372\023\275\361\234\320<v)R\275O\206[\275\367+\265=\216\317j\274\253\267\005>u\237\361=%\010\314;f\200\362\273K^n\276\352\020\213=C\023\032>l\336\216=\n\010\n>4\027\303<\\\374\020=\3227\235\275%\344\363=\263I\316=Q\351Z\275\313\300\032<\344\242\367\275\300\231\315\275;\371\006=\352\336\276\275\324J\240<\254\241\014=r\013\231=\227\341`=X\020\201=\242O\360=\034\255\276\275rd<=\372\332\032\276\t\320\230=C\2603\276\017\347\264\275Z\014\\;\257oG\275%\3170\275\255e\361;l\200\352<\264\220\206\275=\3613\2752\345\353\272\317\3606=\236\325\354=Em\241\274\3351\252=\351\373\201\275d\306\257\275\317\237\363\274V\326^=\r6\007>\217MG\273,\370\337<\203b\236=-\312\224=\372\013L\273\224h*>\303r\231=Y5#\275S\267J\275<\324h=g\010\252=\024\t\324<\2632#>t\323\312\275V\376a=\201\312\217=\323\340\225\275\342\224\024>\r\253\365\274\321\267\304\2754\273o=b\256)>\317\252\001\276&\266\214=\273\215m=$\032\337<\300\332\004\276i\224c=^\255\311\275\347\032\314=\357JR\273B\244\336\273\3544\374\275\264G;=\220\335\372\275lq\215\2756(&\276\245\225*\276!\220^=f\370\362\275\376\332\342=\2040G\275Z\017\260=r\242\024\275\316\271\252<v\310\326\274\017\341\023\275\321\025E\275|L\014\274\023xq<\313\0322=\333\233#\276\002\373\021>\007\007\014\276\2533R\275\303\351a=\000\350\272\275\232\330\354\275\207\206~=$\020+\275\301s\200\275\307\232+\276h\237\341=\023Y\213<\270\021\261=\006\322\\\274\203\264O=\235%l=&\277o\275@\036p\275\366\235\303\275}?\r\275\222\'\320\273Q\310A=L\020\010\276i\344\363;\257\235d;i\374\356=\2464\322\274t\000\324\275E3/=ZD\210=e\213\244\274\261\271\216=\216\006\243=\305\026\362\275\336\354\202==c\001=6s\266\275\376\273O= \266 >T\240\235=`P\003>\3652\255<t.B=\226J\203\274M\362\\\275\020\036A>\224s\303\275{l\004=\341\262\013>\315\370>\275o\030\307\274jA\215\274g\352\311\275\r\341C\274\264\000\272\275\031J\376\275\000\371\345<O\357\251\275\227Y\221=d&l;\260\205L\275g\373b\276+\017\007>\375\260\221=\364\345\217=\332\273\243\275\371U\210=\275z\337=\237\366\377\274o\332\340=\253[\274<\024\367\006>\226\036\224\274\016x\235\274G[\345<\2616x=7vR=\210\321->\006h\264\275~\372\242\273\275\234\343=c\206\261; \"\243\275\266\031\201\275\362\030X>@7\214\275o\316\252<$d.\276\017\264\373\275\361\207Y<\235\320\025>\212\314.<\177d\345\274\200z\230;\334\005\001>0A\223<\217\313T;\035\324V\276\266\242\352\274\352\314\207\275\210^\224\275\302\201\261=\243\006\272\275\274\315B\274<\024\214<\377I\241=\\\323\370\274}\020\231\275\2638\000\276D/\312=\343\331\364\273\250U/=K9\014\273e\030\323\273j\320\350=\342\313B>\224u\024\273\323\250\370<\036\374)>\270\333#>\261\222\023\275\256\344B=Nd\363\275\362\335\306\273\257\324D<R\000\024\275\313\010(<\240\347\353=\266\371\252\275\"\364\331=v\030\205\274,\265\006>\311\312\315=\234\214\322<\'\005a=\036\266\333\275z\256u=\325\030\021=\326\003\267\275\317\266\205=\"A\365=jP\266<\004\212\204<M\251n<X\032\334\275Fdi=\262\224\263<;3\342\275\235\032\336={\261\346:\207gg=\"\'\"\274\316Hn\275\016\361\220<\r\222G\276\'O+\276\030\334\226=]VN=\277c)\276zH\216\273\342\221\013>\216%A\274U,*>n\2438:(\336\222=d\252\002>\332\355\007>\270W\007\275\275zl\276\221q6>\016H\353\275\016\322G\276\306\267y>Y\330\342=\324qB=\213=d=\314H5>\tb\222=L\345\n\276J\334\337=\021k\r\276+\230\234\275\242pP=c$`\275\'\024\341\275\034\024\331\274\204\033\t=i)\254\274\316\n\264\274\007\211^\275\030 P\275\354\250\367\275\241\303\205<\025j\007=\330u\034\274T6\013\274\032y\355\274\212\014\303\274\313\0355=\201\211\330<0A\026<\t\242\357<\265\316\241\273\313S\255<\010\357\217;\226z\035\276u/\353<.R\024>\034R\021\276\004\3337;\001\275\205\275C\024\365=4\'g<Nx\303\275\365\236->\'\320\020=\337\346\333<\310b,\274\177\341\206=\r\366\007\275y\217d\275\3760\024\276\302\205\025=cRd=\200\314}\274\202\253\306;O\266\016\274)\034?=9\211e\274\267\020\315\274\255|\272<\370g?=\266\300\373\274\224!\373\274mB\020>\000\257\013\275epj=\357uF>\032\303j\274V\013\013>W=\326\275\272\3334<M\353\017\276\036g\274<3o\261\273\002\204\216=\240\2366\275M\227\023=<\177\007>\216\374\004\275&^\364\273<\241\344\275\3178\272\273\006\306\223\275\3378,\275O\210\266=\356\324\027=\025\274.\275\322\205\013>\3373\021\2760S\337=\247\366\027\276\347\213/\276Q\265\021\276\234\302\020=\231\252\261\274\315dg=]\317\274=?\327\"=\225\2136\273\374&@<\350\220\275\2758\253\305=\207&\221<\313\375m\275\\\344$>\327\240_\275K5\265\275F\377U\275~F\026=\256\263\034>\343&\026\276RY\371\275\224 \227=\365\337\204\274*\023\313=\335q\220\275x/\275\275\315\177\306\272\217\006\"<\304\302\237=Z\232\344\275\245\263\342\274\247}^=\227\n\375=\2222\264:\354\t\273\275\024G\326<&{p=sk\344=r\034\276\275\005\277\271\275!\211\035\276R\373\020=\246\245\363=c\310\240\275\226\'\014>b\265\326<\336+\316:\237\266\022;^M\212=\0107\035\274\277\343Z;\251\031\030=\332m4=\033\035V\276&\3473>S\303\332=\3604\366=W\003\224\275\216\370\370=<\006\354\275\357\251W\275\023\361\020>O\222\233=\262\0131\273\2409\254\274\202\211\242\273\231\216\235=\334g\013\275/\"\364=K\231\217\275\312\n\020=\247\230\225\275\215\000M\275\350\004x=\347\t\330=_\305\220\274p\207\265\2747\351v>t\362\260=\361\314\311=\220\220\014\275\241N}\275\275(}\274\366\355\035>Z\261)\276\273\000\214\275\021C\261\275\266^5\275\231\306\010\276NR\232\274\361\302\016\275iW\245=\322\036<\275\016\366\332\275\226.\302\275S\321`\274\211\035j<\377\037\365=M\205M=\301G]=T\341u<\t]*>\003\263\221\275\231\276~=\322|\255\2754S\005\275\312\026\006\275\027U\315\275?\251\221\275xM\347\274\310\363\236\275oB\t>z\324P=\336m\027=8\302\207\274\017{\251<!\343\313\275\362\276F\275\027\027`\275\263_\260\274\334\301\303\274\317N\277=\343\276?<\377\363.\276\306\202W>\215\n\022\276\356\204\006\275\211z\034\276&ia\275\022P\256\275\321\323J\275\206\005G<5\177w\275\307\364x=|\310\341\275\261+t\275\324\375\366\274|lQ=\262P<\275\320\333#>\204\225#\276UkR\275\271\374\344=K\2649>\277T8\275b>\211<\224,M>?\271$\275\256\253\344<\272\342\267\275\"\207\224=\025!\263\275\364\344\342<$\364+\275\315\177\237=/\201\221\275\245\243\366\273\025\202\277\274\321\305\005=I\224\330<\366*R\275p\366\326\273\376T\300\275|\202W= `\202=\304\306\002=p\331\252=\276I\022>z\033\252\275\355\036\377\2756g\033\275\240G\334=\251\310L\273\237(\273\275\234\000\334\275]\n\335=\321>\027\275\007d\261=!-4\2759.y=\231\370\270<\267\036\302\274\225\n\260=\352\256J\273\213\326\367\275%\026\277=\204\264I<\261\313N>\344C\217\275\3439\365:3K\325\275\254-\217=\352\273\344=\364\026\326;_\347\303=\\b\320\274\032sN\275m\3219>\\\222\316\275\275\315\033>\270\256\251\272W\277\304\275\235\271\350\2759\265\272\274\231!\227\275O\3718\276\255\017\272\275\022\367&<\014Gm\275\031\036\251\275\276\253\001= \361\256=\304C\222=A\277\234\274\334\3264=\211\200\013\276\310;\013\276\212\022B=\243\031\252=\033xt\275\3353\206\275N\036\240=-\347\315\275\225\230s=\\\036\247\275\\\014\034\275\251s\004\275\tO\276<\271}\371<H\001\312=\017\321\242=\001\027\303=G,l\275O*\014\276\354\353\366<P\325\002>p\345g=\211\"F\276\2751\274\274r\332\357<\327\010\014\275L\317\331\275\354\200t=\244\211.>-l\223<K\021\025\276\373\374\206\275\222yU:)\226\203\275\353\216t=%\342\217\275\n\264\207\275\243q\207\274z\333\t\276F4)\276X`B>\217~\200=9f\225\275,\317\301=\314\036\207\274\263\3009\274\325z\207\275\343\220\362=G\226\005\275e\005X\2754\3535\275\325@\337=\214\304\225=/\371z=\214\"\226\275|\230\323\274S\204\003>\262\206\227\274\302\272\330\274E\274+\275m\264l\275\362\037\335\275V\264\246<|<\250=\242/\000\275}\324\216=\325^\204\273\255\365\033>\024\317\201\275\352\243\361\275\252=\177\274\377}\263\274o\314\353;\020X\247\275j\236\025=_W\377=\301\264\014\274+\014\224=\262\347\214=<c >R{5\276\342\243,=\222J\343\275\260\210\033\275K4)=\"\205x<\271\036\216=\326\230\201<p\272\177=\\\351\343\275x\335Y\276\271\244\331\274\340\311\321=j\245[\274\207\315\360\275r\002\247\275\310\253\\\276\t\256\221=aB\t\276Uhi\275\202\201\017=\267\214\023>\333\001\000>\"\373\321\273j;\001\276\267\214V=\254eb<\335\305Q\275!X\022=t\234B\275s\320\034\275*\320V\275\227\211\236=\370\323\373;y\264\337\274\345C4\275g\007\027\275\340K\365\274\221%\'\274b$^\275&\256`>\027\006N\275\224\236\024=fK\r\276=\211\273=(\003\330\275\023#D;\312\273)=\216\261\361\275\030\315\2429\377E\226=\360\242\247\274R\305\323=v\253\302\274\327\220\334=0\343\217=\343\221\242\275\330m\362=\361\036\004:\277\301\216\276\301N\025<-\222\377=?\017\270;=H\305=\316\357\377;\223Gu\275\260V0<\213\241\331\275\252S\315\275&\233\314=\023HX=\337A\016=\357a\216\274\327\316\343=\2171\343=\232\035n\275&\220e\275\233\005\037\276"
      }
    }
  }
}
node {
  name: "LSTM_1/kernel"
  op: "VariableV2"
  attr {
    key: "container"
    value {
      s: ""
    }
  }
  attr {
    key: "dtype"
    value {
      type: DT_FLOAT
    }
  }
  attr {
    key: "shape"
    value {
      shape {
        dim {
          size: 8
        }
        dim {
          size: 128
        }
      }
    }
  }
  attr {
    key: "shared_name"
    value {
      s: ""
    }
  }
}
node {
  name: "LSTM_1/kernel/Assign"
  op: "Assign"
  input: "LSTM_1/kernel"
  input: "LSTM_1/kernel/initial_value"
  attr {
    key: "T"
    value {
      type: DT_FLOAT
    }
  }
  attr {
    key: "_class"
    value {
      list {
        s: "loc:@LSTM_1/kernel"
      }
    }
  }
  attr {
    key: "use_locking"
    value {
      b: true
    }
  }
  attr {
    key: "validate_shape"
    value {
      b: true
    }
  }
}
node {
  name: "LSTM_1/kernel/read"
  op: "Identity"
  input: "LSTM_1/kernel"
  attr {
    key: "T"
    value {
      type: DT_FLOAT
    }
  }
  attr {
    key: "_class"
    value {
      list {
        s: "loc:@LSTM_1/kernel"
      }
    }
  }
}
node {
  name: "LSTM_1/weight_regularizer/Square"
  op: "Square"
  input: "LSTM_1/kernel/read"
  attr {
    key: "T"
    value {
      type: DT_FLOAT
    }
  }
}
node {
  name: "LSTM_1/weight_regularizer/mul/x"
  op: "Const"
  attr {
    key: "dtype"
    value {
      type: DT_FLOAT
    }
  }
  attr {
    key: "value"
    value {
      tensor {
        dtype: DT_FLOAT
        tensor_shape {
        }
        float_val: 9.999999974752427e-07
      }
    }
  }
}
node {
  name: "LSTM_1/weight_regularizer/mul"
  op: "Mul"
  input: "LSTM_1/weight_regularizer/mul/x"
  input: "LSTM_1/weight_regularizer/Square"
  attr {
    key: "T"
    value {
      type: DT_FLOAT
    }
  }
}
node {
  name: "LSTM_1/weight_regularizer/Const"
  op: "Const"
  attr {
    key: "dtype"
    value {
      type: DT_INT32
    }
  }
  attr {
    key: "value"
    value {
      tensor {
        dtype: DT_INT32
        tensor_shape {
          dim {
            size: 2
          }
        }
        tensor_content: "\000\000\000\000\001\000\000\000"
      }
    }
  }
}
node {
  name: "LSTM_1/weight_regularizer/Sum"
  op: "Sum"
  input: "LSTM_1/weight_regularizer/mul"
  input: "LSTM_1/weight_regularizer/Const"
  attr {
    key: "T"
    value {
      type: DT_FLOAT
    }
  }
  attr {
    key: "Tidx"
    value {
      type: DT_INT32
    }
  }
  attr {
    key: "keep_dims"
    value {
      b: false
    }
  }
}
node {
  name: "LSTM_1/weight_regularizer/add/x"
  op: "Const"
  attr {
    key: "dtype"
    value {
      type: DT_FLOAT
    }
  }
  attr {
    key: "value"
    value {
      tensor {
        dtype: DT_FLOAT
        tensor_shape {
        }
        float_val: 0.0
      }
    }
  }
}
node {
  name: "LSTM_1/weight_regularizer/add"
  op: "Add"
  input: "LSTM_1/weight_regularizer/add/x"
  input: "LSTM_1/weight_regularizer/Sum"
  attr {
    key: "T"
    value {
      type: DT_FLOAT
    }
  }
}
node {
  name: "LSTM_1/recurrent_kernel/initial_value"
  op: "Const"
  attr {
    key: "dtype"
    value {
      type: DT_FLOAT
    }
  }
  attr {
    key: "value"
    value {
      tensor {
        dtype: DT_FLOAT
        tensor_shape {
          dim {
            size: 32
          }
          dim {
            size: 128
          }
        }
        tensor_content: "\252\251\351=`\250I\2753\325-=z\0335\274\233Oq=\021\177\253\274\272\355\346\274+\367\177>\272\307 =3`\214\275u\316\221=\033\350\216\275<et<M7\353=\322\345\257=Q\032\004\274.F\007\276Z\200>\274n4\017=\356;\273\275s\250\345\275]g\\=\020\254\355<8\356T\275\362?_>\352\370\257;\252,\223<J\271S<\267\\\365\273v\031\003\276\353\315\007\276\036(\220<\2460\257=\347\232J\273\363\017P\276D\200\202;\361=(<-\226\345<7\023\274<\354.\260\273\200\332\n>nu\001<\0162\n=\373\207\006>^\002\360=\360\263\310<\006\366\n=j\352Y=O^\351<\325b\330\274\254#\271=\342*\240<\350\315\266=0\323\204\276\025O\247\275z\227\354\273\212\363\340;Ef\311\275O\010P\276\305\277\002<\310\004\307\275\334\275c<\255E\306\274\271N\316\275{\001,=~\214\321\275\254s\376\275\365\004 \276\302\315\346=\367x\242\274\225\325\333\274\302(]=O\373\244=\006\211\340\273\260\257\026\274}\0050\275\225l\010\274\251\265:=xS\021\2768\030\304\274\260\245\241\2755\207\330<V\264d=\344\272\273\275\024.l=\201L\214<\030\302\226=#\205\343<\340\253\300\275\\\013\243\275\210\342}<\236\021\261=\327X?\275[^q=y\325r=\032\330\304=T\\\234\274\243\330\n\274\335P6\276d\355\026\275\026^\'>\037\314g\276(;\030=B\242\037\275KU\255=\274V\225\275\266\364\255\274_p\277\275h1O=\275\334\032=\254\032\327\274\036\244\363=\254I\316=\tv7\2765ll\275\265\310`>\310\227\252\275S\230\243\274@,\205\275\017l\006\275OG\200=\035\374\250\274\200\344 =_,\307\275\000\364[\274\364\354V\275p\2452\276\312\351\032\275\361\024!\276\347\201\257\275\216\177\320=\005\214\330\275\364l\306=\317\301\211\273E{0=\352$j\275D\276N<\212?\005><\001\t\274c\310\023>\213\265\005>\2164M\274U\362\272=\214sJ\274\354\351G<w,\021\276\327(*=\340\350\275\275t\013j\274\000\3302\2752s\352=\205\207\301<l\004V>\372\254l\275r\013\034\276\317\374\361<\370\214y\27551Y\275\350\201\201=\205\026\"=\200\317\177\275\"#\327<\275\320\202=e\2220>qS\311\2756\335c<\006\020?>\'Ex>5\303\220\275^\367\022=}\2155=\365\217\004\276\326@\267<\r\271\017=\356\350$=\326M\252\275\036}\331<\221UU<.x\373=N\375\241=_\341\310\2740{~=C=\014\276\220\274#\275 M\205\275P\375\244\275\230\316>\274\332E\251\275\2024\372\275\022\340\215\273]\337\200>L~\n>\013\336\3008\355Jg=\322\2762\2767\270\260;\347\371\302\273\363\353p<^\247\220\275\237\367\304=\334\233\232=#\003E;\372K\335=\007\251.\276\325m\202=\333\323~\273\316\302\270\275K\'\006>\232\t\263\275@!\300=\3374\215;\315Yv\273\2047\336\275t\276}=}x\367<~\201\\\275\221\315\221\275q\270\335<\242\201Z<W\265\341=\264\354\036=\326\323/<\367:\356=T\317\320:\037\030Y=\356\200)=C\032\246=f\316\217\275\'M\206\275\\\353\316=\n\024T\275\032\313\362=\255\337\200\275S\010\271\274-qY\274T\343W\275\020\240\345\275\270\347c=2\n\211\275\33106\274\363\243M;\326\346\250=\3233\356\275\332\000/\271p\255\301\274\335\010\202\2766\355\214\275%\264\304\275\3156\364=\203-/\275\314\342\300\274z\364\340=\3629\013=ClN:\313\375X=\3501\004;\347\342\014>\177\035b\275\021\'\352\275\327*\316=P\227\n\275\341\307\\\275\335\252\026\275\270\3254\276m\375c=\230\336\014\275X\016\315\275Z\352\271\275\275\236u\275\352\222\325=\333\030\301\275\003\326\225\275\264\327\202\275\366\232:\276\345(\311=a\237\020\276A\317\231\275\265\375\232\275\375\213>\275;\242h=\277G\373<M\300\343\275\370,\257=\312\033\016<\343n\014>\307\023\024\275\211\274\363\274\324\213\340<\355V]\275U\342l\2757\256\263\274(\271/=e\247/=\306\273B\274\227\331\037=c%7=\366tr\275#=%\275q\225\335\2733\024\330=V\367\254=\335\335q\275\037S\000\276O\315\224\2765W\245\275t\n{=\006!\017=\216\035\377\275)\312\372<:\001X\275:S\034>\315\313\336=\227t\202=t\234\244=\375\272!\276\006@X\273\256v\205=\220_\336=\246y?=l\3024>\251\323\255=;dC\276Y\331\212\274)x\266<\241\227P=\270xp\274\304<~=\022\2139=\305\332\364\275WG\035>goQ\276\026\371c<\264X\253\275\221\253\306=\332\343\300\274\206dk=\032\013\335=\337S\344\274\374\231\350\274eSE>r\314\221\274\304\342\275\275\251,i\275\335\234]=\367\347\237=\227\240\254<t\372`=\243,M>9\240\313=\n\362\375<\277\255\221\275\217\005\213=\0008\014\275\333\370X\275\007\270P=\347op\274\014\323 \275\000l$>\310\362\366\275\313\337\256<H\247+=@\201*\274\215a\026>\207\007\264<\351\310\336\274V7\345=\236\232\023\274\223\322S=\341\317\032\275\223\203\273\275s]l<\3406r=6eQ=\3062\314\275\357\324\262\275v_\321\275\307\3244\273\275\256\246=j\343A=/\370\226=\352\313\027=\016\273i<\267j\211\275M:\244=v\234\036<B\\\207<c\000\254=\304\\\010\274\254\344\003\276\217Y9\275\242\031\316=<6\215<Y\213\222\274\242a\226\274\020\363r=\317\265\264=x\353\312\275.\177\020>\226\233\271=RW\367<w\223\310\275\206-\306\2745\236\305=F\210\213=\327\246#>\t\354\020=\016\240\022\276\035i\220\274E\334\250:A\251\332\275\031!D>\364\025M=H\365+=\335@\001\275-\334,=<\3647\275\270g\237<`\000h=a\370\003\275GT\005>\031\3259\274\005\177\001>]\235\004<\\\325\347\275\003\256\023=\345\'\027>\3409+=\277\271\311=\225\350\214=\307\t\006\274\307\212O\275?\207\004>*\n\204>Uq\271\273 \004\256\274\236l\306=\364\256\241<\005~\'=\307\222Q=\"S\310\274\002\377l\274EV@\275\t\036j\275\025\207\034>\013\226\026<\026{h\275\234s\265\274\202\324\202=c=W:\340J5\275\243\255`>\231\354w\274\2735\037=\305\262\222\2743\225\340=\271\027?>\243\253O=\371\010\n>\346\322>\275\240\317\216\275\251J\220=\226\036\013<\252\031\363=\\\251\217\275\\\204\222<f\020~=^\022L<\331\331\n\276I\366N>z\335\332\275R\302\347\275\373.\r:L\n\257=^\002;=5\372\027>\271\317K\275\006\010\261=\003\\\004\275\3646\343=$3\235=q\036\327\275t\262\204=x1\036>\\\317\001\276\331\027\206\275\265?\\;F^X=\3162\346=a\216:\276\335\316\335=\216?\351\275\337O\266;X\347\205\274\366\326->O\214X\274\006\350.\276*v\037= 2\306=\333G\002\275VI\002=\205\010\333\275\361\023\240\275\355\232\357\275\021$r\275\253\350&<\356\005\253\275S8(\275N\350p<\301\333\270=\262\217\245\274)\244\010\274I\215o\274\031\302\231=\225\350\361<\032\250\241=\273\261>>F!\r\276\231*2\274\300\001\305\275\037}\004\275\216E\023\2741\005\236\275\034\377q<8\350\271\272S\013 <;s\341;\\\224\000>\323\354\342\273\347*\032=\345*D\275\375\177v\275\027\307\234=\254\331\345\274\032\231\305\275;\366D=X\241\373=\246\250L=\241\213\303=\325\236\006>\202\246\333\275\372\274\326\275v$\375=\234\224\010>M\220\204<@94>C\271\332<\177b\316=\271S\202=\362\'X\275O\0147\275\361.\301\275\277c\325=\376\034A\275\006@\274</\306>=tr\331<]\241$=<\353\242<\'\257p;T(\202\2756\252\273\274\t\204\337=\354\025\256=\316\034\367\275\037\330\242\275\265?4\273 ex\275\255\2340=6\tI\276\216C\207\275\275\240\262<|\266\177\275\022\271\217=%\220\245\274\255&\020=\'\3257\276\352f_\274\353\366\255\2755\307\036\276M\333\355\275\305Pl\275\223B7\275mq\023=\020y\230=e\024\207\275\333yi<\206\001\217\275\2649\032;5\244\004\276\035f\332\274\317\213\261=\366U\004\270\233&\254\275]J6>\210\323\005>\033\354e\275b\362\372=\3351==\205o\033=\231P\323;8`3>\247\350\333<\312\337\t<\204a\003\276\3275\230<\203\313&\273\302\346\020\273\241\231\200<2\022\342\275\343\3513>\255(^>\026,\306=\352\220\'>p\031\\\275/\261\251\275\367\376\262=\361\313\364=J\363\232\275\023\363\213;i\tK\276\351\030\035\276\245F\330<\031\037\270\275\310Rl=(\223b=\347\376\204=\253g\340=\372\306\205<\301\372\006=\2129\246=R\'t=\362\374\004\275\242\374\241=\214\2777>\327=\220=\347a~\2757w\230=\276z(=\010\346\n>#\003W\274\350\344-\276\004]\315\275+\177_\274xz\241=a\352\017\275\314|\246<\364\202\345\273\213\354\345=\320D\202=j\362\210=\364F\267=\006\321\022\276\347\211\374<\375\362;=\033\\A\273x\014\031\276^kT:\363V\035=\202\216-=U\243\257=\361\no\275df\024\276\273#\345=(m\364=f\375\t\275^\322\315=?\243>=\355a\t<b\311\271\274\227 !\275\242\000Q\274\336\232s\274w\354\271=\307\213\344\275q\022\023\275\352\322\223=\256\370\266<\177f4\275\316\000\242= \246\020>\235\016\261<JD\364=}\177\277\275\275\321\305\273O\"\237=l\271\352\274\351#\303<\2655\024=\270\203\221=x \024=:<i\274\304r\030\276k\263\236;\366=\276=u\264\346=\243Y\312\275\325f\334=\224#\242=Sy\t\276\025jo\275\322\205]<j\302\r>VZ\343\275\260\306\253<y\355\004\276\345i\031>\235_\256=\354%\000=\317\220\237=\nE\310=C\360\255\275\247IU<\253\212\306=G\026\204\274\234\252\223;\017\001\'=\203\002\222=\274^\344\275\266\021\245\275)4,<D\031\020\275\337&*>p3G\275H\206\333=\261y\236=\364\013\310=\030\225w<\3279O\276\347D\327=\231\301\303=\356K\346=\257\240$\275\256\343\027=\205j\333=}?\255\274h\343\'>\374\261+\276\327\037T\275\037eQ\276b\234\225\275\217\361\311=\035\274\215<\215\346\270\2758\277Q=\365\364\234\274\256\302\244\275d}\356<+K\355=\240\330\"\275\272\247I\275\017\260)=?.\022<h\332\240=Z}\231=\247;1>\327\367`\275\007\336\231=\221\212\235=\333Q\252\275\333\033(\275Y\243\306\275\230!^\275\263{\027\276\234\275%>\304\205\010\275}\215R\276\355m~={\325Q\275\323G\374\275\341\305\261=\267\227\246\274!\n\242=\346$\261=\373\266\033<\347a\204=\232\242\365\275!Rk= \020\024=\033\320\320\275\274u!\276An\004>\255\301\335\275T\254N=\346 \317\272 \305\345:_k\217\275i\366\362\275\372\211\202\274\003.\345\275Mn\221=6g\326\271\205\246\222=\277\306\325\275\003ZP\275#\370M=\372\025\244\275\255\323\032\275V\027\237=\345\367@=E\346\316\274\345t\347\273\322\222\201=\350D\275\2750Y\024\276\321\2028<\242\301R=\227\005\221=\365\037\210;_K\017\274\311c@\276\006\026\\\274\r\305\242=\227\226\032<\254\271\022\275\330A\362;\002|\212=w\300\240=\324~\266\274H\262Q=\340\323\030>\241\377\274\276\3148\201=\006B\270\275$\204\362\275\n\303\200=\345\220\223\275\315yd=5\366\206=\253(\322=\332\215#\276\256\205\251=\313,\247<J\223\367\275\273\232\036\275a\320\262=\377\256\205\275\333\264\036\274t\321\325\274\362\014\210<gMi\273\203\203\317\275\004)\255\274\271\213\342\275 \036\'=\340\241\317<\306m\351=\372\262\t>i\264\216=Of\024\275\330\224\260<\311X\304<\360\360\221\275\212\213\\<nQ\t\275\217\'\257\2753\206\200\275\031\353!\276\346\025e\275\234\037\320\275\336\271\334=\2463\356;\215\267\321=Ia\212<\002\257s=\314\005U\276F\243\270\275\273\267\322\275\267\333\253;a\262\010>\317!V\273\327\337\337\275i\362 \2744B\022\275H\310\342\275_;\033\274\005\213\244\274z)@=yy\315=\240\356\220\275\373\361\221<\310\244\230\275p\034+>\244\004\200=\260\t\241=\t\2351=\007\336a\275\342\340\217\275\276:\305=\036\377b=\206)\373<\376\257u\273\266\253\235=\3228e=\274\237e\275~\324\211\2762:\242\2750S\352\274\313\003\003\273$\023c=s0c\275.\027\235\275\345K\206\275\034AJ\276\356\244#\275\005O\244\275k\366\350\275Z\243\013<)\206\344=\341\3063=\300\303)>m\267\201\276\3168\034\274\375x\032\276D\370j=9M\254\274\224\212\220=\366\n\273\275\300\361\214=\216\223R\275j:\220=\033\335\210<|u\332<\225\233\032\275\246\277\310\275[\202a<\\\312\261=\205\362\253\275\212\254f=\032\375\031>\326V\311\274\002S\n\276L\210\305;\\\327\330\275\242\030\216=\003\220\020<\306\360\n\275\031\327\257=!\374\252=\306\324\237\275\224_\377<\260\004\026\276\246f\360\275\270-\017>E\210\226\2757\247\331=\335<\007>\361S\004>0\177\375=\312-\014=\177a\312=>L\254\275\233\017\364\274\214\002\211<\237;\010=\242\311\217<f\332\310\274=\3733\276\243#\254\275w\0014=[f\013<\215?\006\275\037\357\275<\334K\200=#\2316\276\317%K\274mu\006=(f\017=\204S\031>\225\037Z\274\236\022k\275\003\331\253=d\035m=\225\340\356=_\252\217\275\252\314t<W\317\231==\251\027>\365\033\004\276p\220\252\275\177\013a=\010X\255=@\203;=$\026L<\222\315!>\230\031\374=\020c\032>\301h\027<\312\220\335<d!\275\275^O\026<&\001\205\275b\266-<eb\214\2758[\336\275\300\361\346\275\343?\367=[\305\274\275\264\335\316=l\225\002\276Q.~=cfC=\266\004\365\274\263A\322<\2060\251\275\326\005\313=s\331\265\275\016\020\252\273\325t\352\274\004\337\220=\242[\212=\233`:\276 g\201=\237\224J>\300\177Y\275\3733\260=*2|==nR<\352\345\347={E\224<P(\"=\031r\203=\255\253K=\217V\311<\336\363r\275\267\t\335\274\240\366l\275F~\374=\267\261\337=\333\313g\275;\254\224\275?8\327\273\001\005\337\275\007}.\275i\252\373\275q\356\307\275\206\230-=&`\373=\003\023\331\275~k\211\275d\247/<\241\301\023>c\350\204\275}E\242=\325\333n=\3239\366=\234\3610\276\201\276\320=6\360\211=\034\2254\275\033\030\223=:\036\013>\256A\327\275ln\212\275\350\177\003\276]l\022<\005\217\331<$y\210\275\013-):Nih\274+\374X=N\365\037>\243UA=h(\034>+\331\303\275c!\261=\220i\313=\3606\226\273\274q\250\275o\247\003>\353\265\314<\322.\035>\261\203\004\276\346\007G\275s\375\343\274\265<\002<\310:P=\304\275\225=\232II\276\252uv=\267\276\207\274]a\203<\\f_=\037g\347=\332\021\365=\2577\235<\273=1\275\260\234[\275ie\004\276\244\316\233=\200\024\236<\263\204\306<\353\255\255=-L\235<\257\"\330\274Z?t\275B\210=>\207]\246=\271\232\321\274\345B\221\274\210\227M\275gy?\274\235LI\275sQ\230\274\222*\321=\262\327(=\225\022\203<\322\267\007=\231J\004\276\"E\344\274\ra\216=E\037,\276\330\034\022\276\3127\022=\266\223\252=\276^\026=\343\230b=\013-\201\275\221\362+=\357/\000\276Lh\027\276%\317;=\315x\316\275]h\220<\330|\221=,\206\\\275[\206\316\274\344@\222=\244\232\267\274\006L.>m\353\"\275\356\026\014\276\253\373\030>\311\350H</\363\244<E\337\326\275\3006\370=\\\261F=\001\351d=G\201\224\275\030\274\025<X\347\235\275\231\327$;\236%\223\275\240K\244= \341\362\275\317\200\n\275\220\235A>\241\n\356=\312K\031\275\241\362\016>\243\000\033\276\320\022\000\276\325\021\232<,W\243=\224%Y<\343n\002<R\272\035\275j\226.=<\021\010\276\022;\027\275)h7>)\235i<|\372\347=\227t\215;\204:9=}h\275\275rSS\275\311\342\334;\236\224\352\274=>\035\275\223f\014\276@7\237=Dh3\276\030i\251<\342O;\275\365\370\235\275\320}\204\275\217*a\275G`\342\275h\021\223=\201\374\227=9\207@\276 \216\304=\205V\204=\275M}\276\207\027\351<I\353\020>G4%=8\006\032<+\372\024=\r\006\212\275\t4\034\275\327a\333=\206W\323=a2{\275q\344)\275\321M\260\275h\035\367<\213P\321=\366\331,\275\224\272\023>>Gk=\215\267\202\275\321\036\333\275\242\016\344\275@=2\276\304j ;q\273\372<9x\311\275\237\027\304\274^\200\006=\033~\302=*`\223=aeG\275n\236\320<\261\245\340\275.\0223\276gB\207=\243\325\274\2747E\035;K\376\030\274\332I\311=9\004\223=4\224\274\274*\252E\275L\241\307=]/\235=\214\3417\275\340\0147\276\177\245\301\275\342\201{\275\327\262\006<\241\222\032\276D\003\010\275^\246\022\276\2649\256=v\331\323=L\214{\275\235U\017\275U\273\256=V\245@\275\n\362\375<\361Tg>\232>\237\274\370C\210<2\310\267=/\332\332<\261c\230=E\335O\275\241\026Q<y#\\<*\267\304=+\020\224\273\336\267y<\357\275\263\274\251\351\215\275<\010\030\275\332\344\331;\312\257\262<\305@\r\275:\345}>\251\224\323=:\021A\276\320\311\367=\302:\007>c_\205\272-R`\275\354\035\025\276\247\212V\274\224~\337\275\336\201<=M\255\232\275\267D\346;Y\251\266\274&1i=\346\220J;\253\303\005\276>\213\271\275sw\350;\306j\330=oE\017\274\263V\245\274\2041\252\27560/\2754P(\274\252\366\300<\371\231\304\275\336.\007\276,\337\374;\345\224\332<\302\245\303=\013\333\010\276\3647i=\024(\034=Cf\361\275Ch\326\275\376\000\375=\215\274\006\276\004\211\016\275\262A\364\275@\306\021>\331\210\242:eD\221=\212a\377\275\212\315\235\275d)\322<\275B\222=\347\313\204\275\223\363\254\275\2524\371=\013}4\276T ,=w\373\245=<\'\003>\242\340\345<\322*\226\274\265hA=\351\272\021\275\271\356\030>\257\0254\275\232\016\013>\373\370\361<\204\336\216\274kt\010>O\314Y\275#\2411\275\254\n\306\275?\212\355=v\351\006\276\264\002K\276\375\231\031<\316v\201=)79\274&\212u=\305%\003\276\226 \256=\325\013:\276\207\257\343\274(p\346\275js\004>\366#\036=\310At<d\341s\275\252\376\223=\316\334\204\275\215\212\030\275\013\370V=k\036m=\0076\266\275\243\022\354\275?\356\244\275\006\274\366<u.$\275L\352\022\275L\342\327=\262\313\002\276\274w\024>4\373_\276\354\376\004\275\200\332\004=\025\364\026\275.r\320\2749\306\203\275bU\220\273:\277\246=\201\020\001\276\005\255\301<\253\273\252=\036\344&\275p$\000>\"e\034=\375$\306=\366M\317=r\367\022\276~M\234=9\2152\275\357mA\275\343\034\004>z\017\222\275\3736\222;\312\233w=\204s7<->\311=eA(=\234,6\275\010qX\275m\001\224=\256=\210\275\225\016\311\275\351\271\205\275o\254\336\2753\221j=\000\217\033\270K\370W\274\364\341C\271\013K\245\275\312\307\243=Z?\302=;*\335\275h0-\276\240Lo\274\355w\213=E|\002>e\211\004\274\200\\s\276\'\374n\274\267\312$\273\004\322\375<l\016D\275\230f\010>6\373k=I\232\001>\376\327M\275y\000\020\275\217X\005\276\236\360\033\276\032\354C=:\333|=0n\017\276F\272\002\275\312\024\211\274Q\214\332;\304C\177<G\032\244\275\305\2039=T\016\204\274Qp+=1OH\276\353.\014\276)Z\303\275\232X\002\276\201\371\001>R\351\203<\242s\312<\334\356\007\2764\200\375\275\235\322\272=\020\366\326\275\337!V\274\360\220\002=7T\317\274\355\313\205\274\333\377\311\275\365G\254;\005\252\371\273\370\027\322\275f\336\006\275&\234R=-E{\273c<<\275\376q\202<\245\222#\276\211G\303\275\372\255N=\025\013\310\275\305\222;>j\253D=\025j\332\273_w\025\275\260\010\034=V\336\350\275\031\203\303\275\037*\301\275`jC\275\332\352O\275w\003\370<)\252<\274;\370\241\274\244z\376\275,=\024>\350\327 \276\301>\332\275\0108\240=\374-\334=F\340\000\274\341__\275l\341\214=\226I\261\2759\010\301\274\3134Z\275@\316\203>I?\363=\363\333\376=\\\354\226=\353\331U<\213U\207\273\2026\353=\206`F\275Vv\253=\367\354\213\275y\330\253\275^\263~\275\3077\330\274\233\3226\273:\333\207\275\031\303N>\022\304\217\275\227\317\302=\027:_=F\030J=p\335\372=\321J\337<\000\243R\2751\361\363<\032}n\275\301\262Y=X\334\226=L\230\375\275\251\026\027\275\355\274\004>\267aN=\275c\243<\332\3401=\270\332\021\275.x\021\276\002( >\357J\227\275h\326V\275\t\037\003>0KS=\321\351I=<\002\227=\203S\272=&)\002>\031#\212\2758h\262=6\375r\275\017X\312\274\323\204\351=\275\003\313;.p\t>we\r\276\262\257\275=!\035H\275\267\255>=\206*\273=\024\272\256\274u\311\351=\330#\311\275L+\372\274Y\033w\275\322\203\026>r|n=\342\232A=Td\346\274\203\343\204\275\'\313@\275\004\227\026\276\331\250\010>\240\244\342=p\273B\276\257\320w\275m&$\276\213\334\013\276R\025\247=\277\002x>\346M\350=\242\314B\275\003\006\234=3W\365=l\307->9Nv=+gR\272\355\335\013\275\177\254\230\275z\265\027=\245\274\002\275\205)\235\273\031\"\336;\010Q<\275Wb\203=)R\233\275\241\304\240\274\324\346\035\275t\342\212=\220LG;\343YS>0\265\266\274\274\363\242=*:\222=\3778,=\360j\327\274$\342R<\3333\356\275\3269\312\275uX\224<\177hS\275\330M\022=6$\375\275\243\007\247\275\237\026\260\2742\n\216=\333^0=\256\375\316=\262\207\322=\031P\213\275\244\377\036=_\201\235\274\237\334\336\274\177\374\320\272\317<\014>\267\025\246\274E0\240:D\352\270=\324\333\206<\2624p\274\0035=<\376\216\271\275\263zc=\225\301\335\274\356\027];\253\352\316<\370\2548<-\334\226\275>*\342=\010m\013\276\252\305?\275\001\010+<\307$\241\274a\235\230<&\277\314<3\003a=ag\333\275\020w\337\275R\t\206\276f\033\303;\2532\274\275\006\031_=k\'\'>\r\224\\\272\234[\253=\260\276*\275m\334H\274\225:\031;B\356\267\274^\013\007>\365\024\'\275Ii\\\275\220\035\301<\302\020w=\330\305\263\275\207)\327=\232z\231\274\244\304\211<M\000\211=y!\004=\264\360\265=\252-7\275\271\321\213>#\370\241<p\271x\275\213\211\030\275c\014\006\276$\005\266\275\253\017d=q\234\347\274\371\\\304=AD\361=\207}\265\275\234\203\227\275\203\017\034>\206\004w\275c\213\024>\217\025\031>r\026\026\275\352[\202;\0203\022<\371\277\373=\305 u\273\005\236E\272x\202D;+\232\232=\2350\213=\215\321\237\275_\371x=\330`\033>\030\305\250\275rM\326=\323\355\365\275\202\006\"\275\305&\366=\305\026G;\252\304\231\275\367\202\245=V-\224=\"\265B\27629\030>\021v\357<\320\240!\276\331#\310\275a\375\350<\\\177\302\274{\202\025>\220\252\214\275\231/)\275\337p\247<t\207\321\275O`c=u\363@\276\031\305S\274zN\222\275/\202o\274Q\372\346<\203\274\003\276\236\327q=\\\360\240\275\202S@<\371\274`\2754~\246;\365\036\322=\222^\206\273\224Q\031\275*\360\317=X\001\230\275C\306}=\374\037\356<\336\026\032=\356\037\020=\274\356\277\275\263j\376<\323\235\234\275\227vU\276\366!\r\276\233y]\274\351\252r\275\245\002\004>\230~\240;J\033\352=5 -\275\216\232\240\275_\033\205\2756\302*\2736[\233\275\253\2319=\334\367\266<\346O`\275%o\255\274\022,\r<R1\345<t\3548\2756\036\367\275#S\306\273\270\332\366\2732\205\177\275\n\"^=\'/%=\377F\343=\017\341\272\275\340?&>g5\024\275\263\263I\276\237\257{=\314{\036\276v\324\022\2765\310j\275+\372#\275\217=1>!\034p\2751\373\233\275\336\030\242\275\225\366\340=\020*\207=\247\357\262\275\311\023u=\213\030\273<\311\261C\2756&}\276\355\022\335=\351p\360<\360go\275\225\033\344<\276\n\203=\376\347\341\274D6\023\276h\301)=>\344\225=\235\342\343\275!\312\021\275$V\330<\206, \276\372\340\225<\030\3766\275\357^\027>\246\311\260=2+\250=d\226\021\276\257>\364\274\n7\347=\0261\021>\034\320\250\275\332Sm=\273\246M\275\304tO=*p\255\2758\373\337\275\267\237\377;\217\233\373=\005\325\206\275D\314\337=&\316A\2750q\010\275r\253\322=\207\216\003\276\313\217\277<\345U\014\2761;\247=+)\314\275\210\032\002\276g\335U=\303\203\274\275\306\264\347<\n\372\245<\327\364\021\275d^\375=Z\365p\276ct\317<%\r,=\241\365\245=}\2331>\351>\377=\273\321S\275zO\357\275\\\t\204=\020\212j\274\2225:\275\337x7\276\332{\006\276\267\310\364\273\321s\211=~\335\252\275\366T\370\275!1\n=\300\374F=F\nb</\314\"=M\277\235\273\300[\005>6\3408\276\3465\240\275\225j\203<U\370\315\274\223\265\010\275.\205\377\275g\224\023\274b\\\332\275{-K<\022\360\220\275\r\236\006>J\037\014\274PJ\375\275\356:\024\275\330,\264<I0\360\275;\370\211\276 \254\355;[\021(\276\003T\032\276\002\253o=\016\214\377\271C\226\212\274\260j\274=Y\224\275\275\241\361\016=\332\177\364\274\253R8<\370vA\275\315\016\335=D~#=\230\036\2738w\215j<2\204\360\275\016#\207=w\375=\275\334\271\341;,\022\241<\025<,=\244z\221\275\274\r\202\273\314=n=\255;\253\274\n\315\323\274\021\334l;ofG=t\032\377\275\'\372\374=\313\251\234=&{V=\343y \276\307\216\261=\200Y\206=.\312\332<|\014\t>\304\032o<\221\256\205=\374M\227\275\261\265+=\201\353\273=\213\277\337=\330\215a\275\213\232+\275\262\030 \276\211\344\344\275\311\322\307\273\263+\017=\030\276\004<c\302b<W\365\346\275\n\257\344\2758\032\223=\330\346\027\275b}\257\275\203\317\273\273w\023%\276>)+\274\020R\r=\341kA=\240\365\001>\310\273(\276B\334\306\274U]\241\275_\270y\275L\023\257=a\242\236\273y\304\303=\264\317\350=\025\200%=!\332\\>\216\024\264\2759N@\275,\304\231\275\251%F=W:m=\270\252q\275\366\343\035=IQ\002\276O\277_\275i\235\256\274/\034:>m~\320<\1776\263=\367j\032\276L\'\026>\030\242\251\275\363\304\216<\224\241\017\275V8\355\273\252\327\021>\265\024\202\272(\302q<RVS=\264_3\275L\365\307;\276R\034\276y\'\263\274\224\257\222=\212\231\217\275\305H\014\272\354\211\004<@\314\253<6a>=\242oC\275.\314\034>A\205\r\274!\315\231\274\256\232\225=\020\363\023>$n\307\275CF2=\205\214\233\274\2356\336=;\256\021\276\262\214\203;\341A\245\275\347\212\002\276\243\373(\275l\240\205=sx\266\273\367\367\303\275\371R\307\275F~\237\275\274\017\376\2758\260U>\375\337\363\274\207$\351<\215\324\022<W\361u\2751\030\014\275\267n\255\275j\016\000\276\360l\236\275\016U^\276\022\227c>\330\2402\274\360\024]\276\271\222/\276=\355\263;\241jA=B\361\252;\357W\017\275bq\240=.\324\304\275\311\374\313\275\004\361\274\275k\243\300;\247\022\240<\3754)=\374\000\220=[\321>\275\274\227\245\274\310\000\271\275\355\'\202\275\347\3637\275\237\036\225=\244\004\376<\234y\334\274\343\036\031>\216B\007=\312\252\205=\340\242\230\275\323 \242<b\254\334<\216\0232=\327\307\007<\256p\204\274\007@\003\276M\253\265\275\2004h=\367\220\207=\355\254\224\2733\371\"=\3272w\275Hk9<\235\245o\274\016\215T>\233\225\350\275\260q\230<\250\016\364\275\201\033\251=\030\345D=\340\237 \275\355\2378\275[$\3028\364#\336=\331\211\342;\274\375E\274\305\266Z>\326E\337=\024}\233=I1\321<\253\311\335\2751\350\017<Z\354\336<\330J\033=$\233\214\274\324\023s=c\037\001\276\227\375\027\276\3145\001\276X-\223=\274\223\300\275\0272#\275}\3728=i\340\253\273\316-c\275\337N\205=\0044\033\276E\242\246=Cp\301=c&L\274\247\232\307\272.\235>>\r\372\202=\3342==hE\334\275\014f\227\274\266\365\336\275Z\334\032\276*q\346\274\361\021\315=P\017\305<\241\221\022\274{\245)=>\327\237\275:U\364<\007I(=\'\222\257<\262\3632\275\343\240\203=\262:\177\274|$\245=\332\316\226=\237Q\302\275\230{\365\2759L\013\276\210\335e=\004\265\377=\261\2516=\2521&\275 }\371\275\223\032\261\275\266F\271\271\t\313\005\275p:\245\275\374\001\365\273\037}\310=\243.1=\350C\n=b\364\236\273\307\241\235\274\223\374\025\274\340\352O=7\327>\275\031*e\274\n~\337\275\231\252\212\273\3075\226=Z\017\221=c\217\021\275\273\322|\275l\r\317=\345\320\273\273\241\273\r>U\237\n>\366\021#\275e\270\270\275\365\332\253\274\227\026B=\007\352\352=\005\232\311\275Q\364\256\275\004\224\307\275\240\335E>q\271\253<En\031=\n\030\307\275\357Ce>\354\271\236=\213Q\036\276\031\376Y\276\351\323\010\276\3611W\275\221\030\252\274\236\362U=\331\347\302=e\244\202=a\003\024>\030,!\276\356\242a<\305sC\276)h4\276\341\306h=\331\321\022=\200\227\330\275\334{\245\273iR\333\274\3172L=fc\242=\274u\006>\375\373\262\2740\312Q=d\332\037\276\333hZ\275\364\256N>\036\212[=y\367\337=\315\211s\274\364I,\275\375\302\230\274\344\202\327\275\001\r\243<\274\\\275\275)\037\235\275\037K\350=\003/\304<\376\256\010\275\016!\022\275|\256\034=\252\253\336;:}\342<\253A\251=\210\227\260=L\024\t\276\201\271&=H\'\003\275{@4\275\241F\007=s^k\276\010\255\022>X\357J=\033\312\367=\014N\276\274\216\313p=\274b+=$y\255=\364\261\247\275N5\362\273H\202P=\234\201\377;\360ph\275R\221\212<\037\3729\276_P\257=\310\255\250\274\302\006\3559\354%)\276\376\236\351\275\017u\322;L\027\032=\230PH=7\345\263\274\334\204k\275\245\222\267;X\210\234<\242\211\037\275K\346\301\274\331O\027\276\220\336\014\275e\331\262\273\262E\003\274=\213\257\275V\376\371\275F\300\306\275\007,\257\275\222\204\300\275\026?\034\275t\270\216<\302\341\337=\266\274\001\276\366\016\227\274\213\356\306=v\'k;\035\017\240:\267F<\275\364o\276<\262\202\244=\371\257\n\276g\364\260\274\006\037Z<k{\323\275\3070f=%u(\274\253\307\037\276s\003\t\276\372\275\356\275\231K\231=i\366\274=S\004k\275\222!\210\275\242#\345=\237\212\311\275\343g\034=\230-\246\275\342\006\007\273w\2310\275\2109\324<\0016L<\245K\207=\000m8\276\353&\233=\277\277I\273Zt/>\355{\327;^\341\200;O/\'\276\237c)\276\260q\202\275S\204\274=k\332\254=\325z\003\275\020X6=\306n\321=\365\324Z>6\276\271<K\366\243\275\307\340\211=\241\023P=x\306B\274\0074\371\275\201/M=|\277\246\274\2352\217\275e[\313\275\233\241\007\275\370\310w\275^w\220=\343B\347<\320h\217\275\344\353A\276\246I\207=\3766\242\2751\271K>;\250\365\275\306\370\023=G\010\013\276\214w\202\276R/\351\275\345\306\240\275\325\r\227\273\033\3168=?\017\225\275+\025J\275\260\226\200=7\350z=\342n\326\274T\223\301=X6A\275\311\n\001>\304\232L=\315\n\217\274;\016\2048\266\304N=\221\227\310<\235\024\214<I\203\237\274\016\332?\275\376\222P<\362\227\222>\020,\000=l(\020=$\255+\276\234\004E\275\211,\312=u\364\r\276\352b\013\276\017\321\026=t\334\026>/\0014=\247Kv=\367{\243=\372p7=\353\365\301\275@\3602\276\312I\376=4\217\343\273\226T5=\001r\250=i@5\276\247\213&=s\013h=\020+\030=\273\004\356<s\251|<P\337\365\275\0009\301\275\316\305c>\022\327\350<xb\377<\375\350\200>\004\217K;\\}B\276(\225\276\275\371~\365=\033\301\275\274\323\030\034=\370\231\036\274\342\213\203\275\223A\241\274@2H>\353\300\330=\030\3014=\202\300\207\274\204^\247=\342\316\214=\276\226\267\275\227\362\364\275d\233\305=\\ \20192\326\027=\030\372*\275mL/\275\361\230\202=\231w\266\275y\374-\275\353\233,<Dw$\275S\224\301<\340\236\255\275\260\032+>\324\276\037=\320\026\337\274\340%\244\275$AF\275+\306\016\276\265#\036=\016\267@:\377-\036>\036\237\250<\344\323Q<\006\005\036=>y\031=W9\240=\277O)\276\311\226\275\275\367D\r\274\303\210\\\274=\024\022\276\324\237\003<\230Q\r=\333>\226\275Y\330\321\274P\233\201=i\001\207\275\355\260M<\370\303,<\310\372\017\276\306q\267\274m\320\315=\361\t\207<\234\323\231:\300\027N=\005\026\r\275\230\010\321=k\022l\275K\232\276\274iC\227\275%Y\010\275\347CK\276\374&\214\274C\014\027\274=\256\200=\212\315\220\275\030 @=\306\264h=\322\214\231;\021\003\023>\201?\203=\373\270\r>\237\006\306=\222F\215=\000W<\275-\006\325\274\022\254\220\273\250\344\002><\301Q=\353$\241;5j\270=\223\255\244\275\301~/>\245}\275\275~B\233=\003\316\214\275\024\254E=\277\243O\275Q\356\364=\001I\310:f!\021\275\242\272\216=\032C\210>\241\032\013\273\346N\3459n\245\307=\244\262\340\274y\314\216\2755\245[=\262\211\333=G\321\261\275\355\350\245\275\220\221$\275\003\324\001=\2258\217=z\311\225\274\273Od\275\301\003\034\276\200\347\355=~\331\241<\324\320\304=\344s\022\276v\333\000=\204\322Q=<\370G\275\326\356\304=~\330\214=\370\355\271=\014\013\020>0\272\252=NF\322\2743^[>\267\347N\276\300\255\357\275\230\004V\275\311[>\275.\242R>Kq\251\2752\211:=(G\026\275\221\206\273<\246\370\232=\213^;=\001\224^\275\257w\242=\t\016\266=\260\244\203=\023dt=\303v\213=\322\234\207=\376X\343\274\302[V<`&\255;=\023\321=\265\206\014\275b\341\362\274\276\365c\276:\"k\275\235\345\377\2754\232\200\275\313\324X\275A\0310><\013\251=k\370\262\275\345<\307\275\222\211Z\275GD\035>Y\341\026\276\007B\325\275\247v\204=i\363\233=\223(\033=\317k\000\275\322\247\261;*1\020\2743\264\014\275\326\024\225=\340\332\324\274\200\273\321=n\223\320;0\224r\275\315@\000=\340i\227=\020_\265=g\200\244<\310\353\006=-u\271\275\r?\323=\346\226\377=*\324s\275\203\263d=3\247\352;\"\021 =vwK\275\373\300\017\275\014\274\310=\271\r\274\275\3760I\275\210g\217\275\271(\235<\020d\006>\356 1>\337\243\266=Q\272\376;\305\214\274<BO\323=\347\247\311=J\323\230=\363i#\2766s\301\275\027]\337<y\320z=\300&c<F`\350\274\207\375\330\274\373\241u\275\036\002\216\275%\025\241;\304\323n\275\334\'x\275\236g\336;C\"\003>~\325\252=R\302\021=\005\252\343\275\367E\t=3QO>\244\310\335=\301\247\334;\204\266$\276\273\000y\275\"fh=J\320\257\275]\377\323\272Z\357\217\276\204\333\227;`\313\375\274\303j\307=#z\n<\205\022\003=$0\004\273D\251\216<\264\353!=\270\321\027<\026\332\301=9\314\217<\002*\253<\212t\306=\257\370\r\276\022Px\274\207ok\275\'\036a\275X9\266\275\325\2654\275.\n\377=a0\215=\014\351\230<P\273\311\275\225\026G\275\007\263n=\020\t\232=\240\265\023\275\036\014\204=J\000p\275\242\361_\275jG\027>I\236&\276\314|\263\275\207\332\326;\024\312\027>\204\271\374=\325QC<\275V|<\021\236\005\275\177\203\372=\037\267\310<kh\330\275 7\342\274\360\030%\276\2238\312<\030\255.=\362\321\254\274\256o\340\275e{V\276\363\262\304=s\360\344=\3703r\275:\273#<\315I\340\2759,\216\275\305.\227\274\217dz\273\230\231\201\272\005\240k<e\213l\275U\235\332\274\264+!\275X\331\010\276\215\236\024>\003L\227=\277]\346\2733D2\276\275\326\217=\'b\214\275\362\203v\275=\235\360=\rL\236;l2\262\275\364\301`\274(/G\275\031c\242=\nj\025>{\237\372=\360o\034=\240\203\240<\237\300\257<\221k\033\275\000\362\233\275\205K\"\276\356()\276T\237\005>\351\305i\276V\202V=\257\211\254\275zF7=J#\225=\010\327\207\275st\027<\245\272\341=\371\327\266;\n\220\274=+\307/=\350 @<\332\360\232\274\342\366\342<\232e\265=\260\220c=\345\211\345\275\253\016^=\331\"\257\275r]\306=\353;\022\276ujZ\275\205\3038\275\365\3022\276_*\032\274\307\317\206\275\213\305\021\276\343\345\374\275>ZK\273\235\243\256\274Z\017\363\275\306\274\002\276x\315\374\275l<\277=\267\3420=\357\330t<I\031\222\275\003I\004>o\214\333=G[Q=\232#\035<\267\375\266\275{\235\310\275u*\372\274\236ZD\276\034&\203<#\306\025>\271\372\307\275\356n\374<\004,c=\030\324\313\275\270\3760\275\3570\217=\003\256\035=\200e(=\250\020\017>\014\025&=~\005*\273B\326\322=T\376@\276\345\350\371\2734\177\016>\323\236\325<?k\020=\'\212\005\276\254\034)>*\304\222<\321\334\013>d\001o<\274\023{=a\320\204>;\245\246=\374\243Q\275\003\242\357=\204`\212\275\262\n\215\275\337\222\016\275#\235R<t\016\033>X\217\r=\031k\356;$K\377=/\0043=\306F\222=\2644\360<,\204\346=2m\204=\024\226\242<\356\351\326<\022\n!=<\375\030\275*\313\272=\270\007r\274Q\267\037\274;\216.\275J\277!\276\033\246\303=2\024\203\275s\247f\276Qa5:\311J\177:\033\251\331\275\003\363F\273$D8>iN\021>\366\206\022=\236\243\020=\213m\217\273+ \264=\033\240-\275\305\221\236\275uO.=.\260\216\275WU\364=\220G\267<`\271\301\271\266\237\267<}+\010\274#\353\312<N\206a=\272\302R\275\003&/=\355\235\031\276\216G|\275&\246\304<R|\271;\220o\367<l\026.\275\316\037\251=\253\217\211\275f\327\355<\274X\324\275p\356(>\311\313M\275\177I\257\274\324\263b=\272R\361=]\344\322\275\303hB={\342K=\363g\202<<QK<\301\363\313\275\2608\275=\210\260\017>e\026\344\2748\214\204\275\331\255\245\275\261}\215\275\317\030\t>\032\352\373\274\225\237b\276]\254\307\275%#\330\275\271\007\265;\0365v=?\251~=\220\2702<\357\301j\276\303\361\307<\037\026\314<\2219\032>[\0048\275`\016\337\273-\005\300=\261\030 >pXs<\311\356\341\275yR\272\2755\371#=)\201\272\275\037O\235;\356)\332\274jg\256\273\206\317\225\275\325\306\310\274\364\226\030\276\357@o<\006c@\276\341\224\262\274\335\360j\275\322\262!\274&7\353\274jH\253=\261\234\227<\376H:\275pG\014\276qg\376\274\336\333\330=\377\254<\275U1\021\274\232\200\014\276\331\352-\276\2349\365<\347\310\347<H\017\342\275T\375S=\262\r\204\275\256<\222\274\217\211\007>\035\300\357=\210\2674\274j\356\241\275\222\247\356\275\227\270\353<S}\255=\216/\373\273\211o\254\275~\026\262<e\217\026\275\020D\310\275j\305X>\202]w\275\271\242\000\275my\302\275x\246\255=T\300V=\241\n\367\275odM=\321\005\201\275\255R\t>z\352\006=\205\346\326=V\215a=\275\261\r\276\370\305\030\275%v\000<\2202\000\275\353\223;=\233\026\003\275p2\314\275\177\233\237=\002\237)\276\3046`\275\264X\026>.\260\225\275\275)\302\275\221gT\275\306W\246<|\034\013=(\376\005\275\232 \253\275\0335\026>?\307\337\273aF\215=n\366\035\276x\346\373\275\353\353\316\275\312\207\374\274\233`\376=ga\214=\232\311\337=\005\312\371=\237%\235\275\004H\034=\353\3255>\220\331|=\273\213\021>\271U>\275\371\257\033\275!\254\204\274`D\302=\0056\035\276@\201\354\275:\336O=\314\375\307=\022\316\027\275\302C\231<\205\ns\275\365\035&\275\232Ue\275\3620\226=Y\373\223\275\010\000\021\275\324\362\223<2\r\245=\021\376R=d\230\300\273L\003\263\274\035\323H>c\266?>~~\343=\027\204]=l:\243<F\367\321\275\362\203\313=4\314\213\274\2757\327=\014\340\365\275\022R\020>\025\216p\275\017\315\246\275\376\242a<\035\257\017\273\033N\237=\330v\330\275\275\356\\\273^\335\245=\323Q\312\275\325\200\266=\331\325D>l\3542\276p#\036\274\264C\203\275\373\375E>\261\033Z<\225\3445\275\030T\023>\345a\300<\010l\033\276{\257\352=\223\320\371\275\352!\010=\313\212\024\276\206*\361=\242#\021\275U?9\275\257/\317\274\372Ge=\227&\207=d\362\030\276\351\350\333=k\025K\275\256?\371\275\002\321\301=a\215\251\274\021\237\366<H\363\344\2757\350\005\275Yo\031>\225\335\037\275e\331\264\274\324F\231\273\354\306\233<\310\3651\276\246\377\027=@E{\275\276\257\r\275\255\035\324\275\333\004U>|%\214\275\376\226\224\275\270o\310=\224\331\202=\210p\016\274\246\273\031\274\2632z;\264\253s=\221M\020>\254\350\266=\206)9\275\322l~;V\002*\275\360\376I\275\273\215(\275tz\246=\021\306\247\274\320EM<\246\253Q=]\027\334=\2022\224\275\017D!=d\243\007\276\355\0235=!\252 =\270?\317\274\255k\310\275\241zE\275\202.\263=\244\372\234=FCS=\330\226\204\275\353\211\230<:\235\232<\265\322\353=\272\0160=\221\241\217<`\314.\275\241\376\300\275R0\345=\306B\320=\031\303e\275J\033\016\275\0016\235\275\001\220\371<\213\027?\274\2154\241=n\245\">\230H\241=\261\3445=\313\323@\275\357\"L\275\272\373\017=\n2A=\315\250\247=\035Z\335\275\2122\210\275\020\027\007>\236 \256\275.\267\234=\274\231\216\274\2129\356<\371\036\312<\240d:\276\231\005\033>}\353\241\275\212Z\237\275\344\351\007>\237\224?=\233\3527=.\361\363\275\355\211\251\274\313/\301\273\035\301\344=\373\006\305=\3212\013=\317\231\t\275\206\331\333\273\246\010\002>\347B\241\274\263\245!\274\373\242M\275z\014\366\275_\300\212\275\243\353\001>\311\210#\274\025\205\222\275\222\371\227\273~\361\304<)\237\346=\242^\264=\303\005\226;&L\321<\034\226\243=\221\367\206\272\252\025\033\274\243\337A=1\212\020\276I\\\013\275\033\263\250<#>`\275ks\324\275\205_\010=\004\323\355;\230\326\336=)\034\036\273\316\363\370=>J*>9D\207<\255&\014\276o<@<:\341\023\273\013\343\277\2748\023\330\273\272\n\027>)8\000\276\0031K\273\325\207\255\275\360/~\2751\375\221>\271;\236\275\375\"\207=\342\247\353=\312u\354;Y\214\252=\023\365\271\275{\237|=\nT\327<\342\375G\273\213ut=\267\337\266\275\374\"\265\275\203K\004\276S\241\031\273\3063\027\276`\301\225\273\310\274`=\3721\331\273\301\250\030=\273M8\276\237\216\240=!\335\020\274T\377\177\2758\313\364<\373\312?=\003\227+\275\344\006\262=\000)l<]\002\224\275\311\205\031=\315\224\365;\323\351X\276\352\371\313=\314\010\302=\037Y\274=1.\300\274@\r\216<\375?\302\274\236\214d\272\010\213\017\276\206\237\307=M\020>\275i\267\323\275\026\352\316<\026\262\325=`[\021>\336\304\334<\216D?=\263}\212=\247\232\233\275O>\360=\304\246\3179J4\021>P\374\000=\336y6=\312\215\360\275d\203Y\275N\356\266=\210\205\221\275*\022\037\2760n?<\265]\'>\352\306\204\276\230\256\025=\324\353\244\275\340(\253<l\277L\2765\200\006\276iQ\310\274\344\374K=\355@4=C\260\000>\320(\206\275\006C\276\2711\267U=\256\366]=\320\314\006\276Pw.>\'\263\003\276\031\2146\275\22216=p\266\365\274[\311\251\274-W\214=\014\004\203=\271N\003=Z~\250=s\031\206=MkI\275\033[C=\372T\237=&q`;\013\372\200\275[\300\023\275ja\224\275\001\334\254\275j\375\223\275\246\340$\275c]\262\275[\201\243=\260\273\222=\377\256%\276x\036\230\275\302\366\274\274\014\216S;\251fw>\357\346\327<\331\2155\275\007\354c=T` ;?\014\310=\002\315\244\275\315t\330\274[B`>\332\340\332=71\250=P\264\242=\270\030\301\2743@\007\276W\350\214=zQ\310\275\330\330v\274r\257\220=/\224(\275\353m\007\275S\224x<\267\3469>\363\"\206\274\t\253;=\025\377\241\274N\024\231=\215b\207\275\035\030\332=\365\347\013\274\030\355\021\275\222B\303\275\023\234\206=\rS/>\213\270V\275\364\006\036\274\263\022\022\275\025\262\000\276\312E\300\275\356\365\310<X\013s>\005\036\034\275*\300\225=C\267\365\274\351_\375\275\006\247\224\275x\372\222=G\323S>\346\027u\275\321D\205=:\316\025\275\014\r$=Q\266\302\275\237\321\007\276\033\204\260\275.\313\207\275t\231\234=>\376%=\243X\234;\263rW;\0217\254\275\335\210\204=\372w6<\341\317\330\274RS7\274\345E\377\275\332\035\265=\'/\224\275\260}\234\275uk\225\275Y\307\354=\225\223\217\275bo\306=\003C\027>\010\023\227\275\205\236<=\264R\212<AiL>8\271\\=4\244\217=\330sz\276\215\224\027\275h\003\317=\036O\371\274\210\321\211:\241\230\003=\312F\027=\006o>=\337\310\031=`\016\303=\177\031?\275,_\005=\370\033\367\275\246I\337\275f\215R<\2149\033\276\3179\257=\232c\330\274gT\202\275\373\013\305<\004\272\216\275}\344u\275_D\271\273W\332\010\275\371r\313\275\003J@>\2649Z<(\303\\\274\265}\022\276D\t]<\363\301\273\275v/i>@\026\200\275k\354\265\274\001\234\t=\003}\003=Z\247\272\274\217\330\312\273C\036\227\275\000hJ=XaQ>\300\365\013\275\227\242\306<v\273\024\275\306\247\010\274\000\221\376\274\322\"\034<K\267\236\270\305\3609>/\216\207=\272\3251\276\271n\036\276\320\262\310=zw\256=\350\243\025\274a\300\022<\245\274\260==K\276<\360P\177\275\337a4\276\257%\010\275\322P\375;:\223\345\275_\365\236<\356\021+\275\332\360\023=\024\027\257<\375+\227\274+\242\345\274\211\"\372\272)Z{<\003\315*=P\tN\275\365\003\301=e\234q\274\376\374.\275\337\305\265\2759og>y\3554=\264?\\=N\227$>pf=\276\3356\025\274\242-\017\276\263X>;\230\237\212\275\303\016\325\275Rb\365<\024\330\245\274\343\177\236\275\321V\010\275;\302s\272-b \275w\252\022>5ZF<\306\2324\276{\204j=v\022\021<C\234\276<\245=\332\275\rr\014>\034\036~\275\247\232\207\275\347%\271\275L\025\366\274\243B\274\275\026\316\031>;\r\340=\217\236c\275\0000;>\221}C\275\312\255\315=\312!\324<\372\006\363=\'\364W\275\233}\362<\271\352\264\275\032\214\033=\332\216\244<u\277\357\273\243\020\233>7s\367=Y\003&>B]\244=qc \275$\333\277=\357\320\'\274k\005\301<\003\340\035;\252\235:\275\370\227\335\275\241l\327=&\2737\275\200\004\022\275\242\251\365\2759\277\377\274\215\321\t=\337\353\314\274mQ\214\275\376\214\234;1\373V\275\211y\033\275\367\375I=W\313q\275\271\016\206=\177\325\244\275nd\275=@\301\017=\2211\314\273\'\r\024\275\373\214\247=*\252\302\275\036\320\213\275\017\014O>G\264\002>\321q\234\275K9\327<\r\025!\275KR\270;\346\'\377=\233\306\203=\226p-\276\317\252\200\275\004y&\276\327\354\007\276\177\342L\274x5\014\275\014}\346\273\037\244\345=c\020\006\276>\245\325\274\334\007g\274T\332@\275{MH=\231Z@\275$\000\002>5\267M=\224\257\354=h\335-\275\017d\215\275gj\001>\202L\365\275\017\003O\275Z\3707\275\031\303\353\2751\274\247\275\341\010\001\275\231\250\325<~h\240=\370\003\263\275O\211z=\321\014_\275j\257\255\275\227\212\307\274\322\256\010<\373\004\242=ywI\275\260\333A>\315P\307=;Y\224<\033\215\301\274\262,\271\275\002+\265=#\354\374=\336\320\335<\250\246\215;\350\016\243=\245\035\333=$\333%>j\317\032>\201,\001\275U\027N>Z\224 \273C\267\331=j\344Y<B\352\'\275\216\372\026;\364O\374\273\345(\365=\177\363\340\275\177\327\030\273\210!\240\275\365\271\023\276\3770\317=\335\250g:\224\373a=I\250n\275\330[E\275\230\371\004\276\264\337/\275ZdW>\r\313\023<\323(\301\274\001Q\031\275\231\005R<[\320\005>\231\200\2029U\306\005=\312\014]=$d\220=\321Y\007\276t\373\320\275\274\257\003\275\330o\231=\275\215\210\275\230\340\270<\261a\311<\265\203\362<F?\276\275\311\255\313\275\017\031\346:\276\005\r\275!\207\311\275\0068\214\275\313\r\024\276\250\010\254=d\022\350<\252=\372\275%^\016<\332\342[<WO6<Z\276\344\274e\014&=\274\357:=8\323A\275r\300&\275\233\337\022\276z\017o\275\354z<>>XA\276\326\357\037>\302\376\353=\001\241\233\275\217K\271\275\311\324\022\2755>\267\274\036&>\275\203\002\377<\321\305[\271\032\212\022\276 \335U\275\222\232\211\275R3\027>u\311\010=<:\004>\337\363\263\275\3528E\275\007\265\336=-\336\272\275A~!\274Q^\030=\231\035L\275`\003\r\276Rdd:p,\270\274jw\374=\311\370\213=\305aD=\202W\275=w\321\377\275J\263\206\275\006t\336<4\016\3569<\202\322<\242\257[\275\000\307\363=zn\226=\235\352\240\274\364T\222\275^\027\240<bv\007>\234\010\023<*\204\351\275\332\023\224\2759\2251\276\034\313\261=P4\335\275\222z\373<\340l\215=\210\010\252<c9s:\237\254^=9\223[=\235M\320\275L\213\010\275sN\270\274\305h\002\275\240-Q\275=W\005\275\030\333\236\275\240\020P\276\330\266S<\320\370&> (1\276<\022\316<\267\315\222=j\351\212\275\230\240\313\274\225b,>\214\365|=\356\266\006=F\037i\274\037%\375<I\210\347\275+\177\203=\367\347F=9\304=> V<\275\352>\224\275J\357t=N\327\242\275/\254M;Uq\240\275\217\315\232\275a\370W=\251\370\317<\315\'\243=\243\317\203=\203\334\322\27550\220\276\304\3072=g\231-\276\210\207f=\237\251\231\275\330sC\275l\376\236\274\232ko\275\2042|\275\331bp>\004\261\213\275*\036\352\274\220\005\337\272\371h\210\275\\Wy=\205\3777\274\222\300\345\271\022\250L\274\305\021\n=\271=\205=\204\364\375=\240\277\357\274\001=\000> \272\361:{p6\274\"\367\020\275^\304Z\275\262\t\313=\321\330\325=g\277\320=\337\275\327\274b\350\314=\025\014*\276\322\325N>\270\232\314\275W\213\237=\357$\262\274\006\361>\274\262\000\343=\333\342\347\274\371\271 >\352\211\375\275n\251\210\275\371\237\302\275%\236/==\354/<\335\201\331\274\273+\211=\217\216\273<\322\363\251\275\220m\305\275$\225\365\275\235\264\363\275\013L\201=\345\346\002=\"\370\360\274\362\215\377\274eI\331=$jC=\217\037\321\275\302\367\r\275\210\252\273=\353G\223\275H\224\224=\310%+>1\007\266\275\247\353\000\274\014\000\217<\226\3040\276,9\240<\234\274\240=,m+<\224\005\034\275\262\344\372<\303\340A\2747\2506\276\353\001\343\275\351\352`\275\211\311r\274\201\325\315\275\346\305\202\275\364\026\264\274=\006\203\275\262\325\001=\242g\022\275\333\305N=\'n\250=\264\263s\275\246\307:\272\366\020\027\276\037K\225=Y\2226\275\374]>\276\334\0220=\3229\330\273\275\227\263=\365%\245=\277_\360\273\007>F\275\303\333\317=\034@\352\275\350\223\366=\350L\001=\300Pk>R\307\251=\350\266+\276,R\210\274\000C\202<\242\255\t>hd>\276\331\200\252<|\3738=\202\036\001\275\321\215\004>\320v\335=2\016\317\275o\252J\276\345\\p=\313\361\024\276\356\200r\274z\314\264:\006\343\003\275\223\023t\275\236^}\275p\212v<s)\211<\302\005{=\315*\272<\007qw=\232%\273\275\220\014\005\276\302)\217=\216Q\370=\222\354\236\275\256k\340=OA\316\273\321\261\253=\202O3\275?r\346=\031\005\237<\206\305i\275\230\203\302=\\\333z\274\235>;;\251\251\346\274v\235x\274\247\260\233=\351\303\266<\016\200k\275\261\231\245\275A8\304= w\340==\177\233\275I\265\233\275YD\\>E\320\313=\026\276\237\274D1\'\274X\242H=\237\004B>&U\353=iB\234<\321\337\354\275\344\214\320=\3000\264=\327\213N\275\365\036?=$\337*>\256F\203\273\241l\354=\337[\353\275\035lj\2752\325\270\2752\3434\274t\363c=\233\330\212=\305\322V:Ob\213<\215lp\275\225\255a<\010\356\305\275>\246i=\360\201\020=A\023\215=(o#\274\0311\350\275\\R`=UO\017\276$\220=>\022\r\304\274GsT\276\251\345\"\274\030\342\006\276\232\232\255\275\264y\023\276\267|\253\275\014T\214\275.Y\371<8WT=>\276t\274\225\372\260=\231`\343<\024\250\362\273\351\030\234\274\376l\223=\337\366\354=\\Y_<\326\235\215=\377\371M\274\342/\356\275c#\343=\352\304;=B~\234\273\241\342\236\272\353\017\305\275\274\254\203\275`\277\366\275WD\006\2745Wu=m\2412\276\302\304\313\275%f\326\274;\n\302=X\230\213\275y\004y<,\363\352\275\036\035p=\265\200\026>\320y\376=K\316R\275:\236\263\274\026Q\026\273F\306L>\353\360\\\274\005\317[\273e\237\253=\347\024D\275\010J\373\274\036H\222=\315\206)<\220,\005\276W@\234=\245\330\232=\242\020\214<c\324\323=\021\246\023>\005X\203>\003\250\"<H\232\375=\214\370J=N\215\256=\317M\002\274\016\344\017>\026\225\202=\240NV\275Blw=\236g\036\275\207?\342\275#o\216\273\230\220i\275t\210\315=q2&>\3647\312\275\017\206<=\r|\207=\276.&>e\323\272\274\024\373\201<a\276\200\275P7H\274x\237\323<\203\340\313=&\270@\276%\242\223\275]\272\236=1\275/>\221\016\256\275\207\350\272\275\243n\314\275\270\3010=\357)\313=\347\305u\272\001\232\274:\261\037\004\275\0310\026\274\254{\002\276\242%\201\274\245\2246\275\007\352\320\275\032C\024=\216\201\314\273\302\262\007\276\020)\323<3\222c\276{\342\225=\253\325V\275\270\'\253=^\310\211=\312\375T\272\233\303L=\240\316\256=\006T{\276\026eD=\374\221\334=&\201,<]\343\305=T\261\342=p\302\373\273\222\025\313=\316Ou\275\237Se<\263\323\252\275\024\003\220=?\342|=I\336\347=\220\221(\276TZ\362=\016\344<\276#!>\275\301#\205=\r\206\r>\226\024&=\270\247W=}\273\302\275\036\275\010\276)\363@>5\222\005\2769\301\264\275:\ry\275\257\243&=\250vg<:)\263<\373+\345=\250\360\341<\017\300\023\274\230\002\013\276\023\005\034>\311\035\016=\3331\207>\nz2=Ml\324=\363\240\320=y\206\222\275!:K=Ak\037=g\001\227<\340\321B\275}\224\255=sH\313\275Jz\">\325n\016\276dW\263;X\004\225\275\344l\225=\260\240\323\275\000\302E\274\354S\230=\236\333\216=\371\220\242=b\306\263\275\317/\r\275`K\360;\020\216\223;\341\344;=\225\323\002>\203\366\014=B\262\207=\362w\317=\220-\031\275\366\r\215\274\r\273;=\201\244y\274\332\2425=^\235\216=k\341t=BFx=\212{\t\275\333\036\270\275\332\003`\274|Y\016>\'\222\016=b9\001\276jr\204=\017\000\320\274M\217\361\275\230q3\275u\340\270\274J\334\002\276w\023\202=\216\310\344\273V\201\006>\2031\177\275H6\316\275\206\310\007\275\021yu=U,\331\275\275\366\027>M\007\303<\266r\237=\023\022\365\275#\223\227\2754\007\256\275\324\374\245\275\324\242\242=f\221\273\274\027\0038\275\033p\"<Q0U\275h_\362\274[dE=\024\027\362=V\251\312\275\031{\202\275B\025\014=\366?\007\276C4\351\275\224\256&=\376.]=\257|z=\330^\311<\262t\026>\271*\004>S\264\204<H\257J;b\256F\274n\344\242=bI\255\275"
      }
    }
  }
}
node {
  name: "LSTM_1/recurrent_kernel"
  op: "VariableV2"
  attr {
    key: "container"
    value {
      s: ""
    }
  }
  attr {
    key: "dtype"
    value {
      type: DT_FLOAT
    }
  }
  attr {
    key: "shape"
    value {
      shape {
        dim {
          size: 32
        }
        dim {
          size: 128
        }
      }
    }
  }
  attr {
    key: "shared_name"
    value {
      s: ""
    }
  }
}
node {
  name: "LSTM_1/recurrent_kernel/Assign"
  op: "Assign"
  input: "LSTM_1/recurrent_kernel"
  input: "LSTM_1/recurrent_kernel/initial_value"
  attr {
    key: "T"
    value {
      type: DT_FLOAT
    }
  }
  attr {
    key: "_class"
    value {
      list {
        s: "loc:@LSTM_1/recurrent_kernel"
      }
    }
  }
  attr {
    key: "use_locking"
    value {
      b: true
    }
  }
  attr {
    key: "validate_shape"
    value {
      b: true
    }
  }
}
node {
  name: "LSTM_1/recurrent_kernel/read"
  op: "Identity"
  input: "LSTM_1/recurrent_kernel"
  attr {
    key: "T"
    value {
      type: DT_FLOAT
    }
  }
  attr {
    key: "_class"
    value {
      list {
        s: "loc:@LSTM_1/recurrent_kernel"
      }
    }
  }
}
node {
  name: "LSTM_1/weight_regularizer_1/Square"
  op: "Square"
  input: "LSTM_1/recurrent_kernel/read"
  attr {
    key: "T"
    value {
      type: DT_FLOAT
    }
  }
}
node {
  name: "LSTM_1/weight_regularizer_1/mul/x"
  op: "Const"
  attr {
    key: "dtype"
    value {
      type: DT_FLOAT
    }
  }
  attr {
    key: "value"
    value {
      tensor {
        dtype: DT_FLOAT
        tensor_shape {
        }
        float_val: 9.999999974752427e-07
      }
    }
  }
}
node {
  name: "LSTM_1/weight_regularizer_1/mul"
  op: "Mul"
  input: "LSTM_1/weight_regularizer_1/mul/x"
  input: "LSTM_1/weight_regularizer_1/Square"
  attr {
    key: "T"
    value {
      type: DT_FLOAT
    }
  }
}
node {
  name: "LSTM_1/weight_regularizer_1/Const"
  op: "Const"
  attr {
    key: "dtype"
    value {
      type: DT_INT32
    }
  }
  attr {
    key: "value"
    value {
      tensor {
        dtype: DT_INT32
        tensor_shape {
          dim {
            size: 2
          }
        }
        tensor_content: "\000\000\000\000\001\000\000\000"
      }
    }
  }
}
node {
  name: "LSTM_1/weight_regularizer_1/Sum"
  op: "Sum"
  input: "LSTM_1/weight_regularizer_1/mul"
  input: "LSTM_1/weight_regularizer_1/Const"
  attr {
    key: "T"
    value {
      type: DT_FLOAT
    }
  }
  attr {
    key: "Tidx"
    value {
      type: DT_INT32
    }
  }
  attr {
    key: "keep_dims"
    value {
      b: false
    }
  }
}
node {
  name: "LSTM_1/weight_regularizer_1/add/x"
  op: "Const"
  attr {
    key: "dtype"
    value {
      type: DT_FLOAT
    }
  }
  attr {
    key: "value"
    value {
      tensor {
        dtype: DT_FLOAT
        tensor_shape {
        }
        float_val: 0.0
      }
    }
  }
}
node {
  name: "LSTM_1/weight_regularizer_1/add"
  op: "Add"
  input: "LSTM_1/weight_regularizer_1/add/x"
  input: "LSTM_1/weight_regularizer_1/Sum"
  attr {
    key: "T"
    value {
      type: DT_FLOAT
    }
  }
}
node {
  name: "LSTM_1/Const"
  op: "Const"
  attr {
    key: "dtype"
    value {
      type: DT_FLOAT
    }
  }
  attr {
    key: "value"
    value {
      tensor {
        dtype: DT_FLOAT
        tensor_shape {
          dim {
            size: 32
          }
        }
        float_val: 0.0
      }
    }
  }
}
node {
  name: "LSTM_1/Const_1"
  op: "Const"
  attr {
    key: "dtype"
    value {
      type: DT_FLOAT
    }
  }
  attr {
    key: "value"
    value {
      tensor {
        dtype: DT_FLOAT
        tensor_shape {
          dim {
            size: 32
          }
        }
        float_val: 1.0
      }
    }
  }
}
node {
  name: "LSTM_1/Const_2"
  op: "Const"
  attr {
    key: "dtype"
    value {
      type: DT_FLOAT
    }
  }
  attr {
    key: "value"
    value {
      tensor {
        dtype: DT_FLOAT
        tensor_shape {
          dim {
            size: 64
          }
        }
        float_val: 0.0
      }
    }
  }
}
node {
  name: "LSTM_1/concat/axis"
  op: "Const"
  attr {
    key: "dtype"
    value {
      type: DT_INT32
    }
  }
  attr {
    key: "value"
    value {
      tensor {
        dtype: DT_INT32
        tensor_shape {
        }
        int_val: 0
      }
    }
  }
}
node {
  name: "LSTM_1/concat"
  op: "ConcatV2"
  input: "LSTM_1/Const"
  input: "LSTM_1/Const_1"
  input: "LSTM_1/Const_2"
  input: "LSTM_1/concat/axis"
  attr {
    key: "N"
    value {
      i: 3
    }
  }
  attr {
    key: "T"
    value {
      type: DT_FLOAT
    }
  }
  attr {
    key: "Tidx"
    value {
      type: DT_INT32
    }
  }
}
node {
  name: "LSTM_1/bias"
  op: "VariableV2"
  attr {
    key: "container"
    value {
      s: ""
    }
  }
  attr {
    key: "dtype"
    value {
      type: DT_FLOAT
    }
  }
  attr {
    key: "shape"
    value {
      shape {
        dim {
          size: 128
        }
      }
    }
  }
  attr {
    key: "shared_name"
    value {
      s: ""
    }
  }
}
node {
  name: "LSTM_1/bias/Assign"
  op: "Assign"
  input: "LSTM_1/bias"
  input: "LSTM_1/concat"
  attr {
    key: "T"
    value {
      type: DT_FLOAT
    }
  }
  attr {
    key: "_class"
    value {
      list {
        s: "loc:@LSTM_1/bias"
      }
    }
  }
  attr {
    key: "use_locking"
    value {
      b: true
    }
  }
  attr {
    key: "validate_shape"
    value {
      b: true
    }
  }
}
node {
  name: "LSTM_1/bias/read"
  op: "Identity"
  input: "LSTM_1/bias"
  attr {
    key: "T"
    value {
      type: DT_FLOAT
    }
  }
  attr {
    key: "_class"
    value {
      list {
        s: "loc:@LSTM_1/bias"
      }
    }
  }
}
node {
  name: "LSTM_1/weight_regularizer_2/Square"
  op: "Square"
  input: "LSTM_1/bias/read"
  attr {
    key: "T"
    value {
      type: DT_FLOAT
    }
  }
}
node {
  name: "LSTM_1/weight_regularizer_2/mul/x"
  op: "Const"
  attr {
    key: "dtype"
    value {
      type: DT_FLOAT
    }
  }
  attr {
    key: "value"
    value {
      tensor {
        dtype: DT_FLOAT
        tensor_shape {
        }
        float_val: 9.999999974752427e-07
      }
    }
  }
}
node {
  name: "LSTM_1/weight_regularizer_2/mul"
  op: "Mul"
  input: "LSTM_1/weight_regularizer_2/mul/x"
  input: "LSTM_1/weight_regularizer_2/Square"
  attr {
    key: "T"
    value {
      type: DT_FLOAT
    }
  }
}
node {
  name: "LSTM_1/weight_regularizer_2/Const"
  op: "Const"
  attr {
    key: "dtype"
    value {
      type: DT_INT32
    }
  }
  attr {
    key: "value"
    value {
      tensor {
        dtype: DT_INT32
        tensor_shape {
          dim {
            size: 1
          }
        }
        int_val: 0
      }
    }
  }
}
node {
  name: "LSTM_1/weight_regularizer_2/Sum"
  op: "Sum"
  input: "LSTM_1/weight_regularizer_2/mul"
  input: "LSTM_1/weight_regularizer_2/Const"
  attr {
    key: "T"
    value {
      type: DT_FLOAT
    }
  }
  attr {
    key: "Tidx"
    value {
      type: DT_INT32
    }
  }
  attr {
    key: "keep_dims"
    value {
      b: false
    }
  }
}
node {
  name: "LSTM_1/weight_regularizer_2/add/x"
  op: "Const"
  attr {
    key: "dtype"
    value {
      type: DT_FLOAT
    }
  }
  attr {
    key: "value"
    value {
      tensor {
        dtype: DT_FLOAT
        tensor_shape {
        }
        float_val: 0.0
      }
    }
  }
}
node {
  name: "LSTM_1/weight_regularizer_2/add"
  op: "Add"
  input: "LSTM_1/weight_regularizer_2/add/x"
  input: "LSTM_1/weight_regularizer_2/Sum"
  attr {
    key: "T"
    value {
      type: DT_FLOAT
    }
  }
}
node {
  name: "LSTM_1/strided_slice/stack"
  op: "Const"
  attr {
    key: "dtype"
    value {
      type: DT_INT32
    }
  }
  attr {
    key: "value"
    value {
      tensor {
        dtype: DT_INT32
        tensor_shape {
          dim {
            size: 2
          }
        }
        tensor_content: "\000\000\000\000\000\000\000\000"
      }
    }
  }
}
node {
  name: "LSTM_1/strided_slice/stack_1"
  op: "Const"
  attr {
    key: "dtype"
    value {
      type: DT_INT32
    }
  }
  attr {
    key: "value"
    value {
      tensor {
        dtype: DT_INT32
        tensor_shape {
          dim {
            size: 2
          }
        }
        tensor_content: "\000\000\000\000 \000\000\000"
      }
    }
  }
}
node {
  name: "LSTM_1/strided_slice/stack_2"
  op: "Const"
  attr {
    key: "dtype"
    value {
      type: DT_INT32
    }
  }
  attr {
    key: "value"
    value {
      tensor {
        dtype: DT_INT32
        tensor_shape {
          dim {
            size: 2
          }
        }
        tensor_content: "\001\000\000\000\001\000\000\000"
      }
    }
  }
}
node {
  name: "LSTM_1/strided_slice"
  op: "StridedSlice"
  input: "LSTM_1/kernel/read"
  input: "LSTM_1/strided_slice/stack"
  input: "LSTM_1/strided_slice/stack_1"
  input: "LSTM_1/strided_slice/stack_2"
  attr {
    key: "Index"
    value {
      type: DT_INT32
    }
  }
  attr {
    key: "T"
    value {
      type: DT_FLOAT
    }
  }
  attr {
    key: "begin_mask"
    value {
      i: 3
    }
  }
  attr {
    key: "ellipsis_mask"
    value {
      i: 0
    }
  }
  attr {
    key: "end_mask"
    value {
      i: 1
    }
  }
  attr {
    key: "new_axis_mask"
    value {
      i: 0
    }
  }
  attr {
    key: "shrink_axis_mask"
    value {
      i: 0
    }
  }
}
node {
  name: "LSTM_1/strided_slice_1/stack"
  op: "Const"
  attr {
    key: "dtype"
    value {
      type: DT_INT32
    }
  }
  attr {
    key: "value"
    value {
      tensor {
        dtype: DT_INT32
        tensor_shape {
          dim {
            size: 2
          }
        }
        tensor_content: "\000\000\000\000 \000\000\000"
      }
    }
  }
}
node {
  name: "LSTM_1/strided_slice_1/stack_1"
  op: "Const"
  attr {
    key: "dtype"
    value {
      type: DT_INT32
    }
  }
  attr {
    key: "value"
    value {
      tensor {
        dtype: DT_INT32
        tensor_shape {
          dim {
            size: 2
          }
        }
        tensor_content: "\000\000\000\000@\000\000\000"
      }
    }
  }
}
node {
  name: "LSTM_1/strided_slice_1/stack_2"
  op: "Const"
  attr {
    key: "dtype"
    value {
      type: DT_INT32
    }
  }
  attr {
    key: "value"
    value {
      tensor {
        dtype: DT_INT32
        tensor_shape {
          dim {
            size: 2
          }
        }
        tensor_content: "\001\000\000\000\001\000\000\000"
      }
    }
  }
}
node {
  name: "LSTM_1/strided_slice_1"
  op: "StridedSlice"
  input: "LSTM_1/kernel/read"
  input: "LSTM_1/strided_slice_1/stack"
  input: "LSTM_1/strided_slice_1/stack_1"
  input: "LSTM_1/strided_slice_1/stack_2"
  attr {
    key: "Index"
    value {
      type: DT_INT32
    }
  }
  attr {
    key: "T"
    value {
      type: DT_FLOAT
    }
  }
  attr {
    key: "begin_mask"
    value {
      i: 1
    }
  }
  attr {
    key: "ellipsis_mask"
    value {
      i: 0
    }
  }
  attr {
    key: "end_mask"
    value {
      i: 1
    }
  }
  attr {
    key: "new_axis_mask"
    value {
      i: 0
    }
  }
  attr {
    key: "shrink_axis_mask"
    value {
      i: 0
    }
  }
}
node {
  name: "LSTM_1/strided_slice_2/stack"
  op: "Const"
  attr {
    key: "dtype"
    value {
      type: DT_INT32
    }
  }
  attr {
    key: "value"
    value {
      tensor {
        dtype: DT_INT32
        tensor_shape {
          dim {
            size: 2
          }
        }
        tensor_content: "\000\000\000\000@\000\000\000"
      }
    }
  }
}
node {
  name: "LSTM_1/strided_slice_2/stack_1"
  op: "Const"
  attr {
    key: "dtype"
    value {
      type: DT_INT32
    }
  }
  attr {
    key: "value"
    value {
      tensor {
        dtype: DT_INT32
        tensor_shape {
          dim {
            size: 2
          }
        }
        tensor_content: "\000\000\000\000`\000\000\000"
      }
    }
  }
}
node {
  name: "LSTM_1/strided_slice_2/stack_2"
  op: "Const"
  attr {
    key: "dtype"
    value {
      type: DT_INT32
    }
  }
  attr {
    key: "value"
    value {
      tensor {
        dtype: DT_INT32
        tensor_shape {
          dim {
            size: 2
          }
        }
        tensor_content: "\001\000\000\000\001\000\000\000"
      }
    }
  }
}
node {
  name: "LSTM_1/strided_slice_2"
  op: "StridedSlice"
  input: "LSTM_1/kernel/read"
  input: "LSTM_1/strided_slice_2/stack"
  input: "LSTM_1/strided_slice_2/stack_1"
  input: "LSTM_1/strided_slice_2/stack_2"
  attr {
    key: "Index"
    value {
      type: DT_INT32
    }
  }
  attr {
    key: "T"
    value {
      type: DT_FLOAT
    }
  }
  attr {
    key: "begin_mask"
    value {
      i: 1
    }
  }
  attr {
    key: "ellipsis_mask"
    value {
      i: 0
    }
  }
  attr {
    key: "end_mask"
    value {
      i: 1
    }
  }
  attr {
    key: "new_axis_mask"
    value {
      i: 0
    }
  }
  attr {
    key: "shrink_axis_mask"
    value {
      i: 0
    }
  }
}
node {
  name: "LSTM_1/strided_slice_3/stack"
  op: "Const"
  attr {
    key: "dtype"
    value {
      type: DT_INT32
    }
  }
  attr {
    key: "value"
    value {
      tensor {
        dtype: DT_INT32
        tensor_shape {
          dim {
            size: 2
          }
        }
        tensor_content: "\000\000\000\000`\000\000\000"
      }
    }
  }
}
node {
  name: "LSTM_1/strided_slice_3/stack_1"
  op: "Const"
  attr {
    key: "dtype"
    value {
      type: DT_INT32
    }
  }
  attr {
    key: "value"
    value {
      tensor {
        dtype: DT_INT32
        tensor_shape {
          dim {
            size: 2
          }
        }
        tensor_content: "\000\000\000\000\000\000\000\000"
      }
    }
  }
}
node {
  name: "LSTM_1/strided_slice_3/stack_2"
  op: "Const"
  attr {
    key: "dtype"
    value {
      type: DT_INT32
    }
  }
  attr {
    key: "value"
    value {
      tensor {
        dtype: DT_INT32
        tensor_shape {
          dim {
            size: 2
          }
        }
        tensor_content: "\001\000\000\000\001\000\000\000"
      }
    }
  }
}
node {
  name: "LSTM_1/strided_slice_3"
  op: "StridedSlice"
  input: "LSTM_1/kernel/read"
  input: "LSTM_1/strided_slice_3/stack"
  input: "LSTM_1/strided_slice_3/stack_1"
  input: "LSTM_1/strided_slice_3/stack_2"
  attr {
    key: "Index"
    value {
      type: DT_INT32
    }
  }
  attr {
    key: "T"
    value {
      type: DT_FLOAT
    }
  }
  attr {
    key: "begin_mask"
    value {
      i: 1
    }
  }
  attr {
    key: "ellipsis_mask"
    value {
      i: 0
    }
  }
  attr {
    key: "end_mask"
    value {
      i: 3
    }
  }
  attr {
    key: "new_axis_mask"
    value {
      i: 0
    }
  }
  attr {
    key: "shrink_axis_mask"
    value {
      i: 0
    }
  }
}
node {
  name: "LSTM_1/strided_slice_4/stack"
  op: "Const"
  attr {
    key: "dtype"
    value {
      type: DT_INT32
    }
  }
  attr {
    key: "value"
    value {
      tensor {
        dtype: DT_INT32
        tensor_shape {
          dim {
            size: 2
          }
        }
        tensor_content: "\000\000\000\000\000\000\000\000"
      }
    }
  }
}
node {
  name: "LSTM_1/strided_slice_4/stack_1"
  op: "Const"
  attr {
    key: "dtype"
    value {
      type: DT_INT32
    }
  }
  attr {
    key: "value"
    value {
      tensor {
        dtype: DT_INT32
        tensor_shape {
          dim {
            size: 2
          }
        }
        tensor_content: "\000\000\000\000 \000\000\000"
      }
    }
  }
}
node {
  name: "LSTM_1/strided_slice_4/stack_2"
  op: "Const"
  attr {
    key: "dtype"
    value {
      type: DT_INT32
    }
  }
  attr {
    key: "value"
    value {
      tensor {
        dtype: DT_INT32
        tensor_shape {
          dim {
            size: 2
          }
        }
        tensor_content: "\001\000\000\000\001\000\000\000"
      }
    }
  }
}
node {
  name: "LSTM_1/strided_slice_4"
  op: "StridedSlice"
  input: "LSTM_1/recurrent_kernel/read"
  input: "LSTM_1/strided_slice_4/stack"
  input: "LSTM_1/strided_slice_4/stack_1"
  input: "LSTM_1/strided_slice_4/stack_2"
  attr {
    key: "Index"
    value {
      type: DT_INT32
    }
  }
  attr {
    key: "T"
    value {
      type: DT_FLOAT
    }
  }
  attr {
    key: "begin_mask"
    value {
      i: 3
    }
  }
  attr {
    key: "ellipsis_mask"
    value {
      i: 0
    }
  }
  attr {
    key: "end_mask"
    value {
      i: 1
    }
  }
  attr {
    key: "new_axis_mask"
    value {
      i: 0
    }
  }
  attr {
    key: "shrink_axis_mask"
    value {
      i: 0
    }
  }
}
node {
  name: "LSTM_1/strided_slice_5/stack"
  op: "Const"
  attr {
    key: "dtype"
    value {
      type: DT_INT32
    }
  }
  attr {
    key: "value"
    value {
      tensor {
        dtype: DT_INT32
        tensor_shape {
          dim {
            size: 2
          }
        }
        tensor_content: "\000\000\000\000 \000\000\000"
      }
    }
  }
}
node {
  name: "LSTM_1/strided_slice_5/stack_1"
  op: "Const"
  attr {
    key: "dtype"
    value {
      type: DT_INT32
    }
  }
  attr {
    key: "value"
    value {
      tensor {
        dtype: DT_INT32
        tensor_shape {
          dim {
            size: 2
          }
        }
        tensor_content: "\000\000\000\000@\000\000\000"
      }
    }
  }
}
node {
  name: "LSTM_1/strided_slice_5/stack_2"
  op: "Const"
  attr {
    key: "dtype"
    value {
      type: DT_INT32
    }
  }
  attr {
    key: "value"
    value {
      tensor {
        dtype: DT_INT32
        tensor_shape {
          dim {
            size: 2
          }
        }
        tensor_content: "\001\000\000\000\001\000\000\000"
      }
    }
  }
}
node {
  name: "LSTM_1/strided_slice_5"
  op: "StridedSlice"
  input: "LSTM_1/recurrent_kernel/read"
  input: "LSTM_1/strided_slice_5/stack"
  input: "LSTM_1/strided_slice_5/stack_1"
  input: "LSTM_1/strided_slice_5/stack_2"
  attr {
    key: "Index"
    value {
      type: DT_INT32
    }
  }
  attr {
    key: "T"
    value {
      type: DT_FLOAT
    }
  }
  attr {
    key: "begin_mask"
    value {
      i: 1
    }
  }
  attr {
    key: "ellipsis_mask"
    value {
      i: 0
    }
  }
  attr {
    key: "end_mask"
    value {
      i: 1
    }
  }
  attr {
    key: "new_axis_mask"
    value {
      i: 0
    }
  }
  attr {
    key: "shrink_axis_mask"
    value {
      i: 0
    }
  }
}
node {
  name: "LSTM_1/strided_slice_6/stack"
  op: "Const"
  attr {
    key: "dtype"
    value {
      type: DT_INT32
    }
  }
  attr {
    key: "value"
    value {
      tensor {
        dtype: DT_INT32
        tensor_shape {
          dim {
            size: 2
          }
        }
        tensor_content: "\000\000\000\000@\000\000\000"
      }
    }
  }
}
node {
  name: "LSTM_1/strided_slice_6/stack_1"
  op: "Const"
  attr {
    key: "dtype"
    value {
      type: DT_INT32
    }
  }
  attr {
    key: "value"
    value {
      tensor {
        dtype: DT_INT32
        tensor_shape {
          dim {
            size: 2
          }
        }
        tensor_content: "\000\000\000\000`\000\000\000"
      }
    }
  }
}
node {
  name: "LSTM_1/strided_slice_6/stack_2"
  op: "Const"
  attr {
    key: "dtype"
    value {
      type: DT_INT32
    }
  }
  attr {
    key: "value"
    value {
      tensor {
        dtype: DT_INT32
        tensor_shape {
          dim {
            size: 2
          }
        }
        tensor_content: "\001\000\000\000\001\000\000\000"
      }
    }
  }
}
node {
  name: "LSTM_1/strided_slice_6"
  op: "StridedSlice"
  input: "LSTM_1/recurrent_kernel/read"
  input: "LSTM_1/strided_slice_6/stack"
  input: "LSTM_1/strided_slice_6/stack_1"
  input: "LSTM_1/strided_slice_6/stack_2"
  attr {
    key: "Index"
    value {
      type: DT_INT32
    }
  }
  attr {
    key: "T"
    value {
      type: DT_FLOAT
    }
  }
  attr {
    key: "begin_mask"
    value {
      i: 1
    }
  }
  attr {
    key: "ellipsis_mask"
    value {
      i: 0
    }
  }
  attr {
    key: "end_mask"
    value {
      i: 1
    }
  }
  attr {
    key: "new_axis_mask"
    value {
      i: 0
    }
  }
  attr {
    key: "shrink_axis_mask"
    value {
      i: 0
    }
  }
}
node {
  name: "LSTM_1/strided_slice_7/stack"
  op: "Const"
  attr {
    key: "dtype"
    value {
      type: DT_INT32
    }
  }
  attr {
    key: "value"
    value {
      tensor {
        dtype: DT_INT32
        tensor_shape {
          dim {
            size: 2
          }
        }
        tensor_content: "\000\000\000\000`\000\000\000"
      }
    }
  }
}
node {
  name: "LSTM_1/strided_slice_7/stack_1"
  op: "Const"
  attr {
    key: "dtype"
    value {
      type: DT_INT32
    }
  }
  attr {
    key: "value"
    value {
      tensor {
        dtype: DT_INT32
        tensor_shape {
          dim {
            size: 2
          }
        }
        tensor_content: "\000\000\000\000\000\000\000\000"
      }
    }
  }
}
node {
  name: "LSTM_1/strided_slice_7/stack_2"
  op: "Const"
  attr {
    key: "dtype"
    value {
      type: DT_INT32
    }
  }
  attr {
    key: "value"
    value {
      tensor {
        dtype: DT_INT32
        tensor_shape {
          dim {
            size: 2
          }
        }
        tensor_content: "\001\000\000\000\001\000\000\000"
      }
    }
  }
}
node {
  name: "LSTM_1/strided_slice_7"
  op: "StridedSlice"
  input: "LSTM_1/recurrent_kernel/read"
  input: "LSTM_1/strided_slice_7/stack"
  input: "LSTM_1/strided_slice_7/stack_1"
  input: "LSTM_1/strided_slice_7/stack_2"
  attr {
    key: "Index"
    value {
      type: DT_INT32
    }
  }
  attr {
    key: "T"
    value {
      type: DT_FLOAT
    }
  }
  attr {
    key: "begin_mask"
    value {
      i: 1
    }
  }
  attr {
    key: "ellipsis_mask"
    value {
      i: 0
    }
  }
  attr {
    key: "end_mask"
    value {
      i: 3
    }
  }
  attr {
    key: "new_axis_mask"
    value {
      i: 0
    }
  }
  attr {
    key: "shrink_axis_mask"
    value {
      i: 0
    }
  }
}
node {
  name: "LSTM_1/strided_slice_8/stack"
  op: "Const"
  attr {
    key: "dtype"
    value {
      type: DT_INT32
    }
  }
  attr {
    key: "value"
    value {
      tensor {
        dtype: DT_INT32
        tensor_shape {
          dim {
            size: 1
          }
        }
        int_val: 0
      }
    }
  }
}
node {
  name: "LSTM_1/strided_slice_8/stack_1"
  op: "Const"
  attr {
    key: "dtype"
    value {
      type: DT_INT32
    }
  }
  attr {
    key: "value"
    value {
      tensor {
        dtype: DT_INT32
        tensor_shape {
          dim {
            size: 1
          }
        }
        int_val: 32
      }
    }
  }
}
node {
  name: "LSTM_1/strided_slice_8/stack_2"
  op: "Const"
  attr {
    key: "dtype"
    value {
      type: DT_INT32
    }
  }
  attr {
    key: "value"
    value {
      tensor {
        dtype: DT_INT32
        tensor_shape {
          dim {
            size: 1
          }
        }
        int_val: 1
      }
    }
  }
}
node {
  name: "LSTM_1/strided_slice_8"
  op: "StridedSlice"
  input: "LSTM_1/bias/read"
  input: "LSTM_1/strided_slice_8/stack"
  input: "LSTM_1/strided_slice_8/stack_1"
  input: "LSTM_1/strided_slice_8/stack_2"
  attr {
    key: "Index"
    value {
      type: DT_INT32
    }
  }
  attr {
    key: "T"
    value {
      type: DT_FLOAT
    }
  }
  attr {
    key: "begin_mask"
    value {
      i: 1
    }
  }
  attr {
    key: "ellipsis_mask"
    value {
      i: 0
    }
  }
  attr {
    key: "end_mask"
    value {
      i: 0
    }
  }
  attr {
    key: "new_axis_mask"
    value {
      i: 0
    }
  }
  attr {
    key: "shrink_axis_mask"
    value {
      i: 0
    }
  }
}
node {
  name: "LSTM_1/strided_slice_9/stack"
  op: "Const"
  attr {
    key: "dtype"
    value {
      type: DT_INT32
    }
  }
  attr {
    key: "value"
    value {
      tensor {
        dtype: DT_INT32
        tensor_shape {
          dim {
            size: 1
          }
        }
        int_val: 32
      }
    }
  }
}
node {
  name: "LSTM_1/strided_slice_9/stack_1"
  op: "Const"
  attr {
    key: "dtype"
    value {
      type: DT_INT32
    }
  }
  attr {
    key: "value"
    value {
      tensor {
        dtype: DT_INT32
        tensor_shape {
          dim {
            size: 1
          }
        }
        int_val: 64
      }
    }
  }
}
node {
  name: "LSTM_1/strided_slice_9/stack_2"
  op: "Const"
  attr {
    key: "dtype"
    value {
      type: DT_INT32
    }
  }
  attr {
    key: "value"
    value {
      tensor {
        dtype: DT_INT32
        tensor_shape {
          dim {
            size: 1
          }
        }
        int_val: 1
      }
    }
  }
}
node {
  name: "LSTM_1/strided_slice_9"
  op: "StridedSlice"
  input: "LSTM_1/bias/read"
  input: "LSTM_1/strided_slice_9/stack"
  input: "LSTM_1/strided_slice_9/stack_1"
  input: "LSTM_1/strided_slice_9/stack_2"
  attr {
    key: "Index"
    value {
      type: DT_INT32
    }
  }
  attr {
    key: "T"
    value {
      type: DT_FLOAT
    }
  }
  attr {
    key: "begin_mask"
    value {
      i: 0
    }
  }
  attr {
    key: "ellipsis_mask"
    value {
      i: 0
    }
  }
  attr {
    key: "end_mask"
    value {
      i: 0
    }
  }
  attr {
    key: "new_axis_mask"
    value {
      i: 0
    }
  }
  attr {
    key: "shrink_axis_mask"
    value {
      i: 0
    }
  }
}
node {
  name: "LSTM_1/strided_slice_10/stack"
  op: "Const"
  attr {
    key: "dtype"
    value {
      type: DT_INT32
    }
  }
  attr {
    key: "value"
    value {
      tensor {
        dtype: DT_INT32
        tensor_shape {
          dim {
            size: 1
          }
        }
        int_val: 64
      }
    }
  }
}
node {
  name: "LSTM_1/strided_slice_10/stack_1"
  op: "Const"
  attr {
    key: "dtype"
    value {
      type: DT_INT32
    }
  }
  attr {
    key: "value"
    value {
      tensor {
        dtype: DT_INT32
        tensor_shape {
          dim {
            size: 1
          }
        }
        int_val: 96
      }
    }
  }
}
node {
  name: "LSTM_1/strided_slice_10/stack_2"
  op: "Const"
  attr {
    key: "dtype"
    value {
      type: DT_INT32
    }
  }
  attr {
    key: "value"
    value {
      tensor {
        dtype: DT_INT32
        tensor_shape {
          dim {
            size: 1
          }
        }
        int_val: 1
      }
    }
  }
}
node {
  name: "LSTM_1/strided_slice_10"
  op: "StridedSlice"
  input: "LSTM_1/bias/read"
  input: "LSTM_1/strided_slice_10/stack"
  input: "LSTM_1/strided_slice_10/stack_1"
  input: "LSTM_1/strided_slice_10/stack_2"
  attr {
    key: "Index"
    value {
      type: DT_INT32
    }
  }
  attr {
    key: "T"
    value {
      type: DT_FLOAT
    }
  }
  attr {
    key: "begin_mask"
    value {
      i: 0
    }
  }
  attr {
    key: "ellipsis_mask"
    value {
      i: 0
    }
  }
  attr {
    key: "end_mask"
    value {
      i: 0
    }
  }
  attr {
    key: "new_axis_mask"
    value {
      i: 0
    }
  }
  attr {
    key: "shrink_axis_mask"
    value {
      i: 0
    }
  }
}
node {
  name: "LSTM_1/strided_slice_11/stack"
  op: "Const"
  attr {
    key: "dtype"
    value {
      type: DT_INT32
    }
  }
  attr {
    key: "value"
    value {
      tensor {
        dtype: DT_INT32
        tensor_shape {
          dim {
            size: 1
          }
        }
        int_val: 96
      }
    }
  }
}
node {
  name: "LSTM_1/strided_slice_11/stack_1"
  op: "Const"
  attr {
    key: "dtype"
    value {
      type: DT_INT32
    }
  }
  attr {
    key: "value"
    value {
      tensor {
        dtype: DT_INT32
        tensor_shape {
          dim {
            size: 1
          }
        }
        int_val: 0
      }
    }
  }
}
node {
  name: "LSTM_1/strided_slice_11/stack_2"
  op: "Const"
  attr {
    key: "dtype"
    value {
      type: DT_INT32
    }
  }
  attr {
    key: "value"
    value {
      tensor {
        dtype: DT_INT32
        tensor_shape {
          dim {
            size: 1
          }
        }
        int_val: 1
      }
    }
  }
}
node {
  name: "LSTM_1/strided_slice_11"
  op: "StridedSlice"
  input: "LSTM_1/bias/read"
  input: "LSTM_1/strided_slice_11/stack"
  input: "LSTM_1/strided_slice_11/stack_1"
  input: "LSTM_1/strided_slice_11/stack_2"
  attr {
    key: "Index"
    value {
      type: DT_INT32
    }
  }
  attr {
    key: "T"
    value {
      type: DT_FLOAT
    }
  }
  attr {
    key: "begin_mask"
    value {
      i: 0
    }
  }
  attr {
    key: "ellipsis_mask"
    value {
      i: 0
    }
  }
  attr {
    key: "end_mask"
    value {
      i: 1
    }
  }
  attr {
    key: "new_axis_mask"
    value {
      i: 0
    }
  }
  attr {
    key: "shrink_axis_mask"
    value {
      i: 0
    }
  }
}
node {
  name: "LSTM_1/zeros_like"
  op: "ZerosLike"
  input: "LSTM_1_input"
  attr {
    key: "T"
    value {
      type: DT_FLOAT
    }
  }
}
node {
  name: "LSTM_1/Sum/reduction_indices"
  op: "Const"
  attr {
    key: "dtype"
    value {
      type: DT_INT32
    }
  }
  attr {
    key: "value"
    value {
      tensor {
        dtype: DT_INT32
        tensor_shape {
          dim {
            size: 2
          }
        }
        tensor_content: "\001\000\000\000\002\000\000\000"
      }
    }
  }
}
node {
  name: "LSTM_1/Sum"
  op: "Sum"
  input: "LSTM_1/zeros_like"
  input: "LSTM_1/Sum/reduction_indices"
  attr {
    key: "T"
    value {
      type: DT_FLOAT
    }
  }
  attr {
    key: "Tidx"
    value {
      type: DT_INT32
    }
  }
  attr {
    key: "keep_dims"
    value {
      b: false
    }
  }
}
node {
  name: "LSTM_1/ExpandDims/dim"
  op: "Const"
  attr {
    key: "dtype"
    value {
      type: DT_INT32
    }
  }
  attr {
    key: "value"
    value {
      tensor {
        dtype: DT_INT32
        tensor_shape {
        }
        int_val: -1
      }
    }
  }
}
node {
  name: "LSTM_1/ExpandDims"
  op: "ExpandDims"
  input: "LSTM_1/Sum"
  input: "LSTM_1/ExpandDims/dim"
  attr {
    key: "T"
    value {
      type: DT_FLOAT
    }
  }
  attr {
    key: "Tdim"
    value {
      type: DT_INT32
    }
  }
}
node {
  name: "LSTM_1/Tile/multiples"
  op: "Const"
  attr {
    key: "dtype"
    value {
      type: DT_INT32
    }
  }
  attr {
    key: "value"
    value {
      tensor {
        dtype: DT_INT32
        tensor_shape {
          dim {
            size: 2
          }
        }
        tensor_content: "\001\000\000\000 \000\000\000"
      }
    }
  }
}
node {
  name: "LSTM_1/Tile"
  op: "Tile"
  input: "LSTM_1/ExpandDims"
  input: "LSTM_1/Tile/multiples"
  attr {
    key: "T"
    value {
      type: DT_FLOAT
    }
  }
  attr {
    key: "Tmultiples"
    value {
      type: DT_INT32
    }
  }
}
node {
  name: "LSTM_1/Tile_1/multiples"
  op: "Const"
  attr {
    key: "dtype"
    value {
      type: DT_INT32
    }
  }
  attr {
    key: "value"
    value {
      tensor {
        dtype: DT_INT32
        tensor_shape {
          dim {
            size: 2
          }
        }
        tensor_content: "\001\000\000\000 \000\000\000"
      }
    }
  }
}
node {
  name: "LSTM_1/Tile_1"
  op: "Tile"
  input: "LSTM_1/ExpandDims"
  input: "LSTM_1/Tile_1/multiples"
  attr {
    key: "T"
    value {
      type: DT_FLOAT
    }
  }
  attr {
    key: "Tmultiples"
    value {
      type: DT_INT32
    }
  }
}
node {
  name: "LSTM_1/transpose/perm"
  op: "Const"
  attr {
    key: "dtype"
    value {
      type: DT_INT32
    }
  }
  attr {
    key: "value"
    value {
      tensor {
        dtype: DT_INT32
        tensor_shape {
          dim {
            size: 3
          }
        }
        tensor_content: "\001\000\000\000\000\000\000\000\002\000\000\000"
      }
    }
  }
}
node {
  name: "LSTM_1/transpose"
  op: "Transpose"
  input: "LSTM_1_input"
  input: "LSTM_1/transpose/perm"
  attr {
    key: "T"
    value {
      type: DT_FLOAT
    }
  }
  attr {
    key: "Tperm"
    value {
      type: DT_INT32
    }
  }
}
node {
  name: "LSTM_1/Shape"
  op: "Shape"
  input: "LSTM_1/transpose"
  attr {
    key: "T"
    value {
      type: DT_FLOAT
    }
  }
  attr {
    key: "out_type"
    value {
      type: DT_INT32
    }
  }
}
node {
  name: "LSTM_1/strided_slice_12/stack"
  op: "Const"
  attr {
    key: "dtype"
    value {
      type: DT_INT32
    }
  }
  attr {
    key: "value"
    value {
      tensor {
        dtype: DT_INT32
        tensor_shape {
          dim {
            size: 1
          }
        }
        int_val: 0
      }
    }
  }
}
node {
  name: "LSTM_1/strided_slice_12/stack_1"
  op: "Const"
  attr {
    key: "dtype"
    value {
      type: DT_INT32
    }
  }
  attr {
    key: "value"
    value {
      tensor {
        dtype: DT_INT32
        tensor_shape {
          dim {
            size: 1
          }
        }
        int_val: 1
      }
    }
  }
}
node {
  name: "LSTM_1/strided_slice_12/stack_2"
  op: "Const"
  attr {
    key: "dtype"
    value {
      type: DT_INT32
    }
  }
  attr {
    key: "value"
    value {
      tensor {
        dtype: DT_INT32
        tensor_shape {
          dim {
            size: 1
          }
        }
        int_val: 1
      }
    }
  }
}
node {
  name: "LSTM_1/strided_slice_12"
  op: "StridedSlice"
  input: "LSTM_1/Shape"
  input: "LSTM_1/strided_slice_12/stack"
  input: "LSTM_1/strided_slice_12/stack_1"
  input: "LSTM_1/strided_slice_12/stack_2"
  attr {
    key: "Index"
    value {
      type: DT_INT32
    }
  }
  attr {
    key: "T"
    value {
      type: DT_INT32
    }
  }
  attr {
    key: "begin_mask"
    value {
      i: 0
    }
  }
  attr {
    key: "ellipsis_mask"
    value {
      i: 0
    }
  }
  attr {
    key: "end_mask"
    value {
      i: 0
    }
  }
  attr {
    key: "new_axis_mask"
    value {
      i: 0
    }
  }
  attr {
    key: "shrink_axis_mask"
    value {
      i: 1
    }
  }
}
node {
  name: "LSTM_1/strided_slice_13/stack"
  op: "Const"
  attr {
    key: "dtype"
    value {
      type: DT_INT32
    }
  }
  attr {
    key: "value"
    value {
      tensor {
        dtype: DT_INT32
        tensor_shape {
          dim {
            size: 1
          }
        }
        int_val: 0
      }
    }
  }
}
node {
  name: "LSTM_1/strided_slice_13/stack_1"
  op: "Const"
  attr {
    key: "dtype"
    value {
      type: DT_INT32
    }
  }
  attr {
    key: "value"
    value {
      tensor {
        dtype: DT_INT32
        tensor_shape {
          dim {
            size: 1
          }
        }
        int_val: 1
      }
    }
  }
}
node {
  name: "LSTM_1/strided_slice_13/stack_2"
  op: "Const"
  attr {
    key: "dtype"
    value {
      type: DT_INT32
    }
  }
  attr {
    key: "value"
    value {
      tensor {
        dtype: DT_INT32
        tensor_shape {
          dim {
            size: 1
          }
        }
        int_val: 1
      }
    }
  }
}
node {
  name: "LSTM_1/strided_slice_13"
  op: "StridedSlice"
  input: "LSTM_1/transpose"
  input: "LSTM_1/strided_slice_13/stack"
  input: "LSTM_1/strided_slice_13/stack_1"
  input: "LSTM_1/strided_slice_13/stack_2"
  attr {
    key: "Index"
    value {
      type: DT_INT32
    }
  }
  attr {
    key: "T"
    value {
      type: DT_FLOAT
    }
  }
  attr {
    key: "begin_mask"
    value {
      i: 0
    }
  }
  attr {
    key: "ellipsis_mask"
    value {
      i: 0
    }
  }
  attr {
    key: "end_mask"
    value {
      i: 0
    }
  }
  attr {
    key: "new_axis_mask"
    value {
      i: 0
    }
  }
  attr {
    key: "shrink_axis_mask"
    value {
      i: 1
    }
  }
}
node {
  name: "LSTM_1/MatMul"
  op: "MatMul"
  input: "LSTM_1/strided_slice_13"
  input: "LSTM_1/strided_slice"
  attr {
    key: "T"
    value {
      type: DT_FLOAT
    }
  }
  attr {
    key: "transpose_a"
    value {
      b: false
    }
  }
  attr {
    key: "transpose_b"
    value {
      b: false
    }
  }
}
node {
  name: "LSTM_1/MatMul_1"
  op: "MatMul"
  input: "LSTM_1/strided_slice_13"
  input: "LSTM_1/strided_slice_1"
  attr {
    key: "T"
    value {
      type: DT_FLOAT
    }
  }
  attr {
    key: "transpose_a"
    value {
      b: false
    }
  }
  attr {
    key: "transpose_b"
    value {
      b: false
    }
  }
}
node {
  name: "LSTM_1/MatMul_2"
  op: "MatMul"
  input: "LSTM_1/strided_slice_13"
  input: "LSTM_1/strided_slice_2"
  attr {
    key: "T"
    value {
      type: DT_FLOAT
    }
  }
  attr {
    key: "transpose_a"
    value {
      b: false
    }
  }
  attr {
    key: "transpose_b"
    value {
      b: false
    }
  }
}
node {
  name: "LSTM_1/MatMul_3"
  op: "MatMul"
  input: "LSTM_1/strided_slice_13"
  input: "LSTM_1/strided_slice_3"
  attr {
    key: "T"
    value {
      type: DT_FLOAT
    }
  }
  attr {
    key: "transpose_a"
    value {
      b: false
    }
  }
  attr {
    key: "transpose_b"
    value {
      b: false
    }
  }
}
node {
  name: "LSTM_1/BiasAdd"
  op: "BiasAdd"
  input: "LSTM_1/MatMul"
  input: "LSTM_1/strided_slice_8"
  attr {
    key: "T"
    value {
      type: DT_FLOAT
    }
  }
  attr {
    key: "data_format"
    value {
      s: "NHWC"
    }
  }
}
node {
  name: "LSTM_1/BiasAdd_1"
  op: "BiasAdd"
  input: "LSTM_1/MatMul_1"
  input: "LSTM_1/strided_slice_9"
  attr {
    key: "T"
    value {
      type: DT_FLOAT
    }
  }
  attr {
    key: "data_format"
    value {
      s: "NHWC"
    }
  }
}
node {
  name: "LSTM_1/BiasAdd_2"
  op: "BiasAdd"
  input: "LSTM_1/MatMul_2"
  input: "LSTM_1/strided_slice_10"
  attr {
    key: "T"
    value {
      type: DT_FLOAT
    }
  }
  attr {
    key: "data_format"
    value {
      s: "NHWC"
    }
  }
}
node {
  name: "LSTM_1/BiasAdd_3"
  op: "BiasAdd"
  input: "LSTM_1/MatMul_3"
  input: "LSTM_1/strided_slice_11"
  attr {
    key: "T"
    value {
      type: DT_FLOAT
    }
  }
  attr {
    key: "data_format"
    value {
      s: "NHWC"
    }
  }
}
node {
  name: "LSTM_1/MatMul_4"
  op: "MatMul"
  input: "LSTM_1/Tile"
  input: "LSTM_1/strided_slice_4"
  attr {
    key: "T"
    value {
      type: DT_FLOAT
    }
  }
  attr {
    key: "transpose_a"
    value {
      b: false
    }
  }
  attr {
