node {
  name: "keras_learning_phase/input"
  op: "Const"
  attr {
    key: "dtype"
    value {
      type: DT_BOOL
    }
  }
  attr {
    key: "value"
    value {
      tensor {
        dtype: DT_BOOL
        tensor_shape {
        }
        bool_val: false
      }
    }
  }
}
node {
  name: "keras_learning_phase"
  op: "PlaceholderWithDefault"
  input: "keras_learning_phase/input"
  attr {
    key: "dtype"
    value {
      type: DT_BOOL
    }
  }
  attr {
    key: "shape"
    value {
      shape {
      }
    }
  }
}
node {
  name: "LSTM_1_input"
  op: "Placeholder"
  attr {
    key: "dtype"
    value {
      type: DT_FLOAT
    }
  }
  attr {
    key: "shape"
    value {
      shape {
        dim {
          size: -1
        }
        dim {
          size: 180
        }
        dim {
          size: 6
        }
      }
    }
  }
}
node {
  name: "LSTM_1/kernel/initial_value"
  op: "Const"
  attr {
    key: "dtype"
    value {
      type: DT_FLOAT
    }
  }
  attr {
    key: "value"
    value {
      tensor {
        dtype: DT_FLOAT
        tensor_shape {
          dim {
            size: 6
          }
          dim {
            size: 256
          }
        }
        tensor_content: "\236\321`=_|6=\270\311\225\274Z\270$=\tB\351<\347\232\207<q\236w\275f\317\320<\364\330\"=f1\260;\346\017>\274w&n=\324\221\217=\272%<\275q\374g=#\326\265\274\301\362\233<\277\220H={#\265\275V\217\227\273`\215\245\274\371@\354;\312\245;=\313H\250=\270J\320\275\030\266M=/O\"=\304\346\320<\212>\210\274\200\013\021<\265\272\262<j\353<\2745\347\260<\3021\\\275x\211Z<h\267\205\274\"\177\311\275\230B\257\274d\t\251\275\372\370R<\231\226#=_\324\365=1\367\350\275\303RH\275\023\274\323=\3128\216\275\r\242\277=@\215x=\311\237\336\274\231=\"=\3435\014=\237\006\370<D\370\216\275\343\\\342=C\030F\275w\254D;\307GU=\344\235\234\272\026\233\234\275u\213\025\275\223\3537\275[\263\036\275R\373\324;\206%\027\275\006`A=\330\2632\274\025\260\320\274\265o\224<\362\277\035=9\340\270=+F\016\275\334\246\246;X\201\036<p\234q<d\2577\275\234\\\372<\341\024\357<[\272\032\275\337\366\033=Q\357\003\275C\306\330<!d\323\275\362G\266\275?\274\n>\361\371\016\275\226\317\235\275\221\021\363\2720\250\255;\326\220\030\274Q\206\313\274\352Q\210\275\245\001\036=\360M\021>r\212\255\275s\340R\275\000\003\312\275\000>\272\275\030d\002\275 \303S=\003\264J\275\222\245U9L\315\216=\002\020\262<b|\000=\377\307^=\3316\305\275\347\211\313=\372\3646\274\323\332\320<\373Y\250<_\362\221\274Uq\365\274\221\204\301\273z)\326\2752\271\221=\264\267j=n\313\224\274\365\006\227=\207\220\210\275\324\336\031\275\210\236\020=%\016&<\177\021=\275Ds\304=\256\r\036\274\261\250*\2756\3034<\026\371\304\273SE\210\275\314oO=\213=\000\275O\275 =\312\203\310\275\341\341\336\273\275\345\"\275h\354\264;<I\033\2757$\252=\207\226%<\276\343\275=\251X\356=\353R=\275\306\221\347\275\327\372\315=u\346\223\273T\312\002\275\262a\014\275%\352\200=\327\231\215=\301K\201\275\3324\007\276\266\221\367<,\275\301\275\t\301)\275\021\214q\275AH\245<\006\205\334\274\372\277q\274n\235$=:\035\334;\230v\316=`\300d\275an\203\275\021\366\364\274\312\007\377<tb\254\2729A\020\275\tY\373<\2362\266\275\302\177\246=T\006L<5\272\233\275\372Z\266\273\005\313[\274C\312m=\016,\312\275\355\273\203\275!-q=f\264\343=\364\204\371\273\201\231\033\275v\373\257\274\\\215\246\275\355VV=\310\374\266\275\006b\343=\000\305\356\275\266\264\230\275f\324V<\303\317\234\275/\217^\275\210-\270:1\025!>\320\360\214\275\234\214\276\275\364\336\231<\034\210\002>\236\253\002=\000\231\021\275J\324|\275\326;\026=W9\242<\236\363*\274\353\324\212=N\330\233=q\324U=!g\211<\036\251\347\272+\216\024\275_\315\374=\273Uv=^\273\222\275\346\027\356\274\311\233\245=\356\241,\276\262\022\230<\317\300\205=\265\272\323<~\236A;\016d\247<\325\231f=\251\366\327<\214\031\004\276\362n\301\274y\265\226<\337|\324=>\003\324;\224\362\274\275\354\377\207<\333X\313<6\022\245=\335\203\017>\016\350\240=\325\003\035\274\360(\"\276x\222\013>z\202\270;\362Ji\275\0332$\275@\222\320=\331\220z=+\035\352<u\352\214=r\022K\275<%\010>\245V\325\273\233[\327\275\0309U=\231PJ=[?\257\275z\230\274<\204\202\313\275\330B\241=\227\310M\275\001\255\303;dwa\275\247xh<\001\310\327=\216\3606\275\216d\262\2736\365r<N\177\372=r\324W\275\033\tI=\006\342\\=\204L\311\274\024\276\200=\342\367\013\275`\335;=\344\374Z=M\270\201\275\270\347D<\266f\240<h+\321<\020\212!\275U\241\024\274\310\276&=\246\303\231\273}\302\227<\215\235\321=N\304}\275\307\215\357=3;?=W\241I\274\316\223\270\273\035d\215=!?R\275h\\\305<~\005\247<\352\372\243\275\262!\375\275\254m\026\275d\234\030\275\271;\215=\362\030\254=\3248>\274\253\313\200\275\234S\315=@\2436<\t\177\203\274\220\320U\275Ng\206=+\304\245=\\\225\300\275\301[k=6\273Z\275?u`\274\310\360\350=\226t\r\275\001\030\010>W-\346\275\323\277\251\275]\201q\275P\371\'\274\t\264\224\275\251\266\220=)7\344\275\017\216\200\275\010\260\225\274;g\026=\333\243\312=\032m\375\274\010H\000=\317\326\223\275\270\205-=\177+\363\274cnF=\326\271\210\274\213\240\256=\213\222Y=\335\177\225\275y\256\220\274o.<\274\310\222b>S\031\346<D\366a=\354\244\252\274NV\347\274\225\256\246\274+\021\351\273e\307\203\273\201\215\330\273\321g\271\275\265s\307\275\367+\016\276\020\263`\273\307\356\311<\201\022~<\305\327\001=N3\"\274\264\276\365\274,\334\007>F\357\201\274\366vn=\236\211Q<\223\372\017<\020\375\312=(\037\305\2759`J\275s3#=\366o\306\2759\374\214=\215{\204<D\345\217\273\244.\034=\026\024\332\274\"\263W=\007\265\352\274)\024\337\275\276N\353<\332\220\226=\352~t\275\315)}\275\2465=\275\355}v<\216,\277\2743\215\226<\010FB\275n\251\226;i\246\037<\036\307\236=\254\333\356<\032\325\275;\003u\271<\366\300\224;\227>\235<\272u\230;H\353\256=\016\351\367;\230[\204\2753v\220<f\225\245=\335!\216<J\nX=\355\233x<w5n\274\2369\304\274i\177k\275\275\314\224\275r\236\021\275\225Q\327\275\013\374.\275\261\341\014\275\223\304\035\274\242\314\216\273{\252\020>\262\001\262<\237\365l;:wW=mH\224\275#\316\304<8\344\236\275\203\336\216=\263\325\270=\305y\037=\231tT;q{\006>\005k\220\274\374\252\216=\020\034\306\274Z\257\220\273\375R\304=\rg\364;\177\363R;\265\314\037\275\214\373!<_\"\255\275\263\223\266\275;\332\366<U\033\222=\325)\006<\217\240o\275\215\031\\=#\313v\275\244^\\\275\263b\336<\021\034\313=\372\362\263=/J\351\274\216\327?=)\034\030=\352P\002\275\214\203\234=n\366\305=\260\321+\275|P\266<\245\3276\275h*\353=\007\322\271\275\264p\275\275\233_\314\275=\305~=\026\256\035\275#{{\274\237\213\204\275\217\331\242\274\261\3001=CQ\350;\275w\344=D\243Y\275\307`\322<\007\253\006>\337\177*\275\244\016\341<C\001-\275\240c\267\274a\336B\274\340\2579\274\006\262\377=\222)\367\275\344\276\024>\233\256\n>\250\316\326<\034E4=\201\334\270\275\265\276P<l9M<\304\317\262\273\334\243C<\006\350;== \202=p==\275j\021\366<\371\246p\275\232\027\210=|\327\223=\362\225\377\274)\263\034=;\235\334<yR\246=\206\272\'<\224\236,=\201\021v\275\313b\226=\261\357\251\273\275h\023;\025&e<.\216\325\275\205\360\263\275]\365\336\273v\3663\275\277Eq=5\373\215\275\245AM<\377\274\367\274E\242\250=\300\n\365<\006\240>\276qj\214=\275\016j=\020\216\237:B\341\213=\252\241\345=\026&m;\020[\263=\240\370\354=;\250r\275\214\252\024\275oQ0\275Th\342\275\0354c=\242\025 =\351\371\037\273\376\240\314\273,\246\247=a\363\237\275(\356\324<2&u=%\376\001\275i\226\024=\370\"\216<\032\364\033\276\310\'v\274\006\027\234\275\346\336)<\036\276\314\274\342+\033\275g\311\364<Z+\030\275_\347\006;\244\336\324\275\301\266x\273\335\036\227=\237h\022>@[_\274\217\266$\2758\271\013\275_\365\216\275U\377.=\326\312I<\013u8\275\0040\300\274\213a\266=2\205\321\274\013\332\241\275\263L\036\275\274?E\273\271\346\265\275B\374\210<fBZ\275/\253 =\371C\363=T\000\327\274\267\202\374<\366\311@\275\333\223\007\276A\270\320\274\252\332\211\274\240\023\024\275\234&\017\276\371\253\214=\"\037Q<\321?{\274\213@\337;}\221K<s\306\251<\342\236\376<\220L\022\276\366s\223=`?\220\275\277nP=/\004\257\274\266E\002>\032\t\342<\022t\326\275s\271\350\274\214\207w\273WN\275\274D\236q<l\331\250\275]\030\220;\006\355\251\274\256\006w\275n\342\272<\373\001\343<\005r\320\273W?\221\275\370 v\275\n\364\016=\214^%\275\302\'\264\275{Sg\274}C\345<@v\277\275u\030\033=ct\376\274):t=\376k\234=b \354\274\347\354\213\275\315yq=\201>\242\275\336\272\257;\302\203N\275\362\274g=\200\272\007<`5\362\274\267\332\245\274]|\364<\000\226/\2759^\327<\354\302\356\275\n\370\'\273\347\204\257=\nEG\275\260`\354<\337Z\203\275@5\351\274\324\207><\310@\022<\361bF\275\367\337\201=\3216\034\276\031\250\255<\213l\001\2769G\233;\215m\270\274\356}\327\274\010\313H\274\033\301\275=\2353t=8\213\020\275k\013\226=\025j\315<\306\227\370\274\034\242&=F\026\205\275\022(\007>\014\034\t\274\036\2329\274\231\013\004<?0\224\274\304b\211=\031\230\032=\2536l\275\376\305X\275;;\276<\211\261\366\272^\245\252=L\207\313\275e;#\275\357\255\031\275\370\271\331;\301U\017>\002\261\342\275\346\214\200\2759JP\274)o\000\275j\264#\2758u0\275V\220\262\273V\222\001\275\3142\200\275_D\310\272\205\246\370<\3648<\275\365u|\275 #\300;\017J\237=Ao\030\275\305\036\345\275G\2465\275\357P\216\274F\311\223\274\177\340&=\301DU=\223\327R=\006D1;T\363\212\275\244K\002<\356{\350\274>.\261\275\000k\330\275\000\336\341<X\003q\275\213\265\000>*UL\275 s\016\275d\260\022\275\374\336f=\321{\356\274\303U\210=\374W2=/\213\024\276\231\227\362\274\240\304\254<\370\220\276\275r9#=\3131\255\274i\032\344\274\355\325\177\272\202\257\372=\214\377\270=\266\327a<\3735D=S\223\206\274\004\231\277\275\272\361\343\275\352\365\303\275|\352\353\274\2518&=\204\306\031<\375S\'=\350\342\020\275\026h\031\276\\w\225\275\300\355\204\274\2113Y=\207\004\236\275\232R\201<%]\364<Vp\221;\237;\363=\030\261\024=\017\274:>\017b\275=\352t\'=\022\340,\275wf0\275\334\235\002\275\036E\212\275y\267+=E\201v\275\3570T=y\004\277=\004\035z=4\377\236\275y\306\001\275+\027\211\275*G\326<\241:\256=[\020\364;YT\253\275\266<A=9\003\270=,\324\205\274\243\302\263\275\344\337Q<\257H\004<&\206\236\275]Ar\274\tV\203=\321\204\032\2762lT\275\265\027h<\267\266Q\274\225\361\244=4\216\026\275Oh\336<ZMu\275.\356\020=\311\311\322<N3\306\274y\211\243<Pj\360\275\347\000\364\274\253\030\365<\345\214A\275,p\333<$\000\020\275\232\334^\275\r\342l\274\270s \275\355A#\275\326\271\301=\216Zy\275n\004m=\267R\003=\352\350t\274e\247\025<\233\001\313;\212\027\245\273\336\355\322<\340\223\270\274:\023\337\275\200\264\335=\274B\017\276\024So\275cg\351\274g\020\n\275\241\342\207<z\371\026\276|_Q\275\224\274\242=z&\230=\231\344\336\274\3075\255\275\036\035!=dj\361\275\240X\345\275\014\021\300\274dc\224<\224\247\234\275GTX\274w\234\323\274\243\024\003\276\257\035F\275\343_\324<\327\021\255\275\356p^=\032\254\210;\243\246\005>\245M[<\320s\236<\344(\220=Dk\203\274h\032\277\274\312\225\212\275\261\327O>\247\202@<B\225C\275\263\3148<\024\353\355:\302\036\346<\006e\231<J}d\274R\355q=\334*\267\275\330sO=$g$=eZ\001>(\263e\275;:M=!\321\t:\351\250\020>\\a\340\2745\265\242<\331\036\274\274xN\021=*g\252=\276\265w\275\026\277\366<q6\237\275K\327C\276\004\342\261\274~1\333<Q\301\344<`\023\335\273\374\200\013\275=\030v<\342*\355<!\223G=\227Z,\275\026?\210<7\2775<\244&\001=\023\024|\275T\357t=\313\232\237\275\355\220\232\274\333\272\007>\376\t\316<\262\350\213\275M\020\204\275yE\253=\n\263\337\274\342%D<\252Y;\275\t_\017>\271\036\237\275\234W|\275s\370G\275\200\271\001\276\211\272w=\\\302\002=$q\225=?\2732\275\311@A<\245[\374\2742\350\000<3\205\241<\370\247\207\275=(\001<-\223\005=\205\273\003\273\321n\005\276\353\024\315\273n\276\247<\273s#\276q\033\350=\226\363~=\375\t\351<\023J7\2751\324+\275\376#\307\275\301\333\360\275\272\241m=\307IZ\275\324\371#<C\242H\275\030\346\357;]{K<\364s?=A\302\004\275\022\202\003=D\327h<\371J\022\276\312:\330\274\371\207\r<\324T\336\274KPh=N>\367\273\033\345)=\365\021)\275S\376P=q\231\366;\326\225\000\274\341_\030>\247qM\274\342wJ<\337\007\035\276\2723\\=;E\"=\351\215\253\274\036\321U<\336O\007=\206=\213\274\230\207\301\274=1\222<\206+\002>\0261\366<\"\340\251;\373\214\272</.\333<>\221J=\204\rb\275\3779\212=\377\rz<\324\206\266\275\371\245\027=\273\242\205\275W^\352<\362\221=;\177*\362\274\t=\210;\014\247#\276\0316\207=*Qf\273\271_a\275\"\177\320=>\016~\275[q\214\275\327i~\275#\243\207<\323\2501\275\n7\024\276\367\314D\273\035o\\=\301\220<<\247\226.;W\341\210\274W.\n\275\233\310\301<\252\270\224<z`\006\276\013\272\371\271\n \277<\274@t=f\377\201\275>\022\235<\244\307\230\274w\336\254<\213[\316=\256\370\210\274x,B=\300\357\233\274\233\333`\274K\321\304\275\007\261\337\273@\312\031=\030,\251\274\23347=\003\320\312\274\234\006\360\274G-\331<e\022\300\275*\267\033\275\331\034\232= \340\341\275\rb/=\037wu\274\275\306\307\274L\005\230\275P\032w\275\200\266\261=\271\242$\275\005\212\336\274ZMP=\237w\360\272\317R\250\275\323\237\362\274??\254=S{i<\360C\231<\212iG\275\321\032\377<\361n\317=\320\370n<oOI=dhK\275]\035\212\275\243O\242\275\372\"\252=\247\317]\2751\265\247\275\016\234\212=\216Y;;\277]%=\203\220\000>\216\302\036=\355;\002=\027\357\372\274\004\003\004=\006?\000\276E\276\370;\270\031\347\275\004\\\022<\2127\023\276+\006\235=\233\220y\275\233\025\231\275\353\204\201\275j\371\017=\312RM\275\327f\201:k\2131<\024uS=\343\272\255\274q$\034<\246=\216=\326\311\000\275\355\023B=\317,\250\275\034\200\217=R2$\274\264\220 <\263\225\252\275I~\237\274\252M~=\244\204\027\275\t\"\350\273p@\260<I!Q\274\032e\277\275w\371\322\273\027\376\271<\371N\325< [E\275V\221\032\275\276\355-\275F\004\360=/\026\364<\365\242*=\016\211\266=\305\203\207==N\345\273W\265\275=\215\277C\274\014\313p<\260\232\244\275E\264\317=\3443G=\246\030\222<R^\240\275\302\r\032\2742\037\032=\231D~\2752\341\211=n\376\257=\230\037{\274-1S\274Xe5=\266\354\242\275\320\260\331\275\207\240\325=\026\031\261\275\2062\221\273\000\325X\275\374?\362\274\342\245\310\271\212\326e\275\nu\351\274\307\356\201\274F\243\221\275A\026\210\273&\024\272\275\217\265/>\323D\023;\232\374\251=\356\267\302\273[Z4=6\3651\275\304W\273\275_ \317:)\377\263=\337\211\247=f\342\354<s\350\215=-\201\223\275\327\236\247=d\210\031=\243)7\275\037T\232=\306\227\305=\212F7=\330\3275\275\353y\313\274\221\257\273\275W\362\270=U\024[=\034z\247=\277t\263=|\237\266=\033,5<r\251\300\274\276\246\377\275\272\374\004>u;e\273Fm\244\275\341\205\025<0_\312\275\275\326H=\24563\275vE\265\275\221\3415<\006J\372<\273\211\013=t\232b=e\202\356;\351)\202\273uK\332\273\374\\\332=jm\017=\342\223?\275q\260\233=|\024\016=\236\032\262=m\203-<\032\210\237;1\240\353\274\234n+\275\026\323\213\275\354r\324<F\002\232=\367\346\210\275\3064\223=(m\016\275+~\256=\352r]=\251*\016>$\002\366\274\'w%=N\024\225=\244\216\033\275\332b\271\273\271=\006>\347I\271=\000\335%:\360)C\275H \317\274\267{\222=\325F5=y\256$\275\270V\014>\336\200\025\274\307\217u=v\376\227< <\030\275\0179\001>\230?\020\274\001\2742<\373\t\316<w\203\231\275#\374\025=n\177\331=\031:\254<\003\031\372:\306\363K\275\247oh<UBz=M\253\237\2754m\213\275\327\332\321\274\262\266\266<4 \255=\366\320&=\006\230}=\240\202\t\274\377\250G<\214\352T\274\376c\343\274\304\335\200\274\203P\'=+\027R\275<\233\222\274I\261\236=\225;\367<0\2357=\020j\335\274\312Te\274\206\276\266={\263\223\275_\257\244=\217s[\275\3228{</\250\304\273\227[==\371e\213\275\265\300\220=\210-\341<mF\231\275\256D\265=\221M\\=\312\320\267\275\261\215\222<\214\314\235\273\366iF\275\275\332B\275OjR\276\0266>=17.\275\024\237v\275a\251\027;RN\204\273\252{\023<%l\025\275\316\307L=\033\320i=\260\342L\275iT\233\274\024\274\214<\003\265\316=\006\211\r>\202\361\026;\227\366\300\274*\310\230=P\206\n\273\216N\367\275\027\372`=\331e\355\274\335\3560=j\251h=\245G\013>\256.:=\214-\324<)\016\010\2750\237\311\275\245\310\246<\230\0175\275.+\207\273kj\253\274\205{\274;\177\355\217;+dz=n\037\256=\374\031\020=\310\252\340<\216\236\016\276\331g\t=\336\261B\275\237\330\250\274\345\322%\275g\274\241\275\240g\016<z\272@:\224@\260\274\2235\200=,\322\006>\\Y\337<\2475\010\275\006\216\360\275!\326\t>\177\0269\276\246\021\271\275\354\274\337=q$\231=]\024\266\274SXc<%{\263<F\301\200\274}T\204\274?m\226\275c/^=h\256$\275\317\2200=,\216\227\274\373+\344<\253\255n\274\000\3305\275\210\326T\274\350bE<\216\340\201=g\007\365<\\U(\275z\325\355=\027\247\035\274\340I\030=\005\320\243\275\022c\330=\376\023<=\355\014\030\274)\027\\=\005\033\326<s\236\250=:\035\031\273/H\007=6\211\204=\202H%>\305\217P=/\030Z\275\326\275\364<\304\355J\275\252X\017=\207\202\024\275\371\265D\274j\335\"\276\364489\367>\"\275\357\2579<Ox\334\274\346\345\033=h\221\235<\304(\324\275\232\310\226\274B\010\351\272\207\227\261<\033\362\227<\363KX\275\375p)=\377\t\354\273G\354-\275\257\237\375<\236\363\254\275\245\177==\254(M\275\232\017\227\274\226-\352\271\300q\026=0\325\013>\260\363a\275\331\t7=\373$\022=\313YB=tX\256=\230s\201\274\006\242S\275\205\240\240=\003K\341\275\363\322\004>7]\350;#%E<i;\"=ro\330\274cS3\275\376\001q<\021\00638\355\254\213\272\377\223\313<\203\307\373\274T)\275=\231\251\000=\221\330\206\274u\250\364=}t=\275C\221\027<\205o\222\274\035\204d\274j\037\240\274\307\'\306\275\204F8\275\347w\347\274\333\370\365\273\316C2:\027`7\274$\324;\275:\374\247\275n\312\240\274\357u\201=K\216]=\332mw<\001\025\016\276<\353\221=\272\243\256;\220\371\236\275\331\356\210<\200\211\242=\000R\007\275\022\331\214\274`0\330\275\005&\327=k=(=0e\261=\\\260\n=\034o\223\275\023\207\330\275:\247\212\2740\251\003<u\177@=\300\027\332;\236\370\241=d^\321;%\264\314\274Fo\232=\350\212\000=:\214W\275\251\251*\275\350\312\020=\243\334v=\023\034\231=\255\200t=\317\343F=Y<\251\275\357.\301\275\365\024\204\275G:\237<\261B\010=/\336&=S}\\=\277n\261\275[\247\017\275)\251\023=\3778\204\275\025`\277\275\255a\\=2P\313=w\236,\275\214\234\324\275A[z=\271\234[\275\006\316\201=\236?a\275M\347F<Zya=\241;%\274-\233\311=-\2374\2754\227\007\276c[m\275&\305\266<\\\365x=\021\030\261=^\005\\\274Na\224\274\310\245\254<wrc\274\022\220e=\360\231\233=\230\222\363<\276\030\341<\362\337\272=\327\004\326\274\332 \302=\2336\340\275\276\212\333<m\253%\275k\236\340;1\344+\276\352u\203\275\273\372e\275b\265\007\276&\027\266\275Tu+\274\2701P\275\306\211f=:\254\356<\177|0=q$\227=\221t\030>\227Q\261<y\2056\274\354IM=\232w\335\274P\034\216\275+\205\205\274\323\371\201\275\362@\263\275\367\233\314\2754\026\246\275\216\030\362\275\271\330\371\274\216\341\255=\035\264\302<\231\217\203=\255\260\276<F\344\267\274+ \037\275\341\341c=C\245\t\275\361\224\003\276u\223\274=0\234\273\273.,\r\275z\377\304\274\377 \205<\257\311\275\275\213s\345\275t\277\036\276\343\"D;\037q\325:\377\010\275\274\322H\004\275\0231\024=\345\337\033=\241\255I\275\010\243_\275\273\366A\274U\272\027=\355\341\033=Z1\225;\310\202C\273\344G\314\274H\032\335\274\203sw=8K\230=\372\240\263<\306\2265="
      }
    }
  }
}
node {
  name: "LSTM_1/kernel"
  op: "VariableV2"
  attr {
    key: "container"
    value {
      s: ""
    }
  }
  attr {
    key: "dtype"
    value {
      type: DT_FLOAT
    }
  }
  attr {
    key: "shape"
    value {
      shape {
        dim {
          size: 6
        }
        dim {
          size: 256
        }
      }
    }
  }
  attr {
    key: "shared_name"
    value {
      s: ""
    }
  }
}
node {
  name: "LSTM_1/kernel/Assign"
  op: "Assign"
  input: "LSTM_1/kernel"
  input: "LSTM_1/kernel/initial_value"
  attr {
    key: "T"
    value {
      type: DT_FLOAT
    }
  }
  attr {
    key: "_class"
    value {
      list {
        s: "loc:@LSTM_1/kernel"
      }
    }
  }
  attr {
    key: "use_locking"
    value {
      b: true
    }
  }
  attr {
    key: "validate_shape"
    value {
      b: true
    }
  }
}
node {
  name: "LSTM_1/kernel/read"
  op: "Identity"
  input: "LSTM_1/kernel"
  attr {
    key: "T"
    value {
      type: DT_FLOAT
    }
  }
  attr {
    key: "_class"
    value {
      list {
        s: "loc:@LSTM_1/kernel"
      }
    }
  }
}
node {
  name: "LSTM_1/weight_regularizer/Square"
  op: "Square"
  input: "LSTM_1/kernel/read"
  attr {
    key: "T"
    value {
      type: DT_FLOAT
    }
  }
}
node {
  name: "LSTM_1/weight_regularizer/mul/x"
  op: "Const"
  attr {
    key: "dtype"
    value {
      type: DT_FLOAT
    }
  }
  attr {
    key: "value"
    value {
      tensor {
        dtype: DT_FLOAT
        tensor_shape {
        }
        float_val: 9.999999974752427e-07
      }
    }
  }
}
node {
  name: "LSTM_1/weight_regularizer/mul"
  op: "Mul"
  input: "LSTM_1/weight_regularizer/mul/x"
  input: "LSTM_1/weight_regularizer/Square"
  attr {
    key: "T"
    value {
      type: DT_FLOAT
    }
  }
}
node {
  name: "LSTM_1/weight_regularizer/Const"
  op: "Const"
  attr {
    key: "dtype"
    value {
      type: DT_INT32
    }
  }
  attr {
    key: "value"
    value {
      tensor {
        dtype: DT_INT32
        tensor_shape {
          dim {
            size: 2
          }
        }
        tensor_content: "\000\000\000\000\001\000\000\000"
      }
    }
  }
}
node {
  name: "LSTM_1/weight_regularizer/Sum"
  op: "Sum"
  input: "LSTM_1/weight_regularizer/mul"
  input: "LSTM_1/weight_regularizer/Const"
  attr {
    key: "T"
    value {
      type: DT_FLOAT
    }
  }
  attr {
    key: "Tidx"
    value {
      type: DT_INT32
    }
  }
  attr {
    key: "keep_dims"
    value {
      b: false
    }
  }
}
node {
  name: "LSTM_1/weight_regularizer/add/x"
  op: "Const"
  attr {
    key: "dtype"
    value {
      type: DT_FLOAT
    }
  }
  attr {
    key: "value"
    value {
      tensor {
        dtype: DT_FLOAT
        tensor_shape {
        }
        float_val: 0.0
      }
    }
  }
}
node {
  name: "LSTM_1/weight_regularizer/add"
  op: "Add"
  input: "LSTM_1/weight_regularizer/add/x"
  input: "LSTM_1/weight_regularizer/Sum"
  attr {
    key: "T"
    value {
      type: DT_FLOAT
    }
  }
}
node {
  name: "LSTM_1/recurrent_kernel/initial_value"
  op: "Const"
  attr {
    key: "dtype"
    value {
      type: DT_FLOAT
    }
  }
  attr {
    key: "value"
    value {
      tensor {
        dtype: DT_FLOAT
        tensor_shape {
          dim {
            size: 64
          }
          dim {
            size: 256
          }
        }
        tensor_content: "Q\364c\273\003j9=WF*\275\002\321C=4\263<\275\260?\342<%\370:=mO\177<\212\235\203\275T\367\247\275\364=+\276v\017\017\275\237T\r\274\006\233\354<TL\276\274\007\222\215\274\332\231\t\275s\222\264<\307\321\332=\230\377W=\376nM<\243N\341<\270`\002=T:\257=\316\0067\275R\241d\2753P\263\275\205\246\034;L\014T=KZ\266\273x_;\275\256\351j\275\010\376><_\357\n\2740X\331=.\333\365<\036\315\332=\207\024\255:q\340r=\356\221V\275Z\025s=\330\227\177\274\224C\203=\3574\222=21%\274\226k)\275\241\353&\275M\367\327\275+\345v=\361]\177<\027<J\275\377\307\351;\017,\227\274\212\345L=\242y\312\274\302\310\313;\035\\\305\275\034\370\203=\r\254]\275\354}\"\275\266\331\320=\016\224\215\275A\'\264\274\304X\335\275J\330\372\273\304I[={2\257<<\337\205\275 \025Y\275\266\322\035=\177\367\234=]b\303\274\356\234\032\275\347\003\216=@{\217\275;\310\241\2750S\004=>S7\275\247e\322<\246l\370<\270\345{=\010\2012:\320\252|\275\3118[\274\347*\250=\033B\261=\002zY\275\016\021\321\275\036\342\317\274\177L\211;e\250P\274\222\362\005=\341M\232=\312k7\275I9@;\226\241\264\275\370\025\360=\223\326\236=\255>\233\274\322s`=Ps\330\274\t\237\202\275Y\355\251\274\232\341\210\272\007\203\r\276\344\0312=A\355\217<pj\316=\254\216\216\274\273#\236<\306\357^=\272b\217\273l\275\375\275\271G\257\274\350w\372\275\177B\n<B\202\367<\273IN=\202\352\341<\275p\305<\351\322\201=\250G+=\275L\001=I\270\371\274\026\234G\276\023\331\250=K\303\004\276\005%t\273\016\232Q\275X\371\300\275\361\005\323\274\002Y\302<\270`\026\275\003\227\334=!?/=xX6=HpL\275u\265|<\326\356\233<\355\263o=\306\375\032\276\007\243G=\017\215\370<\231\032&\275\221\273\020\274V\266\020\275\377\245\222=r\035>=\363\363n\274\363\224\227\275\335s\241\2747\364~\275 \201\337<\342\253\207=\363Am\274iM\222\274\024\371\212\275\336\256\332\273\255\244\332\274\353K\247=Ih\333\275E\231\310=\337\354\203=\371\235q=^\255\310\275\347\332l\275|.k;\207M\037\275u\211\251=\311\305\020\276\240\030\351\275\377\364\255\273Q\344\206\275f^\275=\247\346\222\275\350\265\372=\025df\273\227\355\\\275@\031\002\275\n\365@=\"\356\361=\247\2176=\251\025\370\275\212\032\321<\267\212\216;[~<=\273\215\373=*r\325\274\312\033\215=R\320s\274\0316\210\275\357\364g<[d\022\275I]\275=7\367%=P\350\320\274y\346L\275$\343\213\275\265n{= J\323=OC9=\032\010\343<\241j\347=<\007F==\337\247\273\315\026\251=\246\371\372;\224\2074\274\367\033O;\333@\251\274\373_\031\2754p\263\275\336\034\207\275\305BR\274\207\037\350:5\010\312\275v\207Y<\tKg\270\263\237\333<\242\003/\275\264L\004\276X\245\r\275\215\244\223<\256\252s=B\313\201\275\365G\036=\025\031\213\275\343\007\255\273\236\023\271=\030\232z\275\014\374\315=\226\016<\2758\311\037;\326\333A\274i\227\220\274\361\017\023>\333\"\265=\323\207\243<\032Ej=\276\334\274\274dM\255\274\276]\234=\232:\006\275(\210H=Z\253\264\275J\037\253\275\236!\r>\363\374a\2757/\362=\202n6\274\n\202\314\273s\326\253=\254\277\010=\326j&\275n\324\003=.\244\220\273\353\237\357=I\215\377:V\363\037\276\213\301i<q\273\201=O\264H=\303\377\241=\301s\016>\001\347P\275)\017\203=I\306\341\274\3203\212\275\'Z\022<:e\341\274Z\257e\275(\207>>\000\234\263=\263\3774\275V\317\236=\346\254r\274<|\363\275\306\024\201\274\363\334\342\274\004$p=\211\026\031\2757\030*\275.!\253=R\210\325=\365\351\224\275\234\304\301\275\231l\332;I7&\275XR\327=\302>\261=\247\307^<a\246\030\273\325/^\275\0222v\2755\372b\274@\356\305=\\E\005\274\212\205\260<Sr\270\274\322j/\275+\225T=F\022^\275\2049I=\346\214\334\275$\264\310=\031\211\212=\230|\355=\271\\\304<m\200\326<\213\216K<l\337\304=<\372\003=\355\033\017\275\216 \270=\010\024\352=)a\023\275\320\035\200\274\251\373&\275D\215\304\275\260 \300<&\202d<\302\261\376\275\346.1\275\263\\\231\275\364\374\2267&\246\256\274\241B\035\276\223l\227\275\326\322\372\275\203U\214\274pf\017=\227\325\264;\3238\"\274\364\250\246=\274]\365:\201?\260<h\255J\275\001E\023=D:\305=\022\231p\275\272\315\215=%(\304<\310s\333<\251\316\010>U(\200=r!\033=B\022;\275\214\307\253\275\322g\343\274]\302\326<\027\t\231\273\332\252\253<\374p\211=\263\'\362\274\301\371\247\274\323Y\341<\233]\347<\022\230\267\274\25489=\364B\205\275\212\'\216\275\261\361\334\274m\242W\275\217c\204\274B\265\177=l\313N\275\004:o\271\362\322\014>\367\031\276\275I\3747\275\263\354E\274j\363\001\276%\0251\274d\320\346<\215SJ\275V\345\001=z\333\360\274#\031\005\276\274\3150=\230\242\021\274\214E\337<\213\325t\275\367\351_=\221\007\337\275\210jN\275a\371\261\275\323s\316;S\tt=\031m\347\274j:\250\274\216\356Z\275waF;.\353\030:w-@\275\315\211\"\275\306u\245=>\367\342;\031\355\320\275\241\233\024<\016\211\353=\332b\241\274\320\016~=v\207_\2747li=O(\313\274\332\354\333\274\323\232\271\275\2569\277<\237;\311\273\217Oy;U\310\323<e\242\320<\276a\244=\2108r\275O\345\214\275G\320\205=\307\200\034=Q[\213=\331\267\364<5e\221\274\325\356\264\275[\353\t\275\245\217\212\274\336\262\223<j\333\311<{\231\252\274\251^\224=\265O\317=_%6\273\253\004s\274\240\260\260=3\206c<\355\327\237=\357O$\275\372\320\252\274\205\214\005=\311\252d\275\271\t6\275\002\343\333<\253$D<\n8Z=\312\240D=\317\200\"<G\354\'>\263+*\275\215\244\177\275m\021\271\275\246i\250\275C\220\237<G\244\325=\266\241\222<8\236\244\275\265\253\210\275h\365\317\274=SR\272\3625U<\274\021\014\276{\261K\273%\246\000=_\307\205\272B\013D=\251\307_<)H\211\275\321\203-\274\237\003\366<+\371\214\274\230\270\340\274\"\013#=n\0306\275\373M\341\275\320\2077\275@xG\275\377\220\225=\311\255-=\223<n<t\316(\275\016X\206\273a\232u<X\332\032=I\340c=\361\312\022\2768\331\014\275\243\357h=\360\250\305=\377zO;\372\235)\275C\tb<\277\347\030=\256\202|\272Q\321\342\273\010\324p\274\026&+\275\035^\024>\264\232d<\367\225\255=\340\305\331\273\324\341\316<\346\002y\275\321S\323=\233\202\325;C\200\000<\205\003\'>\014\325m\275vA\001=^\177\234=\332zC=\227\272\221\273\230E\013\275\352\265\327\2754\025{\275S\332\227\274&\311\367\274\024\340\273\274\325\303~<q_\301<\274\027\305=\347\377&\275Z\177\215\273n0\273\272\206S\335=\020\370\216<\n\335\312;\300&\262\274=\244\205<B\2363\275\351J\260\275\023z\203\2741\273\247\273\"\003g\275X\377\227<tc\226\275!t\325\275m\320\211\275\345\3405\275\334Y\366<Nx,\274\"\360\226\273u4\027\275!\231h\275\265\177.\275\332\253#<\324P\260=\301s\000\276%q\210=\312F\234\275@\367\217=Ews=\331\216N\275\315\214\331<\277\345o\274*W\366=\356\343\242=\253\032\234=\003a\207\274\204+G=\267\177\250\2753\355\001\276h\025\r\272F\037U=\367S\210\275\271Sc\274?\033\234=\002\237\204\274\305P$\275R\0047\275\037\366\342<\272\2020\276\202\305b\275/\321\020\275+\002\216<\260\225*\275\264\242\t=\376/\314<\3625f\274N\022\260=\251\236,=,j:\275m4\341\274\33495\274\0251u<\341\221\252\275Q\013/=\036\344\356\2749\244\266\274\276f:\274?<\332\272\262\025O\275\021\226(>\265\232\273\274\215\334@<\035\016\226<\310\216\327\275\007\236\303\274*FY=\255\222E=C\n :\202<5;4q\177\275\000K\315\275s\016\255\272\243\255\356;\207\352\322<\206\217\204\274y\371\343<+\373q<\245m\360<$C\010\276#\\\232=\034\347\301;9*@\275\326\234\222\2759\360\t;\261\234\263\275\'\226F=[w\263=\247A\020=\356~\270<\200\220;\275m1#>\261\346\307=\344T`=\212\350\264<c\333?\275;69\273\n\335\235\274\315~_=2\212\331\2757\367\251\274n\232\217\275\340\204E=\344\016]=Z\311b\275\333M\326=\256\033\267\272\315\275=\274/[E=s\201j=\'\027\262\275\366\370N\274x2\007=\314\275\223;\322\210b<\302\256=\276\006\324\263=Z\377h=\246\031<\276\'V\233=@\361h=\343\232\231\272\331\276\324<Er\"<\267Y\356\274cc:=qC*\276;?\002\275\3019\004\275\010\345\361</\017f\275S\216\354\275n\242R=?\216\302\273i}p<\262\353j\275\326,=\273\360\016\363=\202A4=\251\001+\273\024\304\300\274n\217\253=7\032\036=\231X\231\275-O\252\275\3458&=\304\242\034=Z\205\201\274E\257p<\t\274\201=\252\n~<\362\332\230\275\303\373\306<\n\300\005>\205\327\266\274\034&\261<\364\037\251=\344R\343=^\000\003\275?\305\203\275\265\227\276=\370\\\211<H\0271\275L\247\324=|\362\301=\273\245\316\275\004\027\246\271\305g\022\276o\231\266=\353\315q\275\353A\027\275\376\203E=9\240\246\272\257u\307=\337>/=\347\346R\275\260\353G\274<\036\177\275\017\000\t\2753\340t\273\2666\342\2756\366\006\2744\342\254\274\032\236\331=;\377\314=ztV<\316!\364\274Z\033\333\274\002/\367:\r\331\345\274BX\262<\"\212\020>z\r\311\274\330O\003=\265\244x\2756\336\250\275\235\272\344<a\276\223=f\3208\275\352\233\030:\350\325\025\275\215\377\035\275#\312\215\275CfD=\222i\030=?\216$=\177\211U<\205\230\271\275\373\323\222=%;X=\224S\233\274U\'\304;\037;\271\275\031?\236\275\n\326\360<\242\276\002\272\324\265k=2\372v=m\337\235\275\352\305I\274\320\0068\275\224\312Q=hwu\275>~\337\275\257\311\351<\274\270q=\250\373=\275m\221\264=\212e\224=\244@\304\274/\244\314;\030\017\245=\0003p<\263\312\016=\304\260\r=y\201@\273\261\221\230\275S\315v\275dV\311=\003\364\252\275\001\370\210<\'\376\354;\"\201\216\275\264e1\275\265\027!\275\264\270\250\275M\335\000\275\227\033\033\275\206\352\204=\321\3100=E\n\205\275\365\223(=\351\347\265=\323\221\210\275]\371\273\274\275\2314\275I\002\245\275E\205\236<QZf<\331\032\200;\234/#>\t\332Z\275\230z#=\247\261-=W\237\306\274\356%\313:Y\3237\2750o?=\256qm<\235u\206=\303\241\022\275\363\302\302=\355@\367\274\312\233\013=9\261U\275\014\314\342\275\241;4\275\326\'\004\275\353\032\275\275\331\354\273\274\366\014\251=Z\023]\275\350\326\216\273Hm\345=\274\305:=\265|\227:^]\234=\333v\n=<P(>D\211(<\033\242\353=\276\314\225\275sD\220==|\234=4\327\217;\334\332@=\003\360o<4C\"\2756\340\035\272Mh\235\273z\366\310\2758\005\251\275\t\236\321\275\345g\227<\303\206p= \341[\275O\222\3729ij\372<\376\014\210=\301\356&=\243\005\210\275\032\030\370\274\343\232-=Y^\310<s\3454\275\242\327\376\275e.\026>\rdV\275\211\236\216=\256[\310=\211\305\263=2\205\207=\266\355\225=\201\331\247\275O\352\271\273&\031\322\275\266<b=D7\276<\021?{:U\203\374=Qw\227\275Q|2=!x\334<{o\231\274\205\315\231\275b\262r\275\261E\220=U6,\2740~\021=\252\204\200\275\206\222x<\366\361g=\037\370\013=\204O\'\274f\003m\275\264 \260=\307i\216<\343\217\260\275\177\231\260<\230\000\214<\231\271\226\274\340\273\346<ZeS=\361\240\033=\251\320k\2758\3641\274,\221\240=-\200`=\341\241\361=2\030\325=T\031\311=p\242\245=Z\376\255=3eP=\343\004\311\275\244\\`<\221\216\022==\207N\275\242^T\274\235\336\232;\375\342v<\372[\205\274\341ez=\334(\212=\301\n-<%Z1\275\315\241\245\274\364\302\n=\254\356\003<q7\235\275\001\0335\275\006\305\274\275`PE\275G\272P\274oiz=\242\300<\275x,\225<\365\227t=\006\277>=\211\246\250\275z</\274\344=\231\274\020H\274<C\342\023\275t:\233=\016\021\322\275\203\033\234\275\305\330\017\274@\362\262=f\266\n\275\374@\225\274\002\207\'=\031\252\350;2\275^=\0351C=_\267|\274\236\276\235;{\030\227\275\016\316\222=N.\310\274WSt<\220\325\241\275\266\237?;\252\335\333=)\227\372\275\005\346\305=B\237\000=\230\334\002=y\010\2638]\275\203\275r{W<\274\307e=\266\245\253\275oa\030\276\001\353\351\275\331N\227<\245\343Y=\315\207\226<a\361\222=\013\310*\273\373\340v<\263\365\352<\375\343\262=\347\"J=E\242\306=\263\275\317<\007N0=\320\353\346<\275\270\356\274\256@6=T@g=\323G\234\274&\224P=\205\\\304=\001\357\210:L\234}</\035\206=\303\331\017=B\006\253<\347\254}=ZgP=\361c\200=\037\004\007=\244\'\014\275\013-\306\275^!\000>\010\037\346=2\024\214=K\034\267<\275\210\360=\241+\237=?I\204\275|\226N\274\337s\255\275\333!|\274\005o\344\274\305\364\264=\372\254\302\274\037K\246<S/\242\275\216\277\365<J\307\312\274rT\332\275\277;\362\275x\305x\275\255\016\370\275b\\\356=\217\316\374\274\016\372I:\267\331e=\34140=\2400\2008\023I\301\274T|\275=\037\2553\275\320`\022=\370\260\000\272\254kP=$\252\005=\334.\020\276\317\3523=\355\270\t=G0\237\275\316\235)<\024c\006>&\020&\275\374\030\333\273S\325D=\2670\242\274\266\326\263\275\262\022\247\274U\306\010\275j\030\323=l\234u\274\023\257\306\2757\226\304\275;G\324\2734\033\244<qc\336;\354NL<\t#\352\274\330\264T\274\361\247\034\276\302\013\302<\236\027\023\275\371t\256=d\017\321\275\305W\n\2768LO=\327i\237\272\352V\264\275\314\3754=)3\264\275\313f\357\275[\334\034;e\257\241=Y\332\200<p\314r\275\013\265!\274^\327\263\274\023\313\237=Z\233\016\276\340\375w\275RJB\274\261\217\346<\337\220\274=\373\357^\275\335\221\342\274e\273\361\275\375L >\316\364\306=sT\223\273\232\201t=\024\023\337\275l\2243<\003K\311\273@\2353\275q\241\021=\224|5<=\203\234;\000N*\274\240\347\356=o\\Q\275qX\362\274H\205>=[\311\021\2757\201q;\334\365\276\272*\005\001\276{\370+=\331`\255\274\352\265\r\274\232\245\321;\007\302U<\266\023\343=tA\010=\247MZ\275k\r_=$R\323\273\014h_\275:\327]<\311\260\016\275.\303w\274\033X\257<hr\342<S\037\003\275\031\314@\2751\357!\275_\'\235= l7\275\304\277m\275\377\022F<\327\356\244\275\350\300\215\275\031k\224=\314\216\000>\353\017\227\273\312\274\350\274b)\236\274\301\3504;\244DV<DO\222\274\267\3425=\364\354\373:p\'\n=A\004\304=)\366\272<\022\2212=\271p\240\274\270r\333=\004\311\340\274D?\217;\251v\242\275\177\317_</\362E\273\r\034I\275\317\222\302\275h\256\344\275@\224\362=\252\273\003\275v|\260=\332\346W\274c\206\201\275,3\325=\272\252,=\220\326+\275\211`>=\231qF=\252\001\320=\005V\326\275\221\326\255=\335\365\232\275\312\334\203\275;<L=\314Uh=Z\353z\275H\"\343\273\265\343\004<\220\264\250\275\013\230\254\275\rh\240<\025\252\344=\200\340E\274V\304\033\275LTp=\003\210{=\206\255\034<=\345\027=\221*E\275\3727\007\275\005\356\341\273\301\317\323<#\260\254\275\317\010Z=\216z\217;\336\201Z=\254\013\036=\313\005B\274\214\211\020\275\243*(\275\373\340\350:\037$\301=\002,\207\275^\233O\274l\031\225=n\222\033\276\352p \275\326q\021\275\232#\271\274\334\224\204=.\217\270:Zt6\274\376\232\223=\206\024\236\275O\230\277<\237\346\247\275\203\005\243\275Ge\354=o\216\200=Mo\201=\343\305\t>\223\333\204\274\232\362\216\275\025~\022\274\324\2725\275\202\247\264<]{\333\273o\370\213\275\322\236\255\275\242\305\014=\301h\366\273~-\301==\243\346\275\245j\375<\303\235\322\274\272\026\001=\247v\334\273P\3110=\005\262A>\314\276E\275\005]R=\346i\342\274xR\232\275\330s\223=\344`g<0z\236\275\002\036\274\275\311\001\366\275H\203\271\274\3710\207<\207\363B\275ln\375;J\226^\275\367\366\220=\367\024\213\2752\327*;bo\005\275\201\201\246=\366\234\274\273\026+\257\273\003\2757=\036ug\2756I\243\274Z\312_\275\376\243\302;\212\003\325\275d`}<.\375\357\273R\337n=\324\276\220=\325\347\274\274\3422u:\257\343\250\274\250OE=\2053\\=\226C<\275t:\026>\365\031\260;\r\371\262\275\225\nI\274\242\036\252=\263\303y\2757\377\220=^\362+=\305\254\367\274U_k=\243\335-=\016\231\226=_\237\332=\245\n\321\275\234\273\027=\333j\027\273}\307\005=\010~\266\275\013\\\312=)\334L=\333\340\257<\020\252\356\274\340N\031=S\317\267=\002\223X\275\010\013\276<gu\026;\366\020\236\275\323\323\311\273\333\262\222=\000>\212<\233\001\323=^\2137\275T\205\203<\301\302\351\275\027tW=\376\324u\275{bB\275w0\201=\371\212\027;\230\003\363=!\"\256;I\024g<\000\1775\274J(\343\275\00034<\326\235\242=\237\272\242<\307\\\227;vIQ=\364\254\255=\341\313\334<\3167\315\2750\365\310=R\302\226\275\330\tg\275\002w\203\275\017\227z\275+\354\277\273\267\205\261=\226\252\007\276\035\001\246\275\276\256\205<0o\217\273\343wT=\354\265x\275(4r\275b\375\240\274\337oZ\275\2134\222<7\037\232\274\235\323\344\274V\340\304\274+\360\030\275Iy\314=\317\244k=\261\254\317=f5\243=\307\364\275\275f\214\273<\310\255\030\276\242\373\264\274\236@\222\275G\355\252<\036\254C<\2658<=*\030\377=\352\334\225=\007\037\367\275\336x\302\275\374&\306<\346\225.;\244c\233:\305\031\343<Q\002\032\275\247J=\274\352\315\377\273\370\337\031\274I\374\243\275\215r\250=acQ\275\022\247\226=\325l\245<\204\010\254=\014\232\275\275_\013~\275\341f\324\2753\230\227=a-\327<8O\212=\212\035\"\275L\264\343=\t\2003\275\251d\237\274\333a\004=\rK\206\274\r\311\020\276\237?^\274P\004\265=\013D\034\275;\331\201<\246)\240\273o\250\304=\252n\023\274\334\005\230\274\261\0233\275\320\213b\275\223\002\250\275\323\370\337\275.L\312\273F=\027<\303\036\016=f\007\007\273\343f\222\274\2505<\275_\027\212=@\'\261<\r\373\300\2752!\027<[\346\353=\226\016n\2755\242\335=\352\206\261;\212\272\243\275y\226\013<\227\223K=A\244\260<a!a=As\300\275\360\353\355\275u\352\210\275\320\014\305\273\245\037\236\275\350\262/>D\230\265<\330\032\206\275\253Q\216;ha\376\274\214V\211<\256u\320<po\334:\362\001\217=\346\312\311\272\310d\000=9=\003>e}\201\275\356\312)=\225m\026\276\375R\254\275\034+z<\202\320\321\275\311\357\224=\231\263W\274*De=\203\365\206=\275\376\267\275\036\007\254\275-e\020<\004\252\037=l\2545\275\264\233\211\2745\023\334=5l\376=\226L\247;\024\0374=I\000J=\324\304\232\275\323\372\216<r\2461\275\232$\332\274\366\333\237\273\300N\215\275?1X\275\352=R\275\n74\275\337\311k<EX\325\272|\323g\275WJ\303\2740\341:=\334\253\231<)\032\342\274~\305\277\274\352\215\353\274\364P\203\275\365\377\010=\371\t\030\274\022\223\362\273\363w\003<\210F\244\273\021\367\247<\314\2255\275\214\257\316\272\205\036\375:W\370g\275\303s\313\274q\026\217\274\373\316\033\273`z7=\233\3341;\026\374\255\274\206\225\316=\314\304\\=:\224?\273\312\177\372;i\".\275\257\260\227\275\251\232\212=\223\306\360\274TY?\275\r;\034\2754f\305\275\035\255}<\365l\330\274\226\323\013<\311\256[<5\255\316\275t\321\037=\203\217\357\275\004\017A\275\226&\217\275Sq}\2758\3737\275)|\265=\211\025\230\274\316J\307\274\264\370><\271}\240\2756\232\245\274\200F\237=\353^\035>\304\254I=\230:;=\205\337h\275\177C#=o\324\361\274\013M~\275\226\372i\275\253K\317\273Q\233\005>\326\312\351\274\n\302\203\275W\303\023>\330}\324<>+\002\274\235b)=\037\233\007>\336\0371=\243\3736=\020F\354=\311Z}\274\265\275{\275\231\204\247<\300D\225<F\341\265=\356\264+\2757\370\210=\211+\004=CE4=\323\247\311\275-\313n\275\306\021,\2754\315*\275\246\337W\274{\002\325\275\201\335\200=\316\203(=\241\306\002<\305<>\275\020i\320;\236\020S\275\322Y\263=D\n\004>\275\034\276\274\355VG\273$6\317\275?\253P\275\240\341\030=r{\325\275~\341==\200s\354\275\226V\223\275$\372\211\275C\263\311=\231\261\032\275\216\307\265\275\313&q=f]\017<do\277\273\311\2730=O\350\222\274Q-0<eb\373\274\267\022\307\274G/\222=\2438\257\273\3339\247=\300\353\227\275KNn=-\252\333<ng\240;\017\334!=\206\306\006=\266\024\352\274\216c\252\275\355N\377=\307\n\310\275>\315\225\273q\214\243\274fO\003\275^\324\223<\3756\010\276\003\3036\275\0056&\275\320N#\275\262\006\372<~IP\272\232;\370\275\335\035y\271\247\257p\275\304K\017\275621>b\300\030<!WA==Wf=\262\244\210<\330V\270\274\205\327>=\022i\346\274!f\021<g\021\006:*\000\373\273e\243\230\2757\201?=/\262j\275\217\357\310\275\004\253\267<\005I\026<\310\371l\2735E\307\273O\034\233\274\251\327F\274\235\320C=)V\'=i\t\243\274\212\262\357\274\237E\354<\232\316\201<\234p\236=n\225\336\274\225\203\374<\016$\252\274\207\267\021\276\213\275\200\274%p6=\342 2=yO&<$p\263\275Lp\346\275\347\232@=.\332\213\273\345\340\275=z\215\r>\027h\016\275\310\355A<e\266\333\274\313x\007\275\'Q\332=\245\371\263\275\371U&>lk\302;{C\331\275%\313C=P\2135=~\\\371\273\334\351\202\275\252\346\323\275\345\232\241\274\036D\214\273\375\203\232<\247\262\315\275\006\031\216\275\360\205Y\275\024\276b\275\241\371\261\275\334\201\236\274\330\275\271\274\352_\004>s\351+>\377=\343;\2272\272\272\354i\337\275z\031\231<!\004\313=\005\230\r>&\332\366\274\353\307\225=\002V\312\275G\2657\275\217\306]\275xH\334\274e\262&\273\307\212\201=H\322\200\274\224\2120=\321\273\371=\2064\223:S\201\250=\004\252D\275b\335\273\273\021J\314\274\177\3066\274\017\334\355<w0]\275\021\256\340\273\354\315\013=\254n\034=K\222><\365\211/\275\242\355l\274\222U\264=\r\260_\275\276\365\030\275\356\\\001=\377\030\312\274\324\334\017=Xj\263=\326N\261\274\322\206\370\274\0276\265\275\320\017\367<\332\376(=\227|9\2752\n\354<\031W5\274\213\306\317=\203\032\257=\217\231\253=\037#\313=\321\274\212=\327-\271\273\365d\005=N\254\033>\2535\265=\233Xb\274\243K\203\274;c\335\274q<R\273\316]\226\275f\224\311\274\277\034\021\274Xp\261\274\334\273\317\274\313\340\230<\021|-\272\2460\324=\221\236\t\274+\305\'=\240\177q\275\274\005\256\2736_\001=cVn=\345\375:<\003{\307</\010\010\275nf\023=\251\342\346\275\270\026E\275\246\036\202=Gk\353\272\230\010\255<\355z\031\276\222x\322\274\215\212\206=FC\254\275Q\215\356\274\223\245\374\275\260\377\320=_n\232=\375\253\373\274\256\325\r\274.\235*=`MV<\306\324d=r\240\023\274&\372F<Yh\364\275C{|\274\211\202\207=\233\324\205=\272P\313=\224;\\=x\3217=\306\035r;\r\317\255=\023\t\213:\273\310\334<(@\304<\231\016\"\274\245\263=<t<2\2752<\240<\026\272J\275\300\326\350;\005[\007<\342\037\2749\013\210>\275v\216|\275D+\347\274A\304\354\275\037G\271<\005\276\346\271\350\232\333<\362\347\016>U\235\240\275R\312\030\275]*\035\276\340\267\303=\022\323T\275J\025\311\274\035\035\214=\370VL=\233\276\321=R\250\224\275\2622\304\275z\361h\274\024s\373;(\346\227\275\023\226\200=Ku\233=nU\217\275>\215\250\274\030\327\251=*\220\315\273\260a\364=\345\266\022=`\227\340\275\272B\213=\036\370)\274\007\321\002<\241\226\260=\370\025\020\275\014\250\377\275\212-1\274\'\235\331<e H\274\361Q\241\275S\246\226\275Q\362Z\274\363\266*=\275\017\222=I!o=\350\223\003\275\333\206\000=?\234\211\275\314P#\275\354B);\221\276\2118\024\005\215=\217\207(\275\025V\225\275\333\216?\274\325\364.>\317\341\013=FI\222=*8{\275^\226\215\275\335*1=\315uA\274\220\214\315<\r\216\206\274ly\213=\337\213r\275\021x\300\275D\002\204=&\'\300<\207\t\013\276Y\007?\275w\326B\275\247\251\022\2754\247\333;\232I\250=m\033\017<\266\256N=\362)\006\273\301\234\234=\274\310\213\273\2107`\273A\272\312\271R\3665=\001\234\375<YlO\275|\266[\274U\214y<]zw\273t0\270<\226\325^\275\270\177;\2758t\226<\00681\275\247{;\275B\376H<\3422\373<.\363\014>\252\336\261=9\241.\276\255\305\031=\272\342\260\275\021\025\276<Ib\302\275\252\265F\275\036\231m=\331d\221\274Z\305M=!5\374<\reH<\n\267h\274\213m\213=\342i\332\275>L\275\273\214\0069=^\335,\275\241\347\233=[c\3719\332{\224\273\371=\330=\210#]=\232\215\243\274\211\306\035\276JH\206\275_og\275q&\314=\377\325\267<\360%(\275\323+\326\275e\021\204=\251\316s=g\024\227\275\215\305Z=\212v\037=\337\305[=h\351\205\275\032I\327\275\314|\247\274\035\223R<]>\024\275#\224\006=\003\274\024\275c\215\224\275^\322\260\275}\245X=AH`\275\363\366-\275\350\275\364\275*\361\205\275&\221\334\275\216a\262\275\',\314\275~,&\275G\037\235=\263P\t\272\323t\227\275au\362<U\332\237\274sj\304=HB\026>\332\226\323=\360\n\r\275\332{\336\275}\001\001\275\030\332\260=X\004\211=\314\273\245\274j\235\221\275kl9\275\320\245\006\276\305[\246=A\2475\275.\000\355\274\241\325\270<\r\251\244<\006Z\202\275\205\255\240=\260\n\304=\243\n\267\275X\234==\324\366\247=x\317\256\275\304X\363;\177mf\275Z\345\331\275\010\030\350\274:4?\275d\362\021<<\237\231\275(\340\024\274\273\273\200<@\031\204=V\365G\275=?\227=\024|h\2747?\207:\300\275\027\275\232\275\023\275rw\n=\010}\210=<\0222=\326_n\274E\271\251\274Ao\225\274\252\313i=\237\253S=m\366Q\2740i\231\275&\025F\274\021\360\237;\t\357\320\275K\353$\274\330\005\214\275\261\227%\275\322j:\274\252\021\275\274\274\352\375\275\032.c\275_w\226\274\363\260\327=J,\335\274u\331\251=\024\000\246\274\356\017*\273!\341\327\273hA><\3221<\2753\310\366<\3572\273\275\366\245\r=n\361[<\313\225\033\2744h\252\275(\323\344=:\021\244\274\270\276B=|\264q\274\013\253\266\275o4y\275\003K\304<~[\234;%\247\234<\266\271\276\274\177A\222\274\322\303\272=\267\005g\275F\336>=\273v;\275\000\316\205=\327\210\025\275b\022\177<\215+j\275C\004\266=%@&\275\357\246\036<z^\016>\'\253\235=\324y$<\323\177\322\275\303|\371\274x\0132\275>d\230<\234\022\260\275\245\337J=\270\257t\275\007\305\220\275uJ\236\274\212\307\345\273*X\353=\230\326S=\274h\333=\221\367\226= \303\033;&G\236=\213\035\221={\007\272<}\250\t\275\277, =\024\241\334<\263`\277\275]\326\275=\332\343~\273\376\236%<\022\306\004\272\375\233\353<\203\271\013=g\310\230<-\353[\275\253\231G;U7\264\275M\321{<Q#\315\275\222\0043\2758R\212\273V\256\211;\033\033w;F=\010\275\210\376d\275\314\346\227=\364\001l\274\252W\247\275=\363\004=\031E\353\274r\265\006\274-M\265\274G\213\206=\004G\212=\034\246\033=\340f+=-\246\220=\217\031\255\2757\000\016\275\265\330\243\275\024\035\355<u\303\260;\203d\n\275h\000Y=\325B\025:[\027\022\276Ki =\274\220f\275\211\240\241\275\2137$\274r\302\275;?\\d=~\373\264=\020\202\007\275w\306\273\275#\334B\275\240\304\255\275\362\031>=\206\2053\275\221\322v;\316\313!\276J,\017=.\371\205=\201wT\275<\244\017<;\244\303\274\316Rn\274\310+X<\201QB\275\273\024\242\273\375\256\210\275\234\024\221=\241\240\356\275V\004?<\244\362(=Q\377\000\275\225\223\226=\206\366W\276\300\237!=e\277\037=\223\215\210=\355\r\370<\003\220\024=\372-\253\274\2618>=e\r\324=D\212\006\276f-1=\246\032#\275Vb\253<Y)\010:\000\260\375\274\322\215\256\275\343\203\367\274\333O\227\275`\267\362\274\342\270\264=\322x\222\275C\207B=\004\310O<\277P\216\275\324\312\'\275%O\013\275\336\267\326=\032\372\255=\332\343\226\275\027\2348\275\005\220\027\275\263\240\267=>\231\206=#n\316\274\253/\267</\361\202\275\345\233\003=\006\r\201\275\010\342\276<\031\271\202\274\353\2011\274\0279\0249\221T\r\276\236\343\313\275\266#x=\217\2572=\362G\355=\304=|</\372\346<\033f\211=\035\201\235=TQ\241=$\252\256=\242\341\230<\226\205\241=\"\242{<f\320+\275n\007\221\2756\3235=ol\213\275B\264\371\274\027\304\r;S\025\t\274\365\276\251\275\265\302\376\275_\234\317\274-P\007\275\243H\025\276\374\302\272=2\320\225\274\373\215%\274\347J];m\0326\272bE-\274\315\254\177=\300\344\304=\357\264\224=\035:\260\275\274\3618=\215{\270\275O\034\365\275\312\360\363\274\227\342\021;\245\301\326=\005\356\204\274\312\226\005>\343\231\027;\272\355\346<\3020<=\343\212\"\273F\353\036\275kb\312<\227\364\010\275k\226\335=\004C\206\273\007[2<\315N\244<D\255\002>\277\226q\275\034\202\013\275\375\360\342<\350\207\361\275U7\370\274\245\223\003>\326\336\'=k\345\313<L\355\343:xt\017\272=\222w=\200\250\364\273\374\267\221<\300_G\275\322hm=SA\326\274\2513\263\275\224\225\241=2\235\027=Ar\203\274\006\274O\275Y\237\001>\203 \321;\263\323\245=\264W\306\274P\345\002>\023f\204=\204T!\273U\244\025\274%)&\275\020\342\221=\277K\003=\307\327\201\275\274]\276\275\251\377\347\274\350\005\026\273\030v\340=\374.\353\275`\337\212\273\312\372\276\273\324\327?\275J\010\316<\240\033\213\274\226\303-;\223Z\313=\363\325\215\275!\312\207\273\270v-\275\t\271D=\274\246z\274R+\224=\007\364\206=\200(\204<\013C\256=\225\327\334=\377dN<$\357^\275};\271=\032\244\276<U}\300;\3270\223<\177\227\025<\036Xw\275\324\302\226<\260\310\331=Dm\020=\346i\307<\241l\273\275_(\346\273\212\367\222\274y]\215\273w(\337=\234\320L;\307\250|=Uc\262\273\250)\320=\036\203\024\276\321R\376=\374EG\274\370N\206<\326+-=\310p\377\274\262\275\230=\210\213.<7\275\220=\035N\222=\322\237\001>\376\264\373\275\031\372\226\272\242\277\003>\215R\200=1\376\223<\200u\370\273\236_\307<\372\271\232\275\255\205\376<*\267\006=U\222\334=\\5\226=\364\330\r=;\222\375\274\032\361\340\274\301(\240\275S\252E\274\n\252\245\273\236\260@<\035w\320\274Z\310\372<\036T\004\275{\267\237<\342\221\367<\377\000\236\275Ei\201=\023A\254\275\240\234\313\273\006\003X<F/6\275\257\363\014\275I\356\261;\026\315\343\273\003\321\016\2759\321\265\274c\221\252=@\364\n<1\230\231\274\250\236O\275\246B\313\274\312$\204\275\263\231\253=\267c\251=\301\001\304\274\017\227.\275\017\234\270\2758\377\243\274(\336\243<\326x\020\276\214\242\"=\362\275\000\2755:M\274\243(\374\275X\2170=GA\306\274w\211\"=}\243\003=\034\212?=\316\362\323<\254\232\266\274\356\354\317<\337\035F\275L\314\217\274\020F\010=\014|u\275+\351\334\274s\334\210=r\251{;hj\354=\2179W\275a\233\231<\026\035\214\274\254v\342\274\376D\201;5?M=\347/\303\275\201\244\024=\245\366\331<\266\024\254=-BJ=E\031\231\275\024?\013\274\353\375\030=\202\236\267\275`H2\275$\004\325\2747a\320\274v\240\255=~\2132:\243\027\262\275\251l\353<\331\232\357\274A\177\343=\321qc\2753\n?\276(`\342\273\262\240\352=\362\320\016=\357\262B\276(r4\275\305<\252=\334F\204<A\357\025=\231\206\003\276\326\010\263\275\245\234\t=VL\201\274}\254\332<\223\002\225<7\327\246=\305\010\375=\005F\243\274\300\004\334\275\r\360\317<R\274\304<\'\026\024=\371Z@\275\215\010\'<\237\202T=HJ\016\275\032\304\261<\244^\340\274p\016\346=\366\210/\274\031a\340\272\333\312\325<\254y\204=w\233X\275\242\000\202=\302\266t\275\323\202\031>\254\213d\275\370x\251<\006\210\255\272\031\002\004<m\243\312\275\250\231\247\275W\035\272<=\356\214= \270s<\036\305\231=\227\323\350\274\260\027-<\001\210\021=\223GS\274\370E\241\273E\2027\274d\235\367\275\021(\213=\024\241\240\274I\276\201\275\267\315}<\022\226\273;\335o\003\275\005\200\222\275T\254\332\275\021\305P<\217\3751\275\025Z\340<3.>=l\267\331\274\312r\270\275{p\002>\352\217\204\273\347\221\231\274\206\241\234<\374\220\270=j\002\210\274R&+\273\213t\210\274\223M\216\2748\336$:\037\255\252\274_\321\001\276Z\352\243\274&L<\275\354\337\r\275\177+!=Vt\214\275\350L\221\275U}\246<Y\235\332\275\361\014\203=\236\205B\275\206g\377\275w:\214<\215\206\016\274\260\250\n\275p\316\257\274m\343\3759m-\303:\220\362\210<4$\332\275\311D\001\276\310v\242;\244^\335\2752;\271\275a\343\022>\362\211\217\270\225\3143\275_g\254\275\271R\370;\323\026\007\274\324\302\320\275\304*M\274\021&\006\276J\017~\275Us\014=\020\202}\275.\021\320=\010\202\2449\377\335U\273\371KQ=\235SU\273\347\336%=k\035W\273\025\307\240\275\213\023\324:\363\371l;\344PN\275k;\255<\no\006>\207c\276<4\234q=\372\367\024\276G\353+<\324L\305\275l\336\001>\206\361\350:\305u\314\274Y\020\315=\"\260\000\275P\317T\273\327{\316\273\366\343\320<\271\366\235=nX\254<\364\343\220\275\356\341\270\275\211O\257=\375-\266=\324d\232=s\325\203=\360\321\242<\316\243\027\275]\032f:d\027\215\274\330Pu=\235\316N=\267`\236<9\325\017=\nK\200=\347\263\256\275\337\'1\275x\251\243;\024J\032=4\036\260\275\363f\241\275\034\241!=>\317\273<\300\326&\275V\"\001\275?\2731=e!V=j\370R\275J\t\316\274\2418(;\026\234\243=|9\325\273\201\252\265\274\223\020e=d@\272\274\020G:\273\004\216\004<\242\"\215<\013\225C\275\333\245\356\275J\362\303<\301Sa=\227\244\365;\217\324|=[j\256=t\375\217\275Sg}=$}\372\275\233h\264<\0365\374<s\355\037=\003\234\215=\2725c\275\024{.=(\026\313;\031\361\243=F\000\006=H\350\324\273\372~\t\273\336\367\007\275\364D\026=.\305\253\274\344Z\252<\374@\260\275\333\355\271\274p#\022=\340\025B\275\314\210\315= \026\362\274\370\255\251<\247.\"=\315N\014\275\224\323D=p]\274<h%\006>\336\357\233=<5+\275\032\356s\275\210\266\017<\233\3262\274\305l\344:\323\001\361;\316\010\212\274\330\277\243=\337\255\375<}\253(=n\324\207=\037\200\325=s]\356<\225\203\377\275\030\276\r=\276\245\267;$\374\000\275\373J\364<E\201\004>\304\206q\275\336\200N\275\377\0351;6\331\347=\362\016\323<\352\016\234=\025\350\005\274O\273!\276Y\200l<\022\260h\275\025\305\266<\367Q\251<Mr\272\274\353Z\267=dI\253=Xa\342=\247\351\226\274\326M\003;\234\223\365<\354\202\200=\027;\221\275e\325\023=\271\331\000>\222R\232\2752xw\275\351\355\211\275\2478\266;\360\217\327\275\3210\201=\265\236\257\275>\246\224=.\005\227\274+I<<\017\\k\275;.\316<ii\013\275\310\371\233=\256\254\363=\335~\306\273E\203\310\274\324\177\361<\321\016\261\274\260\346\231\275\332K\213<\347b\250\274\360\240\254<bo\312\275\250U\010=9\313\352<1T3=K9\255;\231\306\216\275\220\032\022=L\244\"=\227{\272\274ZJ\204\275\034\235\324=\271f\006\274@%D\276\241N\235:\275\2530\275\n\226\334<\311\345\277=G\223\316\275G\376\021=\272\363\255\275\262\346\177;\3734\337\274\251n\034\275\327\340\201\274\307\004\270<\260\366\333\273\331\223\373\274\311vS\275\006\177\241<\025>t\275\0343-\275N2\277\275\224\366\246=\007\005G=\347\356L\274?\005\375\275\026n\306\275\002,\201\275\227\315;\274o}w=m\372\333=\323\274\350\275#\325X\275\257\255\272;<\375\001=\225\374}\275\332g\323\275S\320+\275){\352\275G\221C>\357\221\317\2754\256\013=~T\265\274l\302Q\275\212H\341\274S\244\235\275\372m\331\2735\373\274\275\243;\316;\014?\304=\001\347r\274\362F6=_\3067\275\r\355\346\274\306\242\'=;\251C\274x\234\350\275\260*(\274g\253\232<r\346\370\275\275\264\373<\341{?\275\3677\n\275\271\3737\2741\340\225\274 \025\225\275p_\321=H\342\362\274_~\376\274\347\364\240<v\201\364\273\340\221\037\276\310\201\016\273\314\330\005\275\251\031\3727\344bn<s\364\362;\337\300h<0\330\311\2753W4<\'\006+>\221\0318\276\331z\n=\240\232\201=1C.\275\364Y\372=\375\251$\275\317\272\254=\026(\271\274\344\356\300\273\026Z\023\274\017\302s=\257\305\276=@\235I< (\232<\301\247i<\206uv\275\\i2<\360Cf=DJ\036\273\352L\341=FA\201\275\204XY=3;\243\275\216?~=v\211\017\273\360\220`\275]\341\235\275\313\366~\275t3>=\211\217)<\027\327p=\224\377\232=\307\312!\275W|\204<r\216\'\276\232\277R\2755\246{=\307\256\327\274\n\005\247\275\265\010\313\273.\005\351=\202\217i=\324\300l=\004\002\242=\365r\314=5g\222=\342\020e<W\323\210<D.\0209\333\362i\274#8\341=6i$=\231\213&=\306\2000\275\202\255\007\275\376\347\254\275\303Et\274\301yZ\274\010\366E=\332I_\275\223\253\303<R\241\036\275\217\025>=&\260\372<M\203Y\276k@\210\275W\316\300\274\353\267\030=\372\225E<\262[\267=c\244<=\225\315\273\273xF\262<6\030\241\275\3119\250;\263\r\223\275.\241U\275\004L\027\276y\035 <\"4j\275k\320\342\275\273Ut=_\021u=\322\270\342\273\341\2322\275\222\320\'\275T\217\021;\207[\354\275\317\355\216<\241\016#;\005+\000>\020L\234<<\254:=U$\035>0\206V<S?\244<\017E\325\274\264<\321=\3615\215< \220n\275K\321\274<\251\006j\275m*`<{\025\355<.\"b=y4W\271\321\213K;\010wi\275r\262\214\2757\037\026>\250\262\004\276\3277?=S\200j=\373\362V\275\032?\"=\214{9=\361Q\231\274b\310\223=\242\032\350\274\337n\010\275\223\177\372<\016\027\271\273\007\350T=\260\275\r>\007I\237=}\\\222\275\320/\240<\330\356L<j\245\t\276\023zf\274\261d+:5(.\272s\013\'=\232\004\r>\034\2558<a\342\230\273\315B\032\273\207\032|\275\307\356\203=\303/\214\274\301\2505\275\263\036\343\2736{\r\275\365\225\210=\321\345<=\030uS\275\251l\200<\006\224\203\274\235\234\323\275\274\330B=&W\271\274\227\026\223\273D\000\202\274\322\216\007\274w\205Q=\355[\006\275\231\217\320\275\032\305W\275\036t/=\337Q\377=\254\252\311=\277\020\177=_\303\230\273\261\223\351=\370\343\307<\212\276@=\363{\021<3\342\257<\255C#\275\201D#<\263=\263\274\"\320\025<\2749U\275(7\343=z\224?\275\320\350r\275\360\301O= \333$=\340ry=\022\260\222\275\227\177\001=\240\221l\275\225\355\010>\200\354\207=\322G3=\017\'\027=\330\244\251\275+\234\"=\224\374Z=\373\277a\275\276\236\207=#w\260=\202\254L\2750\304W\274/\356\364\274\254\350\037=.c\253\275y\034%>\246\030\233\275u\311{\275#\253\257\274\374\276\003\276\306\331\215\275\n=Z\274q\016\276=\257\370c\275\321\243\360\275\376#\264=\211\037\205<_A!=u\271e\275\236\245S<aG\243=\250\210\260<\014\245\214<\245\251\232\274IA\201\275\275\317\377<\270\335\232\275\210V\212=\354I\002=\312A\t<bo\202\274\310\361\313=\346E\217=\rp\322;\315\027\212=@\371\236\274OtW\275\311\305\264<\221\256I\275\276\301\326=\026\273\244\275\226\203\272=\017>\343\275\020\0024\275\351\247\316=\265D\022=\353\032\261\274\271\210R\275\316LC<\261.\202<W\305\013=\351w\0229\315v\t<^\030\202:\214J7\275\250\326\362<\353%\212\273p\256W\274\274~\206\274\350\271\367;\034\335\224\275\244K\224<>F\232\2726\311\234=\350\213\257<\030I(=\245\326\027>\000\220\366=zz`\275\351\326\313\275l\206\207\275t@\301\273@P \275\253\222L\274\0161\211\274nB#<CS\301=\021\013\'<e\035\267\272\233\031\307<\232\345\202<\316\013\016;\233\251\323<\230\314\036=&\325o=3\270\355\275\217\361\325<\344\361E\275\001\000\273=W\277\355\275[\n+<\201\363m;\373=9=\370Pg\274p\325\006=\342\377*=\025\006E=\027\325\237\274\263})=\'\024_=\255\341\370\273|\270\034\273\252a\341\274+\303j\275\324\307\237<\004\310\020\275\002\206\201<\267%#\275\225b\021\275\024wW;\245^\004;\267i\207<\213\002\256=\313\201\207;[\203\362\275 O\313\274\376\351\224\275\302\311\020\276\321\307X\274\241\261\240\275\273F\214\275\022i\200=HY\007=c\346(\275\346\340!\274\371\365/\274N\213!;\351\374\026\274\323\026\250\273\371\013\264<\266\233E\276\036\001\376\274\330X/\274V7\203\275I,\205\275\271\210\031=4)\241=7\376\362\275u7\237=\244\266\260<K\230B\275u\237\277\275\273r\210=m\236=\275\204\344Q\274\264}\"\275>\226\223=\2266\326\274\355e\377=Es\221\273\353\260\304\274\250\231\362\2749\276X<`\373\025\275\340\201\017\274\002Z\314\274\320^\257\275\2156\345=\377\241\037>\264\246\354\275\n\310\204=K~\346\274R\320>=\003\236-\275=E\333\274`B^<6\2635:\354\232\216=\033\354c<\316\350\252=\237<\007\274\251\323N\275\261\'<\275\242\340\210\273\223\016}=\246\312\207\274\266u\246=\005F\001>C\307\373\275\317\325\217\275\207\261\367<v\251|<\3266:=\203\322/\274o\237\357=\223C\002\273\017+a=u\322\256<]V\003\274e\300r<x\314I\274YM\216\275\214W\217=i\200\304=rv\344=\027M\363\274\233\375\026\273F\225\224\275f\247\307\273\254\316\"=\244{I=E9\242\275\260\370T=\314\256\255\274\013\331\007\275\000\275\025>\301\032\000>Y\241\214\275z\203\261=\376B\321\275\330@c;\345\232\354<\313)\205=\352\344\355\275\020\3772\276r)\251<B\316\313<\235\374d\275H\210\"<e?j\2751k!\276j\334\311\272\304\276]<\365\340\016:\311\303\301\274\243\317\213<\275h\263\275y-9;F\000@=\276EN\274\217\016\353\274\253\223\226\274\342\250m=\307G\026\276\270Rh\275\355<P=\272\232\030=\340\205?;\'\250\020\275S\264\205\275\316E\273;\025d\002<=\233\216=dVA\275\377\246Z=4|S\275\232\247t\275\231\222<=\014\006\004\275L\211x\275\366<\202\275I\273\230<\032\336\013\276\310\263\364\272B \253=v\212B=\252\315T\275/7#\275\251\361s=\332\307r=b\335\314\272\341\023\006\276\227\026\307<53\205;\340|\237\275zN\017>\276\262\307\274\261T\235\275E\260[\274\243j\255=\346\236\013>\331\261\222<+\234\250\275r\315b\275\327T\224\274>\3522\274~\024\'\275\301A\274\275\nBi=>\265P\273y\272\271<z<\240\274\327.\337\273\265\262\222=\335M%\275<\257\215=\2558\002\274\324\221\303=\330\223T\274\0271+=\'\227\336<\321\004\354\273aKm=\346\260\352;J\272G\275\211p\000\275-\2201\273\300M/\275p\013\002\276\027$\327\275\014\370\223=\271|\375\274\324@\014\274\316\340\224\275M\037\037\275\343N\310<\t\214\362\274\365E\030\2745\226\252\273j`\001=\240\245\202\274\332A\253;!\366(>\037+\026\2754\n\244\274\035\\4\275i*\377\274\353\207\204=\261O\336=\026lb\274yT\234\274m\376\272<$q}\275\207\244o=\252\0349=\360.\t=\335i\270=\350\260\270;C\341o\274\220`\213;\'\037\215\274[K5\275\243\365\022\275po\260=\307\214\010=\271H\341<\000\260\212\275\204\375\275;1\007\353=~\351\330\275:\345\210<\300\331m=$\376\003=\205\344\337<9\030\346<V\005\003\276-\202\353\275\035\337k=\360<\025\275C5\017=\237\304\r=M#k\275{E\262=\300\314E<\034\tx=\301\030\335<\232\371Q\275\325n\276\275q\370\241\2740?\242<C\014\240=\007\3749\274n\023\327\274S\023N>\201O\233=;\021\207=\312\304\320=Z\004\217\275i\265\220=\031@\226=#\263z\274\317\231\252=+\377M\273\305\310?=\246\016\327<Z9\177\274\361\037\205=\233\201\374\274h|\222\274 \321\216=\370\317!\275\335o\001=/\267+;\230\217{<\272TS<$\267\006\274q\366Q\275\034[W=(\006\225\275K\342g<\2636N<-$\200\274\230\267L\274\234\017\341=\242W%\275\035\241\033>K1E<\335\0211=\241S\355\273\245g:=mF\204\275+\336\340<\260\354\266\275\361\260l\274\230\006\315<\373\272\274<\304`\273\274\320\016\237=\227\231\335<U\226)<\367\235\303\272\\\250\274=x)c<\243\343\202\275_\004X<\371& \275CS?>\356\240\376<\313\201q\275(\343\226\275h\356\n\276\260\354_=\301\005\256=v\203\200=9\236P=\225\263\357:\353J\031=\027\013\214\275\337\035\004\275e\354\235=\325\277f<0\263\224\275\016aN\275\003\330\006=p-\366\274\235~\262\272\363V\032=\277\323`\275%\356J\275\275\010\022\276E\337\200<5\366\352\274\226xN=\313.K\2745s\377\274\364\341q\275\255\235\203\275\006\277\223=\341\264\223\275\370\307q<\252\321Z\275\001\252\261=\325W\263\275\267-k\275\345M\337\274\375O\371<\343|\227\275\235\323\273=\357h$\275\3326M=\324q\302;\222\005\263=\251\334%=\237\374@\275\026\367G\274\357\227\003=\270|\301\275\177\356\257\274\226\237\305<\310\235\326\275\375\275\354=b\021\302\271\226b\216\275\211\301\256\274\002\333\336<\322\027t<\'t\311=k\016\230\275\314\215\216=4\211\310\275\321{\221:\210\315\260=P\265\320\275]5\322\274g\223r=)\210\340=p\360\217\275\177O\263<\255\335\341\275\360\007B\273n\023\031=\276\210\332\274\252zp=\362\3350=\227\261\271=\277\201C<\303\233\'\273\3279\300:\273M\367\275<\257\372:?\356Q<\213yQ\275\345\237\227=\276\016\274=\274A\356<\261\210\230\275\340o\303\275i&*\275\205\0103\274p\307\252\275#\330\363\274\304\201\033>\306|J<\233I\r>\207@\'\275#Q\327=TR\224\275\311&\213=QA2>N\315\006<\002\307\026=>\334\370\274\302\017\340\275\266l\264\274\202\347\004=n\235\240=:aR=\200\332\240\275\010\321\202\275@\327\303<s\021]\275\330\034\254=f!B\274\331\215\311\274G>\025\275H5\315\2753\212\234\275,\024\021<(\327]\275\234h\342=\304\255\213\274\274Yz\274^\307\341\274\023\354\000\276\024\r\033\275?`\221<m\267\311;\341\213B<0\020`\275:\277\304;\254\221C\275B\274[=g \202=r\262\237=\005.\211;\022\250\033\275\226#0;,\273\216=Z\177S\274\377V\205\275\332\262p\275x\267\000\276\322\300d<\203$\323=v+\035=\272\035l\274\213\307\374\275\342\024\257<\236\231\224<\024\215\352\274\353\255\027\274\024E\354<\242\364\253=q\211\201\275\335\264\237<\036\337\r>\214\352\201\274\276\300\274<\276\320\241\275\200ph=\022N\241=\226\2429=w\202\200=_\357\316\273\002\023\"\275$\021m=Q\225\221\275\372\037\346<0Qu\273\251\225k<g\364\000=\003i\005\275\320\\\000=\235\357\206\275\013dH\275A\035\312\275\026\21549\2738\212<sq\004=\000\361\304=\217\206x=,R/\275\334\211B=r\374x\275\366D\232\274\245\205\223<D\\\302\275\2443E\274\n+`\274\n\333\317\274]\220\347\275\000\236\000\274v\240\240=\240\0311\274\2721V\275~B\0009]z\305\274F\014K=\357\021x;\275\213\324\274\215\273\256\275T\360>\275\212%\035=O\312|=\201\033p=\356\232\235=R~\335<\316B\034=\346\244_\275\220\223\267\275\367\007\230=\032\223\216\275W\313\235<R\014Q\275\377i\033=\267\224s\273\372\261\204\275\227\0338=C\271t\273\234\323=<\252\345W;K\324\246\274\236\221\231\275@\366Q\275_\354_=\024\333\333<\20392\275\2043`\275\'t\000\275\241\211\006\275\237q\n=p\025<;P\377=<\301\267$\274\273=\000\276/ND=\332\275\013>\223\274i\274\271-h\275?,\n\276`\030\234\275\3638]\275\243\032\374\275\270\341\235=\246\375\372\274\3558(=\212t.=\206\302g<5q\200\271-kZ=\325\352\016=O\035\310\274\021\006\374\275\324V\251\274\365\232\255\274\333\036Y\275\221\177+\275&\362\240=QI\203\275\323\220\323\275\306\377\017\276\206\202(\275\300\353:\274\376 \376\275\250,\347\274\302\302\203=)\'\221\275\212\365\236\274\207k\361<6\004\227\275\351\306\023\274\306\330\236\275h+\242\274\235(\002\275\277\3176=\014\333\322\274\035\206\254=Re\300\274)+\245=\212%\242=@\306\034\275\250\034\200\275G\307\251\275\004\306\030=\241\315\365\275UE\362<\350E\002=\371\201\022\275}\365\210\2750\311\221\275r;\265\275\3243\224\274\232\017\352=+\322\254=V )\275\232\377\203\2744;1\274\361\375\234\274\313\223\005\274\320\301\036\275\021\033W\275\021\334\300;T\370x;#\275I\276l\316\243:\266\262!=\242\226\272<\224\3743=Y`\243\275\357\0356\275\014\325\370\275(\234\302\272\267E]=\235\221\205\273\212n\273=+\376Q<9\343\374\275+\220\236=_\352\323<\215Dl\275W\277\367\275\200\354\205\275\026b\247<\344\357N<\265\310\003=i~\035\274\303\357\241=\'qq\275\270\266\\=\207\314\033=f\303\013\275\003{J=\345a\272\274}U\336\275\206\307\023\276\213e\331<\030\026i\275\303\227H<,\343\303<\016\324\300\2758\344[=#\006J\275\346\313\315=s\344F=\216\367\205=\206\'\230\275\370!9=\323\024\255\274\033eM\276\332\211\202=\005\261\312<\262\275{=\213c`<\217[;\273\177\001a=-0d\274@\334:\274\3636\263=\026\272G=\247\364\206\275k\020+\275&2\300\275G\335\217\275%\343\201\275!\233\254\275b8U\274/\213\202\274\033@m\275\242\204\267\274vt2\275\260;\234\274\247E\251=\n\260\203<\3522X\275\331\307$>v\017\215\274t\366Z=^\330,\2748V\255<\312YH\274\3175\220;\235\177.=\255\250P=\263\336\213\275g\251\303\275k S=\201`(=\276YC;8\320\315<\202|C=h,G=\260\337w\275\335\256%\275\234\360i\275\177\223\222=\264\366\312=\373T\034=\275\335R<\371\'\"=\210\031F\275\220Zr\275J\2045=|+\222\275N\005\377\273\302\330\304\274Qr \276\263\252\232:\346r\365\275!x~\275\002\006\227=\221o\311\274\251\275e\275\037\342\331\274\024^\261\275E\276\267\275_\246\010>\302\324\t\275\2453f\275\225\274W=\256@\307=\276\236\256\275\256\375\3719\355\227\315;[\372\215\275\323\350\251=\305\225\320<V\233\007=\300\226\020\274\221j\237\275@\227\217=\340\273\262\275\255\006\304<q\020\373\273\202\362\372\273i\300\232<:\303\324<\036\016C=\273!|\275\333\331\024=W\231\'\275\272\271b=\027\237)<G0\366=\007\242!\274u%:;*^\'=\243\370\203=\274\024\036<\005s\371=/\364\377=\303\307l\275R\215O<\250\277\230<,)\375<\242\230\243\275\350\016\213\275\223\3615\275}~\001=h\016?\275^\373\025=\236\177M\275#\306\335<\'\372\264\275\013\236i=M\010\000>\322\262\336\274\323\333\322\275\217\236\213=\010g\232\275\260\361\250\275\010\203\226\275\251\254*\275\252\336m=\341j;\273h,S\2748e\226\275\341\270\367\274<B\325\275E0\332;E\274Y\275\356\227\376\275\373\376\212\275\3034\324\274h\336K<\303J\222\275\266\222\341\274\342eS=\327\301\256=\2634\360\275\'\247\231\272\334\360\307\275\377X\206=\273\225!=\024\307\022\275%\021\234\272\355\027\367< \014E\2751\210\240\275{;u\275G\242~;e\220t\275\351\233Z\275O\235\273\275\007~\005\275\214\342\224<\330\003\273<\375\274\036=\t)\322\274\0228#\274\231Y-\275\216a\251\274l\377\211\275b\374\257\275\277\223\231=f5%\273*\226$\275\240a\243=lD\211\272\326\322\241\272\344\n\274\273l\323\223\275o\201\337\273\335\017\232\271\264\350\367:@\371\035>\343DC:\242\250\230\275*\362\241\273\302l%\276\307\323P\275\004\360\330\274\322\005g<8\360\362<G3k\275\236\2001\274\030\225\213\275\'<\263\275\314\214\352=\214\206\210\275E\320\006\274\236d\241=f\244\221\275\253\316z=\222\320!\275\311\336H=,\032\271=;\0017=\251\253\005<J\2764\275H\313\265\275\201\326\221\275o\373\232\275\246V\314\275C\311\353\275\003\033\210\275UX\337\273,N9<^m\315\274GI:\275\344\304y=9\014n\273\021_]<\325\237\215;\375\256\000<1\217L;\007\300\014=O \341:.\320|=A\310p=)\204\332\274-\024\277=\177l\327<\326\245 =\177.\263\275\333F\244\275Z\346\342\275Q`\370<\327^\221=O&g=\024^\004\275\261\2340\275\360\220Z\273\353T\005=\025\300M\275\345m\216=\373\264\222<d\234\307=\023\352\357\275\231X\323<8\335\243\275\231)m\275\366\307\342<\364\tN=\344\001\206=A\221:=\317j\313\275\301\302\200=\355\215K=\302\217I<\204\276\303;\210\003\200=I{\354\274\205\031\n;\306#\010\275\263\337\'<\342\331\365=\332%\023\276\004\236\207=e9\017\274\343\376\303\272\361\236\017<u\260i=F\001]\275&\003\302<3\377\354\274=\341\255=\325v\207\274\302M\240\275?\001\033\274\'=\035=\241\332\271\272\'\003\204\275]\277\271\275\343\225\202=47\261\274\271\273\233;`\264i=\234.T\275\342\243h=CU\331\275\260\277\312=\335\010\231\275\305y\333\274~\247\200=\206\224\007\275 >\321<,\330\276\275p\025?=\332\342\210=L\333.\275=\342.\273\303$u=\255\021\350\274\264%\345=0\315\037\275\264\244\033\275\247\367Z\275s\310\267\275m\316\253=`#t=\274\014\035=\226B\215=Yy\252\275n\361\331\275\247 \006<\351\337\201<\242$A=`\tZ\275X\225\021=\301!\255\275\253z\271\275\234NC=\227\366J\275@\035\246<\033\307\203=\020\351\371<\026\255\013=\264\324(=\267\267s\275\0227\300=0\343\205\274$^B\274\221\244\207\274\001\366\216\274\333x\"\274y\267\003\275<\271\212=\274\030\332\274\267g\241=$\256\300=,\361\275<\211\001\235\275\013\224.\275(eP=\030\312\032>\235\023)\275\341Q\267=\202\005D\275\364\340C:?\210\035\276\234\030l\275\237fe<\234\244\306<p8W\275H\310q;\262I\256=*.6\276uQ\332<\250\273\t>?S\004\275\014\311o<\237\366v<\000\206;\275Y:n\275E\246:\276\343\274\225\2751Y\202\275\331\371o\274\3747M=\374^)=\236\327T<\251\331s\275u\251\013\276\307\355\242\274\214z\333\274\022\001V=\372\325\215=\237\001]=&mw<9\343\302\275(\302o=8\240p=x\2331\274<d =\007\223R\275\327\363$\271/\2217\275\032\271\226\274\266\360%\274\263\222\272=\310\226}=\246f\317\275>\201\021\275H\021\r\275*\341\216\275\276\301\304<# \013\275\026\364\322<J\271?\275\010l\t\275\272\026\n\274@\270\267\275\307\201u<\215j\220=\372m\222;\373w\210=D\361\316=n\025;;\230\027m=\'\323\221<\200v\004=*\3125>M\034\334<uA\235\275\261>\372\273\2606\255\274\030o<=dG0=\341\034\223\271\302\200\307\275\033a\251\275\370\343\202<M\310u\274\336A\204\274\363Cz\274\237\276\364=7\262\034=e\255\317=\332\306\237=P0\215=L\037\300\2735\204\005\275bC\201\274bPw=\310]D\274\017\364\355\275R\000\254=V\261\213\274c\'\315<\312\377\246<+O\227\274\007\2235\275\254Xf8[\253#\274,M\225\275\324 \275=6\350\210=\023\207\327\273\203\020y=[\217\367<\315T\003\275\206\346%\274\024h\254\2744\201\317=\321Q\211\274E\311a=\331w\177=ig\237\275)\017\245<\033=}=)\252\273\274\377H \275\nF\013>\332\265\033\276}\301?<\201~\261\275\201f\003\275\347\310\017>\177\254\312\275?6\030\275\034\232b=9w\324\273\235T\212\275\203c\230\275\000\023)\275\026\363\251\273\277I\n\276~S~:L7\016\275\204J\333<\255\300\346\274V\334\213\274\215\001\304\274\335\200!<K\336\311\273\351\355\007=A\367h=d\371\275\272\206\373\010;\347\361\220=\202\211w=\303\250\350\274\342\301\265\274QG\224=\333\227\024=\t\214\343=\337n\310<\036\223)<\273d\000>,\307!\274\000\360\304=h\207\035\275\364\002)=\235\215\213\2742\372\027\275,\224\002\275\".~=,\262\334\274\212\"M=\036\262\005=\224\017\303=W\005V<|\313\313=7\013\201=dA\013\275\241\365\222\275\240\033\002=\023a\275\274K\004V=s;\236=\246\021\311\275\334\\\021=,0o=\251v\213\274\264\320c\275\241;b=\206\203\270=q\324>>\264a\200=(\270\243=\256z\330\273wc^=\377\306\250<\257\237\312\275\250\304\232<\032\002\244\273\331J\310<\341ZT=\231\025\324\2745\2404<\004\315\234\274XT\r\276\177v\204\275+=#\275\371$\t<\254\302\306=\213\235\252\275\341\210t<\232N\n=\335\311F=u\310\321\273_\334\"=\267\273\220\274\0355\222=w2\303=\262u8=3\370\235<V\214\205<CRC\275\027\357\020<\371\026s\274m\344\307=\221\320\341=[ \200=\273&\373<\303fp;\252\215H>~f\327\274j\254\221\275\3777e=P\3410\276=n\222=U\315\271<H\304\252=*\211\027<\203cx\274\000O%=,\334\222=M!\007=]\232\242:Y\242C=\333:)\274\020\340\020\276\213\205)=\241\347H\274H\205\350\273\001\245\315\274\333\316u\275X\003\016\275\375\213\372\273\036\201U\273\002\335v\275?\007\327=\274+\356<\242K\337<\263a\260\275\213\267j\275}\374\006<\253>)=\375\014e<X\002\312\275\304t\214=\224#\205=!C{\274Go\344\274\026\316\006=\024\275\200<\300\253\221\275Z\343\006<$\370Z=-\211\204=\346\341\010\275\256\377\373=D\204\373\274\325\360\303\275\220\341\315=\366\\\314;\360\227\375\275\302\233\010=\316q\356=\314\363\354;c\360H=\250\363\366=*(!\275p\365q=\357V\016<\364,\334;\260hU=x4\247;.\343\245\2749\205\006=\251X\275\274\032N\250=\207\215\372<e\2445\274\347\325\n;`\274\017=\351\006\212\274|\202B=\3543\021=\346\370?\275\007\333)\276[\277\325=P\337\230\275w\272\353\274\350\252+=\203\362\031=z\314\262\274\373^G\276\363U!\275\206t\203=d\225\363\272\335\247\213=`\240!=\275\014J\274\261\021\312\274#.\233;z\367\307\274\320!K\275h5\370=\304f=;\365o8<?q\026\275? \201\274\361\247\372=z\211\000\275\342\245;=\227R\203<A\364/\275\226\374t\274\357\230\214\273v\257\240=\337\031\013<|_$\275z\021y=\257\301\006=\263|\022\276\333\276a<\326\342\310<4\003\356=\265\366\312\274\272\222\205\274\367C@\275\245\3550<3\234j\275\033\253<\275^h\377<\200o\301=\301\354;\275CH\226\273\000z\255\275\264\275\241\274 EI\276#\020\315\275\264x\336<\204\375\372<\010\216\005\275T\3647\274m\351>\2756 \327=\336-\023\275\342\247L=\005\n\277=?\006\020\274\017\323==\207]\202\275)\372@\275%<\202\275\311\030\331\273\352ag\272lo\251=\336I\345\275\007|e=,\323\247\275K\331V\274(\342.=6\343\315\274\r=\t<\370\346e\274)\315\313<4}V\275\227\002\214\274\004\0063=\003j\202=\363\227\373\274\307\311\334<\260\204\220\275X\300\246=f\374j=}\315f=\255\217d\275\0137H=\343H\'=\232\324S\275ZW!\275\221\266\266=\221\361c\275<`\030=\312\306K=\024\340[\275\204o\217;p\267q=R#o\274pO\221<\214\334X=\245$\002\275m\336j\275\017\210(\275B\220Q<\207b\306\274\033\234\313\274\322\032\260\275\003\252\372<d\354u\275\025\312@=n(\016>\002\373\030\275/\266H<I\312S<\347}\260<\3157\222\275Z(j=\300\356\237\275\366|n=X\300\310<\246\023K<\311\306\227\274\271\257\357<?\212\217\275\351\276\243=F\237+\275\331CV=\027 ]\275\024\321\220\275\275d\313\275\224o*9DA\340=\'\322\272\274\316\"r=7D\223=\371b\222=\200\027\376=\333\327N=\005\'\243\274\206\002\350\274sq\250\275(\007m<\006\322\274<1JE\275\335C\307\2744\253Q\275f\340\001=\214\331\003>\251\031 \274[\021\240\275-\235\233;Rf\247\275\210Z\022\276\302\317)=&\370\226<\027\272==\204\365\231\275\335\036(;\375\221\360\275\330\232\276<V\226!=\240\251\220=|\214e=\322\024\027\273\022\010\362\272zO\344\274$\305V\275\000Au=>1\005>\006\325\306=}\243f\273\256\324\255=\332\257\266\275C\362\177=\003%\330<\035\265\200=o\374b\275Ft\212=\322\220\203\2758*\257\273\236C8:^Q\205=\tX\205\274\347.\206\275\314\263\314\275Fp\024\276B8?=\010{j\275\211T\030:\3150l=\256\347}<\272p-=\216p\002=aZ0\274/\301\332\275\226\264Q=\306\r\364<\362M\202\275\037f\271\271%`L\274H\352\201\275\301\331\027;\263l\224\274\372@\014=\216\352\243\272)\027 \274?\352~<\221\214\035>\314\324\242=ic\266\274\033*\010\274\353\252\230\275|@\243\2750\010\343\274\313\365\210\274\272\276\307\274A\027\332=\017.|=\002\375\337\275\320\253Z\275H\333\270\275,\314j=\250\0109\276\332\222\223=\336g\261\275@F;\275\010_\375<d\266\253=~\334g\273]\0106=mD\363<\346\'\373\274Y>\216<\273w\256\275\274pw<\242\024\361=\026\277\275=?\3333=o\271\\=\236\036\242\274L\364w\275\3534}\275\036\0228=2\2035=l\366\216\275\320t\372<\214\316\232;\2611\336=\222*\004\275\250T\240<>,k\275\004R\272<\376\300\022=b\276O=\337L\013=\216\017\273<DS`<^/\361=\352>w;\030\222\373\275\237\014\350<?\t\216\274\3522\007=\352^-=|}\222\275\217\\]=?\302\200;ad\206\275\n\206\323=\317\365i=\214\320\340=+s\335:O%Y\2757\003*\275\246r\266\275\355\275\026=V+O\273SUN\275\347\204\313<5\022\026\276\014\313\022=\351\2140=\206\332\014\276\204h\203=\302\377\252;\335\305/\275m\010N=\264\247\356<r\334.<9\345\346\275\302\024\220:\022\203\025=\031\177\316\274 \207\221<\035\374\235\274\357N\227\275\005#\205=\341d\243\275\223\204\325\274:\347-\276Y\3433\275\001\212\222=\336z\256=\234\304\024>yd-=\331D\025=q\345\213=\264\221\374=\030\354\021<\025\341\362;$?-=K\n/\275\264\307v\275(\367<\274\303|^\275S\2600\2757N\355\274ry\313<\364\244\360\275\372\267\241\274B\364\215\275\036\032\220\275\3171\'=\260D\222=\260Xe=\274\376\002\275\366\311\271=\255\364v=\352\364\350\274\036\322\246<B\321\3449\273w\254=\335\340\336\274Sa\265=\250i \275\301\032\254=C-w\274\253\353E=\032e\361\274\024>~=/\362\315\274RF\336\2752\010\355\2757\306\002=\335%\365;=\014\354\275\342\244\002= \271M<\204t\236=\322i[<Y\025\031\276\262\001\261=@B\343\273u\372\240\275\217\272\017=\204\302H\275E\376\377\274\354\220\224<\226\311\210=\230`\340\2740K3=\345\353\024\275\307\364\264\275\252\362\223<\273C\023\275\344\027O<\213\223\362\273\314\351\343<\267\300K;N!\372\274\nYO\275\261\314\034=\345B\332\274\240\307*<\365\351\260\275UA\023>2\032\331\274D\177\034\276\264\013t\274\323k\007\272cq[\275\025\203\222<\244U-=\027\311\342\274\264\225q\275\263,\236\275\033\275L\2759\210\014=c\024\335\274x\312b\274\244\345\347\275D\243\223<\031j\255=\210l\224=\264\201\257\2752\337F<V\311J\274\262j\253\274\343\277\221\275=\014\243;\236\007L\275\312Z\216=]\300B=\037\374a\274B05\276\2756\'<\351\300z=\036zQ\275\305\000\031=b=\347;\266\205S=\224\345\267\275\335+\021\272\202\237\305<\367\035\027=(\214\025\275[\223!\275a\372\034\275yv\244\274\t]\214<\226z\265=\234\322i=yp\251:\312v\253=\021gg<\024*\204\274O\214\030\275\372\341\236=\024\351\016<\211\342\234=\005\361\236=\207H\311=4u\223=\262\326\001\275\030\260\315\274\206\033\272<;l\'\276.Qg\273\370\3750\275\220\205d=]\032\213=\251,\025>\256\2273=\361\020\033\274\0003a<rQ\374=\356*\215\275r\177k=`\217\202\275<\253O\275h\266F<S0\360\271 \254{\2751\316\332<8/\035\275,\376+\276\0320\023\275y}\031>\231\n\370\272\014\357\204\274\233\251\301<\316l\273=S\333#\275ge\026\275\0327)\271\212\2057=Zi\325\275\267@\203<\025\"\210=3m\204;|\305\350\273@\n;\275>\364\306\275\221\325w=\005\323\013\276\271\311\034=\203\221\227\274w\277\"\275\203\0021\275\211\013\000:\256\344T=\211\007\032\275\376\352\221\273h\346\221<q\356:\275\324;\265\275u\263\324;U\306\201=}\r\200\2746C#<Ph\006=\356|\362\274\223\244)\275\253b/<`\000\005=\214\362\200<\t\225\310<6\327#\276\274\002\321:\272\365\374=\377\365\376\273\357]_=\230\245\251<p\271\r\274\243C\301<)\212`\275\226\311;=^\240\321\274\334\317\220=\350\302$>D\023\263\274\220\345m\275L3\267=\3745\314<\340nO\275Te\013>m8\007>\221:\255<0Q\305<\216\367\277\275~\301P\273\202=#=\247\345\225<\250\350G\274\274$\260;\317n\207=\342\032\005>JCj\275p2g=bX\376\272\307\367\335\273=u\001\273\354\227\221\275\240!\333=\017\230\203=\301l\225<\313\224V=)0a=\211\202\375;,w\001\276\344w[\274#\346)>\314x2>\201L\366\274\235d\324=\006\237t<\211\023o\275\265&\214\275\016\026p<\023z\330=\020\332\325\274\373\t\314;\276\222\221\275\241\343\237=\371F\216=\211\316\322<\325\325v\275\322\252\322\273!7/\275\374b\271\273\251\320\344\274\302X\332\274\314LS=mL\304\275!\267>=K\215o<+r\234\275\021j\337\274\360\377%=\233\266\365\275 \004\310\275Q\306z\275_\221n=\0222R\274\251\026f\275\300k\353\274\230\222q=\001|\347<MT\256<\357\021\240=\375\254\261\272\031\372\263\274\274b\306\274\314\035s<\313}\016\275\307.\275\275&\3657=HD\234\274\010\234T\275\005\217\017\276\325X\036\273!\214\344\274B\031\006>\005\036\250\273\240@\310=\323F\263\275<\307\027\275\037p\005>@\340\312\274\201\033>\275=\221\236\273\364\001-=h\220\244=\252[\004=A\260E=\352\215i=\376\366\333<5v\270<\356=\261\274\316\266\273\275\311\324\373<\022\333\257\274\300w\006=\3445\215<_i\206\2756$\010\275Y\373+\275\205\210\253=*\335D\275\266\234\036\275\344.D<\370\262H\2752i\361\274\312\242\210\274\216\0374\275\252\256\t>\311\014,=\224\233\233\275\317\036\277\275i[\003=\r+\240\275\220\231\261<\335\023\212\275\303\210R<\257P\236\273\232\377\273<U\203\310<\\\007\311\274\022\260\301\275\205\202\302=?)\344\274\274\334\n=by\373<\337{\242=\310$\240\270\027\307\323\275~g\032\275o\177*<\031\312I;\244$X\274e\346\216\273\3456\260\274\016\375O<B\367\201\273v\021\003\276Xa\002\276\005\001\352\274\320\017\265<\235\216\223<\024<\212\274L\224\221<-\253\215\275\330\245J<\322X\261=\002*\334<\300\335\252\275;W\031>\370=z\275w\320\233=\307J\327\274\177\014\017=[b@=\010\222\323\275\336B\234\275c\310k<\304\317\374\275\rHw\275\333\301\245=\213\026F\275\354\326\t<\3760\236<t\314\354=~\340\244\275\001\361V=\302-E<\312\262:\273\353\340\371\275G\021\321\275\001\232\035<\316\341\316<\020\263\223;\231\007\326\275\374\3213\273\203\230\204<X\025\271\274T \342\274\3275\321\275\321\217Y=]\312\254\273\343\332\276<\345\275m\2748\204\245=\025\240W<\010ck\274\017\247\010\276\374.\221\274\215\323\022\275\276\370\005\276\257. =@\3705\2755<b\275h@\276\274\016\330/\275C\026a\274\322\26079t\375O<\005\375\027\274\002$\203<\215\373\252\275\302G\214\274\3378\265\274\311#w\2746\275\343\274\0076\304\273\023G+\274\353\005e\275\021~[=\211\244\237=\260\345\307\274\316\2109=-\335\360\275\370\023|=vT\r\276!\204b\275\3672\027=\262?.\275\2235\005<\344k\225=\223\246\274=\363N\234=\314\007\226=\325\363e\275[\177&\273\251+\020=\215j\026\2764o\007>^\230c\275\\\311\267\271\224j7<\315\307\321\275W\210\353<\342o3=\004j\200\273\221\265>\273B\210\317=\\\340\026\275\372\206O\275;\036\002\276(\253\335\274\0233\277\275\036X\031:2\373\236<\217/!\275\274\370G\2759`\324:\037\275\017=\026\312\237=\037Mh\274\313B\214=\350\204\013>\203\212\276\274\270\n\303\274\027h\305\274B\035\335\274\003__<a\331\250=\275\275P=\021\027\217\274\347\0309<\333\346\023\272\370\270\210\275\326%\204\272k\223\024=\312\243\231\275J\026\364<\333\017\352\274md0\276x\256\013\2759B\005=\324\204\304=\276/\257<\200(\016\275\\u\362\274G _=\245\361\n=\376g\215=+\023\211\275\265\024X\275\220\237\203<\332\311\000\272L[\234=e\371\315\275\366\251\017=\262F\331<\230S@\275\t\300\212<\215\312U\275\255\374\245\275\214\003=\275\236W\357\275\225\356\306\275w\2642:\252\260t\275\025A\\=\370~e\274\027Q\226<\215\261\032\275c\300\252;\323\274\016\276:\222\277<\337=\361\275\305k\316\275-tz\275\371\017\221\272>I\221=0\001N\275\203\256\002<{\002\353\275\023\370\347;\305N\314\275\214\324\017<\306\010\213\273\332\3321<E\0165\273.\030\323\273)\254\271=\326y\005\2766\275\005>\252k\257<\016u\336;8\215I\274~\220\357\275\320_\246\275J\023\303\275\261\211\365<\203\\\264\272vy\263<\177Z\317<\265\374\302<\225\017\241:\2246\254\274J=\245\274a\345\335<\203<\220\275\n\207\327\274\241\314x\275\032\374U\275\017\250f<\t\220\311\275\366=\376\275\216\005#=>\001\277\275\007*1>\311\336[<\343\033`\274\023\267(\275(EM\275\333\323\026=R\227\362<\353k\233=4d\253=\376\227\203\274m\355\010=J\325\203\275o\275\203=up\352\273U\232\025=\004\177{\275Z*\214\274=!-\273\'\246\224=\024\360Y=4\010\001<\307p\315<\260\2457=H\251\313\274\362\312\304<\352\202\335=d\322\260\275v\316^\275\310\332\224=\307\327J=3\333\250\275\372\207j<\2539-\275\277\342\206\275\031\032\361\273\265\354\314<\232\212\236<jZ\317\275\233\232T\275p\\\006>\340\0214=f\263\"\274\204\205<\275\340\222\236\274\361\206\264<A\230\356\275y0\022=}\215\322\275\253K7\273\252\251>\276\"L\203=\017\3651\275\024s\306=\365\203\232;\370\r\260<\r^\327=^\307\310<\336\222\250\275p\314U<\340\346\314<\337e~=sXD;\223\372\n\275\232\337C:\212\220\025\273x\252\026=j]\204\275Go\256\272\356\3256\275\374s\036\273\021v<\275\013\252\260=k\212\017\276\377\013K=O_j=\224\220\315=#\362%=\222\020\207\275K\225\010\276\253\230\024=\367\n\225\275\204\337>=\270\310\266=\032\032;=\022y\313\273\005M.=\310.\352;\271\3230=x}l\275n\010\205=\013~\367=a\307\023\275\000x\207\274\\\036\017\275\357\005V=<\014\276\275\257n\024\274Q\304\321\274\032\203\305\275\372\224\244\275\207\025\331=\201\332\212=&Wn=\264\252f<\023\247\213\275A-\300=\273\215\235\275\314\245\263\274_\342B=\371gU\275+W\206\273\250\227\353\274l^\005>7E\306\274\207:\361\274@\276\364\275\345\3374\275\375\351E\275\273\203\006\274$\367\325;\247&\234=\227\0058\275c\221\010<(\265\362\274\2708\337\2733\344\311<\300*}=NF9\274ak\221<\202\216\334\273b{\014=\230\201==B\273T;\342&\001=$;\037\274\351\206\252\275\005D$\275*\"\271=\017U\317=\353Q\003>\241\021<=\023L\312\275\231 \007>\024\2300=\212\201\003=F\371H=\300\364\263=0\\\322<q\207\215;\020x\330\275\222\205Y<n\205P=\224z\215\275\031h\235=\224\222\244=\334\326\302\274B\026\237<V\227\257\273;\036\247\274\345\245\376\273|\004\005\276B\211(\273\225\225 <\255\372B\275\251/\200\275\313\215\031=R\272a=\312s\017\275\016\372\315=4d~=\255#p\275\375\262\260\274,o\r\276\337|?=\363Xc>Y\356\223=j\314\312;ZN\036<#\007\210<Y\260\277\275j\023\362<\356\252\257=d\371\273=\273\034\234=\331Z\257=\347\366\253<\3537\330\275\322-y=\301\220\211=e\365\276=O\235Z=\337$i\275\315&\233=Ec\251=\341l\273\275\237|\033\274\253\0311\275\271\340\225=[\221N<\253\345\200;\307\307\035\274\023\201\254;P\022{\274ur\237=\230\355M<{\023A\275\307\360\271\274v$\312=\274\003#\275\2576\201=U\372C=\265j\213:ll\010\275\220},=\017*\302<1\311\373=|\253Q\275?\270\336\273(]=={\347B<6\357A=\226\212\010;\2570E\2740N\263\272\331B\224<\217\216o<\000\241\337=P\354\026=\307\204\210\274\245n&>c\271\272=\0078\252<[8\237=%\224\200;\203\310\223\275\276\264\346<\251\344\273<\263\251\214;\022\254\376\274\267\251p=Fe\342<\017\031\216\275\014\256\270\275\245R\267\2730\330\221\275\324pX=\322VB\275\013\th=\232\217]\275\343\004u=y\005Q=OOc\275:\034\211\275E\031\340\274i\360\251=\201\330\000\275\347\020q<\314\312\235\275i\037\241=I(\010=^\2260\275\204\0257\276\312\335\204=\215\311M\275\360D\030\275#1\250=\364\003>\275\207t\"\275\234:\017>S$\020>0\210\264<\017j\201\273X\215\004\275\354\245~\275\362D\232=n\345,=-\226$=\246\031\010\275\231\277Q<;:D<\201J\377<.Y\227\275\344D\245\275\035\255b=\204\360z=\350l\201<5\274>\275\r7>=Rd\030\276\365\251\372\275\277~5\2754\274\202<\'\354\226<+\2238\274\005\371\246=\201q\260=\270\240\245=tz*=<\033\225=m\222\325\275\325\361\214\275\301\203\246=\033\335\235\275\304x\223\275z\377\023\275\3172\010\274\234\016\202\274\031\270O\275x\230\206=\335=\267\275\224\024=\27525\215\275\240\262\310\274\244\036S\275.\331\216=Mp\026=\333\313,\275\305\274E\273I\373\005=\334\322\370\274?\203\371\274\226N\231\274\211W\350\274\032/\304\273~\206A\275\345\330\001\275\253\227\224\275\007~\017=\3234\010\2751\330\034\275I&s=*\347\242\274\t\235$\275a\304\257\275\027\262\344\275H%\243\274\201d-\274\207\221,=?\001\020=\365>\305<\211n\364\274\313\332\356\274\377<\'\274\006\3565\275\277\360\'=\364\"%\275\273\r^\275\212\312C=\t\200z\275e0l=K\332\022\2767v\232\2733\030&\275Tx\t\274}i\003<I4\330\274D\366\236\275\325\240\370=\335*t=Z\325b<+\014\365=\240\320G\275\2469\020\275\355\232\204<\245n\323\274l\203\310=\r\334\245=%R\250=\035$\357<\371\007H=\303Yy=\004/\210=\302c\231<sf\354<\272w\036\275\016\274\267\274\314w\244\274i\001\237=\335fS<\245\321\026\275\335\336\031\274\255\263\307\275\205\337o\275\337Ml\275Uo~=b/\n\274O\021\021\274\357\254I\275C\303k=JL\367<K\252\265=P5\364\275\247<\020\274\332\027b\275\333\'@\275\275\031\247;/\035\t=\267\236\273=\016\021\367\273Ri\025\275\375\007\230\275\021\020\026\275\230\220\374=\027\212\263\274\356\320H\275\245\010N=\316\357\177\272\265Oh=Pa\374\275\335h@\274\246\002\274<\354n\274=\032\276\337<y\273\322=\030\251\374\274\222`\034\276v\212\204<\247!\217=e\262\244\274\2778\331\274\037a\354\275F!\300<\360w\306;\323\321\033\275\345\241X=\205+\214\275\362\317\375\273<\215\215\274\0277\224\274\343q{\275m\201t=\355\007\372\275\254\0000=zS=\274\331$\323:\201E\356<\331\335\230\2742?\277\274\016H\266<\365\027\230=9\014\205\274\314\222`<\210\223\210=\220\tB=\375\321[\275\211\302.\275q\317\016>=\275\240\275\262\027\252=\310\n\024<\327\260\325\275\243\027\306<\345\016\003\275\375\237\033\275\313\005\022\275)6\202\275e\361g\275\223X\247=h#\221=\241\332\367;\326nI=m\207\266\273<\010D\275\226t\006<\241\310\300\275\372\013\261\274\366\376\371<\006\0007\276f\005\223\275\226_\302=\001\361\216=(\301\252<\177\356d\275S,\247\274\265\340\265\275\221}V<\022\262\016=\316(\"\274jW{\273\254\327\233=\261R\021\276L\001D=\275:\320=\'\311\323=\310TL=\212\310\211\275C\2370<\321\315\307\275O\"\276<%\3609\275\373\237\035=\246I\230\274\375I\007\276\010\376>\275%~\254\275\017y\232\275\201\303U;\3467h=Z\264\224\274\007\300\3269\336\3431\275\256\300\355=\030|k<\365\001\002<\263A\243=RF}\275\230\017h=\324u!\275\032c\003>t\204\236\275\341\202|<\356\t\254\274\003\214]=\205\'\223\274\312O==\202:\020\275\250\272\003\274\021\022\203;\0234z\275;\267\224=\236\225Y\274\240!i\275_\211\371<\273jF<G\335Y\275\347X\276=E\343$\276\241p`\275\3266\240=\3575l\274\375l\241=\320v\213=`\353_\275\021\t-<\024\005g\274\261\223\006\275\221\2564<\025kt<\244\031\232\274\377\271L\275\2676\313=L\362\225\275\350-\003\2765\214\322\275L/\353<\237\242\022=\201AA\273\245\036\021>\207H.=\302J\034<\217[\207=#o\362;\346\250\346\2750\306\261=P\231\267\274\346\320\227\2750\333\234=\345#\037\275O\251\234\274\276\321\362\274\'\024\305\274nRX\2738q\\\275W!X<Z\260\235\2734\033\207=\200c\236<<)\024\275\241q\311=\204\377\244=\363J\244\275B\013X=e<9\275\213A\223\274_Ty\275\330\214)>\220\340\345<\311\314\244<\246\300\020\2758\200\020\273\345Qm=9{,>\242:S\275B\270\347\274\250\323\202=\304}2=\200F\374<\220\317\n>\330@\253\275;t\001=d\251\223\275\352\242\275\275mz\t\275-Mz\274\327\264\017:@\t\232<5\017\314\274d(,\274\220\342\342\274\202R\304<\003L\247=\234r\274:P\242\200=\337_\254\274\237\226*<\337\017t\275_\017\334:\025\035,\275\230~+\274\360\214\213=G{\214=\233/\213\273\362\034\036;\031\361><\363\235\014:}r\274=\346r\321;}IR\275>\364<<\363|\345\274\215\021\016>nG\376\275(\216\251=\317\nI\275\277\036t\275\231O\032\274\370\217:\275e(\036<\274\032\327;\342\342-\275\321e\006=\212\333\344\275\351\273\022\275T\217\356\274\215u\300=1\276\227;gWa\275\336\325\000\275\237mg=\262\310\225\273\265]\363\274\257\311\323\275B\300U\275\340\366\225=\025\3367\275\210F\016<\016\363\376=\334\355f\274A\300\327<\361\262\205=\304\022\017\275\367td;\002\231M=d\320\214\275e\013\251\275=\356\347\274\222\242\246=\013:\215\274\210X\031<I\226\225=/\232\224=\024s\217\274\0163-\2765%i\275\tG\321:p\227\335\273c\217\r=\030\360\314=h\231\323<\227^\035=\263\205\025\275\262\210\273;Q\216\"\275\333\262\272\275\206\224\266<\215\232\341\273\332\302\335\274u/\201<\263\365\352;K\021P=W8\335<\327\326\307<\324J\225<\232\205}<\361\273|\275\237}d<$*\262\275\245\016\315=\306\341\337\275\226\374\r=\261\2135\275\005\2152\275\374Z\201\275\206@1\275\025\033\231\274\224\177\354<\240W\233=4\210\010\276\2649\002=\022+\317<\223:r<S\215s\275\373\177^=\037?\210\275\007\005\201\275G\312\255\275\350\334m=\233\347\236=\236\351\321\274\010\202\312<\330u\360<\021\250\314=\371\210\336;\232\022\367<\373\010F</\334\335<\'\373\026\276j\213\342=\'\017\324:\347Z\221=o\235B=\375L\307\274g\263\242\274\211D\321\273\212D\373\274O\210\010=\354\317\365\274\3039?\274\236AZ=\253\016h\275\226\230\270\274\315\345\270<\316\267V\275\357|\306\273\270\267\274<\334\023\177\275\214b\234\275\024\013X=/\343\270\275\226Y\031>\352\244|=@\212\254=\322\327\277=*\301w;\246\241\217\275\003\002\253=ew\001\275\237h-=xD\261\275\326\302\"\275B\020\224=\264I\226\275p\333\253\274\326r\351\273\374\235\003>\323\037\235=\335T\361=\203\336\244=\305\354\000\273\355\233D=\272\226\204\275;\'r\274\3213S\274U\004\316\273\312|b\275\001\327v\275\277\310\204<`8\017=\025[\003\275\230\300\317=\367\346v=\021\227\253\273\256Xi\275#\240\357\275\243\335#=2\027\035=h\357\355\275\262\356\001\276q\023\221<\210S\013\274\320\024\214\2759q\017>\304\215\246\274\375\301L\275\244\215\216\274\013\264R=\212\252s;%S\253<\234h)\274U\200\344=\206\364f\274M\023\002\274\rY\254;P\222\317=\027\230N<\032\rE\274\350\262\212\2752\240v<h\217\035<FV[\274\230*T=@\317\205\275a\204\263=\360\\k=Lz\214:\206\207\232\274\361N\237=\262\237\332\275\250\262*=\204\037\037>\335\034\243=\243\026\301<\354jf\275\377:\317=\256\305\347<\245&b=\246\326\325\274T\337\247=\"w\002=l\355\253\2753_\006\275z\332~=\004]_>\032\335\350<\347\014\374=]\2172\275\204\317\004\275}YS\275\340\276\352\275\034\301{<+2N<\210zk<Y\004\026\275\365u\350\275\325H_\275\356\020\363<\267\266\210=\212=j=\344\267\n=A\236K=\361K3\275\266#\342\274\345\334Y\274\235\312\234\275\342\034x={\250M\275N;\202=\214\305\203=\322\266\023\273Dc(\275T[\261\274\231\342\227\275\247\351O\276q\375\254<\3115\022\275<\341\264<%.\244=\036\241X\275$T\200\275e\377\340<\203ZL<qr=\275\311\264o\275F\013\206\273]\327\223\275\354\323\236;\267\327\206\275K2T<\033b\347;\266\206\010\275\034\335\216=*z\006\275J\306\236\275\221<\351\273+\270h=\224\352\224\275\373\205L=z\177\347<[\211\256\2751q\371<Y\355\223\274\317\372\317=\303\230\306=\177\014c=\251\035\273=\320%P\274?\314C\274\022b\372<!B?\275\236\025M\275s\2434\273\212\004\332<\370!\027\274zU\223\2748\333\237\275r\312\031\273\322\240\270<1#1=\236\016\014>|-\366\274\271)\230\275\246}v\275\371\335\362;\360\212-\274\357\333\013\275\247o\305;\303\273\035\2751\213\236=\312\031\220<\307J~<\"S6\275\217\366\275\275\254\326?<\215,]<9$\233\275\312\316\232\274&\362_\275\340\353\215<,\377\263<\006\225\222<X/\305<\347G\261\275\367\254\024\275\250\207#;\312+\231\275J\374\362\274z\277\236\275\017\276J=\266\250;\275\330\025\236\275N)->\031m;=C\313\270=\271\302\223:\323\016\225\275\343\"\177\275\327\322\343=\256$\226=\234\357=\273\n\"\253=Uj\216\275\226T\212\275F\200c=\357S<\275B>\272\275/\260\016;\205\323\234\2751\211\206\275|D\244=&\247\204\274\260\031\277\274\372\356\302=O\252(\275\340J\236=\324\025+\274\356\267_\275D[\201\275\356\362\245\274i\025?=%\300b\2759\027w<\257\201\374;\177\345=\274\373!\205<\360l\020\276\376\000\007>\022\2650\274\211=\267\274\357E\214\274<\371\222\274\020\004\267=;\3540>p-m\274\346\"\260\274\207\026\310;8a\307\274\216r\006= \217\335\274:\272\210\275\332\244\217<-\221c\274\330\301\325\274\214\352\236\274\004\334w\275\316\252\256\273z\246\202=r\356P=\342\345\">\265\217\'>\020i\313=*07\275\355\232\351\274\357,\240\275N}\303=\200\t\022=\311\216\213\274ex\347=\003\333\236\273d\202c\275c\301\244\274\304a\003>\212,,\275/\254\206\272\255\204\350<Y^Z;\352H\377<\242D\351<\271\021\030\275\352\246\263\275\023\231\002\273S\020\003\275\034\2465;\347\366}=\235\234\n=\005\344-\275\224\351\304\274\371&\200\275\222\224\252<bxD=\346\222\334\274/&\212\275\272\370\223=\206\005l<<\326\006>\375M\240=#\335\022\275\2728\366\274\0376\311\275\"\\\371={\240\213\274T\205W=p\001l<45\201=\270\251\2609\275\355|\275M\304\344=\335\205\211=\013\351\216\275gK2\275\352\240\342=IS\271=\322\031y\274\244(\371=[\'\331\275\n\0062=f\373\343\274\256SP=\247\253r\273=\362\206;\244]\245=\376b\025\275\340\t\306\275\266M\242\275\ri\202:\340C\234=\\&z<D:\226\275\376p2\275\233\323\212\275\226YB\275\346\036\023\273\363S\232\273\3701\'\275\332\035\"\276K\021\005\275\003c\027>5\032\346\274\331\177\316=0\316\177=\316\021\230<\306~Z=\rc\263\275\02436=g\351\023\275\262%\266=-\020t\275\r\370w=\372K\244\275J\257\203=\325\2143\275\020\032\177\275\255\026\230=\276{\341=r\031\204\274\346\336S\275\231<\000\273[\344\302\274\002\370\014\2740\204k=p\t\340\274\177\225\303<\203\250\311=\263\353\'=0s\331\275\370F\031=\256\014\311<\247\240\016\275\240\333\257\275\235\374!>\247-\364<b\220\270\275\273)@\275\377\2113\272\266\271L\275\314kq\2750\367[\275]\n\211=\273\n\341\274\030\316\274\272\"\2452\275T!\"<s\225\320\2758\004\256\274-\200\345\274\365E,;x)9=\017<*=\007\376\265\274\320\303m=q\r\034<\374%\375<Q\223\241=\034\311\303\274\004=\\<\235y\255\275\017\316~\275c\303\321\274\324\017\027=E\2760\274\363,\217\275\355r\010=\227\233i\275\253\307\226=\261D\256\273\354\024\024<\277\216\267\275\221\013\363\274\235b\265\274\014\262\257\274\367\245\311\275\347\232\352\274L\361\233=\256\336\215=\323\256)=\36053\273}_\262\275\337\355L\275\013\000\032=\353\010\205\274JH\216=\025\261\265=`7\326=\256\214S<\354\345\361</\001\234\275e\373\021<\201\371\207\275=\263\264\275\237]\034\273\361\201\212=\326)\360\274\014\221\177=\024$m=Z\362==*\255\243=\300GN=3\353\325=\305Q\023<\302/\225<h\203g\275\364\234\260\275\354\025\376=g\366\336<\244\362\014\275`\270\201<\200\375\320=\347\344\262<\225Dh<\3510\366\274\346 \320\274\222\000\337\274\034\340\232\274\332\272\037=\213\3741\275\020\026:>.\266A\272\240\036\003=\033\207\243\275m\024k\275\264\317%\275\203\217\241\275WH-\274{m\261\275\277=\353\275e\304\346=\302s}=\244\210\005\275N\306f\275\316\210\014=\206\2624<1\310S\273\363k|\275\250 6=)\223\001\275\250\270\225=\367\3310=[\250\\=\237\373\260<m\005>\275\212Yn\274I\205\021<8\231\215\275\240\005\377<\327\364\247\275\321\016\251\274\250\024\005=\273\205\026<<sc\275\027e\264=\367\242\266=\246\257\331\275A\303\326\274\334\363%=\265\272!\275\024:G=\2317\260;\227Lo=N\242;\275\203]\036=\336\024-\275)\2045=\247\250\351\274qw\255\275~>\220<\004\036\207<\337\027\306\275\220\227\246\275T\014\361=I\363\305<\246\2774;\020V\353\275\350q\330=5\301\345=\034Y\373\274I\211\327:\357\233\n\274\365\030\017=\353\3050\274,\303\016\276J\240\000\275\207U\237\275\201F\t>\0056\337<\300J\212<oy,=\244\302\026\274\030\007h:\223+\321\275\217\004\245\275M\033\210=\261v}=\200\221\227<\325I\271\273\356\352\235\271\2071\257\275>{r\275\'+\352\273F4L\275\267B\030>\226\351#=1A \2753\304\262<\201\314%=P{\342;\030?\263:N\330\326:\254\225\276\275\031\207\034\275\3014\301<\222 9<\350\212\034=M\320q=\274\330\305\275a\345\324\273d\210\273\275\013\037\006=\021}\214\273\324Q\254=\256[\314<\241\352\227=\346z\372\274\\\365\203\274\223\343?=l}\200=\313\025\240<\204\275\237=\243\321\341<k\363\224=0&&\274\351\257\267\274\242\310\027\275\342zw\274\330\025\016<I\304\r=q\351\216=\333\3621=\347M\204=\334\220\313\275\200\026\211=+\260\014<\304K\313=\234]C\274\014\366\263:\331\233\253\274\261\262<\274\357\0149\275~\327>\275\316%\232:\272\325\202\275rE^<3)|=\220\267\237\275\227\343\202<&\\\006\276\371\242\231\275\3746N\275AJn=ik\301<[\035n<f\273W\2743\300+=\313\n\342\273JW\341<{\225\013\275aV\353\274\324rx<\317\262\216=g\347\032=\317\212\303\275\316H\213=\301f\017>p\215\306;DZ\261=\254\257\223\275\346\200\340=A\316.\275\364z?\274\262fM=a\256\035\275{\323m=\2313z\274A\177i:\313t\035\274\315\315B=(\035\330\274\370\336\033\275\214\257\223=\364\343/\275\220\r\232\274\217\213\340\273\226#\274\274\027S\346\275\036\"\356\274\177\375\000\276\271}\336<\242\321\325<\206\031d\273X\302\025;Y\010\307=#\311\342<o\223A<@\355{=\031u\036>\361\034U\273\375\225\005<\213\2143\2751\323:>\215\023\251={=\242\275\242\027d\276\333\247\355\274/\221k\275\351\201\000=\310\0353<\363C\333=\331\206\200\275:\3508<3\253\216=E.\244\274\331cU=\2042\017\276\272\246\271=\210Y\243=\006\352\231\275\207s\263=\217\027b=\354 \t\275\272nK\275\203GD<\202\222\202\274\336J>=\327-\252=\322\373\324=\034\277\235\275\305o]\274\256Ng\275-\371\010\275\304v2=W_\321\275\347\260X\275x8\246\274\3304/=K\221\237\275\354\206+\275JY2\275j\342\204\274 7y\275\265&K=\004o\207=\324s\336<C\241U=\224\200\202=:\310\341<\316cC<<\324\336\275R\022M\275d\351K\275CM\211=\202\325\271=>\246\231;\253J\327=\351\245\031\275\035\211K<\251_{=g\313\325\274\006\220\233=F4\032\273\305$\000\276fz\203\273\223\340\227\275\2335\221\275y#R=;\344\006\274u\342\315\275O\027\367\275#!\272=\331\020\013<\263\242\213=\324\2678=P\020\375\274\360\372\037=\307_g;p\206u=\3518\273\275\350\265\202=\376O\007>\374\277\234\272\327\002\t<\013\014\312=\304\365!\274\021D_\275\372\017\357;\345\207\377\274\241O\022>\020\034\323<0\254\206\274\222\243\237\275~\177]>J3\020\275\351B\342\274\363\345:=V\353-\274\350\013S\274W\266\264\274\216\342c<k\032\200\2759\342\023>\234\237\027\274\214M\244\274q\334\007<\017\214\247<\332\211\343<\250\375Q\274\3465\241\275\267$ \276\376\355\014=\354\217|=\240\025\270\275lK\"=\010\222\274<\001\262\244\274[\204[\275\313K\343\274}o\276<\352D\206\275\313R7\275B\'D\274\035\026\341;?\235V\275x\327\276\274l\245\034<\350\376t\274\374\327\222=?\333]\275Z\006Y=\327V\247:\352(\310\273\202\025\244\275%\375/=C\230\251\275\207E\322\274RM\300\275\370\233V=\214\326\277\274\251[\354\274\312\222\031\276)\374\267;PNU\275YM1<%\253\231=|4\017\275\24647\274\356\002\200\274\017\256(\276L\270\306\270\343\323\376<\375\001I\275#i\331;{b\221\275\033{\203=\260\215\342<\223_\031\274\333@\007=\307\356\213=\001\266\027\276\320\360\300=q\001N\2754So\275s\'\221\274\367~\001=\200b\233<\373Y\314;3a7<\314\'~\275>\370)=\251\257\213\275\016\217\243<\025v\314\274|@\351<F\337\245=P}\253\275\273\307s\275\000\002\361;\031^\252\273\251\000\025=+r\233<\265y]<\252\265\276\275\343\261M=\372\241,=\3455\257\274\027(\317\274?\353?\275\312\364\253\275\214}\243\275\350\311\020\274\r]\231\275\213\322\351;\026X\002\275\316\007\201\275\016S\354\274\202\021\006\275\035\203\221=\342\254\263\275$RR\275\264T\340\273\230!\275\275\tbI\275{fM=\030:h=\314\220\206\272\344l9\275 