node {
  name: "keras_learning_phase/input"
  op: "Const"
  attr {
    key: "dtype"
    value {
      type: DT_BOOL
    }
  }
  attr {
    key: "value"
    value {
      tensor {
        dtype: DT_BOOL
        tensor_shape {
        }
        bool_val: false
      }
    }
  }
}
node {
  name: "keras_learning_phase"
  op: "PlaceholderWithDefault"
  input: "keras_learning_phase/input"
  attr {
    key: "dtype"
    value {
      type: DT_BOOL
    }
  }
  attr {
    key: "shape"
    value {
      shape {
      }
    }
  }
}
node {
  name: "LSTM_1_input"
  op: "Placeholder"
  attr {
    key: "dtype"
    value {
      type: DT_FLOAT
    }
  }
  attr {
    key: "shape"
    value {
      shape {
        dim {
          size: -1
        }
        dim {
          size: 200
        }
        dim {
          size: 6
        }
      }
    }
  }
}
node {
  name: "LSTM_1/kernel/initial_value"
  op: "Const"
  attr {
    key: "dtype"
    value {
      type: DT_FLOAT
    }
  }
  attr {
    key: "value"
    value {
      tensor {
        dtype: DT_FLOAT
        tensor_shape {
          dim {
            size: 6
          }
          dim {
            size: 256
          }
        }
        tensor_content: "b%\325=@S\010;\226\235.>&\321\261=[\177\006\275o\014q=\304q\327=\274\026\262<\314\205\372<\301G\013\275\016\234=\275\324!\265\275\253\276\267\275n\344\274<:\367D=\2548\r:Q\207\277<\245G\257\274\017\266e=@\355\350\274\217\225<\275\204\336[\275H\256\003\275\017\214\260<\242A(=\331H`=A\321\214\274\276\321\t\274L\317y\274\310\346\330\272\r\326\027<\300C=<\216+\341\274\376\3243\275\355\301\341\275\300p\021=+\"\343\270\306\2222\273)\227#=\236\327\303\274v\253p\275\231>\031=\202`\035=\260\323R=\222\027\230\274v\204\273<\262\367\230=\225\323)\273\"\362$<\007+\254<\n\220\320=\252\273\201<\333b\212=:+Z\275+Uf\275\213\010\033<=\341\271=13r\275\307\024R\275e7\004\275\377\212\266=#\310\317\274U\276\217\274sl\275\275\362\010\312=R\365K\275\021\004\341=\202,s\275\361\344\215\274R\264\014>S\317\017=jF\367<,\330<\275\034\257\022=\244\036\203<\371\235c\274\375\362\225;\272\316\216;@\326\244<f\377\352<(\221\252\275~\336\004\275bd\365\274\330\335\373;|\321i=;\363\222\275\306\3363\276\354\036\222\275\203\205\">OC\344\274\3153\004\275l\r\352=\307q\003=Ln\321\273\345\270\217<\243qN=\0160r=\223;p\275V\023\262;\350\316\270<\250 \315\273r\2670=(u%=\001\031\365\2744T\013=Z\341#=\364A\245=\350\013\377<\322\377I\274\344u\030\276hq\250\275O\355\014\276p\334\003=\354C9\275<\362\361\274\\~\203\275\317TV<\230\213D\275\273I\250=@E\323=\320T@\275_l\006>\r\232\243\275z\344\267\274\223r\232<\311\371\215\275ri\\\275Q<\016\272\350\365\022\275\233\342\236\275\271\356\322\274;\005\322\275\206\024\325\272\254WR<*\022\311\273\025\217\334< \317@=\332S\243<F\211\272\274\275M\213<\r\324\230\274\361\277\311\275\353\006_\275\323\273\305<FDe\274h\314-\275Vw\020>9\377d=\320\314;=\236\216\002\275\326\\\031>\3677\002=\273\362L\274\030\263\313\271\361i\t>\201\260b\275<\357\266=\307\007\230=s\306\211;f\264R=\304\330R\2754\376\266=\261\327\327\273\211\233\025=N\233\300=\327\324\346\274;\223\204\274\033\327\030\275\313\212-=\013Wi=\321Z\323<\331j):\203h}<\036\005\226=\317\307\246=R\027\331=d\360\203\274\247\346\362\274I\370Z\274\322Cl=\034\304 \276\367\332\026=\010\353\227=:\006\300\274\201\370\300<\336\361[<\262\231B\275z\031\257;\370\303\355<\352\242\322\275\230\033\030=\231N\333<\323\224\240<\255\213!>\374\"\375\275y/\347\274aLE\276\367\'\253<\020\020\227=\221\303\232\274\t1\350\275\272\365\214\274\213@\014\275\341\237\030\273M\241\277=(\370\345\274G\312\264=\373\365o\274\240\241r=\255\317\\\274X\221\010=k\\R<\250m\021\275 \213%\274\226\241|\275\244\272\230\275\007\243\312\274\347\365\211<M\366Z\274#\207\275\274t\322\317\275\271g\315;\304p\236=\0074A\275s\001\243<\266\310K\274\270[\215={a\252=\214\364\222=\242\035c=aI\331\274\330\234\202\275\347\0012;{\\\254=\307k\2779c!^=PU\237\275*1\263\275\355\276\252\274\256\301\217\275\211\244I\275!;7\273\246d\005=S\370]=\261q\267\275\275D\202=\307\347\021=C\200R\276\264\n}<-fY\275\276\033\312\275Zn\256\274i?h=/\207,\275\333\222\226=\222\256\306\274\330\374\022>\251\370\275\273\202lA=\357y\247;\311r\017=\024t?=\230>-=\3449\363=\354\020\333=\'\267P\275NN\275=3\357\026=\352\272\277=\346\332J=\356\353\333<Qc3>\177t\016\276\201\316_\274\352\223\030=\236o\266\275\364Z\246<\205d\020\275z\362\205\275\316y\361;f\301\313= \207v\275(\257\006=\356D\261=h\267@\273B\005n=\261\357a=9P\213<\213\025\034\275\026\212&=\002\210%=\333\257\307\275\342<p\275\355_^\275M\215\222\275Mj\200\275\251B\264\275\203\t\250\272\334\312W<\232O6<\347\212u=\361Q\'\273r\230\001>\340\235\302\275\007\231\207\275\177M\215<\003n\260\275 E\364<\375\363\374\2754\201\247\272\373\212\330\273\336\267\216\275L\310\226=\266\353Y\274]\270i;\352\006\256=\367\321}\275\237F\316==\352\010\275\273Oh\275\356K\030\275Xy\206\274g\337\257\275\265\310\022=\250w\371<\206\200\343\274\177\313N=\300h\273<\016^P;\367\224\232\274\264\010\023\275o6\236=\213\272\307<\275e\n\276\271F\031<,\343\017<\217BV\275\n\261\032=J\322\312=\256\265\214<\322\030\231=\337B\253<\036>\260\275\321\357\006\276_\340D=\220\004\226:\346~\'\273\312\227k\274\316N.\275\264\232\333<?\366/\275W\t{\275\374\370%;\362a\201\273+\362\321<\201H\236=\333\213\260\275\303\210\265<\201\334:=\255\260\226\275sV\030=\017\365\223\275\255u\021=\267\371\306=\270\255\324<\265\022\341\274,;\273\274\336M\026=M\262\007\275\334\364g\275\214T\221<+\007\237\275\022\332\212<\1770\020=\374\260\346\275\222\236d\273\332JS=\2325\255\275Yv\214=E!\373<\367\362g\275.\013G<\014\205\372<\"\327\251\274\275Y\323\274S\207\024=\326W=\275\225\004\276;Wq\014>\224\333\376<\214\344\266\275\r\374n;;\227\275=\344\251Y\275W\241\365\275\007;\304<\251z\300\274b\251\202<\225.j9\027\376\350\275\t7+\275\342\337\370\274B\272\"=\222[\243\273y\341\322\274\020q\211=\365[\336\275\243\200\355<\343\240)\275<\3559\273\222\010Z=[\322j=\357[\310=H\273x=|D\241\275\034\213\221\272\274Z\026=\216\271\032=\023\304\001=y;\222=1Y\337\275\2564\274\274\363kb\275\362\222&=>f/=B\025\017\274\237\274\313\275\261+\223\275\303j\224\275\204\267\352\275jX\273\274\225F\257=\353+2\275&\237\021\275\340J\243\274\314\210\230<\001w\374\274\000\315>\275o\207\027\274\236EG\274\n\277\257\275\250\016\016>\010\234B=\253\013\234\275 c\035<KM-<\355\227&\275\363\020\216=\220o6;\225\2076=\344{\361<o\206\265\275pl\305=\025\267)>v\340\216\274\344\222\315=\t\270\324<\231\360\245\274 F\'\275\222&\306\274?cq=\314F\345\275\337\376\227\275/I\220=\360\364\230\275\345\266\007\274\360\221V\275m\375\373<\370\376\343=\\\035\350<\346\323\023\275s\355\332<\004&\n\276H\266\235\275\2250\205\275/\347c<m\347\213\2742L\025\275\266*N\275\245-\004\276\027\273\037=c\336\033\276\231\311==>\032\372;Het=\3043\250<\204\313\252<b\'\251\275\013\341\307=x\307\211\274\361F\242\275G\304W=\027\264\213\274A\211\305\274\271(\256;\261\022\273<.Ng<j\300\332=F\024\344\275\357\314\005=\331l\010\275\373\003\215\275#\313\260\275\026\272C<z\220/=\313\002\354<h\216\014=\026\003\025\275\031T\214\275fX\r\275\2653\r\275#I+\275\267\032\207\273\320\273H=x\212\273;\322R\000\275\375\251\321\275\002(\322\275G\371\337\275\270\004\347\274\216\276n\275\330\032\010=\350C!\275t\205\215\275(\202\360\274\353&\322= )\027;\016\333\220=\352N>\275<\231E=\344q\270\274R\031\n\275j\346\204=\312\305\354\274\273\010\330<S !>\01318\274\007\006\372=\232\330\010>\315t\013>\253r-<\322\366&>\367\r\005=Ab/=\216\010\257\274\002\\\313\274\007\231I\275\357V\021\275u\275T\275\001\336\020\275C9\223<K\317\216=\242j\232=N\274m\275r\270\314<LQ\227\275\207\203\212\275\n;#=\243\266h\275a\265\232\275\t\376\230=ng\204=Hzo\274\375\265\010>\303/\217\273\3704\361<\024zl\274\326\243\222=Y\037\220\274\273\016~<\013\377j\273&xV;\035V@<u\\s=\337\266P<\375u\243;\231\253D=\370Z\223=E\243\023\275\262\271x=P\205\311=\312Y\214<\020\245\224\273\024\260&<T\220(=\215\354&<\017\210\002=\305,\356<+\036\351\273\300\2159\274\267H\207=\006\351\022;\241+\312\275\264\201\226\274n\261\232\275 \225\303\274;\261\320<\234,\036\275\007\365\177=\317\224 =\220?\020\275<N:\275\330\311\250=8\336\247\275go\314=\262\254\204\274\221L\256\2750\333\344;^\0036=\320\017\274=\324\344\304<z\362\274\275\205`I\275I\370\244\274\035\312\n;\014\313%\276\361p\207\273T\213\346\275\237\222Z=*^\016=\264\'\035\276\213\023\023\274t\366r=e \013\276 \256#=\010\231\263\275\304\2734\275\034x\270:zv\225\275\227\240!=\242\344\361\274\311nI=\001\"\246=}\252\246\275\231\214q=C9/\275\374b\224<\247\312\005\275g\177\264;\362\033F\275\320\262\265<\343=0<\373\014\205\274\214\272<\274vn\014=\344\305\307<\231\256\210:D\316\370\274\350\352\232\275C\210;;L\302\024=y\220\356\274\352\005l\275\025\022\037=\264\342\316\2743|\274=N\333\215<\024\200\237<E\001\204\275DY\031\273\307[\312=1\271\033\274\206\205\305\275\275\253\342=\304O\222<I\002\332\272\303o\203<5\337\347\275\035?\312\274O}m=\263\027\177\275\216\'\217=\375\255\264=H`\362=\361\\*\275\365\252{=\310\257A\274\230\226\313<\3347\026>p!\202\273?\241T\275\017\305P\275\214\n\310<3\264\035=WC\227\275\325!\'\275\021\302\274=\024\222\250\274\333M\n=e\307\301\275n>}\275\254\356y=SA)\275\262\261\031\274Qc[=\313A&\275\365\274\336\275\020\206\264=*\230\266<K\315w=N,}9k\225\310<y\210\037\275Z\261p;h\221\260\2753\223\212=$\031\312\275f\034(>L\370\217\275]Y\007\275\250\363\016\275\252\310\217<\374\210q=\215Eg\274\244\230\253=\276\220\237=\324\021\213=v\361\321\274Sz}=\246M\2119\220XY\275\026f\204<\000\254A\275\360\225\234=x\330\310<\"\342R\276mTK\275\344mn;\254\360\017\275\344\2275\273\227\260G=\\\234\271\274a\355\304<\230\311\372\273=P*=\0054\230\274\312\250\317<\336\355\237=_z\021>\000T\305\274+\343\255\275?\2404\275Z\014.;\325\365\026=\361D\226\275\t\310\240\275\335\310\230\273zh\311<uWH\273t\334\005=\352\013\214\275\362\334\264\275\370\030\242=xj\244\273\357\265^<e\271\254\275\204\2707\275\371\271\367<K9\241<\277]\255=\210\334\024>\017\261\271\274\376\002\016=\232G\235=\033*\255=\n\273v\275J\366u=\256\007\210=mo\212\275\326c\375\275\274\032\251=W-z\275\266\306\010\275\313\"\272\275\270\204\335\275\n\201\203\275\3013\225=\3775z\273\261m1\275@_\227=\205\013\000\275\245\316\346<\207\225,\275\377\027-=\343e\200;X\330p\275\266\247\254=YJ \275O$C<\213\022\225<\244[\336<HS\230;\261c\273\275\\\372\222\275\231\262\033\275M\n\006\2755\353\377\274 b\213<\327\242u\275\037K\314\275\313e{=\310\257\214\275\301}\321=\225{W:T\3041<d\343\360<-P3\275q\333\340\274\256\275\t=\241\240$\275q\327D>\233\220\260=c\345^=M\251\321<Y)\324<m\237\364;\364.\343\273l\250\330\271]\244\205\274\221?N\274\306\001\333=\215\336\001\275\352\356&\2753\372\357\272\227F}\274\274\273t\275\025U==\307\254\242\2751\330\323<C7\334\273\275\t\266=\265\200\017\275d\332\275<\t\203=\275H\n\237=\264\020I\2757\001\224\273\022\232k=\245\215\214\275xq\024\276P\254p=w\247\230<W\347\247\274\253\0232\275bu0\275cJ\034\275\017\001\211\274\242\025\343=\205\217\320<X\223\332\275\216HS:,\254\267=\332D\361\2758T\320<\375\355\361\274\331#\232=_6m\275\266e\213\274p_(\274\317\344\314<\264\024x=CMb=v\270\323\275\017\037\254=\244U\240=\262\250d=\004y\014=@\351`=V\273;=Z\257\025\274\272_\270<\300\'\336;~\231\266;\330\234 \275H\'\274<\r\361\354=p\365\234<\020\275\201=-\035\000\276\260;V\2755(\321\275\370\001\220\274\322\336<;I\010\270=s\303M\275o\201\007\275\032\315\214=g\343\000\265\354\322j=\260--<\205\366\244=ZS\214=\177\371\360<\315\024\n9A\226\210=N\236\357\275\241\222\026\275\342\372Y\275L\n\267\275\302\244\214\275\2163\216\275W<\234=9\234\202\275\027E\341<H\313\336<rL(\274=\224\t\275;\333\212<\210\274\320\273\022\312.>\031\334\242\274\020hM\276\217[\367\274\000\350[=\225\346\217\275IB\311\275\355\2617<1FA\274M\272\001\276\242@\262=Aa\305\274\300\271e=#\032\357\274/\211\315\275\361\317\204=\005\240Q=\233\366i=\374\202p\275#\365\305<\016f\027=sb2>\325\342g\275\370;0<\274\300\231<\037ro\275\304\027d=\232\023\250;\3153)=\014\007\377<\374\266\301\275\3024\343\275ER\353;\203>b=*\301\241\275<\333\377\274\236j\377\274\366i\246\273\231\3637=>\226\n=\036\345\006\275\250\353\337\274\310\375\001\276g)\013\2734+\023>\254\005\252\275\300\230\266=\203Z\002=\345\310H=\2433a=\230V\257<\372\222\r<\241\030\263=\n\373\275\274\305\310\201<\333\025.=\314G]\275PG9=\233\253\211=\030@&=\326\005!\274C,*;\020\266*\275\254\240\315<\227\222\301;\304&\205\273s\224\270=s\206:>\230g\347\274\210\214\014\275\020}\232\275hW?=\003\002]=\312\000\t\275\312d\322;IL\302=4{\211\275\370h\246\274\331TU\274\"Uj=)C-=\375\327}<\\\0337\274P\033\217=\n\205d=@\021\243\275\305\037\214\275\275p\246=\366D\230\274(\264\214\275&_\027\275\360\017\r\275\026L\255\275iZ\n\273@L\211\272\231p\205\274\311(Y\275\244R\010=\3620\234\275\020E\355\275c\307=\275\0343\321=\330\233\244=\350\361E\274\264\231\033\275T\265\006\273\355\202\366<\\\243\260\275b]\326<\337\315h;\3770W\275M*\235\274H\377\274\275\225\226<=\305G6\275o},\275\300\354t=\350l\021=\312:=\275\236\266W\275epR\273b\210\215\273\240\014\371\274Q\301;>\027\272\255<\370\005\266\275s\371\007=\256\215\235\275\332X\022\275\243\217Y\275\002p\355\275\253\366\027\276\332\240c\273\213y\263=,\025X\272\003\244p\275Dd\242=[=\006=c\377\347=)6\2167JY\240\274\021\240\000\275\312\036e\275\310\321\006>\331\332\225\275\336\245G=\320\225\207=\263\365O\274\330H\226<\232x\"=M\006\361\274\031bO=y\223\201=\006^\031\276\221\301\3208|&\316=\306\025\273\275\273U\000\275\320R\351<\004W\263=OM\233=\260\246\013\274\357Wr=\206\217\'=\'\251\201=L\014!=\227V\004>\237\307\275\275\320<\302\2743f,=\217\234\302<+V\307=\016\365c\275Bp,=\354?3\275\211\234\240\274q6\323<{\302\025\275\347\313N\274\202\246m\275\350\337)=\334e(\275&\267\005=\351k\202<\372`\230=Q:\n\276\370\367\201\275\257\035\004\276\223S6\275\340\256E==\025$\275\372d\234<\330nJ\274\322\272\303=\2440*\2753\264\023>1\365\211=RT\355\273\262L%<I8e\275\021q\255\275w\354\241\275*5\316\274\206\311\203\273t\276\216\273?H\267\275G\206\006=\177\016\035\274\031\335S=s\241+\275C\200\016\273\305\325\226<\010V\"=\032\006\216\274\344\212\363=\345\243\300<9\212)<\342\312P=\275\326\202<\035\276\376\274\331K\206=\007\202\027\274\n\245U=jD\235=\'\264\311=\240\264\333=%\025\340\275\r\251%\275,\211\240\274\27724\274Yi\005;a\233\261\275w4\307\273@\264r;t/\363=\360\314\n\275\033\031\013<\223I\360=\222\\\000\276\275\271\204\275\277\035D\273\334\352\215\274\327\236\200\275\276\254\007=;\352\275\274\375\372\034\275u\223\302=\266w\033=\336\257\226\275\202\342\223\274\323\003]=W\007W=\213\367\332< \356+\275\322>\263<\237\243\246\275\365\260*\275wQ.=\023F\002<rS,=\362\355\376;\267\272\n=\343\337\036<EI*=\261\233\301\272\t\303\277<\314P\035=\276\262\261<n{\367=o\0268\274\271\354*\275)\220\014\276\307\202\227\275\313\321`\274[\316\002\275H\240W;\350N\311=\337\201\247\274\352t\013=d~\207\275`\022\356:\006r\360\274\236\252\333\272A\236\374<\361\232J=6:W\275\006h\t=\'\261r=\241\341\344=\355%Q\276,C\025<1em=\314dd=\302H\212\2750\030\204\274\270,\262<>\306\351=1\020\273\273\033e\257\274\332h@<\024x\203\275\256E\271=*\377\001<\325\227\275\273\000m\010=S\244\r\276\311\3504\275\241\006\302<q\274\235\275z\376\267\275\241(Y=\224\232\213=\363 \252\274\n\244\t\275\223\312\022\275\234\254\245\275|_\250\275\300\3118\275\010\371y=+\031(=\177:_\275\362R\347=\210\037\202<%\2455\275\247\206\311\274\260\t\355\275\232\002\320:\377M\t\2752\036\212\275\216Q\225<\305\n\275;e\021\340\275I\013\023\275\304\177#=\357\245\034=\321\254I=\200\016\272\274\250\013*=\002D\275<\207\336\241\274\330\305\306\274K\257\231\275\027\226\355\274\246\002\366=s\314H=\277\323\304=\365\030^\275\205\375\303\275@\036R=,\347\376<\236\004}=e\005\237\275\330v\251\273{\032\276<5\321\007=\013\257\271\274\005t\347\273G\351\241;i>)=\216\316\305\275r\377\260\275\336\001X\274it\207=V1b\274^\334p=#s\000\276kx6;\370W\253\274\214\227+=/\344N=\003^\333=p\252:\275\003!\314=<\246j<\216D\256\274IPJ\275\2259U=\002z\345;\347\353\236=p\347\230\274\356\177\303\275H1J=\244\222%=\305\233\210\275\371\344\355<N@\301\275r&c\275T!\363;\016w\005\275\026\313\241\272\267\341\322;\373\314\253=\231B\372=\213\375\267<z\352\257\2741x\276<%\235-\275U\245O\275\274\377\027\276\367b\246\275U$[<|\225\316=\226\213*<\371\321\220=\312QZ\274\315\036F<\357\300\350=\221\255\022=\302\245\251=H\312A\275p\362\212\275S5\240=\351k\007=\02221\273l\250\236=\205>\346\275\214\350\273;\257\014\202\274\321E\267:\336\355\373\275\332\317\235=\332\333\231<\245\302T=.Df\275\004\256y\274X\"\205=\222\304\334\275\236\030O<.\203\245\275\275\366\233\275\323\nf=\257\024\207=5\307\201\275e\216\020:O\331p\275\215\000d\275\177&\274\275=T\250\275\374\030i=\003\035\023;\243\243\334=\020B\237\275\270\311\336=\264\211\364<\246\177\253=9\202_=\202=\205\274\331\341\307\2735D\217\275`\233\200<\236\377\304\275I\334\233;:\004\300\275[I\356\275\222w\252;\240W\007\276\341\317X=>Z\241=)\313\344\274.\220\361\274?\361\357</ \217\274A\340\220=\363c\247=\200\273\252\275\346D\271\274\264I\255=\335V\336\274\303\252\261\274?\272\r>\210\360\331\275#\013\230\274#\025\036\275\215\250\332\275\037\\\305=f\376k\275\374b\000\276\'\253\206=\331\375\r= \005Q=\357\'!=9\242\341=?0k=\321\016\354\275\360\007\312\275\333\216\202=\366\005/\274\355\340\016>\314\356\241\272\320\022\240\274\023Q\271\274\270\337:\275\227<\252\275\3374\311<\315\344\003>\216\025 \276\303\245\200\275\204X6\275\030a\030=K\r\216\273\2638\250=\234K\204=\227\n\270\275p\t\362\275Z\021\2719\254k\217\275\'C\241\273\342\247\007<\t\370N<v\257\236\2756\365>\275\010\326\315<\035&i<\324\372\007=\032\224\225<\354\325\226\275\222F\366\275$\357\224=7\255p=\347\013\214\275\3136\212<\023\276l\275wL\241\2759\220a\274\243\206\232=A\334k<\001=\370\274e\306\251\273\316\344\004\275-\306\272\275\336\351B<d&x\275Sf\213=\343\002%\275\"@:=\222\317\250=QF\211\273\221:\254<S\211\325\274u;\240\275z\330?\274\310s\031\275^\313r<\215k\320\275GL\363\273\251\247,=o\375Q<\tP\034=\345\"\010\275 7\256<un(\275l\346\230=\0354\025\275\261Q\031<\347\022\207\275s\r\243\275\275\361\235;\370\377*=\006\"\322:O\373\256<\373\271\033<^\305d\274\230\311\004\276$\204\177\275\245\306\252=\335G\303\273a\364=\275[?\037=\311&-\274\224D\364<\347\324J\274\310\232\336\275ZE\342\274\244\\\222<wxC\275\321[\010<\324\236o\275*Ou\274JS\357=A\361\263:[9)\2748\343\365=\253\343v=\"\274\005\2758\241\221<\277=\345\2732\223\2108\017W\023\275\242\321\235<\366|\215\275\212\372\216=H\273\036\276d\214\202=Z\302\006<\017\273o:C\225\223;\304\005\376<\\b\210\274\215\207\337;\250vE<\255\037I<\240H\033\2750.\033=x\360\270\275\206\3233=9\371%\275\207\337\022\274\342T\034\275b\255^=\222\021\013\276\355\302\214\273\355\017\255=j\025\315\273\211k\237=\301;\006=4#\337\273C\211\261\275\274\377M=Vp8=z\353\240=.\035D\275\262\214\367;\215\261\231=\230\351\210=\016L\001\2753\217\231\275F\354\222\274"
      }
    }
  }
}
node {
  name: "LSTM_1/kernel"
  op: "VariableV2"
  attr {
    key: "container"
    value {
      s: ""
    }
  }
  attr {
    key: "dtype"
    value {
      type: DT_FLOAT
    }
  }
  attr {
    key: "shape"
    value {
      shape {
        dim {
          size: 6
        }
        dim {
          size: 256
        }
      }
    }
  }
  attr {
    key: "shared_name"
    value {
      s: ""
    }
  }
}
node {
  name: "LSTM_1/kernel/Assign"
  op: "Assign"
  input: "LSTM_1/kernel"
  input: "LSTM_1/kernel/initial_value"
  attr {
    key: "T"
    value {
      type: DT_FLOAT
    }
  }
  attr {
    key: "_class"
    value {
      list {
        s: "loc:@LSTM_1/kernel"
      }
    }
  }
  attr {
    key: "use_locking"
    value {
      b: true
    }
  }
  attr {
    key: "validate_shape"
    value {
      b: true
    }
  }
}
node {
  name: "LSTM_1/kernel/read"
  op: "Identity"
  input: "LSTM_1/kernel"
  attr {
    key: "T"
    value {
      type: DT_FLOAT
    }
  }
  attr {
    key: "_class"
    value {
      list {
        s: "loc:@LSTM_1/kernel"
      }
    }
  }
}
node {
  name: "LSTM_1/weight_regularizer/Square"
  op: "Square"
  input: "LSTM_1/kernel/read"
  attr {
    key: "T"
    value {
      type: DT_FLOAT
    }
  }
}
node {
  name: "LSTM_1/weight_regularizer/mul/x"
  op: "Const"
  attr {
    key: "dtype"
    value {
      type: DT_FLOAT
    }
  }
  attr {
    key: "value"
    value {
      tensor {
        dtype: DT_FLOAT
        tensor_shape {
        }
        float_val: 9.999999974752427e-07
      }
    }
  }
}
node {
  name: "LSTM_1/weight_regularizer/mul"
  op: "Mul"
  input: "LSTM_1/weight_regularizer/mul/x"
  input: "LSTM_1/weight_regularizer/Square"
  attr {
    key: "T"
    value {
      type: DT_FLOAT
    }
  }
}
node {
  name: "LSTM_1/weight_regularizer/Const"
  op: "Const"
  attr {
    key: "dtype"
    value {
      type: DT_INT32
    }
  }
  attr {
    key: "value"
    value {
      tensor {
        dtype: DT_INT32
        tensor_shape {
          dim {
            size: 2
          }
        }
        tensor_content: "\000\000\000\000\001\000\000\000"
      }
    }
  }
}
node {
  name: "LSTM_1/weight_regularizer/Sum"
  op: "Sum"
  input: "LSTM_1/weight_regularizer/mul"
  input: "LSTM_1/weight_regularizer/Const"
  attr {
    key: "T"
    value {
      type: DT_FLOAT
    }
  }
  attr {
    key: "Tidx"
    value {
      type: DT_INT32
    }
  }
  attr {
    key: "keep_dims"
    value {
      b: false
    }
  }
}
node {
  name: "LSTM_1/weight_regularizer/add/x"
  op: "Const"
  attr {
    key: "dtype"
    value {
      type: DT_FLOAT
    }
  }
  attr {
    key: "value"
    value {
      tensor {
        dtype: DT_FLOAT
        tensor_shape {
        }
        float_val: 0.0
      }
    }
  }
}
node {
  name: "LSTM_1/weight_regularizer/add"
  op: "Add"
  input: "LSTM_1/weight_regularizer/add/x"
  input: "LSTM_1/weight_regularizer/Sum"
  attr {
    key: "T"
    value {
      type: DT_FLOAT
    }
  }
}
node {
  name: "LSTM_1/recurrent_kernel/initial_value"
  op: "Const"
  attr {
    key: "dtype"
    value {
      type: DT_FLOAT
    }
  }
  attr {
    key: "value"
    value {
      tensor {
        dtype: DT_FLOAT
        tensor_shape {
          dim {
            size: 64
          }
          dim {
            size: 256
          }
        }
        tensor_content: "R\315`\275MQ_<\341R\'\273\266\325\204\275\252\257\332<\275\220`\275\316?\242\274\\8N\274\312\211)\275N\303\371=\030o#=\250\201\224\275\351\210\317;\250\303\257=\3454/=\256\355\211\274\023\205L=G1\273<\321\013\312\27390\004\274@\273\250\274\335U\025>\374o\277=\331\262I\275 (\360\275\212\017\212=M}\344\274\266\207\351=\345\017\352<)a)\276\205\2354=\014LA=\306\\\200<\246\210!\274\335\321s\2754x7=\204\035v\275\311\307\306=,\323\223\275$\266\274\2734\330\265<\310)\t=X\256\245=|\036\210\275t\303\255=\324\021\240=C\236\230=\321#E\275\201\026G=\006-\025=\337\353C;\177\335\220\275\264\037\307\275\000+ <whP\275C\217\246<\r,\330<\037;,;\373zX\273\247\032\344\273S\306<<\233O4<\336w\305\275\252\354\325<\n\263f\275\233\0237=\037\352\305\274\276 \364\274\317\026\321\275\235%\216=m\303\371=\333A`<\340@\021=\255\030\230\2759#\304=f.\n=\343\212z\275>\020,<\216\361\261\274\310\204\026\275\220\356\277\274h\337\273\273_f\030=\347HO\275M\001\377<p\\\234=w\311n\274V\251\265\275\246t\227= \214\004>\r\202t\275\017?W\275\r[\337<\266\204\250;`0\364\275\307O\">\371\263\227\275\351 M\273,\025$\275\3037\200;\206aw\275\231\315Z\275*P\214\274wk\013=\026\034\243\274\261Q\020\275\356\0313>\007\235\354\274;\325\261\274\376\020\203=B\324\200=$\371\213\274\036\312\016\2748\261\210<\346V\217;v\217\311\275!~\247=\000\342\010>\336T\215\275+!\013\274iy\216\275\246\330\362<\261$\203\275\001\335\005\274,\271\014\276k\270p\275\375\310\300=\237\257\021<|\243K\275:\033\323\275\224\004\206\272\215M<\275\036\352\204=\030\350i=\022\357f\274\336\211\315<\210\311/=\267c\357\274\375\3564;\033\245\230<\216[\266\274S\021\026=\341\323\026=\202U[\275\301\005\320:.\320,\275UtF=q\235\006<\264Z\264\275\036\333\202\274\263WM=f\347\211=\362f\"<~\'>\275\'\222\t<\353\312d\275\022%\272\275\345\t\021=+\354{\275d\247P\275\241\344M\275\270R:<\345\342\247\275\252t\241=,\224|\275\341\253\243<P\"\301=\2307\223=R)S=\032\035s=\314\331\035\276\353tB\275i\263\001=K\013\223<\2603\003\275\263K}\2750<\374\273\215~\313\275\233\230\265\274B2.=\316\233D\275\345JY\274\202Y\260\273\014\274\"\275\177!q\275\353\365T\275=b\313\275Q\177$\276\234\327\257\275K\t\362<Y\343\210<\305N\251\275\320\034\007>M5N\275\234\261\313=\014#\364\274\006u\224<[\330j\275]\037\226\274\355{\343\274\307\264\203=\367\266\320<\276\030[=a4\366=\020c&\274\361\000\037\275\261?\300\275a\204U<\277S*\275(p\371=\265]\311\275\024Rm=Be\237\275\320,\225<\272\266\325\273P\242\246=[\003d\274\315\270\315=\221\036\341<p\274\347;\336\307(\274YS\330=YC\323\272\235\356\211\274Ur\334=\223\247\350\274\231&\327\275\311Af=\376\262m=\303\351\202\274d\005\366<\213\023\327=K\177\\=\265a\213=O(~=\r\226\200\275]\235;=\2530e=\327\377\200\275\200\014\002>+/\237\275s\320N=\"\263\314\273\006\356\'\275\241\253\241\274i\tM<\316\366\261=\0012\355\274h\310\206\275d\222\215=\351sE=\237I]=\n\220q\275\354h\177=\t\315f<\276\215e=\370\375\203=\351\345\214=/\353\010\276$\244\247\275\304\224J=\353\266\343=\t\261\001\274\210\023\343=\"\rq<^V\250<\375\350\023\275\255\273\350=\256\252\231=e\217\017=\254\345a;\001\331\016=\202\333\310=D\177\237<\361L\264=\367\246\254\275\272g\321\275%\363\210=C\343X\275\004#F\272V\025%=\372\275\253<\017u`<\250\267\270=\237\320\273\274\305\346N=&\260\235=\246U\000\275\031\216\002\275u\240\254\275\211\261\304\273\036G\211<\002\310\233<\021\014\317\274\355\372<\274y\343\024=xA\001\275x\200\213\275\\\352j\275z7\321\275\025\226z\275\246\215\'=-\315\206=K{\251=\272\351\241=\200<\204<\243j\334\275\017\030\337:=\312!\273\034\304\352\274\315\243\243\275h\352==4Q|;L.p=\337\252\220\273c\177\230\275v\226l=\270\336$=9$\313<\364]l\275.BQ<\246\360\361\274!\347\231=`i\246\275\307:\034\274\024z\225=\341\262\202\275\366X%\275\2777D=\"\275>\275\3110\237\275Qi*<\260\221\206=\026v\202\275\234]\335\274\021FC\275\206\\\373\274\232a\004\276>\373\311\275\243!\337\275\241\016\000=t\353H\275e\3511\2752\217\263=t(t=p\311\315\275\311U\312\2743\317\205=\272\177\031\275\377l/\275\314\272\232\275\240\211\353=\030\306B\275\301t\340<c[f<\336\275o\275\201H\034=9n\234<\227|\332\274\324\373`=\256\300\256=Mf\273<1\227\025\276\017%\206\275^*\231=A\215\026=8a\335<\3524\003\275[F\220\274k5\256<3G\315\274=\002\003\274v\233l\274\177\356\221<|.\307=\345\003Q=-Vv=;\010l=\252\236r\275h`\033\275\222\264W<H\010\245=\360\261)\275\347\262\373;\304\266\335\274\235\241\364\275\301\257\303\274\245\026\322\275bu$=\207\352$\276;\036\251\274\306se\27457\220\275\311\2428\275tj\307\275BZ\336=\345\341*=\317\007\225<Oj\022<[\231\215\274\n\206\003=B\245\206=\245Q\203\273;K\036\274\017o\326\275\2070M\275\256I\302\275\231\"\355=\022\252\236=1\320m=\350\0147\274\245o0=\226(\257\275\246\253\372\275G\273x==X\213\274\311\212\211=\377\351\020=j\226\213\275t\263\326\275i\226\206\275N\262\224=\241|\235;I\374\304;\207\372\366;4\371\n>\215\357\351\274\330\324d\275T\024\320=j\257\262<\215\237>\273C\221\036=\371\031J\275CE\355=\365\240\222\275W[A=GM\002>\341\033!\275\021\212a=92\212=w\320\340<=\215\t\275\306\252\270\274\314\303\206\275\202o\247\275o:\036=f]\001<,\374\224=B\347R=\376p\317;\346_o\2754I\002=P\370\214\274\035f+;\030S[=\206\300b\275C\023T\275\311\223a\275\262\306}\275\216\204W\274\243\256\r<\304\221)\275\237\207\204=\034\224H=\017\220\032=\316\260\021=\352:\354\274(\013\306;\344\241\243=\216\025E<\326p\371\275o\325\036=b\243\003>\262\362\230=\212\253\004\275\315\231\317=BR\275\2742\314?\275<K\377\275\373!-\273\003\247\254\275\275\303\250\275\347E\261\274\262\322\373=\014\023\037=6\314\006=-\021\237\275\312\236\020\275\204\332\233\2757s\343\275\261\230\263<P\216\346\275W\264\342\274\2763(\274<ls=\277\306\301<\262\023\320\273\236@\233=o\375-\273\341\370\340\275x\250\262=\220\004\246\273Df\344<\3654M=dV\243\275B\262\205=\267\023\004\274M\301]\275\321-8=aZ\273\274\243\216Y\275\301\333-\2754\333\204\274e\177\350:\234\002\013\276\242\r\310<\345\243.=\266*D=3\037\206\274\344s3=\244R-\274\353\372\t\276\024 \335=m]^=\257u\370;\375}F=\222\017\366=\260\310\212=[\030x\275\025\334\224<\224~Z\275\307\264\232=\276\301\r\276L\230,\275\345<\032;.\327\017\274w\024C=\236\367\324\275\3723\251<l\274\357<\214\026\266=T\013\000>\016f\347\274-\232\005\273\262m-\275\301\205b=nO\242\273z?c\275\372\017\233<-\367^<8@\n=\326,\273<\220\033\242=\333\226\177\275`\354}=t\0271\2749R7\275W^e\2749.\354:\177\324\320<x+\270\273-!\361\275&\306\226=\237\326\346\275J\300\266=~A~=\263w\203\275\307\301\245=\321R\242=|\033\314;\216\362H=\205\320\373\275\273\240\026\275\360cT\275\343p\275\275j\254\255\275\357Z$>#\332O<\2665\305<qF\t=\215\341I\275\034!\344<\320\243K\275\034)Y=\366@\223=\366W\215=^D\232<\346\254\220<\354\346l=*\026 \275\321\232:\275k\365x\275\226\201\252<3\014\221=\216\352\004=&F`=+X\350\275f+\311=r\010\242\275\036!\253\274\033:\314=\342\270t\274_\226\026<\022\210<\274&\006\255\275\021Pt=\327\033\013=\240w\005\275\350j\224<#]\353\274\322\256\363<\240\266_<\246Z\035=\n\275}<\303\230{=>\2740\275v\334W\273\204R\273<\3067\007>\325\004>\273N\031\025=hw1=&\320\375\275\310\254l=D\367S\275$\010I\275\246\364\312\275eu\356=\322_\331\275\2100\212\275\267\253\237\275\340N\340=p\330\214;;\353\242\274\217;\204\274N3\244\274r\210\000\2766\025.\274w>*\275]02\275\343\\\330\272\375\003\226\275\271\356\304<\004s\003=\270\242\254=\300\234\224=\034\337\247<\021\306s<\250\td=\253\301T=7\025\200\274\031\334*<b\211U=\250{\332\274 \177k<\314\234J\274\311%\340\275\215\020\240<aQ\021>\024B\035<C/\276=\334Y\032\275\314\261v=0p-=\232\0218>.\252\207=y\327\036\276\342\247s<\217\250\230;\360\002\327\274\264\335\007\276^\334B\275\020\374 \275\354\233j=\014\230\016<\376$\003\275B\277\257=~\017\244\275\243+\232\274\301-S\275\360\227\370;\006\177\\=\301\231\204=\177mz=\273\016U=0\375R<U\240\002=\2132\222=\024\207\001\274\214@\204\274\037\032\247<\255\277n=\303\316h=V\374\360=\344\301\333;\230\202\025\274\345+\230<+\227\345</#\331<\344\237\"\275\001_\266<o\222\332\274\257wU\275\370%`\272f\205#=>\010\365<\274?\007=r\203\262;0\013\355<\205\2578\275\353\017U;)\360\273\275\353:\033=@&N\274\002JO<\331\200\360\274\344\253\270\274\367Q\030\276\200l\001\276:f&\275\030!F=?\263\\=j\002r\275^.\030\275_\354\007<\2035-\275g\274\253=\363\236\277=\210q\013\275\340\262m<\363\001\'\275\006\003\264=\361\224\031\276(\250\266=5\360\315\275D>[=\314\203\353;\017\327\344=\244\326\356\274\013\356o=\022\312\204\275\\\331J=\324r\007\274c\364\243\274\230r;=\002\247\253<A2\231\275\240\346o<\347!\266=9\023Q\275\006u\257\275\302\306\311\273P\313/=}\232N\275\246:\235\274\364R\206\275\013\r\014\275\314b\247= q\200<\200|\313=\340\014\006<}\221\243;z\326\241=\250\334\211=E\263}<\0068\216\275\003\217\023\275M\213\234=\005,\356\275\215N\355\275\314\003)>\333\204\305\275.\270=\2769\235B\274\302L\371\274\374K[\275\345l\177\275\334/\037=\340\240\377\274\241\024\335;\275\203\007\276&\312\014<\305\033=\275\234\204\217\274!Un=H\334\363\275\272W\262<\221#0>\320{\355\275\247A\253=^\241\003\274\212\350\346<wf<\274\370\245\362\275\371u\323\274\005M\255\274n\346\257\273\356\001*>\033\371t<\000\263I\275\016Y5\2755/\253<ri\256\275Z\375 =\020H\213<W.\203;_\326\206\275\'\373\232:Qa\250\275\323\366\006=\023\2470=\236\251\025\275\353-\001\274t(\020\275~\203\277<|\347\226\275\223\221\370\274\005\363\\=\023\340\360\275{\026-=\216\271\341\274\207Q\246<\311r$;\037\346\214\275\263\310\244\275\222\260\320<W\301\246\274\026\030A=\364\364\222=\361\345\361\275n\345\022\275\343\333\363<\037\244\217\274\001\014\030\274y\242\035=\237pC=\315X\035\274S!>\274m\330~\275\234I-\275\'\256\221\272\016\356\340\274\215\327\214<\221\344\243=g.\374\274\352\376\273\274\316\253\022\276f8\251<\242y\353\274\263\217\t=\013\3645=\321\322\\<\017\220\023\275nW\023=\373\002\310<e\245f=\326\245^\275\206\227\267\275\253!Q=\373+a=\347\223==W\302\203=\"Q\345\275m(\305\274\364\257 \276$\217\274\275`G\342\274\353}\344\273\327\221\253<\214\243#\275\361b\267\273\355}I\275%\323\t=\315\023\236=\223C\235=A\023\312\275\224\354\345\273\267::>\263A\230<\225\311\002\276m\341q=\265\313\232=\325>\275\275\200\271\326<\212\007\307\274\331:\276\275n\277L<+\014\233\275\312\017\002\276\344\245M=j\330\360<\352*\312\274\007\235E=_ \220<8n#=J]\260=\303\342\362<k)\373=\320\241c=\203\036R\274\234ma\275\263\204\331\274\024y-=/\377\355=u\367\261\274\237\312\212<\026\207\242=\035(\315=?\262D\275;\"\365;=\232\247;_k+\274wd\200\275\254\n\275\275\217\200\212;\337(\023<\372\367\206<\013\316G\275V>r;\301\027\037=\322\374x=S6\335<\251\214\033\275sx\320<X\222\177\275iW\373<\261\361B\275Vn\315\2740\"\202\275{\303K\275\372\006\203=U\312{=;\202\030=\223\377\375\274%\371z=\004\212\311\274V(\206\274\323\022\270\275\243\261\306\273\274\361R\2753\261\027\275\"\357\271\274\302\007;\275\017G\222\274\341\336p\275\367\260\203=\270\235\305\274\236d\243\275\206\r\245=\252\302\244\275h\341\307=I\352\325=\017\256Q=%,\370\274\004~\343\275\366\372\204\275uh*<\373\356\272:\313_\273\274\'\242`=\332\212\263=\205\275$=\310\273\373\2732@u=\326?d=pt\310\275\266\245\271<\222\370;\275[\000\326\274\341^\374\275\250\367@=\314[==j\204\026\275\024W\372\274l\327M=\264\357\324\274\\;\241\2756\362\256=\205\\\024=\001\323\360\274|\300=\275cO\003\275\005Z\234=|p*=\272E\210\275\037b\337<\242\331+<\003\005\001=\205h\367<\225N`=D\3132\275\351W[=\270\334\026\275`\210\024\275\\\206y=\377\264\242= \274\311\275!Q*=MY\376\273\377\377\216\273\030\323\026\276\034\202\322<\033J\307\275\n\020\343<\260\357\"\275\252\363\322\275\234a\214\273[*\230\275\017\010\356\274x\211d\275\220\rT=L\227\213<\362\3551=\266\0212\275\301R\r=\300\013\233<\333\\\247<\335\021\315\2746\304\313\275DX\272\275\216\226%\275\221\262\\\273\230\260S\275\231/)\275\347Z\311<Q\277\237;[\247\025\275(\312\213\275\370\002\010\274&Q\022\276\342\370\017\276\374\022\036=\245\226\016\275u\006U\275E\345_=$\353\004\273\024?(>\300=\014\275,\222M\275\271\340J\275\376)\367=\2350\310;\346\301\257=<\254\344\274,\224\270\275\033\237\207\273e\237v\275P0\340\275\341\204%>v\200\353\274\345\213\006>\311\311\002\276\005\313p=\354q\006>a\027\277\275\177\322\375;X\223*\275-}_=[l=\275T\204\363<\353\036Q\273M\037\217=\212\325k\275(\242\010=7n\276\2749\305\017>\017\026\215\275\275d\'\2727v\'=\331\242o\275*/\200\275\211\217\231=\223\200\220<\270t\240\275\343\246v=\324\377\211\2753\037\256\275\234\245\340=\372\215J=\237%p\275\244\231\243=UBe\274v\223\017\276\355H\007<\363#\014=\320\006\201=rK\002>\"K\360\275\273l\031<\213\363\031=\347\223\232\274\"\271\315=\272b\001>F\351\r=\'1\010=\001\002\213=\320\277=\275\350\022\037=\313^[=Y3\301\275\363\307\237\275?\253\025<\330\020\030\270X\213\257\275\320\272\021\275\214\246\307=\363r\376=\346\374\216<\300\274\260<\376Ec=\364\323\267<\213\231\261\275\033\221S=\013\025J\275GA\266<\201u\272\275\373\302\267=\223t\301<\271[\342\275\236\034\027=\206=\250\274\255Ms\2751\307\210=\263e$<\311\013?=\377\004\314=\341\322X\2752\254Q<\0235F=.a\002=\272\334\226\275xW\252\273V\226\314=\241\314%\2758ap\274L\211T<<\260\260\274\336n49r\352\322\275-\361\377\273\350\237h\274\347\220\270<\323\307\205<\347\241\026>\263\265\317;\344\256\026<\203~\371<fm\202\275/\025\014\274\006p\322\275Z\305>\275\314\327*=\242\375_=\333\344\214=2\327\021\275Q\351\236<\320\001/<\210\363\221=\324\245;=\272.\373<un\005\275\370\333\252<j\335\342<\204I$>\367/\362<HE\017\275\030\240\211<`d\261\274\224\365\004\275/\345\264\273\26096\275\364\352$\275\212B\276;\306\210\321\275\024U\023=kG_=/-\322<\374\273$=\243\313\263=\220\202\317<\245JV\275\032\236\327;uLD<^\301d=l\301\212=RI\177<\003\307q=\263V \275]E\001=\202^\017>\002\322\206\275\343\310!=\231\275\232=U\332\025\274,\370\363\275K\017+\274\263-\350\275Y\003==\\\237\020\276\222g\360<\227Mc\274\213|\256<K\342\272\274\t:\256=%\203s\275uCi\275\004\035\234\274\177\242\036=<m\037=Dk#=0\332C=\010\212\342<d\343\260<;`\351<\031q\227\275U\236\007\275\300YJ<\264fI=\306\3510=L\236\257\273V\212\006\274\330\314\313\275 \355m:\325\'\r<\313\304\034=\276\354\n=_D\032=\024\004\302=.`\255;\021\374\371\274L\030-\275F\201\t\274n\024\224=\242V\322\274=E\016:A8\231<\016^A\274\314\305D;*u\337\274\232\336A=\n:d\275(i\010\275\340\272y=`r\342\271\317\210B>\203\330\243\275[\365\007=\023iy\275\260\332Y=\t\322\002\274G\253\'<\346\366\340\274\227\377\"=\365\251S\274\263\226\332\275\362\021\201<\320\334\310=\346\2703\275\r\230N\275Z*\205=\017\375\037\275\342\273&=\346\241\241=e\222\266=\300\335i\274C\r\271=\313+\331\274J\034d=\177W\272;\323\3779\275\242b\335<\360Mm\274,Il\275\010\214m\274\354\266\266<X\341\204=\272\0054<\301\017\346<z\351#\275\371\251\326:\021\241w\274A\000\233<]\351\022\276l<l\274\353\226\304<G\007\350\274ppH\275\2158\213=S\177\305\274*\223]=\334\311?\275\344(H;\013\013\263<\217\212\272\274_\272u\275v#3\275\317\275\201\274|\336b\275\002\374N\275\342\275\222\274\331\340f\275\017\364\343<\354/\270;\221\032\n>\263\362\242\275\255\001\340\274\366u\020=\355\300\264\272U\003\035\276\247iZ\272A\202\352<\211\332\226\272\311)R=\240\357\013=\277\345\001>\274f\242\275\211\213h\275\367@v\275}lN=\354\201(\274Yg\230\274\225L*=\231\'\213\275\211f.\275v\322\205\275h\266z=!\375\013<\214\313y\2759\023H\274\265e\326;c]\027=6R\270\272\270\207\007\275\250\366\274=4\225\303=\372a7=\025\345\t>aa\221\273\201\003\003\275\376\350\023\275\t\031\217\275Z!\031\2751\347\260=\220\363e\274G\006\301=-(\206\275\266+\206\275\263\232\002=\322\237m= \373\214=\224 ==\267\376\226\275\002][\274\222\243\327=\233aW\275\207\305\214\2731\313\353=~1\002\274\317(\314=GZ8=c\215\327\275`\214\310<\014\275\201=\326\211\255=:\365\035=\215\273*<\177\240\016\275\335l&>a\377\316=\2530\r=?\036A=\306\261\273=\nL\222\275]\253\200\275`\242\213<\273\031\240=\'0\245;\242e\335<\333\266\004\276\220(\316<\255\017G<\207w\210=\204(\207\275\311\263W\274\354\035\214\274\211\250\212=\004t\035\275I\003\334\273\347Ld=\304\371\226=yI\242\274\243\324\035\275\326B\244\274\247\360\263\275\361(\256\275)\300\315\275\356\255\n<\243\305\310=\275(\257=H\255\r<\037ng\275q<\354=\275\252a=]\305\267<F\203+=\211\336\206=\036\214\025=\243\247n=\213;};\363M\301\273\246|\270=\3233X=\032@\311\2749\233\n\275\214\000\213\275\331\371\025\275~FX=_)t<f5\213\274\330\351\306\273\215\237\003\275\003\343\n=\262D\224\275\354\203\251\274\344R*<\004\3114<\356,\t>%0\030=+\026\205=.\306\357\273Yb\347\274\234\261\220=\301\335\375\272\"L\376;\326r\036>\366j\315;\344z\373<X-\277=5\256-=\367\315\275<&C\374<C\031\243\275J;\030>\000\206\235\275\224\205\003>1/U\276\374A\316\2749\272\214\274\027\217v\275mCr\2759F\350\275\030\202l<j\321\230;\201r\236\275\206\3169\275\346\360k\274\230\032o=\376\354\364\273\300\342\217\275-u\203\275F\362\016\276\267\257\362=\274\253\310\2752Vi=\005\024\336;\354[\241\275\030\243\215;\266hQ\275NWA=\005\312\002\275\2515\215=1$\250<\343\332\315\273WG\222=5h0\275b\204\014=a\306\207=\333\367B\2748\206|=\317\335\230\274>\247\351\275Gw\272\274Tf\224=6)\260=\024\356\213<}\034\245=S\036)\2752l\371<\302\266\221\275\274\220p\275cn\256\275\'\3024\275B\0340\275F\354C=qM\312\274\366\3311=\0042\032\275G\345a>\363$\270\274\032\035\225=>T\264<\t\332\234<\363B><\264\300\370<w\301\271\274\025\305\227\274\353]\014:\352\014i\275\347\341\347\274z\214l\275\214\243\330=\023\221/<cHB<K\340\316=N\325j\275\254\354\002<7\353\320<\340v6=\327\r9;\311|\347=\274\0258<\221<\322\274-\031B=:\330%\275\303\\~=\301_+=2UP<2\032\244\274\036\020\177;\331+\346\273\254\023\253\273\237t_=\241\235n\275i\347\032\275\2264\241;\334\350\227\275\272y\204\275\036\035\213==\2646<\272\247\355\275\347\177\207\275-\267C=g\223]=\'\237g\275\\}(=\003U\n\276pA\226\275\372\212%\275(\232F\274\375\267C\275\316\343:\274\377\373\274<\322$\345\2739\335\003\274\023\362\222<\372r\305<\257\312\205;\312\364\200\275\262\014#=A\351\022\275\354\342f\275h2\221<\031|\r>\366\255\002\276\352<\246\275T+\277;\367\004Q=\363\237\034>\365\372\334=j\026\350;V;v=\344\' >\311^\223\275\373\207\267<y9\217<\017\226\265<x\317\257\275\323\300><\353\345\212=QN5\275\247\316\264<\213\003\215<\361\272\245<\2404D\2759\263O=S\366\222<E#R\274\227h\026=b\252\'=\022~\226=\360\377\017\275\3102\231=\226\337\225<eR\n\275\211#`\272\032\266\344<\337\256\202\272\327\2421\274\327m\304=\347\246\217\275\013\352]=m!\302<f\306\270<\005!_=\365_\224=\312\2122=\257\375\226=\t\342\262=f\204\016\275\334L\206=2\177\\=\346\324\205=\244^\362\2747\260K<\215\232\223<\370V\235\267\234\272\236<\260\344C\275 \000\"\273NB\304\274YJ\230=_s\212\275_\351\027=:\007\342\275\004N5=p-}\275Z\300Q\275mr\207=O\241A=U\035\320=\3141:=\n\234\262=j\366p=\3629\311\275qH\371;\356a\333<\233\235\261<\367\003Z\274{\207\275\274\261b\270=\254NH\275\277m\204\275\377\r\353\274~\357\036>\237m\342\275\210\204\t\275\367/\235=\237\356\247=\371\020\325\273J\245\333\274\243\010\306:\361\002U<$\242\251\273b\231a=\023\242%=\356\235\237\275\273\207\225\274\331:\245=r\260:\276b8\034\275A\332\203=%\n\010=\233\326\035\276\275\322\371=\0322E\275\025#L=j%\223\274I\236R=\275\3121:\315\264\211=\375\240l=\345\317\005=0\260\267\275\232\224\344\274iD\226\275\220\315\210=\020m\003>\304\'\214\274\326\034\232<\240\262\002=\362\204\372\27431/\275]\032\">au\201\275A\346\';\222p\220<\225l\303=~#\230=\223\343\331\274F\360\027=\026\342\326\273g\313\232;\211\274\371<\276\030V\275.\315\000>\262\221\317\275\237\323\231\275\251\000\210\274[\"\n\275c\351\245<\200\375\254\275z\264\252=\034S\035\275\332\007\205\275%\006\202=S2g\274\304\340\214=!\017S\275Y\033i=\337\021}\274>`\341<\371\3313=\023\026\373<mH\214\274\277.\024=s\222\315=&\033\224\275\024^\026\274\"\326\231\275Tj!\275\301|\202=\314n\231\275\007\314\215\274\204)\217\275T\222|\275m\017\241<<\360\263\275\255^\276\274\270%\326\275\034Nf<{\347\330<\357\3777<\245\356\230\272\033N\264<\225j\204=\201\237\'=\013w-=\214\277\337\273\252\277$<\314\225\342=\362\344\276=jv\037=0\251]=w\230k<\277\254\314<M\250\210\273RN\202;\317\232\033<\372[\244;\303\r7=\227\371\325=-@\234\274\004\031\033=ZS\366<\234\'\242\275\213\336\263=\037R\262\275\335\342\003\274\322o\204\275O\324\376\274\010\227\032\275\253\264\002\275\330d\267=\006\017h=\255c\352<\341\2669\275U\331\201;\205\375%=n\254\010\276\376\324\221\274:\204&\274\271\2033=\242\330\270=\227\236\320\275h\234\310\2753\330Z\274\250\353\025=\202$)\276v=m=\027\353\367;p\337\354<\312\233/<\262\255\360=\355`E\2757\343#>\032\256\357;{\305\207\274\033A\215;x\373b\275\360*[\275\344>F=\311%\257=\370\221\022\276V\026r\275\230\301\003=\322=\276;j\314\212<.\355\251\275\361p\264<\242\302\264;q\022@=\241\003\246\275\366h5=\341A\206=\204\366\200\273>\033(\273aPm:{\035\304\274\361\355P;\303k4<E\363\370=-\245`\275\004\327\317;\303)\010\275\260\327\350\274u\242L\274\002\014L\275@F\227\275f\341\367=\\R5=\367\251\343\274\024\365\356\274\221\302O=\037B\307\274#e\305\274\346\244\311\275\314\352\035=\363\255\204<\3759E=\275A\327<6\374\022\275p\206E\2758w\317:(\322\235<\023\214\274\273\215DU<\024\313\300\275\3664=\274\377G\355<O\304\022\275\0266\021>\246*\340;\375fy\275\000\235+\275\354\361\002\275\360\304\231\274\323G\374\273\025\211\246\275o4)\275+\033\022\274\224p(=\223\346B\275C\037I=$\204\235\273Q\3536:Z\311\227\275\007\361\225\275\355\374Z\275\007-\262=\037\344\336\275$\250\227<f\031R=\367\303\367;}\236\027\275g\204\357\275\233\207\237\271s\352\350=\035\333q\275\253\313\355<\r\004\217;\256\323Q\275Y{\017=\256\314\023\275\360\240f<tp\247\275\035\376\224\275;\335\r<\246\361a=\030\030y\275\\\346\363=T\215e>\253\314\235=PX\231=\326\250\007\276GTU\273.KT<\271\335\204=k\2010\272\312T =\205\005\243=[\221\001\275D\337\'>\252_\214=\232\023B\275?\255\030=\364\232;\275\261\230\031\275G\225\035\275\033A\217\274\243\252\332\275t{\026\275\355\005\273=\347\261,\275\351^\321\274\253\324C=O\227\204\275N\364-=\342e\035\275\031\2025\275\346\252\253<\014\241\221\275\214-T\274\036\261e=r\007I\274\357\273N=\316\032?=uq/>\243\364\240\2754\367\020\276\244\243\207=hI\302=\305\272\214\275\0027\210=\204\302\235<Wo\004=T\3415<e\375\010\275\323\357\214=h\037\275<2,\253=w\230\307;\315\t\231=\204N\032\275}r\222\274H\017\331<I\033\017\275\372\027H=\3763\355<\237\206\221<i\226\253\275\350\302\360\275\271h\233=\304\276\311<\316\301\326\274\227\356\370\273\024\226u\275}\243\204=\365\325\017>\322|\021=\'b<;F\000\272\275\250\325\r<$\367h=\025\027\241\275\220\037\350\275\242t\247\275\216\263\323\274\377\016.<c\270\274=\243\273\031>=\233}<\0000\212\275\330\327v<QD\026\273\006\221\371\274E\260@\275=\212T=\361\367A=v\312\374\274\223i\317\273^\013L=]\225W<\312\005\206\274\225\376\355=,.\n>\226Gf\274D\372\200<\210\377\367\275\271\232\035<c\356H\273\215\261q<?=\r\275K\025y=\322_x\275\211\330\320\275\031|Z;LaJ<j\347\312\275O\272\272=\336\310\037\275\370\274\244;cB\235=8mB\274\224\337\232<CV\304\275W\'\347<A\270a\274\203L\210<\361c9\275m\337\263=,W\274=\2015\222<\2229a\275u\321<\274\252v\206=A!C\275\277Z\007>\267&I<\262\016\210\274\272\027\215\275?\235U=\"z\263\275\220i\233\274\200\366\262=M>l\275\030T\311=\260\321^=\032\350\312\274\356\325\326=\215\265\243\275\010l\200<\243\254\336\274 \254\212\275\241\230\301\274m\357b\275\312\333\325=\234\235N\275?X\267=\311!\000\275(C$;\255~\313=\334R\007\275\304K\222\274\306 \321<@]4=\273%\032\275eM\366\274\322\033\227;\224N\240\273\271Y\225\275\224b\242=\365B\303=\222\037\243=F\032U\274i2\264=g\317\217\274\234r\326\2745%T=\265\325P=\341.\032=\037S\202=\314\321\345<:\026\023=\311\301\247=\001\302\027\275\"\301o\274\007K\220\275\364\330\255\275M\270\025\276l\343\263<I\244u=\245\\x\275\\\375\336=\305\330\304\275\250\020\250\274p\377\274\274\270\376\351<p\250\341<\210[\221\275X\220\224=\007\233\205\275\251\363\017=>\347;\275\3235\004\276KE\241\273\305]\027<\200\353_=\272\354\341\275\353\2240\275\224G\247=e\001\366\2740m\014=l\005W\275\263I\010\276\273PD\274(C\207\274\211>\263\274\256\356\232<s\222p<<\372\017<0\263\\=\2268^\274f\350\357=e\230X=%\320\206<Rz\235=Q\356\266=\225\010$\275Y\005\236\275\372\207\240=\303\222\262=\n }\272\2553\251\274=\2548\275\034\322\237;1\311\307<\027\006i=\370=6\274\351\372\351\274\322\232W\275\272\333\214=\003C\335=\370\325\363\275 \t\237\275TJ\005\276(l\377\274MIe\275&\363D\275(F\314\274\303k\361\275\321/^=\360;\233=\037!E\275\270\316\024\276$B\372<\276\375\347\274\272-\305=\263r\220\274\222\203$=-SM\273\rX\232=\000p\361\274\262\007\245\275\2575\256=b((=\027\345o\275\356bQ;\337\240\241\274tP>\275\243\020\222\275\264\177\023\276\340\r2\274\251\027\373\274)}\316=\226 \010<\321\021E\275\027\2130=\230 ?<\0270\306\274\325_\220\275\324\027.=\323d\027\275\322m\364\274x?\320\273+X\214\274\230\031-=\376\262}\275\214\017\221\275\027\332\273=:\323\203\275>\361\005\276k\034\307=\017\274B\275\252\207\033\275\226j\331=[\214\344<\257S\032\275\264E\264\274@G\005\275\014H9<o\270\247\275\363S\335\275*\226\370\274\013\327\277\274\260\\7\275\032\025\307\274,*%=\253\004\246<\330B\330=T\014\331\274\307\270A=z\206\267\275t\341 <\220~\340\274=\303\210\275\022>x<?\361\351<\315\257\333\275\026\203\237=p#\210\275J\202\262\275\230;\357\274\232\004~\276\236H\337\274\230dm\275\335\326\244=\203\202\226\275_\350M=|\337\377\274\031y\014>$\251\200<\27030\274\3225\304;\025\325\247=\333\207\211\274_9\016\274.e\347\274d(\356\2749\336\030=S\265\374<\370\236\025\275\224\216\013\274\323<\036=\254_\246\275t\200\035\271o\225\211\274t\024\253=\005\275w\275\244\336P\275\014\226\000=E\3005\274\t\301\340\273g\222\247\273\235A\201\274\346M\361\272\203\310\334=\256\006\030=~\254\242\275\254\213\313=e\354S<\3263\251\275G\214\215=\202fi;]\t\340<\256;\255<\215\227!\275\325A\261\275\021\363\213<\227\217\333\274\026\006\272\274\266$\210\275\377\205\025=\035\375*<\334D\020\276\236O!\275\225VA<\375Z\013\275\002\004\303=B\001G;\020\307&=\2108\217\275\316\231\370\272x\t\334\272L\262\374;\336\212\203<!\305;=M\3759>9u1\275\300\265\233\275T\310\223\275\313g\n\273\027J]\274E\312\266<:l\234==\334\r\275\311U(<u\206:\275\263\317\231\274Y\256\230=\237>\333\273\324\275\260=\302\267\017\275\232tb=\361\274_=\n.7\274\004O!=\260\201O\275\001\303 \275\207\024h\274Yj9=\265\237\262\274\020^)=\313\211S\275\006<\230=\312\250\307\275\202\342\'=\345@\272<\204I \275\367\355-\275g\2342\275*U\317\274\022\331\003\274\243\307\361= \304\270\274\331\322\013\274\335\021\366</\372`>\311O\266\274\243\273\316\274\300\317\215;n\312\206<KZT=\250X=\275P\030\327\274v5\033\275u\375.\272\347}\004\275PGy=\3670s;\300\343><\006V\210\275l\'\316=\210\356\257<\201\260\004\275\247\321\003=\342\254\320\271\013\272,<Q\337\232\275yX\240\274\242\341\221<\0108\342=%+\003\275\'\"A\274%\033\036>/\026\273\275\352\342B\275e\273\221=mT1\276\272\372\243\274\003\232\344<\037\263\t>\375h3\275q\317,<9\261%\276[\'\\\273\3754\223=\256\001\245\275\263Yx=\363\024\006\275\352\030\271\275\377K<=A\275\217\273\220\347Q\2759_\001\275\026\202\207\274\2718\310\275c#\025=\331\010\315;\366\263\230\2759\232\370\274\3628\213\275\225\377\034=x82\275\376\256\037>W\r\227=\305\240\215\275]f\241=Iz\375<\326\273+\276\276l\223\275\233\013\261\272\313\345\034\275\017\233\000\276\352\023\240\274;x\246=aS\337\275\344\'\255=H\000\355=/\337\225<!\327\001\275\270T[\272\346$3<\033\212\212\275\\\325\231\275\0025\331=X]-<y\265\365;\302\337\217\275\300C\211:^R\350\273[Rb\275\366L(\276\344O\262\275l\241\n=j\004\003\273\221\214Z<\245&\217:\215>\205<\353m;=u\201\222=\260\263\272\273\244(\233=\226\320\206=\325\345\223\274\024\266\240=[;d=D\247\033\275#\220\331\274I\332\237<\256\333\232\274c\261\273=\026\362\002=\375ka\275ZR\266\274d\351\3439+\027\003=\000\221Z\275K\266\254\275\3615\215\275d\344B\275M\345\302\275\336\212\322\274K\031\303<k\255L=\036\331\211=\340\365;\274\270\302\336<\014\212m=R\323\024=\251\022\207=\364\r\235=\202\231D=S*\246\274$N\032=R\t\014=\321\233}<B\034\230\275A\003n\275\024\000W<\026\267\357<%L\364\273\tx%=ug\013\276\021r\263\275:o\320=/\303\022\275\370\277\301\275\2655[=y\"\350<\257\013}=\245\"/<iz\001=\014\273\010\274\245\266\370\275\204\241?\274\'I\335<\357\031\301\274>\'z\274c\377\246=\204\321\017\273\242f\n\275\306\0068\275\202\233\013\274\273\214\255=\017\376\236=\320\036@<\250c\211=|\360\235<\034\373\212\275\340\034==\001\014\273\275\001\036~=\374@S<G\240\006>\221\022\n=(-C<\325\201\223\275[\031\003=r\277\266\274\n\016\341;\'\336O=)l\213\275m\314\007\2750\020\251\275\354\227\305\274Q\316\361\274\341T\361<\016\261\206=\235\225?\274\211\005:=*\024\357\274\010\2048\275\022s\233\273\243sg\274\332\306Q<|\026\265;\347\034\216;\273\0360\275\375\r\326<\265\003\350=\342\007\204=\322o\245\274\231!\204\275\330\264\270=\211\304e\275y\222\261<\3237V<\302i\017>\314O\211\275\360\010\300=w\300\320\274\316\335\227<\261k\222=\302\205\023=x\351>\274Y\233t\274\027\251\001>A\220*\273\024\324k\275t\0218\274\242m\212=:?h=\345\264\277:\210\331\323\275U\242\354=\344%Z<\0007\004<J\270\302\273\271%\3419|P\264<H\336u=n\341Y\273\006\335>>\375\220o=\177s\030<VA\277<\201x\017\274M\311\r>q\314\265\274\307\325\233;\276u\370\27451k\273B\341o\275\001\356\000\275S\267\304=\262\177t\274\336\203\024\275\220\301/\275(\2069>\0030\355<\026\266\342;\345\354\270=%( <\206`\234=[u/=\277\272\261;\346K\221=J\251i=\362\306\204\275jiK\275o\241+\275ukT=\217\363\214=\244F\266\275\352H\260=\305\'Y=\205K\201\274\215\262\364\274\032;\307;z\320\211\2738\217\335=\033{\002\275U\264\r\275b\347\345\274c\346B\275\\\246\017\275k\204&\275\337;\315\274\225\037\251\274!\0328\274\026\217\235\274\333\353\227\274,\334\220\275\337rP\275\3662\363\274\210\275\334;\000\347\361\275rF\r<\265\237$\274\020}F\275!\3458\275\343(\022>\246\303\013<z\216@<\226%\237\275\252\372\255\274A\254\036\275R\224X\275\034\233\025<\251\003\036\275#\373\t\274\315\346\004\275A\353\257\274\t\220\r<\350\262\021<\265\366\220\274\3610\236\274vZ\014\274\202\316a=\235\253\322\275A\202\371<6\006\007=D,\310=\315\251e=\376\324\237\275k0\346\274\332\214m=\'i\206<\305\232W\273\020\340\022=\266I\014>\367\275C;\370\035\201=Wn\200\274\230\220\324;\344\235/=\312\363-=)er\2758\023\255\273\034\241\226\270\237\246\321=w\320\206=\003\031\367=\275\205A\275H\371\251=\313\272\'>\236\367\232\274m\225|\275\265\256\313=q\213\266=\335\002\024<\302\226U\275\223#\355\274\030N\001=F\ti:\263T\325=\313\216z\2757\204:<\330=o\274I\247\302\273\372\004\r<\020\306\374\274\021Qc<`\223\014=\371^\364\273\236\024)\275g$9=\323\323\222=\213\356\005>\277\227\264\274\031{\336\275\335\215\315\275\306\367\n=`\266\226<\rX$\275\010\316\235\275\0267\324<\227*\002<A\245\261=\034C\344=\223\204\305<e!\275=6y\244\273\3254\240\275\257\236m\275\257\235\003>\321\350\261\275{\222!\275\001\177\273=\270\371c\275\210\305\\\273\377\270x\2754B\261=M_\251=\227%\023=\2547\360\272\004\325\342<\017\'\311=C^\234\275Aw}\275\334\211\214;\017\005\375=\302%}\275\331\034\001=\277\236t\275\354\255\";r\301\323<\237+\253;\251\\\346\274\243\271$\274\331\365\004=\034f\230<\305;\027\275\033\n\256\275\023\2516=D \347\275\246\240\220\275\260\352\007=\3006%\273\014\244Y=\001\332x<\021\350\247\275\031J\205\275\303@\222\275 \t\000\275\206\027>=\271\312\"=\257\036\334\274\232{\244<>\374\035>\037\352;8\326\000\232\275\371\"m\274\353\352\260\274n\231\222\273\273L\032<\373\261\231=.v\210<d\252\350\275\266\372\206:\256\210\302\275&!,>\325p\204\274\327\371\375=\263o\313\275\303\317\200\275qa\005\276\273\233\213\275\006\020\227=\312\252\035<^~\013>+\243}\2756\2562\275f\312E=|\2639\275\246\263i=%\036\315\274\256*\014>\341W8\275S\016\232\275i\310{\273\342={=\275=!\275\304\215)\275\230\202\363\274\006N{\274|%u\275\215\336\026\276y\017\214=Z\304`\275\010\342!<fLd=\216\226\031\274\031\242\375;\263\222\221;\242\267G=\006\232\216\275\3535c\275B\2175\275\242\033\251<\363d\362;\\4\324\273\372\2148\274\335!U\274\270h\253\274z\304\314\275\263\362\'<V\223\313\275\254\265\244\275\356{\210<\277y#\275\022\303\"\275c\005\272\274\033\326\313\275*,;\275En%\275\353\366\024\275\036MZ\275D\341\231<X}\022\276\340\223X\274}Z\354<\236\316\002\276\020\237\230\275?<S<\316\225\246\275>S\037\276d\375p\275Wqy=%\336M\274\030\002\323;\374H4=W\276\005\276\260\230\034\275\272\312\'<\375_\005=\213\377H\275fl\227=\254\362\367<t\253\020=\224B\206\275\036\330\362=1\037\306=g\323\231<\304\225?=\035\310@\275\027\226\004\275\026\035*=n\262\206<s\337-\274?\246\227\275W\260\204\274jD{=\013\355\334\274\243\235\372\273\276\277\362=\0230\242\274\001\005g<\020\027\n;-DF=B\374\303<\364\020h=9\336\277<$\362\036\275@\255\256=\001\260U=\263W#=\362\276\022\276\257`1=\037W\247\275\t\n\304=\211\016\300<G\334y\274\225\277#=\026\227j\275\217 <=;\254\320=\270*\006=\274\177\346=}\2622=f3\375\275g\356\333\274\256 \251=w3\373<\314\023\240\274\370\020\212=\366El\275L\327\360\274$2:\273]u\007<\273\005\275=\233\341\237=E\336\257\274\306$\205\274[\270U=tr%=\325 ~=AF\232=x@\220\275\201F\267\274\371\365\013>\030\262S\275[\353\016<\375\024\331\275\023k\016;\21285\275i\306\026\276\226\177\244\273\321\237J\275\010\020@<\024\244R=F\352\014\275\223\254\302\275f\254\030\274j\272\366\274611;\'\256\306=]\257\216\275\200a\264\275\3525\252;\005\374H=\255\244?=\363N\007>N\217a\275\013U\237\275\343\375j=\251\317\031<yO\221\273 \361\267\273\354ig\273D\031\326\273\206\373\213\275-\211w=\304\304\311;\252\205\260=\220\226\020>\304\233t\274-&V\273 \\\215=\323\342\213\275~\340\000\276\253\"X\274sF#=\377H\336;5\020C=\360`\001\275L\351\224=\265^\347\274\253\177S=-\033\004>[\024\336\275w\010\263\275\372\023\245=\251V\204=\305\307r=\203\252\315\274\021\306\212\273\311\243\217=t\201>=\007f\271\275\247\213d\2753\265\246\274i\n\357\275\r\256J=k\275Y=\0147\341\275\3710\252=X\263\210<FuV\272NN\t\274T@\247\275s[\201=ly\236:\301:\236=\246\264\367\2743\363\223\274\261\374\211;\021!y=\026\237n=T\005\007=Mp\375<\025%\033=-*\371</\342\312\275\261dN\275f\227\272\275\255:+=\220\213\357;0\245\207\275\361<4\2755\265\275<\272\312\247=\242\344g9\253\364\030\275\207\242\345<\027\267G\274Gv\316;K\265\352<\246\204\242\273W\225\326\274n`)\275\356\206\020>h\024h>^(e\2750\034\323=\302\022\252\275\250\016\230=\0260\001=\345\372\333<u\274=<\271`\213\275x\177\320\275,4\357\272\204\350\200\275\240\246\253<\025\007\204\274\351\325\002\274\216\210j<2>\322\274oq2\274\2455M\274\225\277\014<\213\002\243=\202\347W\274\230\246\233\272R\214\205=!\177\200\275uv\222\275l\261\235\274\210\032\354\2745\212%\275bwS=\271\251\350\274\022\245m\275\227\342\263<\370_\n\2753\361\325<\356\3204;\205\001\307=\361\253\210=\277\225r\275eY\324<\310w\264=CG\232=\213\301[\275\303\347V<pE\245=;\224\247=\355\357\207\275\305\002\210<q8\217=*-397\206\253\275\233\013\204\275N^\006=\340\276Y=\263\210W;\266\230\242\275E\252\036=\226\0314=\235\316\255<\212\323&\275Pl\266<}\n\331\274K5\362<\233u\336\275\267^k<\007f\013\276\333\250\017\275\021,P;\330\253\r\275\372G\003\272\234\007\265;4\322y\27586\337:\262:\320\275{\200\320=Z~\301\274\230\215\212<\035+\214\274\312X\330\274^\022\032\276\270t\003\275\204/\320<\217\267\210\275\2254/>\225H\260\275R~\350;\233\033\375<-\272O=\333K\362<\032\'\027\275\200\230\227\275\323\350\236=\256\030?;&VM=g\177t\274\002\023\335\275_\311\227\274\277\354.\276:\327n\275\307\365V\275\337\336\272\273\021h1\275u\224\374<<\223g\274\343\234,\274\364\357c=*\202\266\275{V\223=\004\013\246\275\006^\312\273(\035v=\376\375\021\276\374N{\275\333\303l=(\227\301<3\260\003\274\2268\344=C3\200\275\343}\004\276\326d\267\274\306/[\274\312\017M=z]?=\255\361/=h\262\313=X\334*=\364\211\255\274\025\303\201\274z7\275<Xz\365\275\376\244\315\275\263\215\376\2745\245{=\315\366b\275\031\341\254=\321\213_<\335\367`\274^\307.=\013+\221\274?\001#\275z\241\003=9\233k=k\255\026\274\275\342{\275w\2751\274]\237\356;\360o{<5\270\207\274\217.\260=\336\362\315=\311\364\025\275\272!\266\275\212;\230\274\314E\312<9\262\203<eP]\275\300p\035=\002~\317\275J\375t<\'@E=\246\334\013=k\031\242<o\356\340<\372oR\275\306\243n\273\301o\324\275\261\337\034\274J-\213<\375w\236\275\n,\202\274\305\347\303<\275 \201=mJ\221\274\010>Z=\262iR\274}\263\255=\2362w=\367\204\230\275\223\003\322=\325m\220;\350\230\261\275a\220\353\274\240\006\310=\244\214\201\275\210\361\234=\3309W<\267YN\275\205\272X=\000\036\363<\336\314\212<\2006\334\272(\355\n\273\342\010\271<\356\014\371\273z\337\302=.l\271=\214l\307\274\326\005\200\275*\324\037=RE\234=\253\343O\273\206q\\\275\240\374\030>T\207&<\323\232\244\275\242\215b<?@\213\275\253\267\002=\231\n\332<0\234\005\275=\300\021<\320\207\316\273p\237\365\274\211\3567\275\014!!<\271\323\276\273B\233\202\275\332\027\312=.\261\234\275Z|\260\275\302\375U=\375\023\261\275\001.\305\274\257\006\262\274F\370\265=o\312\371\275\210\256\334\2759\224\276\274\006\332j<Q1\242\2740\343f\273_\200\036=\222\236\326\273\217\271\244\275\024\247\033=\345\375&\275f\215k\275\277\210\313=O\345\215=,\323\225\275\273\313\252\275K\306\354<1\245S\275\020\255\363\275z\001t\275\270y\020\275\354\256\225=\312}\022\276g\273\006\275\274\274p=\250\375\324<\317\260\327<\347I\301\274\n\312\314=\323\303\234\275\031.\373\273\216o=;\316a\374\275\341\006\362=\206\313h<LHU\275\007\372\201\275\210\227\022>\241\234H\275\345\352\017=\307:\234\2757M\222=lx\024=frJ=\263\245{=\321\206X\275\302N\220\275\371\314m:-<\221\273:\032\234=\364}\207\273-\331\237\274Je\301\273[v\232\274\t\214\037=\230\036\246\275\330\275\240\270\030I\252\274\220\375\260\274\001w\263\274N\270\346\275\330\031\222\274r\242\247\274b\350\347=\254\271\216\275&\024\247<\326\210S<}\026\027=\262\3316\275x\260\344=\'\345\203=\225\342 \275V\036\245=T\036\201\275\035\3442<\234j=\275@\307\201\275v\035\317;+\362\237=\206\264\035\276\342\017\370\275\034\352 \274\266\233*\275\372\273\341\275u^\037\274\351:,=\000U\016\276y\0318\275v\\\202=l{\327\274iK\037<k\371\302\275\332G\241\275\371\255\244\275)\231\356<jw\222=\264\340\002\276E] =\251\0008<$\274H<\260\364\237\274X\007\230\275\022\200 =\366\377v=x\310\300=lP\017\276q/\203\274\\\002\344\274\020Z\007\275\321\341\234=\237\'\243\274\264?\357\275\032\2517\275S\350\r\276\246\247C\275\2573\304\274^l\352;S\025*\275_\234f<5?t<\223\357)=1\207%\274e\266\211=j~ \272\330\272\020=W\300\326=\321M\321\275\254\333e=\251yd=\030\234d=\370\016W\273\307\250\221\274\363Y\366=\302\262\337<\300\205s\273\220\212\271=\201g\021<\330\205\024\275\333\003\003\2759@\261\273\216\336\322\275\300\314\216\275\317\252\337\275\023\355P\275\242\3162<\026Ie=Lc\322\275\271=\014\275\346\213\352=^{d<\243\234\210\275<\0227\275\205\017\001>}\237m<\005\026w\275\333\273\003\276~\367e\274\'Q\024\275\363{\\=\204\325\347\275\2265\017>\r\245\266\275\213\225\212\275\254\032J\274\300\305\240\271\212\241\212\274k6\213=R\220\214=\3548\343\274\022\022/<\241f ;4\024\244:7\031\212\275\310\017\035=\311\244N\275\202U\024\275\334\310\205\273\270\353/=-\227\305\275\342\200\223\2753\324\310=\202\013\351<w\3767=\000Uw\275mm+96\216\314<m\321;\275\317\177\377\274\n\216\250\275}\214?=\2152\333<\204}\312\272/\355\331;\340u\301\275=\022_<\357\273\214<\305D \275\374o\000=&\265\254=\010\256Z=\222Kc=s\212#<\337\007\302<\377&\204\275\363\207J\275\217+\241\274)\240S=c\376\'<!\031&=\232\222\306=\340\344\036=\372\231\302\275b\000\371<d\234\372;|\243c\274\013[\004\275n$\031=U\224\217\275\3157\217\275N}c\275\342\177\022\275\276\204:=\036\330s\274\265\334\267\275\347\231-\276\025\3033\276\235~\035\274\352\233\236<\327\t\216<\213\307\037=\035\250\311=\266_K\275p\330\330<\360F^\275x\225\265\274\263t\240\275\\!\033\274O\376\227=Qef=K\267\303\273O\203\313\275\"\327\362\274\370\373\020=\370\347\376;\340\361\020=^2\336=\354\025\243\275h\377\255\275!\'\210=\360\242-=\365S\354\2759\311\022=\336\362\'>\031\306)\275\316J\367=\232\tV=\214\335C=\004!\203=\360)i\274\365;7\274T\3273\275\351Q#\274\372\362\303=d,u=\266\2646=*\034\017\276\317\236\320\273\342\031x=\226\363\354=\271\300n\275\006\214\007>\233\243\031=r\322\220\275\377\033$>H\233\310\274\334\037\014\275\305\035\215=\026@\215=\"\243\032\2744C\007\275l\305*\275b\352\216\275\274D\274\274Q9\'=e-\234< S\360\275\307\002\365=A\241\222=\337\037\323\274_A\032;sk\224=i\212\271\275\345?\343\274\303\354\267\274\225\372t=|\004\350<P\262><J\214\\\275\001\317\214\273e\273\341<\347{\330\275T\220\204=\343\002G=\021a\325\2751!\263\272Z\321U\2744Q\364\275{\027\261\274\303\252\331<\312\r\343\274\224\204\n\2753x\217\270IX\027\275\216H\223=\026\346\245\2722\t\201=\302\t\264\275\370\317-=(\226\366=\227\026\342=\031%\346\275\212P\367\275\341\003\353\274\0331\340<N\r ;\240\360+\275\313f\322\274rL\031\274\241\264\006<\363\010-\275W\200\231\275o\263\253\274Y\234\014\275\'\276\261=H\027C\274\304\2624\275\']s<>\035v=\353K)\2755.\335\274vx\363;\330n\371<$bj\275}\307\307<U\211\241=`lX=\236\254h\275\234Rz=y\306.\275\274\355\014=\r<\223=<\213g<\025\320\234=\206\003\275\275VO\336=>\271N=8\200\257=\000\216\343<\313\2052\275\333[\240;\246\263\315\275\256YX\275\202>\013=^\306D=ox,=\266\3336=\202R\346\273\rgT=\323\353\231\275m\316\246\274o=\262\275\356;\324<$\203\224\275\214+\333\274\264\260\000\276\3342\214\275\204g =\262!\222=z\341!=\007\240V<|\215T=>\313\037=\037\257@\275U\244\036\275)\373,=\363\005/\274\237Bx<\300\354\320\275\352\265\205\275i\207\224\274\274Vb\274/M\025\275?9\202<\231W-\274\262\222\236<x\352I=\253\332\277\273\353\255\211=L\037 =[\027\251\274\005#\241=j\022\275<\353fj=\001\364\234<\227OX\275\350*\357<\002U\242<\222\330\332<8\313\026\276\355\344\t\275Z\346{;\343\221\320=,{*<\005\211\362<\261\177\201\275a8\265\274\263%=\274o2\346=Q\376\312=\207\3065\275q\035\300<\300\340\217<\325i\251=\217\221\310\273n\355\315\275\354\214x=-|\006=3\302\235\275\270\337\320\274\263\020\231\275\214\345\211\275\205\207(\275j\267\361\274\230\037\270=\331\024\273<\021\002\341\275\242\202\362\274\323\265\333\275\257\327>\275\377K\273\274\203b\344\274\004\342g\275\344\265\307= \251\367\274.\302\010\275\021\226\271=\351o\240\275#X\001\275Ea[>\347\273`<\210\305\030=\275\033\205\275\0026\217\275\3417\220\274\024\220\315\274\342\222\245\275k\354\233\273k\346\036\276\307r\213=\202\266\274\275v\225\314;\253\306\212\275p\301\205\274\033\225\215\275\255\t\177=W\357\316<\360\206\372<Q\205]\275A\323\246=?T\270<\217h\352<\217\271/\275\017\225\244\275\235\200\335\274\337\320\226\274\313W\n\275\203y\204=\334\344\232=\331\235\353\273\224\025\211<\304\311\355=\304\020\014\274l{\310<\252U\177\275\314K\345\274\364\375N=\337\033\216\274\321#\304=~\0015=\003\321\004>\0306\334\275\\\277a<\004\262]=\276\221\031=\332\207>;\217\230\261\275\301\322\224<\307\321\363;7,\272=\270\244\016=\236\304\334=\324v\247=\r\220_=\217\300`\275&\373\n=\241R\343\275\022\356\252<\202\242!=O\356_=\204\332\260\275\344\014\306< ^\240\274\307\371\212<O\t9=\207\n~<1\037B\275\266<\231=;\256!=tT\223<\352wQ=\033}\363=O\262\240<\313.\312\275\252\300\243=\367\000\\=:\243)<\344\205B\275ie\362=\270\336\022;M*\206=\024\3226<\003\031\n\276\030k\336\274\223\312+=1p\217<>Y\242=\037\n\264\274wL}\275\342\343\205\275\253\3563\275\327m\217\273.\2737\275]\367\035=\370\370\336=\031\007\304\275JN\204\274\201X\252=h\273\001=\006\255\230\273\344>\357<\314\212\310=\331{\264<\305q\272<J\337\003\274\334\347Z\275\315v\334\275\344\366\263=0\321\244<\272b\035\2749\302\021>\321\345\372\274\217>Q=2\033\350=M\272\366\274\264\261\241<\021\314\276\274\360\223V=\006\360-\274O9\363\274d\345E=\005<$\275\302\243M\273\223\353L\274\262Y\307\275\237\316\031\275\303I$=]\207;=\034\311\347<>\355\223\275\241\276\241=?i\010\275\234\256~=\312uT\274\356+\244=\345\003\017\275lC0\275>\252\316\275ol\201=\263\375\246=>K\340\275\310\262B\274\\0\224\274\026\336\215<\221$\230\275\353\246\004\275hr\256=K\2407\275aok\275\363\023O\275H\274\210=\nO\350<7uB=\352\277\322\275\353ZI=9\323h;\301:\017\276\376W\226<3f\225\275\220\031\304=\377\377\221\274\376\357x<IBd=L\264\321\274K\277\322<^)\255<v\355\213=\224\026\200\275\375\212\241\275\177\377\204=\014\205\2249\014{\006\273q\017\227=\212\014A=W\200\362\274\034N9=-V\344=\\\302X\275\377\245\307<\352D3=\225AU\275\003:\243\275\372\322\234<&\243\343\274\345\016\307\275\353\030\006\275\335\350:\275\002\321\233<\\:\344\274\253\224\262\275\023\360\240=`+\325=\306L =\347\222\300<W\206\270<\213\243\277=\025-\210=cl\204=D\223\351\275\r\371\006<\330o\001>;\355\023=\216\037\3669\204\021\340<_\377\r>N%\206\274\315T\226=O\317\026\274\315\325q\275\016\254\255<\004\002\026= \247\324\273W\271\024\275w*\302\275N \204\275p\317\234=\316\236\353\275zE\225=6\326\206\275\274\201\214\275r\356\250<hD;=\2609\370<\221\rb=-\033\200\273K\030\252\273\252\017\324\274d\341\345\274\331&\207\275i\337\027\275\026\313\233<\215\002\343=\361\373\310\275\032\036g\275\002\213\177<\313:\355\273\2706\003\276\210\303\326\274@r\233\275\275\372\225\273\352Xo\275%\277G=\262\355\332=\202eu;F4\037\275\252o\213\275\214g\014\275\372e.\276q\211\320\275)\372\233\274\310\001\271\275\202\202F<(\301\241\275\216\320\267=j\035\025=C\340E=\357\346\026\275\035\213S=\320\347e=\235\360\301\275\3513\022>\014\372d\274w$\002\275\352\240\304\275V9\004<\306u\301=\260\302\032\274\335\247\276\275\020\265<\273\277\362\374<\202j\306\274\273\371\023\275t\362x;\202\272>>=!\340\275\0207R\274\001;\307\274\201\266_\274B\232e\274\356\327H\275\332G\230\275\222_\020\274\356\037\236;l\340\327=EV\312\275\320,,\275m\261\244=+Z\310\275\013\013 \275\266\232:\275\035?\333\274\364\312\211\275\354\335\272\274\203\244\014\276a5\266;\314\335s=8\223B<\207\305\"\275\22130\274c#\215\275{\232\246<L,\"\275\327\004o\275\366\242\001>\007\255E\275\215\230\242\275F\311\371\274\241\013/\275\236\376\034\275\013\347\203=\306\326\264=\205\036d=\334\352D\275\003LX\275\227\204\005=\204\252\351=\372\205-=\362x\030\276/\352@=\311o4\275\343e\177\272K.\233=\304\252\333\274\365\036\267=\226\247\210<\320\246\t=\002\340\303=\036\316m\275]\361C\275\240\274\211\274\021z\002=3\017\362\273\303tE\275\262A\212\275C\026\260\273\373\0212\275P\205\206\273\3001G\275\247d\316<\256?\013>^\366\203\2742\242R=\230`m\274\023\205\207\275#Y\206<w\026\346;\273\264\323;\204\313/;\276Z\221\275\270\250X=\n8>\275R\320l=\337\222\215;\342N\026\2757\270\376=\024\0004\275T\234\022\275\2253\212\274\017\024A\274\241\242\351=\322Yp=\2416V\275\302\014\205<i\264[\275\211>\207=\220xC\275\365\006v\275\025\0236\274\241\373\364\275n\303\271<\245\n\271\275\350\265\253\275\277^w\275\367vI\275\t\023\335\274v\213\004>\213}\244\275u\216[=\331\022k<2\023=<\333HM\274\000\254\241;\224\r\216=\325\251N\275\370\006\363<?\361\216=\227\214\233;]\365==L\002\014>\'F\200=\026D\317;N\353\r=\036\320R\274\252\001\\\275\212\215\322\275\246\014\303\274\221\353\230=>\344\325\274Tyc=\227\337\207;`I\244\275n\2537\275\273\001\361;\203D\222\274v\363\310\275\360d\020\2738\206\370;Qc\253\274?\270y=u6\r=\2719\274\275\2451\226=&}\201\275|h\322<\350\2264;\022\240\230=\354U8=#\003\267=V\257\275=\331\256S\275\322a\201<\342\037D=\354\203\205<\265!\n\275\235e\305=\274D\263<(\342\327</#\251<\007\237V\273\336\ta\273D\367\001\275\014^M<N;\326<\337\264\244=\016\0248\275hO\244\275\252b\373<\302,\267=\326ys\274\237\2245\276!\344\211\275i{==\237@\323\275\3235\265;\027\315[\274\231\366\305\275S\354\214\274\222\276S=\360y\010=\370\317\345;\223\205x:\242\233k\274\321\207\\\2757\315\271\275 M\277<\373V\243\275\307\017\217<\3149\246=\344s\345<\216\265\323=&\016U=%2\375\275\267\301\263\275\025\230\202\275n\324\027\276\351\005\214\275\001\352\034\275O\025\017\275\277\340*\275\324i4=\246\\\354\274\207\303\266=eF\205\273u\335\256\275\267\022J\274E\342n;\027P\260<;\354*=\250\353\325\274J\033\305\273k\'F<\027\211\203\2756\'[\275\3663%<\331f\331\275\324X\223\2752$\207=XQ+=j2\016=\336\275\376\273\255\276\265\275L\r\206\275f\'\215<>\027\363=t\333\030\276\240u\256=\350\225\307<\262/M=\243\306\263\274C\245\221=\306\027\331=}\312)\275mv\203\275\224\\\305<g>\260\275:\266\016>\253\315\274<\343\225\200=x\213B=\20527\276\225\217\014\276\321\346\231=\347\252\001\275\014]\'=\343\334\027<\026\nu\274|\251\231\274\243\277j<\035\013!=4\241\212\275\266x\260=\376\215\336\275\200]+\274\270\005\026\275Q\354\342\271~\025\340=f\235\340\274\235\345\223=\335\303\220\274\037\211b<L\260\342<\324\200\372\274~\373>;\t\357\223\275[\032\206\274ku\017\275\301&K=f\267\373<\222-\334\273\206\266\026>.<\272=\335Z^;&\004R\275j\026\310<ZG\330=QZ\005=]\326\n>\374</==~\357\274\230G\205=m\251\025\276\033\225\034=\024^\354=\276?\355<U\\\263=\244\232\235<\024\002E\275\014\337I\274W]\020\275\313*\000\274i\212S= v]=i\022\206\275z9\027\274!8\324<\274\215\211=0\373$<J\206A=\274\354\326=\360\323\221<\304\002\341\275\\\375\333<hN\006=\304\300>\275#aP=\342\033\225<\307\353\350<\375S\231\275\376c\226\273\006\322\0318>\232\227<\201\247\034\275\035\342\352<~2\346;\320\327U<\3149+\275\2555!\275_\022\337\271(C\254\275\243\307\331\273\204G\r=n\374\324\275\244x\302\274\326,\217\275\3573\330\274\271P\000\276\316\247,<\361\2370\275P\310`\275k\362V\275\241_\210=\324\312\205=\025\326\347\275\270\215\361<\2401\315;\245s\370\274\204\231\224=\247\024j\274\363\304\210\275\327\332h=*H\026\275~\377E;\332\034t=\207\372\310<\375&\037\275\312\2429=&\233\336<:\024\322=\356C\225\273\215\363\027\273e\342?\275\237\362\342\274\032z\333\274s\313|=3\253\022>\213\024c<G<\254<1\036d\273\032W\026\274e\246L\275\275v\242\274\013\014G<k{\211\275^\003^\274\342\263@\275\026\272)\275w\256\361\274D\225.\275\203\026\330=\345C\217=3D\230\275\325\3305<V\352D\275\332\237\353=\353\301\234=\214\337w=\232\312\234\275\253#;;?\214\236\275\214K\031\275(\244\224=V\251>\274\321\002\006\276\346\311\205\274q\005\257=\034\354h=\374\377\257<,h\014>\223\336\002\275(\376\230<ZT\250\274m\307\355\274\305\313\026\275\210\323\311\274+\345\255<\215\302\365\273\336\346 =[\033\340;\310\177^=\341\373I=N(C\275\336\013N=27\253=\372\"D\273 \002\241=nHj=6#\242=\211\311\n\274\372\356\t<\013\221L=\020\335d=96\035=\227\204\002=\312\324\n\276\353C\\=M\265\206\275\032\345\216\273,\'\207=\373-\214\274x+x=\370\005\217=\025\013\033=t~\210=\242s\230\275z\241\254=\000\373\316\274\343\025\345=\026\312\004=\271\007 <\344@\337\273\333\300\275=\235AJ=\315K\001>\222D\003\273\236P>\275n?\244<\306\t\211\275\375\373P\275\007;\201\274W\361}\2751R\301=f\215\334\275\212x/\274\272b\370=8l\215\2751\264\344=\220\364\337\274\021\213\013<\322!\343\275s!\346<9*\211\275)\300F=\025~/<\022\025\271\275\340\230\350\274\346(0\275qhp\275\322!G\273 \327\274\275RK\032\275\224\242\014\275V\272\001\275\000\212\277<\227\224)=\362HI>\001\206K<lq\311=\243\014\330\275\245[s=\200\271_=Y\025\027=X{\213\274R\310;<)\267f<\222\233\337=\336\222\276\274\321\336\243\275\013\177\273\275o\002\013\275Yj}\275\235\204\250\275\261\262\207=C\207\000\276\311\263i\275\016\366\211\275G\010(\2765\236\177=&\270\304\274<\362v\275\273\003)<\216\344\207\275\"\370\033\275\360\t[\275%\354\034\274\353\304\276\274%\333r=`\021\366\271\206\377/=\306:\014\2751*+=\"\354\230<\312\016\371<\223\373\300\274\227\220o;\3368\251\275\310VK\274X\207\330\274\2406\314<\325\234\t\275$\007~=vk2\275\007\031&>Q\352\226=0\004*\276 p\"\274\306\320X\275\210)+>\024\374\274<!\000\220<+\343\221=e\220\266\274\034\037\330=\324cv\274\351,1\275\274\273\215=\032\001\225\274\355N \275\323\001\024=\305+\033=\\\332g\275\013\364\375<\330\007b\275\230\316\242<\240\266\361\272\244t\252=\tSB<\002\322{\275\265\026\r\275\003\023\364:\017\262\207=\271\362\000>\245\257\014<\267j\241=j\360\266\270\301\213U=k)\205<\347\333\223=\307_\216\275\347\004@\275ATM\275N\030K\275O8\230=\306\334\256=J\301\000>\345\'\260<Wd\256<\211\264_=\340\244\237=\337:\322\274\\\244s\275m\252\000=y$\211\274\2622\343\275\245\342\213\275\326\033I=\264\320t=\364\364\t\275u\316\207\274\350\337\306<\217G^=\037\256\027\274PO4=<\244*\275\261\013(>\374J\201\275\230^\004>\241\305\216=+z\027\2748\233\010\276P\317\323<\360\014\235\275\234y\206\274/:\033=\362\217+\275no2=-64\275\336\372\272\275\376\3673\275\267&5\274,h\037=\263\322\237\275\r\r}=\206h\037\275\347\227*\275\r;\212<\'\324\363\2742W\300\274\237\243\217=\035\357\216<\227\203N\275\232\215\3419\226\214\2139#\345\231\275t\306\310<\276\3614\275\311\027\373\272\031Zb=\230cQ\275\210.\311=\266\263R\275\266\t\003=Ai=\274jZ\210:\326\255\324\274\322x\220=\345|\352<C\321\322\275%q\200=\221\231i>\r\336\211\273P\207E=\224?\016\275D\204\225\275u\337\222=\236\244\006\276\233P\274\273!To=6_c=\'\360R\274F\014K\273\007(\276\275:\351n=\363;\010\275\276\205?\275\370+\024\275oE\362<R}\212\274\345=\215\274\214\022\"=L\222\200\274\276\377\233\275\n\335\020=\220\234\204\275!C\021\275y\235\256\274\246\nn;\335\274\336=\026\305\256\275\344\336D\274\226\231u=\013>\372\274\231\346$\275A\233?;\242\256\003>\216<\016=1\235\235\274\345x\343\275\344\177&=+\325(\274YqH\275\330\276\247<\231.2=\321\300\024<\303\214@\275\355\nB\274\350\347\264\275rK\235:\257K\252\275\306+\352;\321(&\275A\346\211<\306D\257\274\215\002\270\274\r\273\010=%\233\036=0\311\300<\246\302\004=\'Z\353\275c\014\310;\265\t\254;F\327\302<M\267\367<\277\317)\275\235\355o\275N\336\214\273z\216\304\275\3407,\273}\031\332=*\235|\275xo\325<f\'\212<\347\222\035>\305)\223=n*\321<H\270\351\274\217Mo\275l\313\333\274\024A\231=\036X\314\275 \216k=\325m^\275:#\242\275\252\213\255\2734\205P=\246h\240=\213y\252\275\247\300\272=\335\251@=\240\327\231=\000\367\314\274\300\342=\275w\336\314\274\306W\300<I\212\343;lW:=\254\244\007\275\340\320N=\262\321+\275<2K<<\333\245\275\357!k\275\260\265\357<\302\210?=\244s\004>a\312\235\273<\006\254\275\007\347\363\272\014\377\251\275\352\260\240\275\252\002\242\275\353\240\366<\020Dz\275\326\252\254=\3452\023\276\243z\n\276e\254\355<\337m\004=\326\317q\274\372\241@=0\002.\275z\362s<\357\354\247\275\222H\375\274\310\016\257=\023a\200\275\361N-=\240\303,\275\361N\332\275\013\240\310\273\337\2035\274; \216\275n\256\322<\302\260\267=0\356\010=\365\262;\276\324\274\262\275\211\214\314\275\347\227\364\273\030\271\201=\215\323\020=\375\255\272\273\226\276*\276|\214\276=j\034g\275cn\227\275\'\n\200=\255`\202\275\327\035\261<\336\362K\275\355\225\305;\303\373Y=\013\257,<\260\320\230\275\341S\223\274\375\\\005\2750v\022=i\271\313\274\233c\344\274\266\376V=o\251\n\275;Y\357=aRC=^\310\215\275U\n\207\272\333Am<\374I\336=\242\336\224\270\235\224&=0\252\213=\351\223\256\275\365\276\n=\177\313\237<\216\232\3148?U<;a\024a=`\0302=\342\2643=]\021Y\275\256\230Z=\214UN=\302X\202\274ASh\2756V\034\274\256S\225=\025O_=\275\231\361:W\355,;\27698\274\352\251\035\274R\377\002=\234\013\'>C\373\352=\325\363\023;\363\004\306<,\317u=Yj\000\276\313:\310=[0\337<L\231\004:\032\2765\274a\0149=\260:\300\271pG\302\275\326\260\221\273\274\227\214\273\n\221\343<\304\273\203\272\307\025\371<\326@\243\275\200\214\025;\341A\327\275\206C\311<,\342F\275f\310\200<\023\'\032=\036\235\300<&$E\272p\005~<V4\325<\202~\203\275n\342\343\274\263z.\275\352s\216\275\360<\262<!\255\302<\304\353\315\2744c\360\274\227*\260\275\224\023\004\274\001py\275\256A\201\275\325v\313\275\3505\002>\215\204G\275\366\034\003>\3270 \275\365\304\357\274\001\342 \275\203\031\232=L:\205\275\217db=\351^&\274\253\240\213=.\365{=\204\336\024\274\237\223\207\275\220\024S:L\376\227;9/\344<Z\227\221\275\024fe<\272g\312\274\331\t\224<-\242\232\275<\252\330=Q\r\203=\t\005\266\275[J\234\275\014\0257<\350\350\234=\2617\273=\312Xx<m\2123<)\202\376\275\221\321\021\275\216xM\275\002\261\\=\320\004\334<z\231u\2758w\005\275\237\325\375\274\205\305W= \346t\274\303HH\274\001]\"\275%\370\002>\2139X\275-\275&=\325\275D=Ps7=2\344\262\274\361\234M=\334?\037<j/o\271\037\307\273\275\004\257\310\275\3304\240=\3500d=2-\317\274n\036\264\275?t\376=\366\210v<\337]\303\275m\272\210;\234\261\314\275\230`\r>\224Wg\2749\372\336<0TX\2754\216\006>\241\355\315\272k\370f\274\206\202\252\275\211\016\263\274\025\256s\275/\rp:\t\030\215\275\207>\350\274fz\"=\360Zf;7\343\007>\323\253[\275nC;=\032\335\005>\244D\201<\251&e=.b\231\275\031^\305=\343\220\340\275\253\177-\275\370\314A=\032\311\341\274O\320\005\275\003\020{<\350|\370\274|.7\275\246\250\035\276\025\245\007=%5\020\275R\305:\275\375(E<I\226\226=\370\030\214\273P@\311\275)\022\022=\247-|=c\327\222=\002\264\252<0r\332<\022\324+=\236\356F\275\005v\364\272\256,8\274R\370-=\326\211\247\274\356O\213=\324\177/>\377\2025<\033\220\261\273\252{\025=L\364\275\275\352\316\031\274\310ad=\333c\027>M\000\263\275]\331\360\275\247\304E\275QP\334<\341[6>P\275m=\024\260\002\275\345ZF\274?@\027\273\305\333\r=\350\320\221=\276^\222\274\001\241\335\275\270\230M=\324\257\325<@\371\302:>p\017<\035\346\312<i\205=<lx\200\275P0t=QR\031=\26084=V~_\274\370R\366\272\266\014\241\274\312\215\030\276\241l\203<_~\360;\262\352\364\275\361\352\026<Fv\314=m\345\253\275\355\225\203\275\270\201\316<{\013^=\332z\024=\005q$>\210Y/=v\236><\360\201F\274;!A\274\342\253\217\273\350\030\327\2753_\327;\030|\243\275\242e8=<\376u=\222\327\323=\255\213\245\273\324JH=\2737\230\275\217\211W\275\336\017\016\275\361\177\206=\363KA==Qf\274\231\365\016>9\re<~\027\327<\261\336\306\275\027\344\000<\314K7;W@7<\270\204\370=\007#\260=\323\233\224\275M\373\276\267W\204A\274\32189=\334\346\036=\363\257\254\274\352\302\225\274M\246\3369[\240`\273\247\363\024\272\243\216\302=2\203\344\275v\346\264\275\367q\251\275*\027\241= `|=pH<=\014\0130\275\303\266\220<\203\232\035>,\227\271\275\027\025\035=-\375\263;{\036\376\275\273\035\231<\275UX\275n*A\275\247#\216=\267#\322\273\307\354\310<\350WC\275:_\237=\302\223\323<\205+\322\275.\236O=\360\320I;\207\005\330\274I\361P<a@\357\274\205\353\321\274}\205\267\275.\tO\275\354\204\266;\263\271\350\275*|\262<\336A\270\274C\303\026<\272\363`\275\346\241\340\275\323\035\212\275F\303\030\275d\034\366\275\004\306!=\250%1=\270\005O=a!\212\273r;\212=\3605\231=Q\274A\275y\365\022\275\344\246e=\302H\026=\r\270\246\275\034\347e<\336\\\274\275[9\220\275.\356\262\275\350\342\3449\302\013i\275\357\307t\275@\021\272\272]\233\027\275\031\031E=\227\014\270<y\250\214;\367\037\244\275\n\001\262\274\332\256\226\275\306\326\231\275\003\377E\275\354\200-\275X\214\311;>\373\200\275\336\277\020\276\342H\240;.\212W\275 0\031\275h\354\350\274NX\376\274\373\272\246\275\331\263\377\274\2606\241\275\315\335\341=\031\201\252\272`|\312<9\022\021=3\022\231\275\001&\254=-\270\016\276\236\266\204\275e(\216=\002Go<\255A\307=\021<\304\274-\352\031\275\306\202Z\275QPe\274\177\227\300=\237\332\001\276\021\300!\275\355>\304<#=_<\316\2157\274\275J\306\273\331\377\215=zTf\275)y\242\275\025\024\214<\276\247\273\275\016\005z=K\340l=\261\322/\2757\210R\274\355b\221\274\262Y\226=\275\304==\276\361\236=%\357<=\366\311\340\275\357R\004\275\310\245j\273\273\247\202\275:\305\251<R\354\231<<\033J<X\227\311\271Ea\321<\245\006\325;\006\243\026=]\032\307\273\202u\007\274a\345u\275\334\330g=\200\003\330<eQ\343\275\024\370\026=\204\025\227;\300)\232<\033\262+:\254\300\266\274\035\266\251<\304g&>\317\320\377\273\321\345\234\275~o\266=:\223[\274\020s\305==\242\240\275\221\275\344\274\302p\213\275\007\302\306\274\227g\214=B\001\\\272\344\036\361=z\005\204=m\330\362<`\016\214<\335YI\275\"\0220<\353\210e\275x\342}\274\307\207\205=\260u\234\275\201\326\323\275\336\352\275<\376\310\232=\336\014\370\274V!g=\027\275\257\275\366\312W=5\255\023\275\306\373\221<\034=>\275\321\302\212=\333\302\276=#6\207\275\"\010\n=t\304\212\275cGT\274E\244\t=\212&R\275 \360\"\275\227\034.\275S\311\231<\376\2521\275t\312\211\275\370\351\214\275\037)s=7\354\203=T\346F=0\302P<5\2518=cK\204=d!!\274\323\327\336<\363\227D\275\031^\303=\315!\003\275\247\253\343\274\263o\032=\024\210C\275,\177\230\275\007\312[\275\222\215\031=OhS\275\347Y\357=R\327\335\274\342\016\340\274\336\035\365;\330\230`<\"\235{\275o.\217\274\203y\r=;\177^=\2241(\275\236I\r\275p\211\370:\357\205\002=c>\273=lh/>R\252\352<\002\324\334<D\317\223\275;\342\034\276\261w\027<\214\re\273\016t\212\274^]G=\037\005\020<H\362\234<\027\312D=`\t\t\275\314\306\253<~\335\236\2726T\321\275\243H/<*\217\000\275-\363\241<\306\334\366=l\367\241\2757\252 \274\237\240\273\274|\310@=&/\205\274\316\251\244=\352A{=\262\361\213\275b\327i<\247\333\262=\030\314\204\275-$\004\276\356\230M=\002x\'<\325\010x\274\232\226\363=\216R\301\275pK\005>\376x\305<T\253\'<\242\ni\274\023az<\230\320\207\275\305l<\275I\226\033=\236\371x\274\274\024\264=\360\000\300\273\31421=\264\365\231;\3538\r=\265\324$=\264\266\276\274&!\030=\233\271\336<\265\241\025=\241\002\274=\237\271%<$\221\311=\000\226\371\274\264\336\220<]/Z\275\223\313\201\275\213\001 \273WN\237\275\244\203\201=d\221\330=1\323\300=\324\201j\276\006\206\242\274V\247H=ht\'\275\217\303\026\276\377\020\250;\031\374\367<\231\246\217=\331\310\314<&\204J=Y[0\275\002\327\243=\362\250\321\273\211\010\313<\244\375\002>!\243\277\275\365l\257\275\276\355\250\275O7\000=\347\2409<\351\036\207=\365\211\t=\335\247\214\274#\275\020\275\36757<\3256\010\274\316\372\241=\266\353X=\373\321I\275X\354\005\274\204\363\355\274\324]\260\273\267\305\003\276\330\204\006=2\340|=\302\013\005\275QPF=\035\017\226<\363\350\374<\264h7\275\311\352\270\275\316\003K\275\004n\320<\327k\023>\274\350\206\275\236 O\275\240\2545\275\247r\357\275a\3366\275\373\332\333\274&X\223=K\320\322<\311\336\212\275u~9=\347\340\014<\274\371&\275\201S\236=2^\001=t`\341<\006\210@\275l%R=\211\010U\275\003\337\212=\340\"\t\276g\246A=\215\222E\276B\016\272\274\023\361\003=[I\323\273\"y\254<\230\016\322<\177B\000\273\350\200(=t\034*=\214\016\364<*\373\371\273<\346!=h\"\017\274\tBl=*g\232\275\342\364,\274\014\315\216\274\302\362\230=\007\023\267\273\207\ta=^=\374\274rz\245\274\373l&\275J,\021</\342\334\275\013\312\257\274o7\030=\202{\344\274\235\213@=\242\341\335\275\335\344z\275\214\341\246\273#\366\244<\017\351\256<\233q\234\275O\266N\274\236_\014=\025S\211=Y%\367\274\005\027\247=v\030!\275\332Y7\275K\023\006\276\022N\233=w\036\266\275O\346\036=L\307\316;]<|=\232\367S\275\207\031\361;\020\357\003\276\364\201Z;\242\325[\275s\273\372\272\352\224O=v\2730=P\235c>\206\214\223=\025\351\307\275\360\323r<\242f\t\274\336>d\275\337\200\212\274\237\013Q<z\252&\2740!\004\275\370\r\037>\264y\223=\250\026\273\272\236\304\346\275\327\207\341<m\222\253\275ZN\221\274h8\207=`C\326\274Y]:\275\177\243\002\274\353#\304\274\336,\t;\353\215u=\"C\234=\301\214\240\2751B\025;\317#\250=?4\n>LDZ=\032\035#>\311\257|=\013\365G=\242\330\\=9\364\214\275\275\206\350=\256\323!\275\2676\220\275\201\224\254;C\355\224\275\206\332\013\276\277h\326\274,\344\316\275\222>\201<;\006I\275\014\333\256\275\020\0023\274\010\355\201\275\324&\256\274\251u\367\274gZ_=\033\031\215\274\340\314\270<4\000\341;O`\374<2\217\217=\200*\031<\254\003\272\274!\310x\275\2519N=\3413\226\275\200\n\305=\342\246W=[\002x<\020H\225=to\353<I\242\005\275\3709\255<\223\325P\275\014\245\316\275\344\311\236\274l\252\261\275\0108L\274\216D>\276=\360_<\307P\262<\304\365\033\275V\2069\275M\307\203<I!\230\275]i\203;8=$=T\177\341\275Y%\240<\n\342B<x\r\t\275=\2327=ts\003=\233\0367=U\220\325=\200\221q\2730\274\215=\273|z=\2015\224\275\026<\237<\344/\365\275\203\205\305\275X_\375<\252\2525\276\305\372\257<\274\201m=\261\272\002\274_\300H=6\225S\274\31500\275\025ST=\324z\233\275\263\227\272<\036\023Y\275\036b\222;\343\r\251\274p\262\367<\367\362\177\271\343(M=\224\037\034=\013\343\255=mr\264=\267\214\222\275\307\307q;\330\247\210\275\3643\213=\314\233\275\274\244\022w<eW\266=\222D\330\273\272\224\372<\372\346\237\274&\330y\275\'\017\262\275\301\315q\275\222\300\200<\377\237\263<\327\020\n<\242B\364\275S\035\004\275MPk=\340\340h<\020\250\226\275\025\267\203\275\306M\372<*\315\205\2758\343f<\0347\211\273C\262\223\2743\342\026=\243\244\251=\017!9=c9\006\276r\202\376\274t~#\275\2729\316;\331G\311<\237\301\221\275P;\201=\234\327\002=\242\2519=O\3103=\233J\031\275\224\234\r\275\350\032\\=\350\233\377<\332\323\307=\301\351\200<\342\316\007\275\330\231\035\274\310\312\306\274\250\3637<M\367*;F=6<,P\350\275\026\377\244=q< >e\212\203\275M1S\275\321\220\344<\001\230Q=\243G\252=t\3520\275\315\340&\275+\256\215\275\343\372\232\274\245T,=&=o\275\332\370n=\372-\240=H\200\005\275L3\267<4\357\375\274\266N\213<<\020\331\274\243\216q=\027\226\035\275A\005\030\275\271\271&=\005\366\037\275=>\245\275/,\022\275#L\000>\000tS<\205\366\014\276\306\002\203\274\276\361\226=\014\215\340\273\253A6=\304SF=&k\n\276H`\354<\240\330G=\261\010\304<\304\214\347<\200k\346;\337\336\216\274\207\003k\275\210\373\255\274\372$\322<\322\361\273=0\351\322<S|\\\275\006\225\003=\272\r\301\275\372\371\227\275\'\222\306\275\377\234\033=\276\350\302<_\031\004>=\010H<!\261\325\275\370\304\213<\247\345\207\275\372\311\266<\215\257\n\275\201\353J\275\244,\276=\236\321g<\033\216\201\275K\236\005\2763\342\005>\300\221\022=\207hd=x\004\035\274\316\3666\275pf\"\275\'\223\264\274\274\300\336=V[ \275\342G1=\037\321\026=\254\036\375<\330\177\023=\202x\202\275.\241<\275\236\275@=<\203]\274N\260\210\275\230\335P\276\246\226\254\273yE\371<\303\226\021\275\343z\263\275\275O\326\275\371\214&\274(k\335=\300o\202:\353\372a<p\312\356\273\'K\010=\3447\354\274\007\027\004>\025\222\225\274\361\276\271\275\376\371\020\275\352\374\022\273\035D\025\274w\332\232\275z\255\302\275\007\243\334;>\342\014\2753\344x\275\307Ar<\223\342u\275\230\360\205\275Wa\202:\036\231\375=\262o\005\274\311\337\310;G\000\223<)\3745\276\214\202\213\2756#\207=\374\035\002\275\220g\004=\314sn<%\202\031\275c\004Z\274d\211\252= \305\255\275Oi\332<\313\253\004\275Z\037\351=\030\210\273<* \347<\325\007\330;\323\272\240\275\216i\375\274\230\214.\2755=\027\274\361\322m=\350\256\217=+\"\331<\034\325\327=\257\264:\274\"J\224\275\017\022\204=\215L \275R\000\236=\340G\205\274\211f];\'\351\262;\342\317-=\272\"\326\274\274\3354;\372\237\221<)q\230= \217U=@\315\371\274x.\205\275\252>\023\275\307n\351\274\000\031\310<\247\017\000\2759\362\223=\221\033\210\2751\026\277\273\305\n\314\274\303.\251\274\004\007\247=\000|\216=\250\213\t\275\270}\200\275j!\212\275\223\214$\276\255\\\221=\351\217\304\275\215U\204<\010ci\274\023uw\274\230`\361;\211\3351\275\273\351C=:\313\035=\010\262e\275\032\366\215\275\215xk\275B\001H=N\013F=\237%\323\275v\026w\274X\254\251<n\332Y=\234\224\007>L@\t>\300\200!\275\245\233\246:o\213\026>\246\374\270\2719\031s=\016%\376<M\316\367=\254?\243\273\306\\c\275s\242\273=\222\221\360<\034Yo\275S>)=\206\201\021\275XD\230<@P\r>\214W\340=\200o\372\275\341\204~<!S\214=m\244\254\274\3249J\275M\032\000\276\312af:\'%\031<\257\257\276\274_Tc\275ZL\220=Y\013\254\275\323r\n=\301/\256<!\246A<\377\257\376=7\242\252=\002E\354\273\200\253@\274\361\242\242\275\337T\t\275\023\214\260\275W\310\277\274v\353\256=\313>\361\275\307\372\\\275\350\034>\275\236e\t<\273\024x=\371vl\275\207\300\033>\030\272\026:`\353\303<\037\345\271\275\353r\006\276\223\203\234\274r\315\377\2754\272\376<F\202c=\265\037\003>\366ak<\267\265\215=V\375)=\272\010\257\275\022\231\350:t\201\n\274\206Pd\274\373\017\260\275\007\370)=\362h~<\002[\203=1\256+\275\315\027>\274\261\301\027=\017$\231\274\363\342\250<\325\005\324=Z\251\270=\"\273\213\275\253\253[=\254\213\206<\373\340 <L\036\230\275F;)=\016\222g\275tW\020\275\221N\244\275\260\\\n=i\305p\275\346\246*=iw\017\275\017%\271<\327d\000\274=\r \275\221\232\001<\355~\207;\006\202\002>\342\362\023\275\230\351%\273\334\340\214=\277\237y\2743\217#=\351z\000>>\234\330\275\310\003d\275ndZ\275\304\325B=\257DQ<\214\272\215=\261Q\375\274]\373\002>G\006\037\276W[\037=*\220\355\274\216\246\367<N\254\"\274\000c\210<\361\344\254:Q\221\207\275vk\226\274\331\371\t\274o%\235<sk\220=\215\325\260=\364\271.=\001\021\261<\017*Q=\374k\300\275x\347\254:#b\223<\226\267\254\275>O\364;VX\177\275\220\0056\275\201\002y\275\373\351V=\227x+=\351\022\354\272*\204&\275\243oU=\026\033\014\274\221\315,\275\242>\303\2750$z=\321\276\272=\371z\023=\254\235\031\276\007\241\364<aJw\275\034\223\366\274\024\027\217<$\256\241=\222\013U\275\253\232)\274?Y\222\274#\356\021>t\300\217\275(iT\274\207=A=.d\353\274\325\341L\275\3523,\275\234;\002\275;\202\231\272&?E\273\346^\266\275\227\007\216=w\262\273\275`\361\371\275>\031\260\275\211/\372\274F\224z=A\014\267\274\340\3758\275\342\005\224;\304\272\026<=\336\270\275F>\006\276\357\tC\274\333N)>)|\027=\365\241\201=\365\204\325\275\213TF=\365\005\303<\314\330R\275G\373\377\272%\245\251=\031\350\301\274]\021\345\275\266d\302=\370\031 =\005\313\r>@\270\337\274\221&\213\274\257\024%=-\254\265<(h\254\275\272Y\'\275\235\024W\275`/\261<\255\206\234\275\237\026\t<\341\261F=\312\027e<\332\346>:myv7\217\336\361\275$\206\206\275\026\322;\275)\361}\272\265\006\303\275Y\340\275;\036\325\301<\000\004\227\274_u\014\275O\307\357\275E/\316\274\252H[;\240-M\275\250\220\306\274\251`\205\275O3\255=eW\312<z\re\275\234\233/;Q\253\325<\336r3\275S5\333\275\026%\350\273g1\272\275\272\306j<\245\264\004=\366\305\001=\240\246\214\275M\2164=\177=\363=\345\373\306\2736\345Z<\235%\204;\037%n=w\203\205\274(\225\373\274^i\177\275`v\030\273\2305\177\274}\013\t\2740\"\312\275\323x]\274\333\021\311\275\203\262$=\276/\357;5\347\r\275\334\257-\274P\200\211\275\335M+\2749\2150\274(\332 =P\014P\275\023\230\t>0\"\250\275\244iR<\375\014\300\274\003)\217\274$\020B=_d9=M+\361\275%*\000>\337\274F\275\245\017\232<\017\270+\275|\374N;wq\201\275Q\217\256;\257?\233=\301\312\232\275\354\016\275\275\032\365Y;=q\230\273\217\335\207\273\272\023\211=\365\251\237=v\376\334=\234\374\247\2744\256\320=\027\353==&T\216=\272\347\235;.\2027\275\313\245Y\274\336(\005:?\225\357<\243\354\216\273\204i\"\275I\023I\273\341\014y=76\n\275\223\302\000=\327\004\217=8\237\231<\316s:=\275\312\315=6\342\200=81\212=n`\251\274\366]\274\273\260\365\227\274\373`\321<Md5<h\361\003\276\211\321g\274\302(\246\275\031l\'\275\272\330C=\024\201\251=\254`\007=l\352\177=\251\237\021;\244\370\310\275\n\211K<.\r{\274\352a\230=V\320\213=\375h\221<R\374\344\274\270F\310;q\304\003=\007\031\372\274\201\210\276\273\310v\347<\313H\025>\234K\237=OA(=4\323_\275wWj\275\002\351\377\275H\353\327\274\234\207\372<\376u\377\272\352\2027\275\242`7=q\t\014\275\273\027\252\274\353\342\377\275\353[\214<\000aq\275\375\270s<NO\342\273g\306s\275CT\335\275\356\n\313\275\236RU\275@\335\020\27607q<i[\245=lo2\275XC\307;\023K\036>^\330{=rk\276;\'\311\n\274o\327\272\275\372\002\350<\214\336S=k\234\244<\305_\301\274yzB=\225\203\031\274a\214_=\367\215\020<R\234\317\2732\223\325<\365\341\356=d\020\242=r\302\245\275\361+\234\274s\013\371\275\271\317\354\274\307\357Z\275\343B/\274\221\317\315=H\313c\275A\364l<H\267\232=\212E\257\275\335V\357\272\350\350\361\275\325S\210\275\317\231\247\273K\212b\275\367\020\035=\246\300\247\275U\">\275\354j\026\273\335\375\373\275`\013\362\273\267^}<\0101\013=\326\244D=\330U\365<$\362\331\274\'\222\225=\347\277\026\275\215\207i=u4\377=\254s\211\275\366\317w=\341\277\324=]\265\226\275K\016X<\371\346V=`\337\024=\242G\027=\262\226\336\275\014\325\304=\274\341!\275\312B`\275\235O\213=|8\013>\233\020\366\275\346\374\360\274Y\021\227=\272\303\206<X`\025;\330\330p\275\370(\316\275\264Ph=\200>\241<\325\275\006\276\204\276(=\242\372E<\361\254\000=x\316\377\275\300\352\334\274\032|\240\274A\254\354\275\341\020\314\274\026\251\002\275\355Y\242\275\307V\337\274\323\025\355\275\330v\030\274@\001\375=66\213=|\243\333=\"\020\206=O\242\314<\307]\010\275 \3464=\204\245s\275~\205\222=\230s\320\275\225\220w\2758,R\275\013\356\276\274Oo\214=L\177\312\275)\013q=\362\260\214\273\314\2673\275\350@\321\274f\205t\274\247G<=\217F\362\275Y\367\210\275g\226\266=\267\263\375\274\325:\352=\314\333\244<S4\000\275\200\315n\275[\\\371<\326\021L=\376\327>=$\200\030\275\237\347\010=F\r\226\274v\367U=~u\334=\203\304\372<\267\217\204=\271\324\376\274\224\240\267\275\240AK\275\n\235\237\274\253&\'\275\340F\\=+.@\274Q\304|\274u\367\017\275\253\320\203=%\007\":\314\013\231\275\250\352\214\275\346s\217=x\3603\274\246\215\214\274\226\255\271=\273\274\210=6 \363\274\377\325\351\275P\t\332<s\325\265\275\002\376\227\275 \221\360=!\244*=M\265c\275\364\263\341<\247\365\231=\253\020\232=c\027\017>\331\312J\275SG8=\217\031\212\275\336Q|\274?\030/=[\007*\276\237\350\261<\322W\014\276\346\226(<\0273\333<\206Y\271\274\372\235\321\274\3501\300\275.\202a\275q\341\020;\007(p=\342\273\223\274\361\024\333;q\2657;\256\333\311\275*\226@=\013\210\275\274N\336\007=\\\207\006\273\357mk\275\303\312 =G%`=e\271m\275\273k\002\273\254\005\027>\307\271\"\272\247\226\221<\307\001\212\274\2075\366:\374{\352\272\0042\\=\224\242\232\275\023\013#\274\333 \r\276\021c\361=\223\032\013\275\220\241\256\275\\\223m=f\206\241<ws\016>\323\3753\275\210\320\033\275\211\256\023\275\032c)\274\3740\306<h\371n<\024\310\322=Z\345\006\275\303S\253=\n\361r\274\267\323\013;\331sO<:\214\206\275\335&\302<\030\302x=\263\025\233;\014H\245;\347\273@\275$;J\275\025\356\333;\270`A\275\317$\034\276e|\333\275\376\000$=*r\226=-\336\313<\227\242-\275\216\2135=\376\360(\275\230\353\242=\236g\274<V\316$;\345vP=\000p\304\275P\204\016<\000\303\007\275\344\337\257<\362%n\275\352\250\201<\227@\037\276\347\372\273<i1\257;\017`\257\274\226\030\326\274Vy\203<c\350\247<\342i\313=\263_\"\275\215\333\332;\267,\255=\t\017\001\275\306\370\246\273i\321\270<\273\361\334=0\377\003=z\017P\274\n\210\244\275\361\301\315\274\204^\360<\366\240\234=\03513\270^V\221\274w\371\213=L\002G\275|\'6=\275(/\275\236\215\276<\031\333\224\274\312\271\313\275X\260\373=\277\316\302=\325\006x<9s,\275\261}C>\244\177d=q,\033=VGW\275\200\210\331=W\227\013\275Q\026\217\275TV\340\275\232OS\275\341\247|=\222\373\243\275V\"\371=\350H\034\2758\222D\275\'T\220\274\277n:=?|\325\274\340!\300\274\206\312\303\273k\237\212;#\357x\275%d3=w5I\275\036\263o\275\330lL\275\334_\220\275{\036\030=l\265?=\004\244\231\273>\036X\2755\355\027=\354\217\025=\262\315N\274\036\007\307\274e]\305\275wSl=[\210\375<\356\224\006=\010\350\362<\213c[\275\340*\234\275\265\217*=z\352\275\274\275\224\020>\300$\347\274P\213\203=z\265\326\274M\356\306:\016\346>==\230\002=\354\261\202\274q\267\030\276\313@.=\326\306\357=\343?\352\275:\326\200=2~\034\275\306\346\244<\252Q\306<*\332\374=\262\224\201\275yzW\2750F\245\275\375\343\\<d\367\230<p@3=\222w\333\274t(G<\002\360\002=\225h\010=\351\003\017=\360[l;\363\316\304\275\357s\263\275\375+\275\275\025\301g\274\255\210\214\275\300\264[\275\340l\220=x \017=\207\303\262\274\345\204\354<\332[B=\024;y\275\271\026\365;2S\222<^W\207\275u+\213\275\257\021\177<\370\255\350<\0166\003\276w\364\321=\"\323(\275\220\330(\276\264\020\032\276\302\027\204=\346\303\325\274v\274\215\2757\200r\274\267\313\246\275\007\371\346;\337\335\325\274-\226\361\2754r\236\274\026{\016=\330,G=\344\020-=w\220\362=5\177\017=\261\217\275\275?\323\007\275\340\360\332\273\036\307\247<S\206\354\274\014\212\334=\232,\001\275y\227\211<h\341\264=O\371\352\274T(\260\275\250m<<A\213h\274\360F\202\275&\322\371<\264\364\252\274~=R;X\322\220=\366e\206=\210Uf\275\365\213j\275\330\275\245=\314\364\317;\r\221\376\275\371\025\373\274\026\"0=L\351\312=-y\377\273;\373\224<\351\266~\275R=\245\275\235y\351<\242\252.=\272h\345\273jc}=\340.K\275\223\233c=C\307\210\275)\300\260\275\350t\263=y\321\277<\344}\020<\321\352\253<CT\274\275f\215\243;k\343\266\274p\330\353\274?\206\206\275\n4\242=\336\365Y\275\313\027\023>\261\322\211\274\241\027P\274\001\r\020>U\234\267<&\242;\275\336\254#\276\377*\241=\335$\353<\252$\"\275(.\\<\243\226\343;\362_\200=\311\034\241\274\357\306f\275k\365 \275\240\270\326\275\234C\341\273&\025\215\274\353uE\275\214\247\220\2759t^\274\230\235\272;o\021\006=`E\023\275FD\221\274\322/\232\275\300\006|<\331Z\222=\311 \230<\320f\007<R\272\275<\230\005\000:Q\266I=\317;/=\"\253\372\275y\0063;\203}\274=\3061\210=\264\\\201=\345b\300=\024\366\021>\335\364\345<\202AM=\240\001|=(\271\241\274\353\323\266=\242ba<v?\004<N\330\321\274M\346G\274\363\014\206:\305SJ\275\243L\021<\224\263\005:\236\2342\274\305\022\226<>\216\234\275\265\'\236\275\263\266\342\274\037\024\277\275\362\200\210<\321\213.=+]\020\275007=\217\344\325=\265\351\010\275\314\347\027\274\234\222F=\250\230<=\361\201\235=\335\027\203<\261\242\342=\010y\241=}\305\352\274B\276\303\275\3412\252=\365N2<\277V\261<\313\227\375\275Z\\\244=O\344)=\245\334U<\215\332D\275k\334\220=\222\254\327\275q:\251<\220\007\226=Nl\"\275\2423Q\275?\367\213\273\246\177\206<^\302\221=\221j\225\275\026?\226:\217\256\210=.\260\321=\300\016;<\247\026`=\364\337}= \345\273\274.\036&=Q\020\200\275?P\337\274\222\372\260<\220\270T\275\277\007\004\275\272\262Y=\315\305\233=\351\213\270<\345u\255=\367\352\251\275\354\217\264=\022}\343:\t\241\273\273s\354\023>\320\264m\275\370 \270=\0330\220=\343\021\023\276\202\247P\275J`\314<\353}S\275\372<\3307\354$\344=r\035\023=\203oq=\241\257L<\306* =h\324\201=\017\260\302\274\234%I\273\014\306\324\275\314;\271<\020\006\312<\257\301O\274]\253\332=eI\254<o\317S\275p\333\263\274324\275\377h\303\274\223\267\325\275|\274\233\275|\344\244\274\000{\220\275T\250\242\275\307}\373\274\035M\306\274\373\375\301<,\304\3339\212`\245=\272Du=\024\350\033\276\307\0056<\3266\242\274H?\210;JJ\353:Mac\275ik\255\274uF\004=u\207\356;\342\325\020\275_v%\275\362\362\023\275\202\000\331<Jm\242:\224\213\007>\331\335\213=8\275\031\276-\241D=\2209\375\275\23028\275\\\312\351\274\347N\266\275\370e\257\275\342\357d\275L\253n;\016\267\312<\346\234R=/\034z=\312O\001\275\203\363\213;\333^d\275A\271\014\276\377\342\037>\333\364\270\275X\310\004=\322\243L\276\315D\335=\364_\230\275\201\231o<\251\220<\274\272\005\207;\034\344\321<y\3648\274\242\320\275\274v\202P\274C\376\377<\376\"\205=\305\370:=%r\304\274\252a\224<\344\t\256\275\235\204\277\274\r\003\332\275\343g\177<g\2718\275\206l\323\275\337\307\361;^\034\240=\236b\273\274\024kU=\357\263\003=\320l\006\274\305<\225=w\020\217=\203\322\276= Mx=\327\347B\274\355\222\304\275fa\306:\310ld\275wmb\275u\231\275\274\366.p=*\363\n\275\037|;=/\303\202<|\006E\275`\326\273\275(\323c\27571\344\274?\373\264<S\221\207\275M:V=U\243\256\275P\367\217=\255\321)\274\205\010\377\275\252\374\216=x\346\200=\0342\302<\270\245o=\315\336p\275\3518\031<8!\215=\213\t\257\275i\330\230=Q\3512<p\177\346<r\321\010>\261\300\261=\t$\026\275pz\337=\025k\312\274\003\231\t<\201:\013\275\3340\321\275\343?\307=\310:\240;`\332^=\343!\310=\205XJ=\204\2428=&\277\313\274\355\032U\274p=\020\276\3250\347\274\233\022D\275\022Q\204=\254n\261=\177\371\2129\371\267\331<\334\321\257\275\234\307\233\273H~(=\376\372X=\005\216j\274\010\014~=\037\314\322=}\371*=\343 ?=\301U\201<\207\200\317\275\256\275\023>\005\203$=J\340\217\275\032\342\205\273\321V\320\275\322\374\311=bw\311\2748C\230\275}\326\371\274\336\0077\273\331#\235=\215\367;\275\241\257\315=m^Y\275{\017\n\275\352w\250=X\307\265\274\375\333\274=\243\312\311\272\373\331\200=-Q\360;\244t\312\275F\342\205\275\312|\341<\335\007\030\275\2239\320;\371\006\227\274\273\321\000<\211a\233=_\'\230=@\371\230=o\005\027;@\273_\275\017\261\032\275\351B\217=\032\316p\274\214\"\007=\231\027\213<f3\267=\023R\377<N\351o\275t5*=\200w\220=\315\025\312<\257\265\341=\245\235 \275\307\024(=m\331\372<\272\323\213=\354a\277=:5\227\275\'\350\334;:k\223\275\325x\013<m\374\272;\300\331\212\275\tnZ\275\237\271\362\273\304Z\306\274\021P\236\274{;/=\211R =S\375\211=\315F\023\276\020\312K=\013\277H=\266+V\275\235\017J;\325\000n=\276$\270\275\201i\032=\262\372+=\221\253\373<\303)K\275\311\325&=\016\0079=\371\032\224=K\316\277<\230Q\254\275c\036\305\273\206\014\302\274\330\177\217\274\257@1\276\211H:\275\021\245\201<\n(\014=\263[\013\275\366\315\027\2768\254(;\241yO=\326\016\357<\251\256%\275\240\r9=\257\301(=9\001\370<\330A\236;\251{\232:\250\334\021<\363\037\204\275\211\213\"\276x\310-<\014\377\002=2Q\246\274\2555/\275/\3053=\261\014\225;\321\346\346\275\370j[\274\3024\004<\233`\245\273Z\317z<\371G\302=\3625\270<\222\322\035=x^ 