node {
  name: "keras_learning_phase/input"
  op: "Const"
  attr {
    key: "dtype"
    value {
      type: DT_BOOL
    }
  }
  attr {
    key: "value"
    value {
      tensor {
        dtype: DT_BOOL
        tensor_shape {
        }
        bool_val: false
      }
    }
  }
}
node {
  name: "keras_learning_phase"
  op: "PlaceholderWithDefault"
  input: "keras_learning_phase/input"
  attr {
    key: "dtype"
    value {
      type: DT_BOOL
    }
  }
  attr {
    key: "shape"
    value {
      shape {
      }
    }
  }
}
node {
  name: "LSTM_1_input"
  op: "Placeholder"
  attr {
    key: "dtype"
    value {
      type: DT_FLOAT
    }
  }
  attr {
    key: "shape"
    value {
      shape {
        dim {
          size: -1
        }
        dim {
          size: 200
        }
        dim {
          size: 6
        }
      }
    }
  }
}
node {
  name: "LSTM_1/kernel/initial_value"
  op: "Const"
  attr {
    key: "dtype"
    value {
      type: DT_FLOAT
    }
  }
  attr {
    key: "value"
    value {
      tensor {
        dtype: DT_FLOAT
        tensor_shape {
          dim {
            size: 6
          }
          dim {
            size: 256
          }
        }
        tensor_content: "\366\035\001\275\335\016z;\276\223\352=yo9<\241Xc\275\212\207\312\275\373!?=\262\331*\275\231\271\354\272\226\200\031={O\204;\016(\177\275\323\361\256\275\275\035\342:`\203\226\275x\235\233=G\357\246\274\032\227\021>\206$\200=M\022\313<G\347\307\273W\3402\273\274O\033<\010rD=fW\202\274=\272#\275\030\275N=-p\"\274\213y0\275\376\312<;\363e\322\273\371\257\265;\213\345\002\276l\355\226\275\027\247\366<5/Y\274\365[g=\241\005\002\275\267\325\036=rr\242\275\276xT=\331\270T=\314\357\341\274F\300\341;L\214\234\274iI\322;X\244\362\274\340I\010>\360\371\216\275\020\307\311<\034t\024=\202\253\031\275\271<\254=~\'\350\275n\035\241<\276\223B\275\242\353\212=\223C\210\275o\325z<s\214!\275\216N\366=\315\345Q\275h\357\377<\340t\215=\217\006\013\275h4q=\216\020\203=\335\321\032\274\212\232^\275\210i\013>\212\361\216=\347\370\313<\026\0226\274Vn-=\004\033\246<\225\325\350\275\000\334\211\275\3330\340\275\2564\007=\207Q\202=\306\373\371\2751\256\347\275\3330\272\274\250\355\034=?\026B\275e+\313\274:p\204=\030\346s=\260\203^=\216\200\273\275\002\302\355\274o\030\177=\2046\331\274\026>\215\274I\017\026\275\301L<\274\353\313\006=\\\377I\274\220}\343\274\241\226691\220?\274\201\340v<^}$;?\213\203\275\220\226@=^\215\221\274\306\031\211\274U\321a\275\200\215\214\275uP\376\274r\212\t\275\353!\327=\020\002\330=\214\271\202=\362\230v\275.\344\234\275\350\354:=\307\034%>\300\371\030=\377\310t=t\002\026=\331\207\274\274\246\033H\275#\007V\275\033m\236\274`\235\364\273\036,}\273n\036\205<*\257A=1\314\231=\207B\305\274\251\232]\274\272\311\026>\365\211\352<\251\007~\275\302\271\307\275\315+,\276;\230\206=\031Z\277\275s<\244\275\371\210i<\177\305M=\202\022Q<\234\260\251\275r\322X=Z\216\205\274\023s\237\274\005\303/:\324\223\311=\340+\316\275\336#\227\275n\326\326<\002\373\327\275\227\212\013\275]\351O\274]\003\347=\233\262\235=\237\010\025\275Q\344\030=\316p}=\302\312\217\274\233\007\346\275\277\211f\275\366\260\362\275\344\353\373\273\206\320\315=\003\200\215\274\0327\225\274*\272\026\275\021\323-\275\362<u\275|.V\275\311\362~=\317{\253;\2407\233\275\002\211,\275\211\022\264=\204b\237<\231\256A\275G\217\256< \010\203\275T\262\036<\221\332U=\324\270H\275\343UT\275\251|\016=\317\037\340\274\213O\257=\341.\r\275:\377\376=y\201y\275\260]\213\275T\334$={\215D=\013\225\237=\320\263>\274\253/\034\274nE\006\274\002\t\t>\026(\207=\321\306\244\275\231\006%\275\324k\341;\322\322+=O\365w\274!\372(\276tzw=\301\333x\275\255w==e\356\235<?\253\211=\007\024\035\275:\217\205=G\325Y\275-\310W\275DB\300=\"\207\000<.\263\366<\263\226\252=M\265w=\233\203\354<\252\032f\275\271\260\006\276\341-\303\274j\223\364<x\002E=\353\\#\275\330\202\237<\244\207\"<\221~D\275\014\243\352\275\341\\@\275\274D\005=\001\233\221\2753\320D\275@\322\303=DS\343=\256\252\300\275\333\310\017=!\t-\275\216\330\272\275\247\037y\275)4\241\275+\013\326<8\335f\274\335:Z=\244@\271=g;W=\224\205A<(w\231=\312\r\315=;\246z<\006$\215\275#\300\200;Z\364\347\275W\'Q\275\230[\302\275y\277Y\275}\344\366\273\017\370\214\275\271\300V=\317K\030<\250\002\022>j_\200<}wQ\275\361*\204<\270\314\t<Gl==FU\221=\034y\310=\245\270I\275\253\226{\274mX\014\275\201\'|\275\376\300\337<\361\301\242=\233\337\220\273k\242(=)\267\222\273\351\014\017=\301:|\275\350\232\212\274\335\310\347\274\010\360C<\330\2139\275+U\210\274\375\302\017=)r\342\274\365\026\005>&e\266;\177@\275\275]\334\337\275\006\rp\275\tj\002>8\300\233=\217\014\013\275\334\231\255\275\034b\374\275\320\267p\273/\365\250\275\003\221\317\274\013ts<\333\002\256<\351w\\=Rr \274\252Sp=\020)\032\275D\r\361\2744*\233\274\237k\034=\216\323\206\2752s\n=y\214G\274?\353\000\275v\304\223=\261b\346;\232\265\n>\005Ph\275\336\004S:\263\350.\275\306l\232=\262\243\366\274p\275\352<\241Gu=\346G{<XI\247=6\365\013\274\021\323T=\370\177\305<v\000\267\274\234\030f\275\364)\214=A!\002<\314Gf=*\313\223<\334\3276=}\235\344\274u\265\325=?\245B\275\220@d</Q\005=\326\033s\274\332^\322\274*B\\\275\033\321y=\247O\223=\030\264Q<*\224\253=\265\365T\274hI\361\273\371K\222\273\2443\337\275f\032\226<\361y\230\275\231\354t=\0224\213<\007\364)\275\337\374+\275\327B\304<\221[3=\375\261\325\275\376\313&=\310\300l\274\036\234\345\274\254\033\313<J\263m=~\250]\275\221\245\241=&\373F=h\236\316\275\365\023\230\275\014)\333\275\204K\213<\367T\237<\302wr\275\003\024\256\275\204H\200\275\271Q\001\276\034\003\027>n\351\177\275`K[\275v\267\1777\243\272\225\274,i\005=\3068\224=\370\250=\275\035\330\306=\3723)\275\326\231\r=\3015\204<o\220{=\234>\010>\267M\277=\334\031?=\222\367\267\275\313\333B\276\3469\213\275\375\311\007\275S!~\275TA-\276\255_T\2733\345{<\232\024a=\241\016\350=4\227\233\275p\032\374\274V\246p=>\013\316<\231*7\275|AU=\371\027\020\272\274-\221=,\320\345\274-F\207=\337\324\237<\327%U\275\r\362\261\275i\006\256\275\013\326\342<a~\326\274VX\263=~\0265\2750\275\261\274\377\177\374\275B\365O\275r\251\215\274\232\362\205\275\035\rO<=;\217=\265\356y<\004^)<\243\327\325\275\341rK\275\261J?=Na\336\275\226\352\370<^\220\241\274\357\356C\273\003\3516\275BA\261\273Rq;=k,\214=>%>=\202\324\374\274\360h\356<({\265\274\001{\337\275@\265E\275\222\277\013<;0\323<@\212\351<F\373\330\274\316h\206=\334\353 =\351P)\274\246S\212=\276\326\020=\201)\214<\224\006U\275\nc\371\275\251\231\317\275\340\246\267=@*c<\354\331\277;\277\n\305<\372G\202<9\273\326=\322v\r=\212\t0<\274y\243\275%\216\262<\315f\304\275&q\216=_\353\202\275\317\352\253\275\023O\273\274Y\267\315=\202ns=\254.{\275\226\342\200=v\3419=\217\255\2428\372\364j\275\357W\266=l_\270\274\372L\335\274\222\023\n\275\025\225\267<2\363t\275U\317\007\275\3755\340=(%\254\275\277$]=\260]\"=\027\361\217\275\310\001\301\275\202\323\370\274\374a\376\275\240\360\243=\350\2257=\261T<=\220\331\n=%^;=*\014\227=P@\334\275\014\332\240\275\204\223\221\275(0\035>\341\020%\275c=\221=\312\216m\275O\326L<\327vg=t9\202=\354\026\314\275\003\323\227\275`\347\376\275\264\n\032\275\0270\n\274\261\233\332<\315\254?=)\370\013=\002\376\205>Z\261\335\275S\r\344=\311\306(<\220(}\273\355\303\210\274\255\360\237\272j\246\215<-\246\354\274\367\314M\275\314\r\365;\000\242?=\377D\265\273o\346\r\276\343\223\205;\277\371(>\306\177\020=<\266<\275Y:\233\275\023_\271<l:\215=\304t\266\275\332H\021=i\351\267=(\n\276\274-2\001<2\276\262\274mV\372=\321\334\367\274\376x\027>\267\246\275=\337\261A\272\335f \275\365\322\233<\336\014\313<Y\253\005\275g;\272\274\353EW<\374G\024\274\201\257F\275\230H\315=\340\376\031=\014\032\366\274\322\000_<&|\017=\202T\317=_\252\335=8\277\362<\340Q\000\274y \2149>\362\304\273I\371h=\212|\334\274\312\334\303\274\241\270\330<\002o\341\275L\037\024\275e\213\013=*\347%\274\354\316\231\275\260\367\371\275#\2275\275J\363\027=V\027\225\273\365\343D={k@<\2323>\276\232\327o\274x\265!<p\030\273;\302\264y=\036\223\222\2738\004$=\n\363\323\273\324\r\033\275\017\206\274\274\302\2218>F\'R<\254\214\206=\365s\004>\272\255\252\275\211\233\016\275\350V =\273\ni<$\220R=5=4=@\\\255=f\205\237=\366@q\275j\\\030\275\003L\245<\332-\t\273\367\313\013\275\226\000U=\020\361\213\275\024h`\274(E\331=<\330\304<2\322o\275\331\245\032\274\005?\013\275C\212\\=\027\224\010=\300;\204<h\3236=G\241&\275\203\270\024>Z\205\035\275\376\021\216;\313\365\324\274\336X4=\231\345\003>\270\035M<G\361U\275M\316G=\2774\231<\320;=\275\306\030\226<\304\262\201\275\311\202u\274\230F\241\275\021K,=-\256\235\274q>`<\374J\300=\214\023\223=^\345\203<\265\005\214\275\325\203!\276lz\256\273k\371\366=\202\001r=\002\270U\274\265\221\031=\234\027\033\275\304tY\274\356D\336<\370~\263\275\355\315f=\330_\017=\236/\r=F\224T=\255\276j\275*\210h=\252\0234=DZ\301=4OJ\275\371\235\211\275\216o\247;\335\332\256=\204\225n\274\013Db\274\231\230\367<\022\312\000\276Q\347o;4z\035=X\316\212=}3\302<\2002$\274\262\030\037\274\013\204\235=\005r\252<\205\177\227=4\325\200\275\207\315|\275:\310\260\275(\003\301\274\240\232\271\272\206o,=bS\266\273\322\352\013\275Io \276X\005\212=C\360i=\330\334F;\017\355\324<\313\253\303=\323\007\216<\335\252\225\274\200\022/\275Z\327R<Qt\002>\036)\227=7D9\274\"/k\274?\'\310\274HF$=\214 \026\2755Z\255\273\' \215<o@\364\274\331=\333\274\350\237\037=\231\230-=\310\357\005\275\205\010\320\275\365\371\321=\333\021e=C\350M<QK\252<\371\341k<\225\231\323=\206\317\231\275\326\262\225\2735LB<{MA;&\267\324\273\362\300I=\250\005\024=\324\261\221=\375~\n=\303\354\226\275_W\000\275\365$$=(\231\014\275I\364\274\275\313\203\205= 8\010>%~\244\275/\031\241=\207C\333\274\215\231X\273\325\270I\273:\200I\275\217\3419\274E\n>\275<@`<k &<\307\313?\274\212@q\275F\353\245\274\237q#\276\227;\361\274:\376\272=\002\226\001=\270\']<\350l\236<\263\237\250\275*f\376<UL\241\275W\226W\273s<T=\345\313\r\274\264E]=\377\254\020=\177\272P\275\325V\341==>\303\275\246\243\200;X\346\365\274C\205C\275Sy\227\275\332\264q\273=\257\317\275\026\251\310\273\212\002\005=\354\227M<;C\321\274\326\024h\275#\327\327=\340\271\231=^\211\256\274\251#\217\275\025\225\305\275\333\255~\274\021\214\200\275Lx\254\273\202U8=\330N?\275Si\317<\332\225\223\2754s\356\273ic\263\275\023\270\"=Ay\323\274)\335\006\274ZT\020\275\311\243\'\272\307\001\307<\257c\035\2756\212/=\357X\032\274\315\375\243\273\326\372\272\275<\376U=m\201.\274tF1=\232\205@\274\361\332\356=\002K\023=\002v\234\275\251Wd=~k\267\275\312s\247\275\376\313\234\273\377\257y\275b\213\360<\244l\023\275\240\\\231\273\243\340B\275\221\206\244\274\200@\373\273\323.\214\275T)M=a\304M\274\343\177\263\2736\246\014<\271Uj=\302WR;t\026&=\314\271\007=\366\026\\\274a\210\002\274\n\202\377<\032k\325:(\335\270\274\246d\217=\337\316\337=\035L{<e\236A=\266\025\'<[\000\374<zS\223\275\317>\020\274m=\200<\267\266\273;;\375\371\275\310\271\321=E\256\006=\372,1\275\027<\257\275\202_\273<\037\'\036\275\004J==\314f\r=\223/\315=\360\237\026\275\304\306@=\303\322\222=\336;m\275\037i8\275\241\277\375\275|fd=\340?(=\27498\274\246\372d\275\037\236=\275 \264\204\274\353\372\217\274\014\021\'\275\266\237\203\271\365\274)>\325\276\240\275\327t\033>\016\225-\276R\253\250\275\026\377}\275j\347\367\274d|\322\275\205\255\223\275\261\004==\3006\326=\330\316\026\276h\r\212=J\020\013=\275%\206\275\360\222,<\273D\036=\377&\265\274\240\335\276\274j\001\247<I\255\306=\n_ \274\023\326a\275\236E\342\275Y\004\024\275\365\254\\=\254O\320\275;\377>\275v\246,=\241\213\200\273\3410\220\275\257\t\270<\317\367\221\273PL\201<\264\330h\275\002\024\025<\367\201\227\275%\n\376\275\034D\323\275 \265\"\274\370\242\310;)\252%>\275|[={\2634=e&\010\2757\345\007\274\034:O\275c\235\006><\356J\276^\375d\275\016\360\355\274\217\335\344\274\316.\270:w\0141<\036\267\266\275\327\326\203<\343*\365\274\002\337\036=\321!\215\275{\304\211<\261\337\252<\200\036\307\274HbI\275X.\220=\255\227\217\275r\305\021;\203\235\222=`8\002<[m\236\275\222n\001\275\264\374\005\272\305\035D\274H\347B<\303\365}\275\036\177==\305\221\'\275)^\314\274\214-\"\275\251L\006;\000\006\216\275\251\006\201\275\335\345\356\275*\256\211\275Q\240\236\273V \203=\211\211\210=I`\202=\'Qr\275\215N\244<b\'d=\243a\243\274\203b\177\275\303\274\215\273\270\217\230\275w\026\240\274\300\300\237\275`%?=\214\240\264\273\262\220K>\305k\016\276k\t\002\275_\037\266=\261\2162\273\031}0\275^9j=\007\254\004\276\2170\n\275%XQ\275\367o\030\274![\261=r\313\247;S\206\354=3\216m\275~\225\276<E\177L=w\234\314\275i\017\274\275\021\232z<MoA=\2577\344\273[\244\220\275\333`7\275\267\017\021=\267g\257=o\201\202\274\031\272\312<\324@\t=\215\010\210\275I\005\004=f,\355\273\277y\006\276\n\3655=\010\224\210\274\263\264:<\321\013G;\334V\270<A\234\245\275\322 \343\274+]\005=\2057v\273BS7=\002\327\367=\027P^\275K\351\326=\014=\263=bQ8<\345\240V=\374\363I<\026}r\275t\372\237<\226\231\200\275\013d\260<\3728\314=\024\310\336\275\301\332\227\274\021\271\322<.>\246\274\r\000P\275\375\374;=nXD<\321o^\275\271\2531=:\243\246\275\023|f=\256\356\204\275\232\2638=\rT\206\273g\212\010\273\362]D=A\004\254:\275\333\025=U\331J=Z\325\211\275|J\031>\214\364L\275\315\231\236=*\342\033=\375\327\320\275\321\212_=\020\270\215<+w\203\275\234d\005<Y\345^\275\323\354Z=\340x\227=\210\033\207\273=\370\266\273\030>f=\006hY<]\376a\275\303@\334\275?z\262\275\317\371\244<\346\231\253=P\277\221\275\316\234t\275J\302\":\234\311\210\273\253\020t8\331\242\337=\342\023\025\276\307\223g\275o(\205<H\206\267\275\212<\207;\231\020\026=\3742d=\001nQ\275\346$\327\275\302eY=\365\222\222=;m\030\274<DP;_\2066=\037rs;K\025\331\275Jw\241=P\247/\275\231}\227\275\270\207\244\275\354\021?\274\262]\017>t\375\022:\225\353\217\275\3331G=\3371e\274\"\353*<\004\226\363:\247[\r\275\276e\332\272\272\007\240<\344\346\305\275\272`\277\2742z\354<\2350?\274\022\220t=]\310{=\207\216X=\327\324I=;G\205\275?\030\024=\"8r=\031\314\032\2754l\356=\237\310~\274\005\3001=u\300\301\275\024z\275\275\255\334\014\2768\303\331\273\244\227\253\274(\242Q=\341\312\214\275\363\311|=\267\344a=\317\177\261=qx\026<-YI=\344\314\n=\311\350\307;\334l\262<Q\355I\275\267\324\205<%\360\t\276i\226\212\275\221(?\274\267c/\275\023\362\257<\214\375k\275m0\006\274G\376\365=\305h2>G\255\246\275\244HV=h\324>=\262\217\310\274\261\371V>(z=\275=g\223\275gNe\275\372&\013\275\250\344\252\274S\\\025\274?z\225\274\352\227\275\274\203\207r=\021\030k=\270k\210\275+\367(\275\224B\300\275\351\261\340<\034Ho\275D\320\277\275\236\220\t\273F\245\211\275\031@T=s\227_=3\3008<\334\324\221=\"\213\013\275\347z\340=\367\305\226=\314Q\347=\270\235\276\275\213\034\232\274\005\312\3409\26311=\345\3378=\344x\331\274\013a\345<\020\237\'\2759\341\340= \023\000;*Q\375\272\333\035\033=\305\233\320=n\376T;\341\365J;\372{\310=\247\342\253\275\262\374\330\273\000\t\347;5\002/=\274\351\372\274q\346;\275bw\220\275Z\205\300=s\361\256=\323\242\303\275/P\217\274m\0206=\326M\377=f\203\010\275\327}3\273\007;\036\275\3057\273=^\2120\275\212\332\027=\274\221\005>\024\274\263=z\335_\274\357z\233<Z\027\247\274\014\036:\275\303\321L=\022\355!\275\2149\313<\007w1\274y\010\300=\261\013\237<,\247\227\274\234\221\325<\3707==8{\240=\'\355\347\275\373\262\367\275\312\263\035\276\306\341\225<<\355!\275\312\367\000=\273k\207\275\3119d\275\274\272\000\275a4\276<`s\213\275m\0079\274\330D\333<b\000P\275\273\302!\275\355\033\312\275\236\0023\2752/\351\275p\264\372\274\336\237^\275}\277\230;s\301H\275n\265|=\357\372\307\274\273\035i=\243\363\017=\325B\343;\364\033\231\275!\240\250=O\232W<\022\362&\276;\030\223\275\010\362@<\'k\205\275~C\255\274RH\334<^k\366\274P8\336<\035\222~<S\266\007\274{\333\"\275a\315-=\231F\t=\221\336\274<\245FC\275\342?\260\273`\341\024\274y\373J=\r\230\206=M\371\362;\037uG\275\354o\302\275\311\216I\274\303\340\226\275R\355\200\275#\212~\2759\3605<\347\265\336\274\013\271\341=\231=\256\275h\026&\273\221E\260\275\300q\367=\263\026\366<\376\360\005>\273t\360=\032\r\021=\223q\033=IT\302=={\023\276\203\254\256=\001M\007<\311&<\275\2406\345<Y\275\"=*\010\274\274\241d\001=\276\267\267\275W\263\340=$4\007\274\361(1=8s\202\274;\3478\275\310(\212\274~\221\n=\005+\353<\371\201\372\273\313U\344\274\260\000\340<.\314\022\274\243\243\206=\203\262\317\274S\355\r\275&\005l\274\025\0137=\2456#\275\361\354\273<\265n\313\275v\234\242=\344\320\301;b\257\321<\261+\245=\337\024\033\275j$\356<3\010\271\275\260\246I\275\312\211\233=\t\244\240=\335\251\276\274j;J\275\271\020\240\275\277\017\233<c\221)=2\264\360\274\263\036\230=\356zf=\254\250\253=\231\003G=\221rA=\240\332\301;\301\254\323:\177\310\262=\013\366\002\276\215\260O<Z\362\244=\336f\245<\311$\016\275\326\363\024\275\375\241\034\275\333\206\\\275\014\311\252<\335\035V\275\262\215\020\276\217\307\336\275\223\366\336\274\376\223\244=g\025\225=\000\322\232\273\2007/\275\235\344\003\276L-\267\2758\313\323=\307p\202\274\223<\340=\322]h\275vP\221=\036d\230<\t\2652\275\226|\233=h\221\250=\211\335\314\275\342\340\020\2754\034\367\274\005Z\340\274R\235p\274-J=<7\025\232\2756\344\002=-\233(<~\017J\275$Q\364<{\\\203=\257\013\352\275\267\0039=\t\210\354\275\371\177\231;O\000\315<\366_!\275\243\366\331\275\036kg\274\202\262\030>C\3025\275\362g\247;~t\007\275\3176\005;\006\024\367\273\232\234\360\275\244\247j\273\365\306_\275\177\267\245\274\361\320\235\275\001z\236=\351:\247\274@\300\233=}@\276<\014\326\371\274\355\226(=\224\024\370\274\216\211m=\234c\312\275\273\242\254=\317\306\276\2758)\"=\3639\376\274\270\025\024>\327\264\224<\200\277\240=\330\247\000=\023\235\202\275\213\371k\275\203\030\234\273\303\271\202\275\301\355\350\275\266\010\035<?\215\003>[\2429=\244F\277\275\317\267Q<_\335\316=\205\327Q\275\330\304\346\274\250\203\235\274\220\037n=A\317\361=\224\333\030>\353\036Q\275\244i\"\275f\202\300<\302wJ\275}\265J<\336~\022\274m\232\230;;\2212:\010W\003=\211\307,\274\252/\337\272\200P\272\275\232M%=z\263O=\223)\236\274\021\310\253<!\200\022=@\025\212<\327\375\343\274\213\006\316\274\003\252\252\275\260\007\341\274o\021.\275<\351\267\275\325\212&=\265\032\266=\0079s\275\377N\010\275\'*\252\275q\244\312<\365\335\242<\265\340\302\274O\270\243\275\032\016\034<\376[\307\274i\361\033>\375\257M\2755\001&=p\007\033\275mJ\320\275g\347>\275dY\264\274v]\240\274\360\314c<\356t\250\275\242;\020\275\300\225\353<\314\007\267<\246\245\211\275\375\327\262<y\373V\273G0\221\274\355\363\204;\271\254\215\274Z\200=>guM=\366a\004\272\317%$>\270\243\244<\330<\312<\037]\243=\306\221\\\275D\356u\274\237\017\355=Y\276\312\274\272-\340\273\003j\211\275\023\331\226\273!\316^=U\246l:\010s\256<;\316\320<\016\305\000\276cnC=\315\223%\275\257:F=\330Q\236\275\013\214\212\2755\204H\274|f\232\274\203\233==5\302d<\323)\207\275\212-\300<\213\035\247\274\343&s\275\260\210\013=/\023\013\275`z\201:I\220\020\274\220 J=\253\241\312=\014V\210\275\030\315%\275"
      }
    }
  }
}
node {
  name: "LSTM_1/kernel"
  op: "VariableV2"
  attr {
    key: "container"
    value {
      s: ""
    }
  }
  attr {
    key: "dtype"
    value {
      type: DT_FLOAT
    }
  }
  attr {
    key: "shape"
    value {
      shape {
        dim {
          size: 6
        }
        dim {
          size: 256
        }
      }
    }
  }
  attr {
    key: "shared_name"
    value {
      s: ""
    }
  }
}
node {
  name: "LSTM_1/kernel/Assign"
  op: "Assign"
  input: "LSTM_1/kernel"
  input: "LSTM_1/kernel/initial_value"
  attr {
    key: "T"
    value {
      type: DT_FLOAT
    }
  }
  attr {
    key: "_class"
    value {
      list {
        s: "loc:@LSTM_1/kernel"
      }
    }
  }
  attr {
    key: "use_locking"
    value {
      b: true
    }
  }
  attr {
    key: "validate_shape"
    value {
      b: true
    }
  }
}
node {
  name: "LSTM_1/kernel/read"
  op: "Identity"
  input: "LSTM_1/kernel"
  attr {
    key: "T"
    value {
      type: DT_FLOAT
    }
  }
  attr {
    key: "_class"
    value {
      list {
        s: "loc:@LSTM_1/kernel"
      }
    }
  }
}
node {
  name: "LSTM_1/weight_regularizer/Square"
  op: "Square"
  input: "LSTM_1/kernel/read"
  attr {
    key: "T"
    value {
      type: DT_FLOAT
    }
  }
}
node {
  name: "LSTM_1/weight_regularizer/mul/x"
  op: "Const"
  attr {
    key: "dtype"
    value {
      type: DT_FLOAT
    }
  }
  attr {
    key: "value"
    value {
      tensor {
        dtype: DT_FLOAT
        tensor_shape {
        }
        float_val: 9.999999974752427e-07
      }
    }
  }
}
node {
  name: "LSTM_1/weight_regularizer/mul"
  op: "Mul"
  input: "LSTM_1/weight_regularizer/mul/x"
  input: "LSTM_1/weight_regularizer/Square"
  attr {
    key: "T"
    value {
      type: DT_FLOAT
    }
  }
}
node {
  name: "LSTM_1/weight_regularizer/Const"
  op: "Const"
  attr {
    key: "dtype"
    value {
      type: DT_INT32
    }
  }
  attr {
    key: "value"
    value {
      tensor {
        dtype: DT_INT32
        tensor_shape {
          dim {
            size: 2
          }
        }
        tensor_content: "\000\000\000\000\001\000\000\000"
      }
    }
  }
}
node {
  name: "LSTM_1/weight_regularizer/Sum"
  op: "Sum"
  input: "LSTM_1/weight_regularizer/mul"
  input: "LSTM_1/weight_regularizer/Const"
  attr {
    key: "T"
    value {
      type: DT_FLOAT
    }
  }
  attr {
    key: "Tidx"
    value {
      type: DT_INT32
    }
  }
  attr {
    key: "keep_dims"
    value {
      b: false
    }
  }
}
node {
  name: "LSTM_1/weight_regularizer/add/x"
  op: "Const"
  attr {
    key: "dtype"
    value {
      type: DT_FLOAT
    }
  }
  attr {
    key: "value"
    value {
      tensor {
        dtype: DT_FLOAT
        tensor_shape {
        }
        float_val: 0.0
      }
    }
  }
}
node {
  name: "LSTM_1/weight_regularizer/add"
  op: "Add"
  input: "LSTM_1/weight_regularizer/add/x"
  input: "LSTM_1/weight_regularizer/Sum"
  attr {
    key: "T"
    value {
      type: DT_FLOAT
    }
  }
}
node {
  name: "LSTM_1/recurrent_kernel/initial_value"
  op: "Const"
  attr {
    key: "dtype"
    value {
      type: DT_FLOAT
    }
  }
  attr {
    key: "value"
    value {
      tensor {
        dtype: DT_FLOAT
        tensor_shape {
          dim {
            size: 64
          }
          dim {
            size: 256
          }
        }
        tensor_content: "\3206\316\275\252Rj<t\372\261=\333<\314=\0101\026\275\313M\274\274\335E\354\274<XO\275#.\220=BzQ=w\031\261=\264R\232=\235\231\247\274ZA8\273 S\326=\245\350\275\275Sfp\275\000WD=Z\324{\275\226\037?\274\370\224\002\276B\215\217=Fn:\275O\317\356\274\357\305F\274FHt=\221d\216=\220%k\275\3306\255=d# =7\347\361\275\221om<\223g\022:\231\177\233=\326\223\r\275\257\223r\275\331+1\275\242b\267;\226\217\004\275Y\212m\275\004\\\241\275\326\r\353<\010\025\025\273\022t\325<\250\264!=\372K\025\274\033P\250\275+\001\204\275\027\034x\275\333\316N\275\352O4\275\025\343\231\275\016\235\224<\370O&\275_\2763=_B\200\275\377\212j\275\300\026:<q\031\202\274\356E\370\273\334-*=\022\276\"=\327l\016;c\177r;U\243M=$\241\032=\357\007`:\031\354\321=vv\225\275\216\251\342:Q\275Y=x3\254=\373bd=d\321$=sx\347\275\320>h=\301\345\303\275L\327x\2752\207/=5\356\016=U\010\211\275\351~m\275\271(P\275\013<\035>\352\n\003=\325\010\325=G\275\367\2755\340\013\276\274VC=-Z\375<9\244\350<\177\246\216\275\345\373\315=\202{\301\275hL\316\2740hi\274\335#M\273\277a\365=\250A|<\237\024\317\273\271\r\320;\212\211\346;\264\3312\275\023\227b\2752\267\034\274\344\265\243<\374\234\323\275\372\373\213\275#\335\201\274\203o&;\310/7\275\341\020\277\275\270M\377=\353<\224\275{Y\237=R\332\312<\177<\310\275k\362\031=`yr=]i\220=\360s%:\204\217\301\274\035YA=\323/\214\274\253zi=$\357f=\206\357\237=\272\024\273\273\257<\210\274\257\307\002\276)<u\275\001\311:=MR\367;\311\000\030=A\225\207=g4\023=.\3631\275\313\337\203<\211\036(\275\326`p=\240{Q;\023Ev=\213u\360<E|D;\222\300z=\201\322\250<\316\010\024>\320\005\274\274\t\030\347=\374\345\006=\026b\022=\000\247\320<\244\341\213=\213\316\342;kj\250\273m\026O\275Y\374E=\344\236\214\274E \371<\022!\263=bo\217=\332k\007=\221\3009=\025^;>\024\n\251=I\276\320\274!\325\204\275\271\201\257\275i\203\260=\376\313M\274\221t\004\275J\023\307\275\265|\253\274l\230q=\242A\272\275\341\201W\275KRP;.\277\235\274S\210\'=\3644\204\274\277s\037=\214w\330=\016\272\200=w8\252<q\232\235=\355\270\254\275>\216\013=\3350F\274k\275\216<\216z\026\275\214\016\237\275\236\271\001<V\306g\275\373\275(=\362\353C\275\274x\306=\215\213|\271\240i\305=\341\014E<,\373\013\275\206\316\251\273q(8=CJ\037\275\243\254\376=F\202\213=\034C\304\274K\006-=\316ho\273\005\275\023=\326O\304\275\313\337\213\275\241\331K\274\270\212\006;\357r\t\275\3336\242=\t-\242=\024\347\240\274$\212@\275`kx\274\026+\274<x80\275n\253\207:%\363\r=\366\0374</\200\325=\333\262$\275\352\203\275<\0067\r\276aGV=\242\247*<+\322j\274\252\375\006\275\004\215R\275\016\341\307\275T!\017=\3527\335\275\327Q\205\275bZ\376\273\234\377\222\275\026gs=\252\234\332=\255\270W==,1\276\300\345\300<\366\277A\275\317?\266\273\3133?>\3575\300=\230\335\245\272R`\377<S\'\236\274\371\307\034\275W\325\265=\024R\211\274\370b\216=\327\377o=\361\336J=\301\007\303\271\276\306\023\274\233$\237\275`4\177\275w\005\313;\335\002\276\273\261\303R=P\231\300\274\237i\010\275,,\003\276\374HV<\\\202\305\274\222\234\204\275\023\247\336= \024\020<\332N\314\275a\220]\274\273C\352\272\300\372\005=\250\210\002=Q\344P\273HK\177=\253\"\201=\342\335\031>\3427\211\275TO\r>\303\362\313\274\002\036o<\376s\251\273\246\276\026=\014\212\240\275\324\007\365<3\314\303<!6,=\315\347L=MO\343\274\344N\331=-\312\265=rb\331\273\341\337U\275y`\224<\371\236\373\274A\211\025=Ki\206\275q{Q\274S7\271\273\320\004n\275\003e-\275\\>\270=\362*_\272\021\275H\275\203\'4<Z\343\206\274gFa=86\267<\355-$\276\"\372\255\275\277&\346\274\265\007.\276k\264\223=s\366V=\3164\t\276\354\377\210\275\260\025\334\275d\024\023;\306\227\276\274\350\037!\275\363$\267\274\221g\232=\352\337\317\274\203{\317<\226\345c=\\\002p\275\354\021\257\275\324\231\340<\310\336\311;\244\251\221\274\017\207\027\273H]\331;\205\234\370\273\255b\256=c\321\024\274\023\306\277;!\213\255=\242\037U;b\316\300=X\240M\274&Ud\275\252\260\003\276\234\227\364<\002\227\252\274\0040\246\273\305\227\213=@\0061\2741\022\264\275\r\243\004\275\312\342\236=K\207\340\274\221\357\021\274\r\0232=\"\321+=>g\365\273\3318_=\036\241\224\274\321\360\257=\331d\247\274\344\020\230\275\2269\020=z\265\262=\267\351r\275\200\030\206=\371\326\205\274,\334\256=\035\3276\275f\216\223=\232\354\272\274\204\265\213\273\3757\223\275\317)\226;\201\252\274\274\010K\304=\346\312\307<A<\335\275\300E\215<h\021\313\275\201\025\356<u\210\235\274z#%\276\317\214\006\275\002\341\360\275\314\235\220=\351ML=\332\000\004\276\363\274_\275\366\235\222\273Pa\371<\006\312c\275\177\201\001\276\322\276\231\275|\016\306=b\350\010\275\332$\373<\006\263I=\351\016\301;\035\033\241:l\267\306\274\231\376\323\273\347\027\267\275\003 \n<2\222\003>xY\242=\2663g\275h\271v=\351\331\250=\356\316\251\275\376\367c;\237\014\001\275].\362=\311p\344=\013(?=\035\332\032\275\n\221\225\275\245f\203\275\252m\231\275=us\275\274\377\203=7\327\305\274\221\260\347\273\000\217&=\222\230\301\274ih\250=\341\351\227=\316\242\363<[\367\375\274\315\212\230\275\'\310\327\274\275\206R<\363\246D\275\252c1=&Ut\273\202\270\226<v\313\247=\375b\350<)\371G;\216\344\304\274K\332f\2752\246\n;x\n\017\275\227\233\234=\301\r&<0\352\002=4\006D=c\264\016\275*\326\234=\360\375\222=\002\212U\275mB\233=\020\370\n>\310\345\207=\355\324\354<\200.\363=G\024\003<\327\274\333\274\311!\031\275%a\256\275\230\tW=\3135\234\274\327\350\031<$\013\261\275.\2531=\261\340\025\275\254\030\032<c\302b=+N\222\2749[\277=U\266\254\275\232\300\250<\217\222\203=\000\215\242\275\013\321\271=b\357I=\014\024\370<\205`\246=\345\325\017\276\333\267\027\275g\312\014>\177\212\265;\003\002\023=~~\005\276\031\327\233\275\332\025\342=\365\226\252\273\341sP\275\262\305\262\275~r\033=\344\230\227\274\300+S=\202\334\217:\002]\363\273\332\032\300;\315\223\026=\0242\312;\032\236\316\275V\335\0019\023gn<\315\202\250=\215\356\327\274e=\025\275l4\232\275\270\370_=\275\'\023=\304\035\331=\271\271\276\275<f\344\274\335&2\273\372~\020<\303J\016=\260\215H<q\022\035\275\256@r=\205\360n\274~\2212\275\313\"\235=w\334\030=\331\346\327\2740\214\245\273y^\341\274N|\212=O\327\202\275xr\221=\3079<=`\356\251=\304d\231\274\233\232\251=\n-\222\274\303\263\274<v\302}<9\263\014>\362rI\275T\2179=\324[\002=J\377\304\274j\232D\275@4\005=\323\323\250\275\327\035l=G,\261<\r<\026>\237\325\275\2759C\200\275\325z\241\275\201h\024>L\337\232\273\265\3761\275i7H=a\004\221<\352\351\017<7\352\201=\310\014\006=\213E\324=\366\002\362\275\233?Y\270U:Z=\321\362\217\275\347\244|=d\023\203\274\223\246U<\265\245\240=l\021\361<\253;\021\275\2544\\\275N\313\215\274\3208\345\275^\356\004=Q1\006=0\225\374=\357\225\233=\3569j=t\220\005<U\371\205=6H\017=\247\365\232\274\214\370\t>l\272\273=\236f\r\275\234\337@=\253\314\211\275Y\224\263\274\004\232f\275Hj#=\333\271\274:EI\003\275\034s\020>9\2430<\242bM\275\257@\355<>+\277;\225Lo\274\311Q\322\271Y`\222=R\350$\275I/\232=0\271_\275;Y\024\275\013\271\230<\200\254\350=\372\362\253<k\227\253=\205\254\223\275\"l\016\275\375!?=B5\211=\340K\231\274\370\241\254=\250\322\206=\264\013\r>x~\235=\246\322h=\305\317\345\275Yq\032\2748\250\260\274\223\223\020=\247\367\360<\346\004\222\274\254\273\347\274j?\007=\265Wr:}\331$\276\207\232\210\274\270\267@\274\026\227\225\275\267\257\034=\240*\000>\3250\244\273\002\245\212\2754%\216\275i9\224=X\214\225;\233BN=U\010e=e\315\"\2751xR=\273\232\222\2733=\224=Z\303\014=\316\307\323\274]\331`=H\313\210<`\244W=\210%\244<\222(&=\256z\222<7\312\321<gs\200\274\250\3143<n%4=\265\026o\275\317q\365;\263&\354=-u}=\3352 \276\275\347\002\274k;\241\275\325\t\272=&\037\021=\2753\023\275\017\362!< \243\246=\325F\330=\024\t\212=T\362\213=\300\277X=\034_2<\216\t\230=\200\376\277=++\215\275I\255%=\307;\3478\242\365\324\274\250\036\374\275\314G\374;\201h\013=\250\226|\275O\365\030\275\326\r\315\275K\347\'\274\354\366\316\275\246\206\271:IV/\274\013\374n=\362\r\207=\266\275\253\275\000\305X\275\027\242\020>\201\375\234;a1\255\275\210V\350<\245\362\342<\314\206\001<T~\201:\330\215\252=\3639\360=\321\265$;in\251\275^\036+\276\034|\026\275R\'b=\010\226\302\275\227\243D=\241\346\004=\021\350\t\275\277\374+\275\235\313\255\275\014\203\211=~\235\251=\220\205f\274H\213\224\274G3E=\356\031\2479\n\031\256\274\342kt=\202\341\372=x\036b<\025\036\r\275u8\311\274\223M\251=(9\024</KX=\265\307\024=\242\255\216=v\271\255<:%\331<\202\367\002>;\203\243\275\351\224\237\275?Q\265\274H\247\036=\tu\253=\373W0<M\2668\274^\337\352\275\231\030\327<l\346\r\276\216\302\304<\330\251\210\275!\370S<V\317\245\275\236\025\210\275#\371\353\272sm\230\274\013d\342<\303\325\026\274\227\241\024\275,\343\031\274\256o\276\275?\251\272\274\002\244\237=CrZ=D\223o=\010S\313\275\t\222\207<n\323\213\274x\342\320={1l\275\373\263\351\273\013?\373\274?\235\027=\312f\025=\362\215\277\275\324G\020<\256\316g<\275J\341\274B\367\233\274\324\210|\275^\276\274\274\013\030\027<\240.C<\335C\313\275\003\263\322\275\353]R=\204\300j\274\367\013\343\274\2568\247;\204\357\260\274]QY\273\263\253k\274\362\\\251=\316)\323\273:S\310\274d\tc<\316{\204=\266Wz<\212\020\277;\221\221\034\275\202\302W\275)\326/\275\362\365+=$\275\035=s\363\277;r\241\222\275\250\":=0\226\363\272\215\\\251\275\037,\007\276l\361`;\223{\023=\214|S\275\226\021\221:\232\363\367<7\267\344<\216I\247;R\316\276=\004\352\214=\361:\303\274\0362\205\274\277\202\363\274\030\345\027\275g\343\203\275l\340\363<|@\312\275J\235\221=G\340\233\273\237\3758\273a\250\353\275\312\251\304=\000\035\357<\345\301B=yd`\275\252f\372<r\356|\276\204\000\023\272\010\037\325<\207\222\340<S\317H\272\226|\272=Xz^\275\205#\254<\340\247\016<\n \217\275\350\215\202\274\204?\032\274\256\356x\274\255r\361\274\361s\316;\211\303+=u\224\004=<\217\200=\364\360\034=xH\307=\312L\255=W\220;\275\272\326\202\275\333\357\300=U\235\211;\2229+=e_\233=B\247h\275\035\ni=\033\036\261<\302\356j\274\312P\211\274\263,k\275\003\347\022\275`!\346=Y\253\314\275\327\355*\273\365_\305;\271\352\323\274x\227\344\273\3249F\274\367\261\013=\354\257\343<T\276\264<\374\226:\275d\\\000\276;\335&\275\353&\004\275,l8\275YdW=\234\374\266:\272S\254\275\034 \273\275SE\300<\270\275\275=D\367X<\341\034\275<\261Y+\275\276I[\276PZ\235\272\256\025\373\272sex\275P\227\356=\363\3744=#\261\354\273BJ\213\275\204\000\247=Vn$=\345t\212\274Z_#\275\337p\234\274\203*}\273\323,E\275\003\tg\275\366Tr\274\224\345P\274)\326x\274}e\333\272_\235\307\275A\031\300\274\'R.\274\001d\207\275*a\303<\326\255\223\274\245e\370\274i \357=\363\3331<\251%_\275\017\271\220\274h\215\237\275b\202d\275\340\321\005\275\325N\215=\331\264\350\275\307\225\322=\t\212j\275x\312\020\273r_\003=\210\360\257=\202n\033=\370\265o\275\332l\217\274\234\235j<\310t8>\025\237\334\273\2679b\275O\312\r\274\272\333\240=XFH\275\311\266X=\010\214~\275hB\356<\214\207\013\275\364\251\244<\277\347\360=\001\331\243\275\244(\240\275y\314H=\233\333\026=&X\340\275\273\206\215<\343\211\206\275\2174B\275\206\257\203\275\2271\002\276\177\313(\274\036|V\275\277!\200=eM\232=([*\274mz\'\276K\263\236<\220*\275<q\334I=q5\344\2729E\035\274\357\344+\274\342\344\332=&D\'\275\346\251\230\275\263\025\377=\265\264\\=\236\027\223\2756\232q:?\211\212=\315\t\222= L\017<|@}=@\004\214\274\211P\302\275\017\313\034\275\335\031\004>{>\273;\003%D\2754\252x\275kb\031\275\327\270\237\274\226g\022\275\017\016\334\274\322\234v\275\001d\320=Y_\314;\231\005\236\275\001\365\375\275\224\337\224\275#\r\222\274n\034\204=\337?\006\275\311\266\\:\003\202v;2\204\311<=\033\277=mS\n=\232y\004\273\351\261\276=5\377\306\275\244\177\013\275\363oO=\244\216}=\3344\301\275\212\372\254=\032\242\371=\214\023;=\2411\017\275\332=\002\275\r\247\032=\tp\037=\372U\'<\336\256\250=B^\276=t\037T<\345\005\006\276\022@,=\2659\203\273\257\031=\275d:\347;\313\326?\276\026\241\345<\323\002\017=\271\000\220\275\033\207\224\273A\265J=w\207\223=\"<\324\274^\227\323=\256\326\367<d&\220=s[,\275\255\210\343\274\203\247\300=\371A\t\274\323_^=\216\373\306\275\274ye=|\316\330\274\305\223G=\244|{\273\334\327\366=\004\262\365<\273`9=\036\356\021=\373\356Q\276/t\235\274Z\201Z\274\312lX\275\263\353\366\275\250\246\022\273b\365\343\275\320h\265\2752h\375\272\313\220\002=f+\201\275R\006\302\2759D^=R\001\223\275\302s\333:\361\006 =\366\217\272\275%\261\201={\324\244\275\365\255\306\275\303>\236=gQ\260<~\317\263\2745:\007=o\037\231\275\367c\214=(x\340\275\026\002%>\302\3515\275\225$a\275[\023O\274\312vB\275\247D\225=\2579\3459\314\312,\274\031\"R\275\311\267\244\275Y\030$\275\201\247M<9=\203=\277\014\235\275\274\2123\274\'c\333<\220\271\210\274[\227\004<\363\242w<\013\202W<\"z\275\275#\222\213=\267K\341=\215\274&<\346L\204\275/k\217=\366Wi\275;8\273\273\227\305M<1\263H=\215[\027=\034\017\013\275\277\301\332<jqd\275\260m\341<I^D=R\232\326=\326|\374\274\014Z\203<\217\035\231=\260\312Q=\320\021g\273u\213\002\275m\336;<\332\026\233\275a\374\240=\227\256M\275\023\313Y>=\260\207\275\265\334M\275\357\271\003\276R\306\257=\177:j<[\230\247=\034\245\270\275\225\003\333\275\177\335\252\275\327\177d\275\036U \275\360\217\276\275\004<\n\274\227:\345=\242(z\274\316\304\212=1Q-\275\'\2766=\210,\371;\253\002J\275a\302\362<\036\312\024=\274\357\333<X\360\317\275\022b\">^\230\261=\342*\362:=\331\320\274I\216\215\275\203\230\347<\224\334\000\275\353+\306<\276bW=\233\346\343\275&\353\254<\327\316d=t\214\350<\374\240\237\273\234D2=Q\223\031>\332\323j\274\377\244\223=\3469\376<G\232\227\275\327Wm\275\t\267\026;\356^\352\274\275\326\220\274:\353\225<\\\277Q<z\376\r\276 k\305\275\372\335\013\275c\354\033\275b\253\"\275\337[\254=i\177\356\273\"X\\\275\325\270\016=\226\372\352<m\032-;\366t\372\275\022\365f=I\022\002=\336#\007<\216a\315\273\222P\262\275\370\362\252= \250K=\231)\204\273\224u\\\274\375 d\275\226o\215=\336\t\262\274\3203\271<\362\307\037=\373m\\\274 \030\252=\233\2467\274\n\\\034\274\204\353M=[\325\t=\023&\373\274\307\235s<\267Q\306\274\320\317\300\275\254\334,=\301\224d=\250\311\224=DA\200;+\035\311<\365\272\005=\333\306m\275\277\377\360\274V\335\214\273\275\013\353\274\357\005h\275\374\004\230=\302j`\275m\025\234\274~k\014=M^\364<\344\210\305\275\231G\232\275q\353\375\275\035\375\370<\204\253\347\275\276\rV=\313\265$=\373\370Z=\375\237i\274\231jQ=\326j\033\275\247i\323\275\264)\264;\207\327\006>\363\235Y=O\351\315=\342[\206;\361\336\007=\256P\353\274}\202H\275\213\2416=\204j\250=\250\001\031\275$\013\000=]\262\252\274\264c\007\2751\357\003=\233\247\300\275\244\2253\275\203q6=\0006\027\275\320d\376<\007\\\013\276\214S\336\274z\032\342\275V\320\001=\360\226k\275\272\002\213\275\007{J\274\314\214\352<\214\340\214\273{u\222\275;\343\213<&@*=\335\"Y=&\240_\273 <\036<\361\334&=\331\341q\274sz\312=\201i\233=.\363q\275\352\037\300;U\t\251\273R\271m\275;\370\235\274m\377u\275}\246\201</\222\310\275:1\312\2747F\007>\3401\272=\274\214\342\274\003\177(<\323\004\\=)\320\336:\222\237y=\234\245\240\274\352\316\177\275Q4\276\275\245\3249=\317_\363\274\273\215\202=\242\202\302=$\240\264<\370\247/=\364\364#=2h5\275\025\201o\2751p\302=\340\224\002\276\032b\322=\323\322\260<Xos=k\336z=R\300j\275\274\237\022\275|\353M\274\036\231\002\276\215K\242=N\006!\275\204\340\222<\034\263\347;\340\270\264\275\266B\333\274\346\363\203\275\3366\201=\203U\252;D\r\353=\304Me=\252\252\377\274\335\n>\274<\027\215\275\026v\010>\250z\244\275\324<\226=U\355\374\274/\277\t<A\212\244<\364\305\325;\327\315\025\276\306\253\250\275m8\254=\262\342\373:C\264\266\274\356dF\275:\246G=\315f\202\274\213<\215<\324\214\336\275\265[\016=\324W\344<!\330\202\275\326\323\330<\326EF\275@\2219=\212\214\222\275\254E\000>\365\232\256=#+\325=s\321\366\272\347\233L=\347\361\224\275\330\200;\275/EN\275\360\014\311<m\270\001=?\321\346\275\340\327<\275\303\226\245\275vE\225\275\265\005\230=\213\336e<r\n\024<7\371\205\2742\273(\275\271\316S=\020\330\357\275\3614Z\275\0358\347=\274\210\201\275\2053\242\275%\261a=\2634?=\3511\313\274of\241\2752b\264=\366{\375<\234\'\354=\031\020G\275\333\334\216<lnI=Kr\\=d\270\013<\2774\232\275\372\350\256\275\003\345\004<\202\205\t=\210\024\254\274\241\213\314\275+7Q=\rL\222= \363W=T\223\t\275\016\000\302\274\222\016\277<\r\360\264\275R\375W\273\266\203\336=\021{\221\275\204\247\372\2759t\023<;`\034=/\301<<\021\211\260=\2206\\<\223\340\352<\022\220\r<\334\301 \275\'\332\261\275\243\355\034=\342\301\337<\316\267\035\275\372/\325\274di\312\275k\002\244\275\275\352.>\277:\214\275\255:\030;\240<\364;\265\301\320<\"\027\274<8j\036\275U\226\010=\304c\334\275\210zJ<\245B\274=\263\243N;\227_r=S\272\340=\243O\241\274\245\365\262=\210\232o\274[\376F=\014\020\356<\005\223\014=\322=\222\275:\205O=\366\336\361\275*\223F\275\353U\200=$\323\r=S\336\217=\252z\227\272\247\243\272=\216\374\034=k\376\222=3\"U\275\376\005/=\220\360\277=)t\333<\21387\274\262\330\211=I\335:<=e\177\274\220\253\340=G\201\245\275\272\335|\274\255\030\037\275*\231\326=\277\221\273=\024\235\033=\300e4=\235Z\033\276\n\355\037=\350\205\014\275\377\035\335\274\232B\315<6#\277;pI\304=G\030\266\273\201\303\253\275\261\t\271\275q\017\312=U\257\206\275\"\005\027\275\354\244\210=\366\'W<\377U\373\274\321@\321\274b\022\210\275\347\013\212\275\355\305E=\036\260\361\274\267\321\237=_\365\314=\262\220\205=IZ+=kq\303\275\214\214\315=\013\271\026=\364ov<\203\035\235;x4\212\274\244W\227=n\233&\275\256(\273\275\035\303\375\274\373A\236\275P@\222\275u\210T=}k\330<[LC\275#h\233=m\267\237<\005$G\275n(\377<e\361a\275h\006\212=\2175(<\260~\360\274\367\277\232\275\'\203\237=\253\276}\275\234\004\370=\210\001\240<\316\312,<\375,i\273I\242r<\005\002a<\266\027\260=\212o\215<\315\270u<\3228\313<\206`[\274\332q\204;\314\210\210<\351\221\224<\256\231*=p\246\206<\221\315\216;P|\005:Aa\211\275u4L=H\310u\274\276\";\2753uG\2741\202\347\2744)\231\275*\371\177\274$\371\232\274\247\013\333\274cp\342=o:\033=\301\260\036=\223\027&\275\033\336\243\274Q\305~\275\330+\">`h}=\267\330s;\032\314\004\275\216Xe\275\211\275.\274\253\356\333=\315\244\304=?\270\t=\033\360\214\275\247\257\366<5Y\201\275\020\225\266<\372\376\250\275=\311\241=\'3\242<5\n\367\274\324\034\260\275\251W\010\275\332\232{\274\"\264\244\275\306Z\212\275mWC\276\205mg\274\361\311)\274\270\230Q\273<\223K=M8\321\275\024NS\275\006\236\"=g\312\020=\026\246\014;\336]\265=k\223\264\274S\030Y;\365M\n<\304\272\237\275&{\214\273j\221\t\275Y`Y\275\277\367\245=)\261\226\275\225h\334\275<L\351\274Q\363\361\267t\361\005\274\020\225\213=\242\014D=\372\362\232\274\315\217\376\275l\013\236\275\331_\314\274\215o\303;0\317\007\275\202\020 <\036\003\206\273cm\351\274\337\001\002=\351\251\000\275\361B]\2758U\307=6\371\337<Z\353\336\275&\263\220\275\nq\261<\275\022\317<\007\311\227\275\367\205\026=s\321\324=\2554F;P\347\207\275,\353\364=9UP<\\\275\330\275\332!\247\274OF\005\275\243\037\212<\337KG\275h\360;\275\377@\017\275\210\210\330\275\224\350\207=\300\177\217\274@a\226\274\346d\216\275\2159\257=\026\305\270=]\000\341<\223L\376\2751~\227\274\035)\257\273\333\346\260=\034\311\320=x\014`;gx\236\274\234JR\272 \027\r\274\030j\204\275\252J\243=6I=\274Y~0=\353T\233=\014\266\364\272\221I\'>\257P|=mY\255\274\357\007\215=$\371\253\275\020~\016\275\310zP\275\021\354\326\274\337\346t=\007O\321\2757qA\275vA>;\'d\233\274\023`&;\030\272\014\273q;T<,\330\262<\344F\320\275\213\234\021<\3366\236\275\261\310\037\274\233\244\233=T\303\\\275\247\261\345=\001o\356\274\252\2455\275v\373\226\275v\206\307\2734/\246=\365(t\275f\270n=\322z\221\2751sx<\264$\003=\221O\211= =\352\274\022\302\025\275}\221\001>\321\243\006\276\276\230\241\274\322\245\007<\331FE=a\366h=\205\366\024\276\n\341X=\211\273\306\275\3134\266\275\026\232\310\275\027~\225\274m\263\017=\206O\335<\346O\263=\233\266-=\360x-\275\241\321\246\275\220\274\254\275\2036\266<\334\3149\275<EK<\235$\225=\265\277\274\274\212\342I<\004\306\032=\276t\016>cY\355;!\336\204\274U\277v\275\207R5\275\336\306\321=\037\265\034\276\3411\034<\rR\303\275\001\341\023\275+\330\221\274\371\313\220\274\365 \355<\320\013\272\273\35058\275\3525|\275U\3373\274\346\312\021\274\332\334g<\220\253\324<e%\340=o<K\274I\250\334<\331\266\255<\330\347\357\273\326\026\264;~Le\274=\266\225\274\306X\315\275\252\310\211\275\017;\236<]\254\244=\357?{<\305\376\216\275\035\241\264=\023)(\275U\226\033< \265I\275@\0073\275\316NO<\r\237\200\275\201\300\017\275oA\014\274\231+\036\274\322h\213=7\235\346=\237\220\224\274\242\241\250<\337\261\034\275\024\024\267;>\275\205\275j\321M=q\313&=\024\363\236\274e\362 :4\375\250=sC\230\273\376-4=\331\323\265\275\223c\344=)\017|\274\275\365G=\367\226[=\270\212^\276\034\220o\275\202%\253<\365\240\034>2\027\267=\005\221\t\275\361\303\017\275\316\275z\275`\361y<\376.\352\274\254\303\031;a*\205\275\272\004\235<\221\027D=g\364\233:\026\225\214=\337\377)=\365\225\231\275\240\345\025\274\232\235\240=\250\262\230=[N\234\275\214\370;=\363\023;=\246\255\344\275\273\363\326=\273\213\213\275\0250\200\275\016\024\313=cu\202\275\026\350\003<JL\003\274\223\215\276\274h\013,\275\\\"\n\272}@\001\274\022At=c\340\264\273!D\312\274\017\240\223\275`s\010\276!\254V=0\215P\275\303\'Z\275\237\371*;\360d\221\275\377\376\035\2756^\376\275\002\237\t<~y\317=\014m5\275\304\306\374;\330\216\033\275.56=B\255\355\2745c >!\013\277<~\344k\275\266\232O\275\262\314%<\310\260d\274=V\030\275b\256\206=\240\212\222=\322\346\326\272\017\210/\275t\225}=\262e\335\274\352-\241<\003\2253\274\'\341\340\274\250<\245<\355ti;\320\326\006<g\315\356;@h\266\275\246\3137;\025G\377;\307\351\370\2753\210\323=\317\361\263\275N\367l\274\n\335\023<<F\264\274A:~\275lQ%\274\177=\244=f\344<\275\031\253>\275\344(\204\275\200\362\264\275\336_\361\275\271\336\n\275\250Sx\275\220\200\333\274\335F\312<\300G\236\275\2674\365\274\324\314\244\275\322\334)\274g`\254=\360\036\215=\317\310\332\275\306OW\274\276\020\023\274\360\216E\272C\016\367\275~);=s\036\207\275\342\357\232<\007\242\324\272}\366q<\255\275\206<h\222\240=\262OZ=\340\303\271\275\213\021\013\275\327\350`\275h\267;\2758t\264\275\252\275\020\274I\352~=\226\347H\276(4\\\275\241Tr\275\370\030\206;\035n\201<\\l\001>t\224\361\273[\341\327<(B\037\275\023\277\237=6v\235<\331\266|;\313cZ=\311\346%\273\221C\223\273\252B&=\3551\225=@\200\232=\224c8=\371\t\373;\034\021$=~k\213\274\354\024F\274\256\013\360\274G\336\025\276*\022\245=\242\274\222=s\330\236<_ \233\275\337\263 \2750s\341=\266:_\275\353\232\351<\017\353\332\274\232\241\326\274\267?g\2742\230k<\0300X=\251/-=\257~\214\275\\k\214\275\352?\266<p\226\203\271\027\004\323;\033o\251=\332az=|T\007\275\334fB=5\212\254=Lq\346<;$\326= \261t=\375s\370\2744]=\275\337?\213\275yx@\273\003\263\256<\006\307\210\275\332\341\356\275\356\002\300<\317\350\227=+L\007\2749\330u\275\360\376\026\275Nu\021=\345\376`=C\367x:\001\276\201=\t1\265\275\3434\333=\246\014\002=\3309:\274\251;\306<@\363\022\276\344\r\323\275\021\347\237\274\374[]<\200\037\224=&U\215=U\313k\274K\321\361\275m8V=\205\273\241=\027\352\304=\303\373\366:M\301\337\274\247\n\336=\177\021j=\305\357a<![s\275\010\006\214:\226\342\250\275\276k\017\276C&\005=\232\205\004>\305\213\246<\356l\006\275\314\243 \274U\323u\274\'\236-=AJ\036=\004V\022<M\322\023<_\350\336\275m\246\027;m\225&\275q\312\273\275%\211\340=\374\\\331<\325\265\203\274\362\342>\275x\344\305=\254\255\220<\350p\351\274\205v\">u\016\244\274{\363\254\274^o\273\274f\017\277=\265z+\275s5<<\216\200l\274\207\326\244=\360\213\205\274N\014\201=E`\023=,]4\274\366#\344<\224\033\206\274\235;\325\275\017A\253\273\003\313\221\273YW1\275\222\236y=\257\326\313\275\372\311\200<\226\235\004\275\247\255\334\2751A\314=i\351\030=\236H\301\275\3729\354=O?\227\275\025(\003\276\320<5=\357\241\r\275\305\205\264=\327B\235=B\364\246=\236\301\362\275GS\036=\337\377\326\275\207I\257<\n\266@=\022n\031\2740\333\370<M\237&=\330\3166\275r\246\214=E\367\332=9\230J\275\311\\\256\274*\024\215=\237\343\375\274*\325i\275]pI>\266}\254=\014\002M=\333&\341<\241U\014\275\365.?\275\022jM\275\321%\006\276\014\177\r>+\341\262\275h\356\355<\022z\034\273Qnt<\007\306(=>$\033\274\230\315\247\275\320\332\246=;\324\311=\240\003&\275z\272\337<x\205\271<\306\177\242\275\237\221\224=\020\0004\2758W\356\273-\340@\273y\222/<Xi\364\275\340\257*\276T\306\311\274;\336\034=\317\272\"=\332\037\305\273\256\345\025<\"#\032<\n\343\243=5n\035<M\331\202=\352\374\276=`\305n\275\241\260K=\210D\023=\230{\014\275\210\254\242;\274X\034<\033\317\304=\310js<)\243\311\275\324\370\277\274O\303\257<\354\217\023=\016\240\t\275E)\214;B6\321=\013\340\231={\213\276\274\024>\231\275\356\300j\275\262\247\207=bj<\273N\360\311\274f\353\244=`\255\017\275\224\222\234\275\340\0033=\247~\304\275\341\231\014\275{\320/=:r\226\2759\267\201=\030\375\356\274\372\251\2269\n\211\234\274\020\332-=c\243\221\273q\351&\272\342)\312=\224\277\220<]\025\233<X\'\236=(\214\004;\246.\256\273\343)\341\274\260\235\353\273\004\354\277<^T\000<\275\221~\275\274\330\324\274\257\257\333\273\014\024C\275W\002\335\274\352W$=\213Dg=3\023\275\275 %\027=;z\247\275\360uu=\324\226\323\275\235\355\030>\236v\242<\210f\016=\245\002k=\310\346-=#A\276\271\307 {\275\240\317\324<\234@\000\275\2645s=<\t\337\274\365\276\341\275V\327_\275\262\006\367<4A\336=\223\356\204=\0148\366\274\020\r^=\336\330n\275)$\235\274^\317\323<\224\333\340\273\304\r\205=y\266+<\223|\007\275\335\241\240=\226&]\274\255\277\">\357\264\326\273+\006)\275:u\217<-iJ\274\240\340H=U\001Y=\243\303P\275\037\336\211<\006\016\312=\022\2764\275\246\203F=\323y\017\274kO\273\272\001\367\231<\277\272\177\275?\264\212\275\312]4\275\257Vh\275\021\262\262\275V;\025=\302\344\371;\266\262\332\274*;x\275\325K\275=\315\006\006\275h\322\271\274\233\370\247=\331V\215<\200\350\352=\302\370\271\275\0260\022=?\230^=\306G,;\366Q@\2756\2634\275\206/\r\275\300\342\203<\311\327\306\275\027\217\001=\020@\337\2733\315\006\276\036\267\323\275\346P\363\2741G\262\275\201\213\236\275\016\n\301=\021\257\243=-u\215\275\226\203\332\274\276\344\211<p\272\256\274\375\221\255\274b\202\201< \014\201\275_3u\275c\233\203\275#\221,=\334\003\327\274/~\302=\361\0304\275\322\250B\275\035x)\275i\206\217\273\235\267\213=\202\256\225\275]\273\363\273\302\020=\275\356\036\036\274\033\033\341<b\352\365\275%{e=Lh\342\274\360Gb;\024V?\275\204\231\363\273\255\037\320=\215:\372\273@\240\241=\307j$=\333]\215=l%\341\275TC7=\264\0310\274\245\331\016\275\\\325,\275n\3172=\315KL\275\r\374\263\275P/\322=\377\204\036>\305~I=m\202\344\275T\027\2149\251\017t\273\024\277\373\275\016\205\000\276\206\341M=bM\262<\27012\275]\377[\274\324|/\275@K\342=Q\315N=4\200.>\200\217\013\274m\037\274\275\357@\212\274o\276G\273\265x\344<\316\277\263\274\017p\245=\340\243\260<Y\201\007\275\220)\223\275\\h`\275P\274\374\274\272\211\327=\272c\n=\252\273N\275\376\034>\275\250\211,:\277Xz\275E\370\374\274\305\353\324\275k\304d=&\334\000\274\247f^\275\3070\253=p\316Q\276\264-\347<)\253W\275\325\006\332<\t\270F=\244\312\216\273\037\2100\275\255\014u;u\363.\275\223\200 =\315X\334=\274\266+\275T\003\235\274\327*\245\273\373\203R=X.\033\276\301,4<\254m\243=\243%\326=\037X/=\343\366\024>.*m<a;\313<\357\303\243\273}w\220\2756\320N=\330\325\262\275w\2658<\2250\200\275^A:\275\313t7\272\233\200\260;\340\325\366\274\373\343\244;\347 h<\2755%=SRY\273\274\325\037;e\027\322<\254\343\241=[(\\=\221\023\327=\r\367q\275%\360\276\274\004v\251\274\324\213&=l\264\226=\270\177@\275\266\304\216<\017\002n\274fDD\275\240-\373\275-\005\262\274\003\270\010\273\300OW=\327z\306\274]~\032<\3537 =\347\343\204\274C\202\201<\356\000C\271:\337\373=@\013;=\017=\\\275\224\213\271\275\346\306\000\275\022\'\035<g\366\300=\216]J\274 \036\216=\322\232U<[~\231<\361t\231;\333\236\313\274:I\235\275y9\214=%=\010=\225\261\031;-fy\275\351J\032\275\312\324\341;9\315\216=}\251\206\275y\260{=\212@\204=|\340\022\275P1\300<\n/\215\275\021Bx\274\327\243]=u\352?=\263\210\037\2742\243\001\275\225&B= \336\004=\274z\n\274B\372\241=)\370b\273\0344F=\177r\200\274c-*\275V+\031=\251\263\211=\002(\227\274\3570T<)\331R\274\226!\036=\031\014?\275\234\253\355\273\355\262\306\274=\347R\275?\266\256\275\022s\026\275;+\267=\226.\271=\235%\211\275\033{\302=\352\243\256\275W\205\223=\222\216r\275\205\307[=q|\376;\373T\021>\362\332\021=\033?h\275\217p\020>!\340\264=@]\031=\310\363\313;^u\214=\356\245P=\233\005\010\275;\034\226\275(\346\004=J\255{=@\356I\275\033.\213;=\330\006\273\241\341\346\275@\245c\2757`\310<\324\370\021>\246\307C<\217\246b<\377Z\260<\017du<5\304\005\275\365f\234\275\006XT\274\3464\226\274\243I\037=\013<\206=\'\336\241\275]\377\240\275\345*O\274U\\A<|\303[=\343\0031>fT\335=\242\335\217=*a\341\275\333\2035\275Xt\023>\355\313\236<\312\250\340<\372!0=\3117\010<\316e\212<U\303\025>\265\231\006\276\361\240\343\274N(0=c<J;P+\230\275\371\224\001=d\356\207\274\315\245\276\275\342\203\004\275\3219\353=Q\364F\275\317\320\235=J\251)=\220t\316\274)k\023\275\007;\370=\r\306}=\372\205;\275\350U\302==\261E=\330\0060\272\334\010x\275=(f\276\205\355\351\274}&\037=\273R\253<U\314]=#x\024;b\325\217\275q`\006=\004\352\022\276(\206\017=\006U\232\275\2314\027=\351w/=\323Eg\274a\357\321\2744\250\317<\363Rm\275cB\\\275\030\216C\274\340\237\312\274\363V\230=^\360\347;aYp\274\r\222\247\274|\240\255<\033<\024\275\263\267\321\274[\335\213=\350\024\001\276\241\340\363;\315\265\234=\270v\265<\354\013\347\272\201\017\022>\365YG<\024\t\231=>oZ\275\234\004\030\275#Ut=\027\233Q\273^k\341\275\031\355E\275\333\217\277<\035i\203\275\367G:\273\342\200\221\275\254\252\212=\214\230S=\261\022\334\275~\333n=\365\003\025\275\270\371\252\273J5\374<\236g\267=\257Q\025<\257]}=,\232w\274\233h\036=\236\024\361=\266\020\227=S\371\022=\301\204\305=\256\344\202=\344j\243=W\264\267=z\005}\274\030\205.\275\r05=\300F\243=\277xZ\274\21086=\035+R=E\0057=\352\006\372\274(\206\360<\014\001|=\034\321\207<\341G\025>P\364\252=\276P\204\275bk\365<\214\203\252<A\301~=d\241\002\2769\354\354<\260D#=K~?\275\245\2052<\0278|<\016\222E\276\345\315\273\275\"\305\277<w\234\253=\270\206\010\275\\\210\335<>t\024=\';\217=\305Y\377\275\r*\020>xl\305=\371\207\005;%-\037=\267\205\235\274\033\014F=\217\321\353\274=\376\300<\254Me\274I\rU\275\320\000\233\275\237\354i=W\202y\274\235f.<ds\210=\217;V\275\036\252\262=\356.\223\273\0034\277\275\207<\370=N\361\236<\261\234\002\275#\267\304<\2143:\275\307\230\230<\365\277\007\275?+\001=\331\325\026\275y\347\321<\3730\004>\350T?\2757\316(<\025\003\345;\0372\354=J\300\275<\224\325\356<\3557^=q\034\022\275c\352\267=N\213k=\246T\231<\032\356\270\274\210e+=\031\376\325=\026\366@<\344n\226;?\337M=\033[\227;\207n\353\274M;\335<\351\257\245<7\256\332\275|\320\211\275s\315\023=\001H\220\274(\321\375<\034\304\216\275\216^\014\275\371I}\275\211\245L=\252!\360<\321\013\344<t\255\367\275\344t\013\274\005^\227\275\3173\301<YJ\253\275\031\362\252=\254\255m\275\207wR=\234\347\250;~\220\313\275p\275\346\273e&\201<\203\260H\274U\205N=\021\000\023<\252^\3168\232\354\214=*\007\213\275\320(\022\275G\225\300\275\274\004\273=;\017O\274/\321\247:\276\242\214\274M\264\234=\322\3632\273\335c\210=T3\023<\213\313\255\275\212\202\316=\212\350Q=\371\250\002\275\250\347\222=\016\000\267\275\331\212\265\275\001@\250=\343\211\324<\251#\344\273\246\337;\274C\342\024>%0\302=\370\336\201=\256\266\326\275E\367\3519)\307n<\251\212 =4\032\026\274\212\300\215\275~HO=[\326\354\275J\325\336=\343+\035\276\373\262\307\274\347\200\211\274\034\235$=\260\\#\274\316\024X=UR%\274!n\323\274>\2347<\325t\243=DU\366\274Z\340\006\276\201U\255\274\323|\231\274\027\247\242\274\0177V\275\340\253\372<\007\022X\275\303\210\231\274\213\001C=h\360\007\275\013\256\341<~\035~<\230\177\213<FB6\274=[\276<\246\235\033\275z\370C\275L|\200\275\216\255\322\275I\t[=*\037\272\275\310t\223=JH\366\273\304N\025\275\\\302\320\274\213\357\200\274\301Y\227\275(\261\033\276\216\003\016;\n\034t\275\246\356\\\275\325\014\312<\363\270\027\275\256\341\302\274=\2118\275A\356\270\274\267\241\225<\321\206\230\275\036\277\222\275<\237\217=\307\356\211=\234m\203\275\342E&=*d\331=)\3740=\252\326\241<D\336\373\274@\n\230<@\013v\274\211}+\276\010,\022\272D;\010>M\303\222\272\301q\324=\266; =\301S\220\275_h$=\275\r\177\274\337|\247<*\010\036=e\241S<*\344\217<V\330&\275\330G\246=\216\n\257=\236\030\260=wK^\275)\354f\274\355\367\r\275\323\014\272<C\022M=\215\265J\275-\\\205\275\244\205\343=7\303z\275F\324r\275Gf\023=\311HD\274\210\036\014>\356#\363\275\354\272w\274\315\273\221\275\026}\n;(+F<\306\002G=Y\241\241\274<\235\363=)\036\342\273z\224\351=i^\027\274_\267!\276\032\000;\273Z\001\217\275 \037X\274\301\326\364=TY\372\274\377\014q\275(\344\010<\267\"==\233O\201\2741\320\210\275\246q\247\2749s`\275e\253\236\275\204\034\r\276\212\210\314\273\2009\363<\207\203:\274z]\013<?\250\221<b\205\351<\031\253\356\274\266\374\300=)\002\251\275QQ\024;\377\3442=f\324\222\275C\376\304=\271Rs\275j\375\222;#z\201=\026 z\275\246\337%\2758\375\210\275\341\022\341<vq*<$\350\277;x\363\275\274C\003\375=\201\311\322<\234ip<(\300\361\273&|5=\004\257g\275\030\263\004<\240\241\257=\247J\262<k\251u\275\002\021\001\275\344\023\207\275\034\267\037\272F\201\364<\005\206\261\275\314\340\017\275\022T\315\274C+\000=\364^\205=\356\255?\274^\000\370;\2418\345<\032oS\275}@x\274$\374\347<\364X\263;\2560\003\276\326\025\273<\3225!\2755oL\272K\033\'\275\224?\312\272\354.Q;\357\236?=\315\321\327\273x\235\340<\204j;;|\256f\275`\211\240<p\025[\275\r\320\237=\337\276\344\275D\275\237\274+.\370\274],\205\274\"7\251\275\273\2536\2750\271\331=8[\300;\204(\231\275_I\000>QS\222\275\375?\n=\325_\005>\325\307x>\251\242\243<T\r\'\276\243\361{\275\243\271\271\275\373\365~;\334\342\005\276Z\'j<\235G\332<Cm\220\274jXY\272\316s\021\276\020@}=\3179\250\275\331\332)<\207\220\255\273\235\243Q\274.\346\203=\363\214\342;\206O\363;(qH\2742\257?\275\246\356\316<\3248*\275H8\234<)\236\031\276\300\200\250\275\016.?=\335S}\275\361\371]<\031\330\237=+LX\2753\2030\275\2619z\2755f\034\275_\271\016\275\300\'2\274\313A\371\274\362/\003=Y\016\307=)\177E\275\275\270\301;U\205\362=\005m\307\275\355m\002\273\027\366\n=\236F==\247\222\261\274u\331q<\347\243\221;\264\353k\275\021\224\236\275\355\205\214\2759\030\263;\tu\310=\036%A\273_\366\230\2732\222\255=:\001\211=3\267V=\016\334B=!\322\216=\376}\334<\267&\021=\204\371\226\272\361\272\224=\231,\007=\030\226Y\275d\213\214<3\342d=\\&\000=\250e\261<fB\246\275\370\261\005\275CVt\275\"\214\234\274\027\202\251\275\3279!=t5\226\274.\250\010;\203\334I=\225K\371;\335\005?\275\222=_<,\372 \276\370\026\020=}y\327=B\017\212=?\\%\275\262\352\035>i\217\225\275\236 -=\237\276\203=S\332\211\275\213\272\230=>\017&=\345s|\274d(\266\274\212\213\334\274K{\325\275{R\260\272\025\346S=\312\344\230\2758L\267<,B\220;-/(;4<\331\275\325(R=\264\377\215\275\0103\200\274\363\201\317=}\313m=]\217{=a\004M=\342\377>:xs\366<7\030\026\274\355\303Q\274rZ\004=\345`G=\375\347G=\r\240\345\274iM;=\2730\232\274\020\320\004>\010\360\205=iz\370=m9\321=\231\250\204\275\026(\003\275p\211\036\274(v\227\275\267(_\275\252\340\227=*\373\027\276\353k\000>P]\351\273\314)\350\273\245h\257\275f3\010<H3\324\275U\342\002\275\0034\320=/\267U\274\252\024G=\312+\021=,u\021=\365\323\263=\247_k=\177\347\370<\222\315\232=\215\345_\274\337B\007=F\274d8v\216\244\273\270.\307\274\277ZQ\274\230\250\257=\360}@\275\267\360\t\275\250+\322=\255\310\264\272\371\201\034;\266\340_=\226\371^\273Ak)>\347\273o=\256\206\332;7\005\212\2753\334\221=E{\257=Qc\361=\3463\311=o\002\375\275\336\314\321=\277\227\"=\035o\362\275\2314\006=\260#\034\275\006\235k=\025^\234=\235\247\333\274N\n\007>I\264%=\254n\205\274d\235\237<\351{\361\274\212\022Q\275\366\264\013\2751^\r\275Xu\225\275-w\005>?\272\350=\306\030\036;_N\021\275\024\243\005<\305\006y=8M5\275w\346P\275\240\030}=\203~_\275t\323\243={\264\024=1F\216\275&W\321\274e\276+\275\217B\257\275\276G\263<\317}\t;\221\343\260=\032\205\332<\251L\260\275a<7\274\321F\370\275\271@\200=\252s\304\275\017\006g\274\0058\312=\263\246{\274\221\204\300=\215\033\026\274\273\221==\2631\253<@\273\342<\344\255\003\275X\003L\275\357\234\230\272\264X\221=H\207\244\274\244~\211\275\240\027\260<\353\330\331=[\300\017\276\221\271\023\275{)\333\275\t\265\371\274\220\202\007=\357\036\273=\330t\304<\035sc\275hB\220\275C\374\024:\\\362\004\275\'\376F=\315\311\266<\213\351\261\275Y\245\201=xo\327:\001\370\361\274\355\364\000=\020\324\023\275\271\t\326<\231\212w<\263\321\263\274\261i\024<]\344\333\275\220\237\261<yr\032\275\311\020d=n\376\213=\003\247\354\274\334\267\215\273\021\277\t=\236\350\035\275\t\213[;-\322\235\273\362g\371<\341bF<\201\310\211\275\274-\027\276\007\354>\276\347l{\275\203`\301\2746\351\235\274\210\336==JK\306=\306\037B=\000NY=\023\246(<\327\337R<\030\205\002\274\320Z\256;\314\222W=\201j\365\272K\240\206=*p\037=`BK=\325]\370\274\373c\304\275\004\337\374<a\262/=\217-d=\007#\204=\344\202*<^\034F=,\233\253\2755\177\251=G\232n;\003\340\302\274\350\023\236=\177s\231\274\307o\202\273\177\351\245=\203\340^\275\023\2341\274)\036o\275\254\302\320\273\341D\261\275\220l\243\275,\344\262\273I\\u\275\300\330\272\275\033\027t=\030u\337:8\220\251=\330\332\367\274\266ks\274W2\330\274\354J\021\275\026O\031\275\337^\222\275\033\nD=\374\340J\274@\261\334=`\370\312=\257\371\224=\t\004\202=\316G\212\275kvy=\330\201\264;\204\250S=s.\227=yO\353\275\361\276\247=\271].=\356N1\274\213\351L\275D9\235=\333\240\200\274oe\256=\270\275\014\276\247\256\363\274SE-\272\222\230\026\275\214\031\343\275o\277\026\275\037\007\215\275t$G\274\027\371-=\017\366#\273e\017\323=;B\205\275\255\337\016\274\022\347\371\274[p\034<I@d=\224\317\351\275\347i\300\275\202P\007=\357<\255<\316\0003\275\310\302\000\276\006\257\266=O\017\316<\023(\\=\227X\301=\213\301\020<\223\374a\274\013\232Y\275|\241:=\264\333\253\274\361\253}\273\177#\006\274e\262C=\351\3431\276g\304\224\275\r\346]<\236$\013\273\255\316\232=8\230\216\275y\023\036=Pe\036<\231\336:=X\014\223\273\352\236\346\275\306\260t=\261(\345=\223\322Q<\";E\274\253\373%=h\0171=\336/\001\275\303\226\210\275\304|\021=\366\r\000\276z\324\314=\207t\350=\311\307\203<Bo\260<P\257s=\376\363n\274\274\013\241\272\273\313 <\241=\255\275\217\362\203\275{22\275(\370\002=,\016\000\274P\032\024\275\214\n^\273e\005S\274\224\315\346<\334C\013\275\243\327\322=y\375V\275\356\"Q\275Y\321j=\215\316\207<wI\363\274\261\326\335\274\334I\220=\\\377\373=\272z\233\275J\t\266\274\020M\002>}s\272\275\336~\030=Q\201\242=\256H\027=\3653\212=r\3650\275w\275\363\274\230]\326<\021G\034\275\301o\302<\234\325\274;\310\030F=A\254\200=NPK=O.\001\274=\021\247\274h\330$\275c\020\304<^z\356\275\336\244\305\274W3\257\275\247\353=\275]\000\350\274\277\033\274=\363S\244=.\251\343=\007\257\365<1~`\275<_\261=\341\017Y=\337\252\253\274FT\310=q\345<\275\010)\204\275\362o\321\275\014u\021=\351C\013>N7\314=S\265\264=\222\244\313<K.\333<\3702\323<2{\030\275\014\277\026=\013U\202\275\330\204\'=4\206\006\276\360{\324=\027\240\373<\211\324\333\273X\311\002=\303\335\n\275\3709F\273\231r\003\276\322\3731=\34451\275\\\232\266\275\255\177\233<\316\022\237<d\210\\\275\311LJ=\302\315\214<J\370\031\276z\364F<\243\255i=2I\252\275x&W>\323\265$<:\205\205=\277\345\222\274f\306Y=\247\361O=\211\205r<\003\245\022=<[x<\266\333\336\273\017x@=\374j3\275&\223\302=\235\360\204<\177\250\302\275\202\344\265\273\214\203\347\273us$<+\001\234\275\025E\203=F>\334<mg\266\275v\254\203=\263\347\321\275\252iD=6\037\360\272\343Qe\275\240m\311\275\331q\230=>\0201=\177\337\254<\027\004\333=\214\244L\275\265\004v=\0030\356\274\360\320\006=y[\035\274\037\346\206<<e\220=\332Q\255=\232\204\251\275aQ\307<}\"\016\273*\264p=;h6\275h)E\275p\034V<\315\031\252\275`\254_\275\363\263\216\2751\027\244=\013\246\270\275\234\322\271=\004\212\276\274\335g\212\275\351\036-<\307\340\324\274;\266\"\275x\243I=[\263\004=\312\252M\275\243\341\313\274\"U\277\274\010\253\026;Z\360\302\274\372\264 \275-\272\232<|\3013=\003V\205=\240\273\324=-\003?\275\211\177\001>/\200\027=\3444\266=3\267\t\275&\206\007>L9\000\2758\247\007=\013\357W\275\',\227=G\350\027={\363\337\274\347?2\27471\215=/\265\201;\332\007\210\275\025o\220\2746A&\274BF\007>\251\325`=\375\275\256<\272}\232<\360\023\002=\261\355C<\213B\227;C.\n=)\2636<\014n\006\274e&B>\266]-<d\001\262=}qK\275\3163\r\276\234Aa=o\223\030=\304X\037=K\274(=t\300+=\020xH<\301t\346<\215\r\305=\342\241\013;\240\273\212\275\0058\337\275\377\232\325<\242\024x\275\324\357j\275h\013x\275(t\266\272+\255\035\272\253.C=\007\355\003=\314\327\024=%\326\261:Y1R\275\243\373\253\273\231\223%\276\354,i<\271\323\264\275\272\341\303\275.\')\274\200\325\307\274^\276\377<\366\237T\275k\216\335\275E\020\023={\353f\275\244h\316<Q\030\256=-n\357\274\350}\364\273\213\370\030\275\202\345H<\355\260\342\275\'!\030\275\000\336\320<5\215\377<\002;\033\275xf\253\274\313\305\247\275\016\254\214<C\206U=/\336\000=\022-!<\005~m\275\331W6=N\325\334<p \332\275\347\n\260\273Z\204\313<\313\207\274\275\330\305H==\226\243\275q(k\275< y\275\357}\302\274\020l\002>rl\226\275\206B\212;\003#\364=r]\016\275\344-\231\275X\301T=\332\r\r<@\261\256<\313\362\210\273\350U\337=\205\343\353<!S\341\275\312\266\n\274,\271\2159r\245\020=\203\377\035\275\n[W\274\037()\274a\031\002>OP<>\362V&<\n5\241=\351Xg\275\203\206\242\275\026\212\006\275\272\372\256\274\204\341\206=+\321\260=\243\245\367\274z\373C=2\222$=\024\243\017\275\177\032\217\275\r\321j\274\244\273\262=\202_\201=t\227\277\275\240\325\235<\035\265\177\275\234\352\334\274\375y\354<K\\\252;\357\272\254\275\237c2=[\236_=\315\254\264\274\030\r1\276\231\r\346\275\2311$\275\031\206B=\273\365o\275\206)\230<^E*=\373M\206=%\3403;\273\256\000>\355c\304\275F\242\213<\207\035\275=\272\344\206\274\363\227P\274a\304k=\017e\027=\360\3749=\336\\\034=3\231\274<\302\237f\275\026\233\264\275z\013\205;y\344\247=,<\375\275\302(\207=\366\301\253=M\271h\275\336n\311=\2072K\275\233\204\256\274\031\034\311\275t\362\331\275\035[\330\275\313|\237\275x\304\377;\217\331\332\275s/`\275\211\346\030\276\204\002!=:a\323=\327\302y\274\367\333\330\275\263\350\317\274\350\237\371<\360-\307<\233\257\016=\213\220\204\274_j\213=\035Y\001\275\221\322\301<\300iN\275\200\264Z=T\2515=yn\311:\363-\340\275\231U1<\336c\341\274\347\225[\275\032\261\207\274U:s<+\245\356<K\206\273<\366\211n=\243\245\242\2744\261U\274wP\013=\002\3162\275\237p\237\274\302\332\001=n0=\276%\344\024<\266v\271\275\344\334\276<\314W+==\005\247;\354\355\214\274\230\332\205=\206\263\032\275\205\350\206\275\314\300\241\275\031\203:\274\336\330\"\274\333\234d\275\334\375\244\274\371\004\357=l\265\202=D\307t\274J\260\301\2759\017y=<n\037=\263\3419=K^D\274\316\274\300;-\177_=a\333-\275\361\353\203\275\021\3233\274\365\351i\274\026\t\217\273\205X>\274\217\336\020=\303\273&=\204\355d<e\001n=\031\271\230\275n\366\266\275^\027\353=\324,\r=3P\342\275\363\377\007=\322\331^=|\201\333\274\201\303\356\274\236\017\345\274i\377\225\275\232\375\347<L\221\024\275\304+\337\273s\263\260\274f\177u=\336\344\202=\004j\n\274\327\312(\274ro <\362\010U={I\275\275\362\r\002=\002\014)\275\212W\032\2742~m\274\253+U<X\264\371=\032\203\223\275\201-\036\275\354*W\2756\203\234=D\260\224<>\240\337\275L$k=J\014\205=\347?d<\342V&\275\317\027<\275\\\340\244=\356S-\275L\303u=\014\221\007\275^\333\035>\336\215\213<\335\241\272\2734;\277\275u\323L=\266Od=\363\227\343\275\242\372\311<!|\250\275K\275\213<+%\337<Y\014@=\276\2148\274,y\334=9\376F=\266; \275\207~29sq,=q\031\021\274\266D\r<\026J\216\275Vg\023=\252\024&\275\000\031:\274a\306|\273\307\254\000\276\256}\221=\037\210o\274 \033=;\1774\371<\377\317\237\275\026\177\221\275\370\327\346\274\355\271Y\274\020\031\330<\026\332D\275\216\307/=\311T\246\275aA\222=\333\247R\274\325\310?=\300\002W\275\347\025\320\274\362\256A=_\223\330\274cy\250\275\004J.=\232i\000>m\360\274<gIq=/\330b=\177\000\333\275\360\td=\312\352*\276\254\274l\275:\017k\273#\032c=\017\264j\275C\201\202=\361\355y<\277\214X=\324\335\360=\201`h\275\224\375\003\275\002\345\335\275\373\233\235=u\264\373\274\004y`\275]l*\275\324\363\024=h\376u=\243_E=[\354\030=}\215\014\276\313QP\275\t\020\301\275)T\363=\267\306\315=\023\002f=*\246\320\275\360:G=()\312<\0035\205\275\365\377\001\275>\303O=\035\270\234=\277\024u\275\350,\250<`\004\251=\346~\322\275\303\236\244\275v\010\230;C\342\217\274\034pd\275\253+\233=V\235\030=7\363)\276\307\254\253\274\314*\213\274\020\'\000:\334\247\212\274K\026_\275\247j\322=L\232\251\275\036\034\033\276\235\300\200<\257\332j\275\310\322\312\274b\304\337\273\001\340\201=6,\271\274\347KY\275Qhl=E\340\231\275UB0\274\232\374\203=\354\036\231\275\327\346\214\275\027M\356<\222\210\232<\314T:=:2\"\274+\241\030\275\226 \304=\314\341\301;\255U\235=L\236\241<)\032\\\275\371%\013>\261\r\333=e\021\265=\\\370\241\275\212\000\360<\306\236Z\275\177\274\216=\035#\355\274\350>(=\206\231}<~`\206\275\244n\230=\030wo=\270a+\275\271m\302=\331\211\322<\033\314\022=\3350\207\272\362\\I\274\360\374\227=O\272\n>Ab\216=\367\262\334\275H=\r<m\352G;\215.[\275$\\3\275j0\014\274\213\010\006<\351^\222\275\370R\320\274\255\022\223<\024w>\274L>c\275\277}6\275\n\2659=\2241\310=_M\214\2758\226]=]\277\202\275N\276\000\275\025\234\251\274A\271\t\2742@\210\274\035\263\033\275\3700\031\274\3504\324;\327\324\250<3\267\260<\342\310\335\273\320n\310\275\352A\231\275\203B\254\273f\364\200=\354\331\234\275\346o=\275\245\r :l\351\006\276\320sb\275X\304G;[\245\306=C)\205\274\335\336\014\272lp\007\274\273PU<\336\372\275;\216\200x=^\0226=\250\364O>\033\274e\274\351\226\266=ul\035\275 \213\212<\216\374&\275_\233\301\275\372,\216<NaV=\221\005\263=\220\357!\274\305\361\327\275>\277\024\275\245^\206\2750\234\377\275sr<\274:wX=\322\370V\273d\226O\275\tK@\275\361\252\220\273-\230\370;*k\302<\276\021\304<i\313\270\274\251>\321\274\261\374V;\006\000\262\275u`\217=8j\337;l\270\317\274\301\025\204\272\245\360%\276#\223,\275q\001\206\275wF\211\274\004\311\253=\276\007\222;\304\201r=\010;\266\275>\323J\274\232\211\242=\010D\200\275O\344W=d\202,\275\321\003\341<\230$\354\275Z\350$;K\022\225=!\241\200=\204\006Z\275\272\007\226\275H\242\223=p\035N=\353\363\202\273\263\202x\275hh\224\275t[k;\035((<\252$#\275\002N\240=\216\006\244=t\006\223=\373\000:=d\017\024=\034\256\035\275+\372\241<\222XJ=\303s\214=o\224X=/MZ=\347H\221=\211\016#=\201\210\363=\317\317\261;\357/\200\275u}\244=^o\202<7\000\254<\270\024\244<\032\362\236\275S\247W\274\321\363\t>\314\020\232=\234\003\373=/8I\275\3321G=p\020B\275\\\372\345=D@\030\275G(\246\273\260\034\214<T\246\303=\226I\246\274\216-&\2756\246\t\274\350\023\215\275\003T\024\276Ss\242<X3I<\332m\237<\004\323`=x\277\016\275\002&5<;\337\214<vX\342\274l9B\275M\361\020\275d\024\337\275\036\255L=\002\312e\275\332\254\334=*$\367\274?\324\001\274t=\314\273O\202\035=\256\220\260=\320\221\365<w)\230=\2779H;\025i\345\273T\010\300\273e\313\024\274dW\004\275M\203\311\275\217o9=\207\313\340\275\271j\342<\204\210P<\030DF\275\337*\376\275\022B\016=L\361i=\3264\004\274\346\316\231=\253\321\020\275xO\014\275wl\217\275\nX\201\275\020)\224=vd]=qs\021\275\264\020\225=\246-\003\276\267\306\225=\333\332\330<\333\305\033\275\366\010\304<\247V\310<\360\306\216\275\033<\366\274\205^\313<*\205$=\243p\323\274\211\332L;\017,9=\211\305+\275C:\035=\227\022/<\275:\010\275\021GA\275\027\261\'\275g\370Z<.\0214\275\350!\253\275\261\355\024=us\372<&\325;<\013J\220\274~d+\274?tH\276\227\343\010=\235\342\024\275\314M\336\275\320\214\247=\272\013\275\273*\013\313\275\233x\327\275\252\037\242\275t\277=<\035c\331\275\'7\313:\354\265\003\275RP\222=\304;\346<P\207)=\210\270\314<\220\273b=\216J\236\272\274\243\235\275\266D\340<z\302+<.\025E\275\242/j\275\203\014\260\275\306\361\301<)m{<Vo\336=8*p\274\t\335f==\237q\275?\243#=\351\362\204\27538!\2755\322\013\276X\3063\275\342\020N\275SF0\275\023\026\213=\034\345\305=\0102\014\275\361\207\254=\312Wr=\326\340\030=!\242l\274\265\000i=1S\266\275\021\022\002\275\336\303\231=\"\262\001<\327\305j=L\305#=\273\262\210\274\337\241g\274U\202c=G\201m=\n\321g=\245mJ=\322eI\275D\256H=0\211\006<8\242\374\273R&H<s\342\204=5\260\360<\0239\362\275\205F\324<\246\214\335\267\001h#=\374\341\203=\361R\323=z\2754<\217\005\274\275\005\306\372\274Z\201Y<{\250I=\206f\200=\252\340F:\373\331@\275\014\347\275\274\250\275\014>\320B\206=\326\234\211=\342\353\000\274\r[{\275\323Q\013=E\371k\274\310cH=DP\271\275\225\225\236\275\366\200\245=\014\205\221<MR\242=k\265\200=\037\246\373\274\317\006\367:AL\\<\016J\371;\257\300\311\275\241\347\276\274R\334\250=\234\024@\275/)\213<\231\216T\275\004\n6\275EQ\200=\211?\257\275\365!\221\274\374\332?<e,\364\274\356O\323=\233b!<d\025\204\275\261\267\016=\272\277\236=\243u\263=\340\307!\276}\367!<n,\270\275\0219\024\2767Y\356;\306 \025\276n\007\362\275~\253i\274\361\343\256\275\265]\366=\272\240!>r\277\212\274\300\267\022=\0252\310\275\204\317,\275\002\263-=AtP<H\254\350<\004\341\017\274\256\255\016\275y\211\323\274\333OY=\000\374\262\274\034\301\256<1\322\336=L\257\263=\234\243\005;`\234\251\274V\210\004>\233\254\256\275%\203\266</\231\343\274\271\033\202\275\266\027\220=\314\220\251<X\250\317=\353\310u\274\200}/\275\021]\333<\227\254\306\275EM\333\274\265 \026;\345\233(\275\010\326$=!\366\321=P\t\267\274\231\234\306\275\334_U\275 \224%\2750\234\256\274\231\320/\275i\303\351<w\253&<\232\234\363\274\034\213\013=\026\307w=\323\354\262=\\\227\006\276G4\332=<\220\366<\235\232\301\274\021\322\\\275\266\345\363\274\343\245p\275\232\323c\275\340\223\005\276\221\301\r\275\023\352\277\274t=\023\276\303\371z\275\263\365\246\275\206r^=IE\277=\032\213|<\361\234\021\275`\233\230=\351\323\313\274\323R\375\274\256<\016\274\rZH=\242\323\220\275\336\236}\273\243\346\333;y\030)\273r9`\275c\013\314=\211.N=\251\357\257\275G5\234<\016\225g\275@\230s<A\313\273\274W\202\302=$\220X<QS\032>\230\312\024=\203\357\351<:\2277=\314~\247=\245=\377<\355\207\346\273a\206U\275\246\220\356=\r\030y\275\335k9=\313\003\207=\0304\255=\344f\222\274\320\362\321<7\366w\275\215]\027\274\3777\n\275\027*\035<\014\346\265=\304\357|=u\240\341=\354\267\241<\350-W=\314\224W\275\346!\263=#\203R=\357\253\236:E\224F=\017\276\254<\025P\026;\026\266%\275\006m\327:\205\226\035\275#/\270\274\346\264\020\275\360^\024>P\360\247<\313\236\200=vVX=j\022~;\230\334\215\275Ji\357=\"\257\"\274\327t\221=\330E\024=o\332\261=\030\333\360\273\336?\364<\252\243\203<\375fh\274c\267)\27393\377\274+\037G\274B\333\307\274\226\364\270\274\030e\354<\201c@=\307\356\215\275\210\203\273=\"r\367\273\013\266i<J\267\236=\346\200\252<BF\214\274\237\264\230\274\372G\212\275\206\223i=\275\361z=\362\257\275\274\213\177\241\275\250\030\263\275\2522|\273U\261\242\275c\343\005\276\034\352U=\327\224\366\274\311\365\001<\204\261\016\275\023\201\036;S/l\275 \251\224\2757\376\000\276\354M\264<\006\377\346\2751c$>\315\277f=\301\353\262=\223\002_\275\326\274`\275#<\236;\337\205%>\014a\"=\033\r\227\275\302\2660\275\322\232\324=\377Nf\274\273[\200\275\323X\354<\252\231\225\274\006\244\231<KK\330<\323\263\230\275\307Uh=\376\n\335<\013\t\362<Z\343\376\273#\212==\262\321\255<\324\001B\275\325Qc<)A\375\275\021\022Y\274\274\345\000=\346\233S=o\234%<e\200\372;\257\202F\275\315\263P=\250\206\'\274\2360 \275\272T =\304Ga\275\271\245\241\275y\362\227=\347!\023<\334\014\342\274&\2252\274\027\357c=\272MH=`\273\215<J\301\313<\257\374\363\274\000\035\270\275<\020\031\275k\010\240\275h0\266\275\036f<\275\301i\306\274-\337!\274\005U\250=\307\215\206\275\r\357\214\274\265,\270\273\026\210\253=\212\'\254\272;*+<\215`O\274j\351\025<\202\350\246=\255\270\266=zm$>\332\201\247=\247^&<\264\252\232\275|\346C\274\347\202\374\275WVt\275x]y;\325[X;\231\177\245\274\0006\361\2753\300\350=\226\355\010\275\365\375\304\275\216\3009<\310\335\224\275\'\003G=u\014K\275\037aE=\275\232\200<X\231f\275\355\316\250<.YQ=\037\276\207=\177\235\014;\312x\271\273S\215G\274\037\305-<t\300\260\2743|\004<\t\222\2229\2252\027=\267G\342<\306\301?=\305E\363<\030U\350=a\367\r<`3\300<(\032\233\274\325J\376=>\027\021\275\222\250s\275\237\245\267=jdF\274\004S,=\231\243T<\227\305@\275\021G\005<^\214\237\275\360\"\344=\023\227\216\275\252\026\320\274\013(\320\274\255 I\271o\023\223\274\374\023\213\272%\262\273<5+\277\275\001iz\275^nL\275s\357\310=$\356\262\274\361qe\274e]\236<\374E\005<d\226m\275\206\303\265\273\301\262#\275$)\310\272\244\247\005;P\203E=\200*\244<\216Zi\275\027 x\275&\275a\275\024O\313=\301\277s\276yz\026\275\005S\020\276\263\021O=\374\225\262\274)2\016>\225\257p\274PU\320\275\374\300\355\274E\256\366\275f\207!<\333\024\007=/\234\350=.X+>\247}\267\274\317C\237<\317g\347=Ag\210=\032\300\216\275\027X\206=\346O\316=\275v5\274\252\334\326=cd\211\274\274t\374\273\264\030\252\2752Rf\275\322\316\210<\360\'\004\275\212\360d;\0023\320<\351\367\016=\272b2\275P\\(=T\035\337\273n\303/\276K`%=\207\332\025=w\265y=\021\323\304=}\373*\274\257\203x\273x\2155=\315\234\216\274s\032\362:\306y\256\2758\262\311=\343\352\262\2752M\213=\241#\222<\003p\300\275\030\n\250<\'\206\245=\t\256\204\271\006*!\275OW\260\275F\207\216\274p\235W\275\232c\365\275\004\317}\275\237z\003\275Z\230\221\275{L\010\274\372\355\353;c\231\211\275g)\211<\3522\370\275\035F\002\276\355\014G<\371\233y\275\320\305q=\372\277?\274\365!\304=/\\\351\274\262\021\262=\276\231H\275\342\322\277\275\367\207\227\2749c\035\274\276\033\005:\260\344S\275\006O\334\274\376\326\t\275\354\222\361<\270\014\000\275MR\n9\034\344W\275Q\306\013=\304\244\263=}0\222\273\241\214\260\275p\261\000\275\237\256\341\275\246\241C\275|\r\205\275\246\216\034=nE\225<\367>S;\004(8\274\277\030\027;\313\005b=\214\217\014\276\255k\035\275w\312\355\275\222B\210=HF$\275\262y\232<\231I\017\275C\306B;:ne\275x\252\223\275\324_\234\275\256$\225\273\273\234\306\275\000\334\232<\333$\236;l\356\306\275\312\r\245\275L\"\257=r8w\274\307\363\272\275a\271\376<.\350\277\275A\343\245=s\215d<\2354n\275N \324=;@\303=\337\024\221<\316\'\211=(d\246\275\013\240\365\274\355\354\363=t\347\222=\003\304S\275\035\"\237\274!\247P\275\347\331\261<\334\n\336\274s\371o\273|\373\352<\0310\226=\344\256\201=\311\0225\274R\321\353\274\241q\217\275\240|\260=\343\231p9\271\262\237<\266\265h\275Fi\202=\260\2354>\273\325O=\037k\356\275\235\323\255<]\342\014\275\376h\262\273\251\177\245</pM\275\204\271\021\275\363\037\341=4\377\207=Z\372\361=\260&\243;\334\345\026=\221\373\213\275!\177\270=9T~\271\367O\370=W\266\270=R\360\376\274#dg;\224\356M\275\230m\021\275\305\223\220=\311\221$\275\'Y\337<\317s\323=\177h\r>\341\346\270=\301\352\341\275\343\366j\275\316B\336<\370\215E\275O\247a<\200e\t\276\017_\242;Y\345u\275 \247\001=\262\323\017\275\300N\273=\241\225\016=\371\020\233\274UC\242\275\342\374\312\274V\351\005\276\372:\000=\306\002\020=\331\232\347<\232\367\037\275\214\203\360\275fD\247\274\2708\253\275P\212\026\275a@\343\275\337\336m=\356\351\343<\331DG\273AP\223\275\321}\016>\272\tW\275\021\"\014\275\361\356\265\274^\030\355\274\230U]\2730A\347<\311 b\275]a\262<vP\217=\241\302\236\274;D\352\275\'\266\263\274\003E\261\275\271\220&<\310\354\216\275\020\244N\275s\232-=\205y\001<\260\306Y;\365\346\236\275a\361|=\000\303\326\275\"\224\206\275\355\332\244\272\303\324\227=\004\367\312\275\224\335\243<(\'H\275D(7=1\244\203\275\027\255h\275\354h\033\275c\302\301\273d\235\270<\225\276\254:\251\300\255\274\362X\336\272_,d\275\337\352\002=@\332\001=\267\232X=\357v{=Y\275 =Y\t\201<C2\302\274\3367\037\275\243\017\017\276\365\201?\274\031\340\276=\234\240\313\274\315m\302\2748\327\231<\247\302u\274\276\312\324=r\030\212<\275X\325<(\003\230\275\026u\177;\\r\300\274\270Xc<\351\354\002\276\36424=\336\303\324\275\023Cq\274a\205\204;\027\350\264=Q\306|=\342H\272<\253|\372=\341\357\354<f:\267;\365\331\204=\217\222\001>2\224\257=\371\200\276\273\374\2059\275\260\275m;\357\006\206<\274hQ=0I)\275\232\010\021\274 \336q\274\252H\215=\367J?=AQ9=\263@/=\375\023\215\275\307a\254\275\340\232\247<\201v\220\272\207D\t\275c\267\022\276l\201\t=\226\002/\275\026\350\310\275O\270\354=\350O\027\274$!J\275\201\026\304=r;o=~\016\r>\365\233\"=\225@\361=\330WL\275\037\021\224<v\3259>\"\353\270\275*\342\024\275\0345\224=oHQ\275\r\216\235<\250\330\317=\023\213\004\275\347\320\273=H\204\223\274+!\205=\203\321u=\205\240\321\275K\337\216\274\355\207\204\275TQ\212=\370\303\035\276\014\354)\275,\236\031=-U\204<w\370I\275\347\033t=\356~\242\275\005\207\023:\375\213,\2755\206\021\275\035\353\264\273ZLG\275\335\257\315\275\003jh<\226\220S=U\265\242\275M\241\237\274\205\303i\2754{\303\275R\210\036\275\222\277\221<\264\241\203\275\243Z\264<\332\332\203\274g8\234=\235\267\010<\366\321\316=[\265\203;e\211\344\2755\211\204\275h\270\234=\r\275\252\275\377d\336\270\354A\251\274<T&\274\225\247\t\275\0238\254=U\354\206<\347\253\276\273\004|t\275{MR:\024%\230=\233\3712\275\312J\007>\r0\000\273\207g\351<4\365\206\274\236\310\013\272CT.\2757+\220<6\020\203\274n\307o\275<\306(=\272\324\211=9\313\211\274\003\351\224\2743\223p\275\027\213\254\275z\246\325\273\336\3149<-\243\327<dR\270\274\031\'\341=\3220\002\276\305\273\200=\354\303\205\275\321A+=K\315\220=5\215R=o\037R=\347oP=\323\362\212=\014\331<=\343\304\224<\263\277\277\275\231\222\242=R\245P\275 \224\374=\tV\337=\2527m\275\033\013\271\275N\354Y=D\017\324\275\322d\227<\224\021\230=\3027\025\275\036\207.=\021\224|;9y\276=\0244A\275\217(\363\275\3573\235=\205\0008<\031*\232=j\216\265\275Tr\001\274\314_\033\275)\026i=5\322\221=G\303\344\273\344m\247\275p\022\312\274\"\232\330\274\271\222R<P\331[=f\\)\275srH<\214#\346<\262[\025\2752\314\263=\211\315\025<p\\\346\274b\177\374;\355\r\336=^\313>\275\223\236\373\274\027N&\275=\300\264\275\266cU<\364\233\310=`\nT=\363g\353=\324\261\021\275\344g\270<\264\206\025\275\237\342\253\275q\360B=|\221q;Qs\003;a\003\340\275\252\360\304\275\332\260!:\030\001\036\273\356\321i=\034`V\275\375\232\201=\275\373\034;(\320\253<5V\204\275\237\311P=/\301I\275\310L\032=\r\224\352<\177<\277\275N\317!=\333\340\004\274\263\"\212=\331\036\022\274\363\031\230;\343\340k;\304|\222;\255\205\014\274\3718L=\035\260$=\026\361\003>*\323\034=\261\327\n=\001\033F\273\267\307\371\273@\032\261\275$\216\334=\030x\300\274\253G\321<\033e\005\275\262z\274\272\347_\017\276\226Pp<\305\r\211=*/H\274\262\361\364<~\311\274\274)>\203\275z\374\237=\177\373\237\274\307\324%\275\217\"\302=\"U\220\275\330}\325\274\366-\010\275\377\357\230=\242Bk\275\307\303\215<I\020\251=Q\025U\275\'\350\216\275\346\376\210\275H\3543=\260\342K\275\366O\214<\235%3\275\366\270\310<V\330\000>\013\265 \275\301+\010=\265w4\275\326\316\224\275X\360#\274\013w&\276S\224c\275\327\037\010\276\332\214\024<\3605\274\274\013\367\010\275[\345\231\275_\037\000=T!\017=\323\322\227;N\032L\275[\t\230\275\275\335\342\273#&\372\274\'\274\266\274QFN=ox\225=?\254\374=8\203\027=QH\343<\333\370\366\274?\314\003\275(\342\232=\216%\002\274N>\343\275{%x\275Z\266K\275<\036];\266\343\007\275\3741 \275\305j\226=\356\226\302=B\346\002\275\326\317\201\275o\350\203\275\252\306\252=\014\256}\273\325\327\222=k>a<\356\2328=F\262\207\275y[L\274\027Y\230\274f\317|:6R!\275\33305>\325\365\211\271N\261\315\274v\233\037\275\311\363\010\273\231\360\215<$\374\220\275{\2720=\313,\025=\340\"\305<\221\005C\275%\317H\274\016\2210\275\222\344\275<x\271\034\275#:<\276\326\372\306<\244\007\300\274x\te=\333l\221=\010\377\263=Ur\251\275\033T\373\275\314[\005=\227\021\370\274t\214\226\27438\t\275\321ic=\231\377M\275\005\207\025\275\322\006\327=\315\312\272=\336\275\020\275($\205\275\003\346x=\221\373%\275\024E\304=\315\033\213\274\232\352\273\275-\305\356\274\016\274\n=\316L\373<\255X=\274\010\260\273:\203\324\243\275\314\321\'=Z\344\355=\305\254\375=\367;4\274\177\373\254\274*Z/\275i\212\266\2754\215\211=\303\217\334=\306\372v\275\200\350 =\223\001\210\275\225Y\230<\316Ub=\317\345\330\275\202\215\017\276Zh\354:aO\002=}F\374\275r\314\317\275\302+K=\355\362K<\017\214\246\275\355\342,\275[\216\234=K!{\275H\240u\274\357\037\024<m\322m=\205#\326=;\014\305=\001\325/=<@C=\365\001~=\010\207\226=\375z\225\275\033\231\243=\361\000\026\274\246\206\007<\310\212-=\215\241\234<[\261\231\274B\261\200\2743\341\271<j\360\237<\037\036\210<\'j<<\257\327\251\275\321\363@\275\2122|\275\252\235\243\274\023;\251<\177@\211=\'\273\370;\201\323\217=\030\344f;j(\"\275qF1=\026e\223\275_\216\236=\301\275\240<\036\374\276<\005\200\352<\322\016\213=\031\343\270\273G\267\217\274I\351\225=>\201J\275=\035T\275\325\273\"\275\024\246\023;\331\265\223\273<\005+\273\331\346{\274\001\316\007\276UP5>?9@=\221\343\225\275r\246f=\021p\242\275,\261J\275\013\r)\275\242:\020=\343\354a\275\274W;\275\002\341\324\274\024\232T=SA\335\275\303\300b=\245t\307=\356\\\211=\000\334\336\273\272\261a\274d\033V<S(f\275}\304\216=/\004\031=\215\207\\=\265\026\222=\256/\312\273a\304.\276L\333\326=\013\010U=9{\246\275R\227\025;\331\301\215=;\335\025=\300\350\366\274\303\007r\274l\033\035=o\006\'\276\246~{\274\332R\256\2755\377\226\275P\213\006>\270\260\200=\3264\342\273|v\204\274\203\371u<\036J\246<+H\222\275\007\254\312\275d\351L\274\020\020\361;\tZ\212=\342`\020\276\276u\203=\341\231\257\275\233\217\235<\267!\013<Y0\326\274\014}@=\365\331\227=\306\201\335=\002\256^=t\323\311\273\030\326\221\275\233H\212=\252//=\316\232\366=\321m\261\273W\242e\274\3563F<}\214\305<\212Sf\274\255\323\256\274\214M\303\275.\200c=\310\2329\275`\335L\273\021U-\274\224\226\035=vu\035=\303\227\275\274\026\300\263=\375\312\240\274\216*S=\372(\n=\237\311#=\200\002\370\274\2356Y=o\251\263\274\262\343\016\274\271\370;=Xi&\274\010**\2751\242\022=9\304\275=\241\356\013=\366\234\231=pR\255;X|\020>Q2j\274%e\017\275$\323\255=Xi\257<\032>\311\275\2028>=\351\034\325=\034\027\216\273\246\335\240<\020\013\032\275@\261|\272\\\303\224\275\216\017)=\315V\365\275r\204\"\275ba\371\274\362\375\324<^fl=5d\007\275\271\361\275<\217];=\340\215-<E\271\316=\351c\014\276\021f\214=\343g]\275Vx\206\274\005\031;\275\206\031\020\275\211\207\020\275$%\205\275&\332F=\2438\320=O\302\026\275n\t\357;~\321\221\275R4\265\274\246D#=)y\031\274\302\004\026\275\031\352N\275\253\264\201\275$\345\004>oQ\223\275\254\276i:#\376\n\275\351X\226\275\003A\"\276\211\033\237\275%\215\256;\317\203o=70\216\275s\000\034=xg\216=\274x\207=bm\251=\210NS\273\232\327 \273\312\357\023\275\003\211\224\274\001Z;\274s\026F>0\334\221=tb\332\275$\361\204\275k\306C=e\214\267=t\341\203=\010t\207\275+L\233=\321R\213=\221S\010=V\371\255\275\265\237\242\275MWm=\225)\351<\022\221\222<\3002\203\275\"s\347;p\344%\274R\352\302=\253\035\005=\025v\t\275w\027a\273\262\221\257<@\331\007=\302\031t<\2336K\275\236\220\001\276\364\377\276\271\210\302\023\275vx\216=\356\213\004>0\365\366<i|\327=5\263D=\005@\260\275`\346\247<ItX<L\035;=\227\301\277<\306C\261\274\371\245g<v\014\202\275N\237\245\275\351x*=3\262\231=\252\224#\274\271:\330<\233N^\275)\233;=\324\352\n\275\324\017\320\275I\367M=De\226\275\235\211\'=2\307\020\276\264\220\004\275N}\026<\030\375(=y\210\005\274\010\030\301=\000B\t<H\0026\275\215\241M=\327\306\205\275h\007\302\274^o4=\361\344\316=\222f\201=7\257\006\275N\030\213=\003\276E\275\207\"\363\274\364L\005\273\276\271o=\037s\301\274yv\275=rX\270\2740q&\275WC\222=*\2214<\220\350+\275m2\006\275\306\336\333=\2340@<\027\274\335\275\r\245 =IP\204\273\337-\216\273\223\203\227=\325\202\017\275]U\224\274\035\266\217\275\355\025\232\273\304t\306<]\031\353\275\254\346d=\224\222\022\273M\237\300=\352s\375;\244\006i=\276\222<;\307\205h=\351\267L\275\213\271\232\273\304\276&\275\202\021\r>\246\343\220=\264=\307\275\323\243\257<\r\306\202=\276.\206\274\304\344\234\275\331?8=,\020\006>;j\303=\255\024Y;\013A\262<\036\376\376\274\330I\245:a\201\241=\226\220\222\2746\373\027=N\340\300\275\002\212]\275\345\016\361\275\372\030\273\275\306Y\314<\263IJ\274[hS<\337\277\276\275^b\262\275\210\306\203=\206Ty<\027\001\315=\"\254p\274D\034G<\300\025\264\274j+\003<u(\266\274\344\342\376=M\223\035=\177\261a=Fb\263\275=\331\277=\002\373W\274\307\232\210\275:\252\277\274\344\317a<\276\222\315\274\241\240<\274Q\355\374\274.1\300<>\355;\275\207\270\310:!\331W=7\300w\274,Ab=\032)N\2751^\020=JAM=\375`\036=\r\356\'=S1\313=JO`\275\203*\336\274\316\340R\274L\335$<\302\345\263\275p\220\003=\177N\273\275C\365\357=\005\325\003\274!9P=Pg\027=bj\257=\354b\240<!X\t\275B\356\307\274\360P\210\275\327\247N\275{\303\264=Mu\377\274\213\201y\275.\033\243=O\324\003\275m\251\316\2741\220\212=\265\220!=\351\303\235;\376\332\321;\372\374\372=b\361\366\273\353p\214\274Ze\343<\367a\237\274\2744!\276\214\373\275\274\002\025]\275)\211K=\217\344\323\275\236\212\324\275\204\303\037<\'\274\234=\305\345)\275`\350\265\275\334zX=\275\331->,\226\333\275\2328\250=\036\371\237=\344\377\031\2750\265X=\351\272\335=\255\243\213\272\362\364\016>B\2550>\344\342\321=45\353:-Oa=\322\312I=?\211\023=pP\344=L\306\305<\026\375\264=\033XQ=>\273+\274\356x\306<\374\233?=\373Q\254\273Y\345>=\241\014\366\275\007\243\220=\tL\237=\341^\\=\026\224\360\275\346OU;\033Bg<b\200\326\274\242\013R=\2434R\274\036\3126=\261\203\200=\352{\000<\303\265T\274\265o.\275\314\'J;\r\336\363=\235`\021<\254Y+=\006\266\007\273ci\031<^\301\022\274\217c^\275V\220\251\2746\001U\274a\264@\274\023\233V<\214\365\235=\277\034\\\274\026\306\214=Ep\370;\363}\232\275xI\217=\334\320\231\275To\004\275\267Q\275=(\377\227;\tc`=2\016\r\275\024 r=Li\373\274\312\206\256=\032\317}=\236j\002\273\277y\216=U\226\260<s\315I=@r\315<\020\025@\275\344A\254<XX\237<\265\364\363;5\020\216=\267\366Y<-x\\;\271\362F=\341k\275=\275L?=\262Y6\274\211RL=\327D\332\275\370\030\334=*+\346\275jXS\275\347\377F\275g:\360\274#\344!\274d\255k=\307\306\356\274\036\233\321=ti\252=\327\237P=\276\300\207\275\232#\257\274\277\227\221<\300\351H=\254\335\004>Q\244\317\275HQU\275\330\223\366<\311\347\275\274\373\375\203=\363Lz=\305b\204\274R\3343=\005\327\372<(\362\214\274\031\244e<\274\200{\275\262\364\360\275h\371\036\274\000\223\223<\374\330\227<\247\021\326=\373\352>\275WY\360;r\017\344\275\014^\264\274\324\201\364<\254\'\256=R\243\212=\316\310\346\274\275\007\225\2759\020\034\276\347R\030\275\265\\t\274,\273O\275tD\000=*\257\376=1@\251<k\020\231\274:2\347=\003\360\275\275\311\271\232\273\251L\240\275]\n&=\305\356\330<\200RV=\231\325\277=\317C\225\275\324~h\274\';\352<7\362\276\273\361D\371\274\220\320\370\274\320\020\326\274\321a\346\273\334\327\317=*\313\315=9\341\227<\2761\270\274\234\253\246\273\363\\\217;0\372\323:\324\272\257\275\211(\300=\374U\021=\207q\371=Z\220\"=%\246=\275@\322\317\275L\177\001\275S\010=\275\336\365\245\274Y\310\277\275\362N==&\"c\275\261\254\261=\271n\224=\357\245\252=\262\201_\275:\230U\275q\261\303\274O\356\037=N\020\375=\271\224_=\220p\315<9\350\351\275\034\020\343<\364{\271\274\360\330\303;\337\030D;\332i\023\276\227\212\217<Y6\206\274\027\005.\275qx\205<\232\031\037=}\376\206\274(\254\t<\036\334\025\276\270Y\225\273\214<F\275-\333\233=\223WH\275\232\034\306<\263pG\275B&\016\275x\037N\275oj\252=\262\362\214;w\253\241\274\225zu=36<=*$\243<\266\007\317=\260\"\352\274Zl$>w\371\266\275\027N\327=\024r\260=:\000\025\273.\200\200=\207\236I<f\373\335\273\2273\327\275\001\226\020< F\007\275I}\336<\300u\276=\351\262\000=\372TM\275\367\240\t=\231s59\033\302\357<\330\004\341\274\021\017\214\275W\006\362\274\350\020\231\275\037\254\305\275\351s\362<\010\177\t=\252# \273\322g1\275\270\360\202<\367k\002=\351\230`\275\231\303\265\2756\2510\275a\026M;\356{\004\275\305\210\227=\r5\363<\2763\336\274a\343\223=\0147\210=\003\235\010>\014\004\347\275%`\251=\223#u\275\250o\200=iw\033\274\314]8=\n^\t\276u\310m\273\007\370\354\275~]G\276\243\332S<=y6=\307\234\272\275\026+\364<\202\276L\275\274\356\252\274\345\014\356:\332\306\232\274\335\301\273=\022d>>\340%\354\275\377\237\313=\014\000\262=s\2606>o\224$=\267z\002=\264h\367;\010\007\274\272}\3004\275\345\374\275=\270\005\313\2740\017\313<\361:\332\275N\022\261=\3403\026<\300\211L=\213K\227<\004\347\353\2710u\330<P\357\232;%W\266=\350\332c\275J\213\014<\303\220\t\275<\255\242=\257\371\262=L\353\301\273\0247\307\274\003\300\356\274\313\231\222\275\374\243>\275&\341\265\275D\260\323=\335(O\275\205`:\275u\241\211;bCJ;\206\245)<\313\350\354\274\303\352\363=\203\300\244<\263\300\314\274\336d{=\025\3057=\265\265\376\274$oU=\177\241\226\273q\223\033>\305\246\214<\242\312 \275\r\215\177=\304[\301\274\007\263\261=\2020\232=\343-\003< \237B\275\375\321I\275\302\324\026=\250o9\274\237%\254=?\017\001\275\272\207\037\275q\235\343<\315om=\326\304\366<\nI_\275\310\331&\275\356W\343<n\250#\275}\232\233=M3\n=\365\270\341\273\231\244\321<\220g{=\307\256(\274^.\030=\035>\330;\355\222\000\275\340\014\017\275\336\303\200<\021#\266=\2263\335\272\362\003@<?\243\330=I\254_=\376\274\210\275}\372\311=\3316?\273c\375E=\017;\340=\216<9\276\"\333\000\275uI!=cm\226\274\333\222\"\274T%\022<_\200\260\275\215\254\325=\301\313\322\274\3357\306\274\202\352V<\267\373\031;\341\275\325=W\352\254\274I\214}\2740xP\275\001\216q<\374\020\225=\232\234\206\275\024\360{<\017y\306<\274s\240=\245\250V\274\201\263\245\275\'4J=\332\270\0038\t\004\371\275\245\304m=j\215o=FIY\275\211pQ\275\222\270\203\275\270\331\374<VZ\274\274\r\355B=vNn=\213;\366<\000e\276\275\r\345\212<4pZ\275\025\212\001\276\306]\244\274X\225\t\275\213\252\263\275\007\010\272\275\277\367\277\275\206\344(\274\276\221E=u\311x=\205vS\275\303\335L\275\000Y\263<\276]\026<\2125\315=\230 \237\275[\007\302\275C7\030<\272\\\344\275\316\273*\274\322\327\202=a\345\242\274\'\204\260<\277\313\266\274K\033\313\273\025^\342=\210\303\271=\362\242.\275\267E\245\274\322eA<\217\017\240=\351Gq\275\200\224\376\274_\343\350\273\367W\252\2752\225\326\274\322d6\275\342\3330\275\300R\322\274!N\007=\253j\264=\375W;\273X/\022\275\262\326\226\274\2418\270<\361\006\004\275b\n\236=\275D\236\275e\211\204\275\356X7=\3544\242\275\024Q\006\275\201Uh=\314M\036=\303)\242=~\033{\275\210\234`\275\036/\200\274E\372\242\274\275pS=\277\243\374<\354\2115\275\037\002S=rd\270\274\200=\262\275\227k\200<h&\352<T|\355<>\272\245\275Mv;>2b6=`9?\275|\221\203\275\323Rt\274W\335K=\262\236\303\275-\210\205;\005\277\212=\246\177\206\274\260\222\326=\213A]<\340x\225\2742\2225=\t\t\357<\r\261\230\275D[\214=\324B8\275B\003n\274\034.\275=u\246O<kb\225\274 &\006\276\0108k\276\243L0\275\020\343\021\274\276\n\343\275\356\335\014\274\326\230\212\275\321\372\023=\354\025\214<\307\225\244<\317\335h\274$]d;\036\364\352\272\325\217@=\027\266\222\273xa\243<\260\351\222\274\253Rk\275\236\277X\275\335\351X\274\367\235\250<\300\225\241=\307`\245\273\275%\236\275I;]=u\325L<\231\200\334\275\244\277\014\276\365\223a\275\342o\027=\251a\370<\022a|\274\301j\013\276\353\237\t\275U\003\207\273\\m\205=\257F\311\274P\233`=P\206\237\274\332\321#=\3032\323\275\025\326\360<z\235\340<\236k\034=\220\2212\275\237\362\243<om\'=0\213I=n7\335\273\237\376\346<v\346\211\275>yU\275\331\033\274=\022\t\242\275?\343\213\274\266G\333=\367\206\t\275L\214\356\275\373\0145\275\004*\340\273n\227R\275\263\3529<\306eA\274\003\315.>\216\263t\275\335\027\374<\034\347\256\2737H\256=\346\327\327=z[\215\274z\025/\274i\024\245=d\036\201;\027\207p\275\314F\322\275\227\305\263=\337\321\024=\311\027\r>\253.;\275+\204\212\275^@\217\275\262\274\273\273\371\253\214=\302\037T\274me\353\273Xg\262=d\361\035:\342R\214\275\016\233\243=/\335\330\273\3045\226\275a\367\256\275\257\213/=\215\310\215\274,z\253\274\024w\222<+q\236<oM\232<\223^\226=\303\337\355<LBz=\r:\242\275kb\022=\275\307\361\274\017\353\362\275\231\r\331\275\325\024t\272\203d\202=L\272!\275M\367J\275\261\234Q=\023\340\321=\275\030\211<\265\003<\275\t\320.\274A\023\001\275%\317g=\034\\\352=\316\r\202\275\200\367\352=\267\243\256=\331FJ\275\364!\322=0i \275J\025.=\201\350\006<\376\r\010\275Y\231\333=#\335\260\275\030:#\275\304j\343\275\274,\'<K\356\t\275_@\325\274+=2\275\000/o\275\256\336T\274\204k\310<aD\334\274\231W\257;\275\213\247=v\200\254:\350r\210=\240\272Q\275\264\373\004>\232\313\251<&sB<\205f\222<\030\232\024\274\203\353\006<4\021\243\272\271-Q=8\265V=8\344\347\273\274\346D\275IF\204<[\300\346=W\330q<\257DI=A\214\307\275\254#4\275\256~\221=;\237\310=q\204\004=~\327\235\275~a\215;\210\300\246\275Z#\031<\264\377!\275\367\201\213\275;\"\365;&\000z=\311\265\311<\242J8\274N\236\026\274\311\246\033\275\220\300n\275\225\230\002=\300\'\307=\023D\251\275\324G\n>z\316D\275,?\022\274\363x\022>\224\306\312\274\263q}\275&[c\274+\035\226=\337\350\013>\267Jz\274$\035\230=\247\242\215<\3771)\275\331\340\216\274\307\260\227=\336X\341\275\363\002\267=\260\261\017=j\311\022>\244\rg\275caG\275C\202W=\242`H=\205\362\274\273\3250\r=\035\226\202=S\210\220\273_\254F<\234\"\330<\246(\207\274\271\340\255\274\251\352\331;^h->\210*e\274c\371\251=\376d\243=\335hB;\270\233\211=`\235\216<\035\372\205\274\3443K=X0\300=\272\016\240\275\271\311\274<\252[\031\275\020\026\325\274\313s\357<\257y\035\275\325\241\202\275\r\203\214=\301\017\221\275\200*S\275\376FS\275uv\315\273\327\252&\275&\032>\276\034\260[=\311\207\305\275\211f}\274.o?\275p\341\262\275x>%\275\261n\227\274\211\333,\275\267k\343<t\247\007>\310\336&\275\273\014\317\273\221\201\022=\240\256)=\215Y\267=VF\370\274I:\346<\310w\254=\267\030Q=b\2649\2747w\320\275E\235\215=P-\251\274\020\007\240;\250\017}={\035\325=\236\325S=\243\200\221\275\347\374\323\2740m\232\2748\363R=\002UQ=%Y\306=8\027\304\274\002\316\217=\366o\352<\244~\013\275\r:\177\274\rR\024\275;5\335<(\304\373;\302{\007=\257\2737\275\330\264\323\274\333\250\357\274@\'\340<\347EF\275\220\250\263\275\335\373*\272\357\030\314\274;\271\352\274\332\034C\274yY\025\275\212@\241=#U\301<0JU\274|\014O\275\277\2706\275\242\177\'\275\n\200\203\274\321fW=\030u\026;\351\371X=\275\335\201\275\352\250\2279\303\014^;T\335\005=\025\313\213\274\206\"@=\270\263Q\275\250\266\377\274\340\314t<\250\360\345<\321:\035\274\026\364\313\275\272\213\316\273\200\3526\275y:\360<\302\334B;\250\035\341\275\263\245\275=<\355\372:{\271\022\275\005f\300=\230\320\n\275\033\3465=G\364\216=\367\267K\275kH*=?\3140<v\253\264=\003\206\345<\314aR=&\361B\275\200\022\211<\245j\212<\316}\036\2747\036\003=C5\023=.!\332\274\317%\210;b}\257\275Q\263\352\2744\232\010=6]2=\254 k\274\326\335\240=\272\270}=+\202\246=\356\2655\275\037\332\265\275<\302u\275\222\334\362;)\013\221<\230\371u=\273\322\354<\272#\272\273\'\205\036\275_I\022=\353\376\035;\336\276\241=f\366}\275Y\206\261=\3530\264\274\030h\027\275\020?\237\274\007\236\002<6\370#>(\355\364<9\313\352<0V{\275\371\267\314<s\2419=o\007\t\274E;-=\223\277q\274\3111\255=Z\230,<\024_0=\004\264\255\2752\004#\275Y\237\t>N\026\253\274\325\362\247\274yv\242\275\234\217\003\275\275B\005\276\352\232\336\275g\030\032>\231^\301=s(,\275\310E\002\275;\204\204\274\357\260\n\276\355\325\206\275\202\260T\274\251\304\371<\037\205\277<\344\t\225\275<\336\314=\316\344\016\276\261\020\234<\237\362~=\224\360\030;\341\355\373\273\325\304\275<\023\211\030=\257\234\200=Z\307\204=VG%\275\300\214*=\325p\016=\311\3048>MW\014>A\026\270<\275\005\262<\216\371\034<u\270a=;L\204=&\302@=4\314\227\275B\363\243\275\225Vo\275\243\235\332\274\2502\306\273\344:S\275\265u\307=6\334E\275\371:m\275a\266\317=!\322.\2769\243\274\275\254\265\306<\331o\273\273>p\216=s\362\221\274\006\330\327\275\226t:=\242\212S\275{\341\027\273\'Rf=\327\256\"=\220j\350\274`\304\000\275\002N\336;\333\235{\274\222\323\210=\340]\255\275\"\024\n\275;\225\241=\030\340\013>r\037\035\275!\361\227\275BQ\006=S\346\030>\027\367]\275\250-}<\004\000\370\273\312\375\264<\202\247L<\363\310.=d\245\315<5\2058=\255\027\230<\007\177\236=\243\275\310=\217\032@=\357\243;=\000\034\305<\212\214p<\026\323`=\305\022\227=\351\204O\275\341\252\272<C\344\237\275\346ot=$Q\225=\315\260+\276\323\264\353\273kGD=\315p\027<\262S\234<\242\025\022\276\024`\304=\234{\025<\264\3557=,\203\300\272)Tz=k\370\211\275p.\353\275Z\262\332\275|\3017\275\274\000l\274\232\313\256\275l\224&\275d\337`=\032l\330< l]=f,/\275\270\317v=\021s\256={\342\242\275A2q\275\250\337J<m\350\373<%\217\210\275\023\303N\276!\006\311\274\255\367\014<\241\315\342\275\373\247`\275\302\217\260<O\231;=9\177v\275.\371\203\274\256A$\274&\004\263<\311\304\222\275@\032\007>\312\236\212=\021\322\017=\261\246\307\274\2523\237\275\253!\007\274\221?\216\2746\244\201\275\tcE=\252\2758\276\370v\006=\331\347!<\033|\211\275sU\334\274\240+M\275x\010\260;n#\017=\250\t:<\232\205v\275^]\004\274t\206\356\274oH\003\276\362\037\021>\320\376>\275\343\316\275=\334\234\020\276\273\220\247=\037M\272\272\220l\307\274\024,\246;\202R\020=\3706\355\274\010p\032\275\314\305\224\275\240\352x\275=A \274_\241\304\275kWj=\312q\014\274\361\335\261=\346\306\334=\255)\225=\004Hr\275;\'b<\347\355\261\274\226\210\277\275\243\305\267<B\377\242\274 \n\246=\203-.\2759c\276=!\005\010=\223\021}\274\337\335\025>T<\327\273\211&\345<*\r\375;\334\004\367\274U\322\024=%m\253=\334\362\235=/\220o=\rOX=\023@}\275\036\362\215=]\224\217\275F\356\000=n\374\342<M\215>\274\220|\233\275\035J2=\036x\274\275\234\222\231\274\227\233\373\274\203\030\326<R\314\207\275\255\nz9\227\025\033>6\223b\274dZ\367\273MZ\207\275<5\236=\303\370\377\274_/\263;\214\253\"=\0329\306=6U\036<\360\224\354\274\277A\003=\021\354\035>\210fK\2752x\014=F\253\241\274G\264\022\275\303VN=\030\357]\274\035Q\215\2732\205 <\002\204U<\237\2523\275w_\306\274\271\214^=Cc\353<x\235\241\275\252\303K>\212\375o\275\310\347\254=\\g)\273h\317E\276\0245\226\274\266\232\233<\025\253\013=\331V\352=\377\000\207\275\204b\313:\263\306\222\275\204\221\334\275\202\336B=\332\207&\275\231QK=\332L\367<]\251\260=\027\236\251\275\345?\316;\016\310B\275\tK\212\274\215_G\275\030\277\013\2757X\210<KA\336<8\267\213\275\025\323\353;\224\3264=\261\031h=\n\317\363<\213\034\352\274\205\330\273\274\nG\013\275\365\n\007\276)QR=\304(\023=\306+\261=\361\206>\274V\270\010\276Q\276\332:)\000\301\275\t\024\026\275\244\020U==\301\022>\n\ne\275\2566\022<\004k\032<\033\t?;\035\275&\275\335\245\007;(\262R\275\327K<;F \002>\216\207\360<\264l\213\275\302\260\206=\305j=\273-b;\275\n\210_\275\'\222];\014p\001\276\263\310\210\275h0\222\273\262\2617=M)J\275\037\322\021\275\262|\227\275\207\\o<\3007\000\274\314\343\022=]\010\024=si\024\275\262R\310\274LA\371\274\323Lr=\003\352\216\275\267R\017=\217\372.\274Zt\335=\315\336\215\275\364\025\330=N1\230\275\013\227|=\014\375\263\275fL*=\371 \361=K!!\275\340\3053<d\321\027=\340\177$=\002\271<=\345e\207<\375+\366\275\363\365\256\274\373T\322=e!]\275B\224\205=N\214\202\275\356\263R<\360I(\274\322\356m\2753\236,<i\031\014\275b\317Q<?G\243\2759\302\245=R\014\303=\325>\377<\013$\214;\262c\343=B\253\207\274|*3={\264\204=\370\3045\275\336\320[=\342\354\312\275\224+\313;\025t\004=,oa=\374\366\031=\322=\261\2753\312\033\275u>?=9\326\240=\314\250\216\275=\326\363<\332\254\355<\237Sn=\2233\302\275L\034\251=\036n\001=Q\216\243=\014\313\313\274v \203;\330\310C=\260\342\226\274\227\312\354\274\204J\360<\030N4<\254\365\256;\2050*=\217\231\016\275\360t\356=w/s=Lv\026\276\200[\306<2\352s;\326y\357:kH\032\276\037\360\007<\256B\007\275\327\241\'<\362\253\222=\230/\314<\211_G\275\206!\256=\367he< \005?\274a\263\203\275\265\022?=\225\334\324<\216\275b<7\017 \274\244G=\275]\'\354\272)\277[==DO\275D\342\262\2754a\001=?n\213=\326\254\013\274\227\3016\275L\026\255;r\373w<\227v<\275/RR=\336Y\370\274$U\247=\367u\245\275\232\204\222=\206k\267=L\335\005=\3464-\275\022\223u\273`E\020\275\263H\312\275\342\227\017=\3127\300\274e\025\302\272\207\030\314<+\234n={u\224\275\370\230{=\367\253\350<n\3227=\030\007C\276\363\216\336=\227fD\2757\032\037=;\212\265\274\343Ad<B\006x\275\014\032U\274\020VV<\320\324&=B`|\274|\303P=6\233\204=\303\202\363\274f\240\214</\332\215=\271DG<f\260\"\275\201\236\263\274OT\264\275eCM=\242\310>\275\212\000n<f9\214\275\224\'\326=\r\177\345=U8U;\234\204\243=\374(\330\273B\336\177=\223\252\033\275O#\223\275\251\340\376\274\2063\201\275\214~\266\273=e\273\275d\t\271=7Z\370:\r\277\272\275\335\010\334\274Yr\262=,