node {
  name: "keras_learning_phase/input"
  op: "Const"
  attr {
    key: "dtype"
    value {
      type: DT_BOOL
    }
  }
  attr {
    key: "value"
    value {
      tensor {
        dtype: DT_BOOL
        tensor_shape {
        }
        bool_val: false
      }
    }
  }
}
node {
  name: "keras_learning_phase"
  op: "PlaceholderWithDefault"
  input: "keras_learning_phase/input"
  attr {
    key: "dtype"
    value {
      type: DT_BOOL
    }
  }
  attr {
    key: "shape"
    value {
      shape {
      }
    }
  }
}
node {
  name: "LSTM_1_input"
  op: "Placeholder"
  attr {
    key: "dtype"
    value {
      type: DT_FLOAT
    }
  }
  attr {
    key: "shape"
    value {
      shape {
        dim {
          size: -1
        }
        dim {
          size: 200
        }
        dim {
          size: 6
        }
      }
    }
  }
}
node {
  name: "LSTM_1/kernel/initial_value"
  op: "Const"
  attr {
    key: "dtype"
    value {
      type: DT_FLOAT
    }
  }
  attr {
    key: "value"
    value {
      tensor {
        dtype: DT_FLOAT
        tensor_shape {
          dim {
            size: 6
          }
          dim {
            size: 256
          }
        }
        tensor_content: "\\\214j\276ty\006<\001\326\254=P\363\035<nOh\275]{\201\274\221\265\341\273\306\334\023>\250\235\376=\017\014\030\2760T\030\274\023\210$\275Zj\351<\017\270\372=\250-\345\272\353\253(=~_]=?\360\336=\340\013\237\275>\032L\275\201#\323=2\226\275=\332\262\002\275\225M\007\275\216\007\032\274\304+S=C\342%\273\003%\370\274\351\n\225=\225\376\374\274\245\024z=\\\317,=s\022\223\274\304\354\367<3\252\327\275\035XE\275q\245\324<c\323j:\254\000\207\275\325\n\221\275\374\351\035\27529(\274\342=\326\274\022\333\021\276\213\262\227\274\215\221\014\276\230\312\025<Sb\031\273\243+\002=\223\312h;r\204\275\273\032\'\335=\251$/\274\274\312\347=\313d\364\273(\212\312=\334\377\220\275\376\003\236<y\303\013=(\366\332:\362\372\232<6\307Z=\317 \007\276\022s\354\275F\t\305\274SL\025\275Q\327\006=\306\003\333\275\275\247\360<\014\230\'<\343\2561=\315\274\301\275\024LX=\205\376W<8\327\004>\370\250p\275\215\220\016\275\025r\244<\213D\374<m\322Y<\270\275\032\274\260>b=\332\330\336\275\261]Z\273D\302\003<\026\240\210=\265\3213\275)\235\340=\030\304\344=\364u\254=G\223\325\272\322\352\204=\322\316\310;a1j\275CZ\006\276\203g\336\273=1\203=\255\024\216=\206LO\275p\326p\275\035 \253=f\322 \275\314g\035=\263\250\"\275\272k\274\275\252B\374;\322\275V=\312.\034=\202,0=\r\030\370\274\352\347\207<A\000\377\274\346UU\275i73\275r\212\002\275\230$x\275\320\316f<\250i\013>\217G]\275\005\243\250\275\252\336\003=T\337Q<r\263K=\022\311\202\275\025&\004\274\'\005\360\273\363\377\r=\212\2514<\341G\022=Ik\206;\272\253\000=@Z \275\013\232%<\2552m<\356(\355=\017\367\354\275\302\221\337<\355\2735=\266/\370<|\013\030=\310\rI=\"s\250\273\364{{\272\303\361\314\274\022:O\274W5\230\275\345d\305=\202N\250<Sf\214\275H=$\275\"\304 \274\325\365\260\274e;.\275a\023\250\275\234\212\212\273P\2124=Y\276\333;\204\005\344\275-\201\001\274hX\253=t\274[\274m\003\'\275w\336\001\274\006\256\314=\001L\r\275\242\356\372</R\347\273\t\270\217=\023=\016=1*w\275\277\002\366\275X\362\026\275N6V=c_\243\275)*\206=Pc\312<J\"\307<\347l]\275\034\244g<t\223r\274\n\350V:\022S\352\275\365\301\022\275\037\n{\275\220\256\022\275\262\374\270\274\260\265\000>)%\001=n\007\332\274F\327\225\275\337j\220=\331h\325\275\263\233\366\274w,\010\275\262)\332\274?\231\247;45\306\274\241\305\232=4>\316;\273\274\033>\357k\257=q\'\016\275\323\327\r<\373H\364<X\314/=^&\355<`\373\201<\370j\213\273,\215\205=\246\312\230\275r\374\r\274\004ht=\350\007\360<\240IR\273\033?F=L\236\022\275\037j\226\275\340#\253\274,TD=\343\316\274=b\021G=Z\366s=9I\245\275\266\320\020\275\337\302\335\275;\\\362;1c\365\275\'\336\232\275S\315\371=}\254\225\274\021\217\350<\303\373K=\363\205\340<3\336_\275\351r\203\274\0208t\275\306\270\245<\306`\353\2747=\243\275\270mH=\347\325\355;\303)\353\274\212`\356=\315o\002\273c(#\275:rc\275\206\307\336<\177N\000\274;\' =\357\300\030=\304\226\245<\2043`=\3046\002>\025\'?=0j\010=U\260\031>\322>D\274W\236\270\275\r9\223\274\3402+=:\320|\275T\251\037\275Lj\212\274\367\2077< \346\214=\n\265k\275\336\003\274=\340\260\255\274u\211#\274\324&\n\276\350\231\213\274E\367\373=\n\260a\275\002\034\242=\214\307\022>\014\033\255=\251l\373\273\3026\231<\240\305\347<\330$\020\273k\233\375\275\013m\356\275\017C=\275\007\240p;\267\355\337=\320`\n>\037T#\276`\243V\275a\262\247=\035\234\016=\377}%\275\305e,<\2203\224;yZs\274\345\355\370<\307G\210=\301\352\320<\312\023\221\275\023\354\255\274\307\334\371<\002\014\377\275\273\325\256<>\240\003\276q\244\321=\322O\014=\267\311b=\330\351\017\276\241\3211=\322[\364\274\356\214\201<\355Q,\275\363y\n<Oj/<\216B\307<%\337\'\275\201qe=\345\2050\275\350w\020<w\336\310\273\025\351\027\273-\006\214\274a/M\275\327\201\213\275W_\204=\264\314T\275\225\344\271\274\332\366\022=\362Gc=05d\275\357\363\216= 1I=\\Y\'\275\211\235\377=\006.\325;\243\016\351<G\\3=\366!Q\275}.#=\210x\365:<3\233<\010\023\305\274\333\342\215\273\035\231\271<\301\201\202\275\270\313\035\2752\210\022\276\331\322\244\275\375\223o=eh\241\274\n\025\031\2769\323\350\273YC\263<\377\225\301\275\037\212\303\2758\005i\274\236\323k\275\273\237H\275xy\241<\273\034\260=\234\344`\275\247\364\\=\277z\352<]\264\276\274\3171\364\274\323h\211<z\357/\2754\222\215\275\356\375\200\275i\377-<\246d,=o~\374\274K\311\374\272\267m\376<\352\220\312<\356c\004=\377\315\016=\376\2132=\245\006\311\275\261\036e=\315\201\301;\005\320s=\353\271\221\274}m$=\005?\220;\013vm=-r\244=\312\0160=\372\0313\275\266\275\355=g\253\214\273=ez=\357\332\333;\276\314\035\275i\275\311=~ \'\272h\227\252\274\267\\O=\345\2765<\315\340+\275P\0269=D\000z=\026\362\232\274\214E\230\275I\t\355:G\332\032=r\304\025=T{\207;\t?\210=\344\004\250\274x\363\257\272\233@\233\274?)M\275\241k\336=\301dc=\334\320,\275\317P >\374\234\342=\200\264\274<j\227\267=\333\022c<(\023\260=\260\031\n\275H\325\265=\225q\013=\345\356\307\274\253\333\263<\222\334\331\275\2508\206=\206\205/<\007\031\300\274\345\336\"\275MF\361=\244\322\356\273\242\034\362=\016\360\247<+W\346<\024!\265\275\003&\367\275\026\337\222=\330*\024=\305>\353\274\364\240K<\2050#\276U:_<YI\032\275\360\324\275\274\346W.\275\322\203\030\276\247{\r=\205\\\225\274\263 \302\274_\277\202=\352\344<\273\177\321\355=9\233\t\275\367O\276<\226\256\204\275=4n\274\273\224\241=a\013\263=\355\344c=m\237I=\'\366\362<HQ\230\275`\3664\274\256\353\357\274\311\235\301=\345\335\033>\212\242\264\275\364z\226\275\003\222G<N\213\036\275\330\332d=\344b$\275_\t\027=\212\030\233=\340\231;\275\032\265\302<\264n\312\274\313ws=\354\221\240=~\213\313=\314q\241=\005\013\010<\344x\212\274\217J\267=\237)\344<\017\204\036=\277\335\211<F\2546\274\224\202%=\002\324\267=\235\350(\275\246$p\275\221\235\331\275/F\243\2733\206\310\274\246\375\021=\2628\227=\253\337\\=\231,r<~<N\275[\277[\275\333\352\020\276u\307\267;\333@\014\275\325D\217\275\"0\247\275~\3302=\226\353\220\275\255\341]\274/I\247<\331D\225\275\370\244\250<\t\252\032>t/Y=\364/z\275\201\n1=\007\210\213\274\312\200\242=\274\032\261\274M\356a=\224\266`<C\372(\276\004k \275f\004\355\274\200h\372\274~M!=-\325\247\275\000{d\275K\030\273\275\363\326M\274M\331d\275\357\0254=\025\016Y<\272\302[=\034h\236\275\356\222P=\221\013\035:K3i<v\310n<\013\035\007\276x\300O\275\207\t\202<+\017\205=<\001(=\203O\256=|\317u\275\257`\342=\204\025\325==B\217\274\262h\024<\211\275-=r\205j\275\231\305Y\275\254&\003\275/\004h=\373E\316\273N\274\235=\255(@\275 h\264=l:9<($\226<\017\343\215\272UU\335;%k\321\272@\005\233=\037\216\246<\212\216\212\275\"\257E\275Sfz=\240s7>a3\275\274\033\260\013\275\274~\272;\346:\017=D~\220\275\005Dm\275\242:\246\275 t\n\275\034\234\300\275Q \227=\251j%>\321*\246=\372\370\277\274\353\303\337\274d\335\302\274k\357v\275\277\241\364\274X\221S\275\004\305t=k\0326\2755\306\010=\210\n\231:\233{L=\211h\356\275\032\217\214\275^\226.>\354\370\211=\361\034~\275(\2264\274)-\217=\037\014}\275\271.\207\275\267\241G\274\265\036\354\274;Jq:\211\255u\274\377\001<=\305q\323\275\242P\372<\341(7>\212a\361=\343\026\302=M\216\264\274\252\217\260\275V\023\264=]\221`\275\235\275*\273\364E\032\274\216\234\225\274\t\272\223\275\036\307\242;\334\376\250<\"P|=q\253\021=\200\222\222\2749Q\226=\363\210\237=^\025\032\274\363\330\036\274|(P\275\330\224\211<T\361\327\274a\375E\275\275(^\273 \244s\275\362\350\234\274\311\2343<A\004\\=?\023\266=\213\276\253=\202\270\261\275Q6\030\273\242\242[\271R+\037=\243\340\314;\312G>\274\263\202\244= \353!\275N\374\257\274* \345;F[\251\274?\250\375;\235<G\275Lw\352\2752\271\234\275\346\367\031=:e\036\274\355\325\226=\366\033\004<Rd\013\275\254\006\010\271\371\030\007\274\303\337\275=\236\017\030=\256\263\210\275[\003)\275\276d\312\274J\234\300\275\005\206~=/V)=\324\265\316\274R\n\316\275r\257\373<\206\317L;\337\233M\275\267\277\032=\030\304c=l\353\243\272`L\365<s\345\362\274\272\213\200\275\240\307\325<@\222V\274mb\t\272Z`d\275\027^\321\274h\241)=l\257\235=\316\262z=\300@\024\275\302\352{=\3675\227\275\261\200\235=\213\247\231<\203\276\036=\247\360\213<\321\336\331\275\360\000\205\275\250z\251=#\377\313<\232\246\300\274>%b\273\356\3727=O[\243=\300X1<\"\347X\275\025\3720=\\\002Y\275\313\217\254\275Q2s\274]\242\200=\014+\326=i\273\\=\r\335\216\275\257e\276=qV}=^\371\351<\314\010\201=+\020\226<\001\370\007>[69\275\221\316\237\275\320:\212\274P\363\234\275\315F5=j:\214=<\253 \274O\367x\275\026\316\200\274\035x\347\272\272\273\223<\315\226\207\275\357\323U\275\340\244\225\274f\013h\275\201\255\037>LD\242\275\245\234_=\271j2=X\025\252=S\212\213=;v\032=,\240\272\275p\235\004\275#o\364\275\022El;\225}\t\274\224\271\272\274\216\026\224\274\270\260\010=0n\226<.\323\222\275\032L\332<\273\260\037\276\313\213\2768\022X\276=Ze\017\276\275^\331\274T\243\240\274\255\263T<\017=\265\275\331j\341\274G|\357\275\363\374j=s4\246=]M\315\275\n\301\311=\252\325\022\275\312/\202\274|M6>|,\215=\233$|=\311a\254\274\216\241\006==\322\353=U\013t>\224\177\334\275\307x\376=;\265\177\272!\370}\275\213\001\235\275\214w\300\273\233g4\275\364\237\230\275\335\364\201=*\035\022\276\276K\243<\374\"k\275\321\005\t\275&\251\261=?\260\270<_D,=8g\216\274\225\r\256\274\342\310=\273\274\312G;\3153@;\230\237[=\247+\242<~\007\330<N2\201\2755\215x<2L\256\274\005q$\275\202\357\301\274\234\330\021=\242\277\271;g\244\263\274ps\222\275\320\365n<lO\342\274\035\330\020\276sR\276\275\375\362\221\275\214\267\302;L\211\374\273@\313+=\252\243\201<\232`\353<==C\275\'S\367<Z\004e=\006\311\r\275\333\016\213;^\342\323=\200;\264;\243\251\006\275A\0065;y\270\004=8E\031<x=\201\275\322O\304\274R\037\202;\013;\221\274\022\351\r=\343\356?\275\254N1\275\236UH\275+\006=\275A\274\276<\200\037\246\2747]\350<xSj\273\034\370\035\274\236u\234<\264d\r=\301s\014>A\245\274<\227\274t=\325?x\274\340)\253=\264\242s=\2562\300=a\360\t\273l\264\305=\361s\265=U\244=<`\323\r\275(Vr\274\032\222\246<\004\272\274=/\217\324=\306qr\275Q\304\310\274d3,=L\300\275<@s\317=\204;F=\337\221s=\013\370\007\275\020q\363\274\377GM:&\242k<\360\000b\275\367\311\026=\334\373\234\275\367E\023=:\351==\200\337\363<\241\317A\275\260l\333\275\037\211y=\256\227\251\275\211\270\272=\347\004\030\274 E\014;\214\344n\275\223\246\214\275\200\225\215\275\304\345\224\275\0254\256;\035\276\373<v\003\272\275\340(\221\274\006ZJ\273/77>p\017\267<ur\003\276\016_\253=\223\362\007=r}\364<\n\243\373=\232e\225\275#\227\000\274\177\210U=\323\221r=\353T*\276%\275\002\274\231\246\366\275\227\306\377\274\021\360-=#\330\247\275\305\204\254\275\\\237\207\275\370w\206\273>\271\272=\242\226R:4N*\275\265\033#\275E\037\205\275D\2268=\300\000@\275;\265\211=\325\346u=\263\033K=\224\265t<\274M\311\274\376Be=\212Ia=\014\016\250\275\303E:<)\246K=hD\210\274B\2325=\345\355T\275\242+\211\275\252x\2119\200\373O\275\210\017\204\275\251\240\017\275\343\364*\274\365^\227\274\020\273\244=c\005\270;\016\007f;\376w\356;\332\311S\275\263\272\017;\033\034\244\274\230\351\322\275]\224@\275\371\334<<\305\353\266=\374=\020=\373\027W\274\256\224\236<F3\211=\032\331\317\275\213\332\256\275lG\261\275\276G\367\274\014\\\212\275j\306\342\275\244\010m\275u\001\004\276\241Z\314\274\233@\307\275_\010\203<\010\303\225<K\217\022\275\030/<\275n\001\212<\262b\372\274U_,\275\233Z\265\275\355\340\r\274\na[=AQ\210<\314+C=J\232\350=[ \354;\022\004&\273|\'\343\275\252\237\361\275\0071e\275]}f\275n\234\307:X,\320;\035\207\263\275\213\033\034\275\312\305`\274\254\024\326;J\207O\274\352u\352=u]\217\275-\223\020\275\222\356\333;!\242\270<\036\276s\275\262\016\232:\375\236\357=\240\271\235\275\275>\363<\240\000z=>\301d\275\356\312\225\274_\273k\275\031\351\236=#\276\034>\321\032\230<\365i\\=\r\265\365\274\203\237\342\275\367\336\003=\215\005\010=\034\242H\275L:L=+{\341=\313\"\034<\242+~\273Nb\n;j\215\006=-\227:\274\336V\363\274\332\014\340=\302GX\2740p\032= \316\235=L\344?=\353\235\245=\006\343\222\275s\247\334\275\312\256I=\276\215Y=\277J\370<\013\3057\276\214\030\313<T\222\361\274]\234\302=\347\373}=\000\367\316<b\037\232\274x`x\275\n\222\204\274\010\020J\275I\254@=/8\374\274\227XK<\033\313\037=3U\004<y\230\311\275\273\347_\275}\226\203\275\307$h\275\255\004\214;\256*\005=\222/\020;\222\030!\275\231\"i\275|\000\301=\302A\304<L\204\215<\344g\350=\321^;=BmV\273\275\232d\275\223\007\207=i\315B</wz\275\207\n\265\273\273\003\235\275U\226?;\326\322A=\271o\231=\313\035\326\2747X\266=\362k\227\274\376\364\245\275wq\000\275\211\356\221=\222WM\273P\334j=\027.\211<D{\256\273\357\017\357\274\254\332\212=\357{\337\272\3768\274\2744\202\206=\276\273f<O\r\236\274> \301\274\221y\r\2767\021\317\275\301x\023\2767\204\330<\344hZ\273C\337J\273)g\323\274\214\t\252=\260\215\315\274\271=N=\357\223\243\275\266\355*\275\361\305\253=\243\nQ=\\\266V=\213\206\225\274\233\337<\275\030\3077\275\211,\310;Z9l9\204\367,\274\315O\242\274\t\347\272=\030\204#=\020v\211\275\301{\000<\376\372~\275\022\224]\274\274\220\002=\0058\205=(i\225=\217\366\236\275#F\010\2756\376\\\275\207\247q\275\376\020\266=\377\210\r<\020\215&\275\2702\274<\032\023O\275\030\r =\243\264\351<\020A\241\274\253\301\006\276\241\301\240=\203V|=K\177\263\275\313\234\202<\002\314\254\272\243\260\177=85\312\274\027\374\266<\277\351*\276F\354\212\275@m\275\274e7\303\274\031\013\005\275\320f\264\273\037e\037=3z+\276\030*\022=i\203\331\274\234\256p;f\035\231<\350\234\240=:\355\306=\026\020\212=X2o<\201^\377<h\220}\270\317\212\227\275\271\245\334;S\243\003=/K?=N[J=n\311\245\275\020\220\331=%]\000\2768\021\204\2754 \220=*p$<#\375\201=\0045\210\275\"\312*>\3460J\276dr5\276q+5=\371\230\241\275\253\016n<\325-:\275\003=\274=v\201Z\275\010\270\244\275\355\331\321=ApZ=\333h\345<\316\373:\274\201W\325\274\312v\347<\224\265n\275\211e\200\275>\035\376\274\377-O\275\313;\237=\t\3612\274{@\256\274\033\241\220<\361n\276\275\316\360\263<n\323/=\304A!\274&\233E=\257\022\"<<\235\232<\314C(<\214\025Q=_\253\252\275\243\252\241=\322\222\023<\234\374\205\275&\357\327\275M\024\016\275\363\013q<\215\202\225\275\344\005\247\275\347<@=Sc\374<\261\356\316\274\013{\277=-\262\t\275~\330\n=\251@\203\275\037\333\204;\332e\000=\273\200\322;Ir\265=$\024\257=\351g\320\273\207\224\275<d\020\332=\0362@\275\227?0=q\255\026\276\016\345\022=\321\215\013<\251:n=\340\030p\275\273\366\324\275,eZ=\311K\203\275g\027#;l\376\021<\022\233\234\275\031\263\366\274\343\322\'=z\302I\2754\341W=z?\013\276k\270\212=C\177#\275\307\004\251\274\027X\333=L\336[\2736\200\024\275\256[r=\177A\202\2752\253\204=P\340X\275\340\335\236<\245\237\237\275@mb<\352\366\217\275j\3008<\3429i\275\333\361\022=\3268\312\274\352Y\301\275%\221\314<\244S\250\275\342\007#=>]\262=\030\301\377\274\315\232\014\275\3135K\275\312\034\253=\235\215|\275f\263\232\275Ar\005\276\021\230\215\272&<\216=@\2361\274\021zq<F\370]=a\264\301\274\235\032\213\275\305\217\252<7\267\016=\020\202q=x\336L\275P\367\205=<\236\016<O\210\r<\211W\010=T#H=\344Z\350\274\371Y\037\275`\206\300\275\301\3357\275y\261\316\273\376OE\275\367\031\210\275\327\3575=\354\361\030\275\303{\276\273\214\024\234=\337U\273=b\006\277=+V\025\275.\360-\275\265\ns\275X_p<\315\215\354=\003L2\275\024\274\242=\34253\275\270\365\271=\220\243\224\275\016\262\301;g3\r=\303q\017\275\272\312\022<\276\346F\275\356\313\252\275\t\002j=\r\353m\275\372\243\370\274\331\177\226=\242\305\022=IC\364=2\311\233\275\256\243\246:w\016\325<\242\325\260<2\016\212\275A\266T=\002\237i\273\202\227\315=G\016)=\341\351\313=x\006\220=\364\335\016=\000uD=H?\327<\357\201\245\274N\363[\274\344\372\260\275\002\n\277=\222`\340<\0076\233\274\255\270\371\274\272\tq\275\252\334\3257\254T\244=\017c\240=I\236\213\275\207@\225\275\367TO\275F\212\213=\035D\221=\200\212\203\275\033\244\252=\225$\242\274j\354\201\274\376\034\000\275\003;\242=o\271\362\274\252\344\216\274h&\334\274\243\306o;\325+\315\270\246\362\315=\250\305W=X\366\023=9\027\313\275\260?\372=\277\021\"\275\233\030\332\271BV\210\275\253{\212\275k[;=\374\'P<`\326\277<\302\336i=Zg\254<\242\266\223\274Y\334\372\270\240P\\\2752\224\372<\305\303\203<\200\356\331=U\226~\275T\263\236\275w0s=C\032\027\275\326\272M\274\202\031\355\275|#\003\274\350\355L=\240E\251<`\233\321\275\251\227\002\275q\255\221=\217\220-\274\313\'n<\232\034b=Me\212;\366\340\300\274\026\315\221\275QzG\275;\200\236:#\340\226\275C\353\363\274\324\243\356\275\267\326\222\275\266&\374=Q\372\027;b\377\307<\345p\305\275&\003\315<\230\3039=\263\270\206\274\234\261\001=\223\007\027<\260\361\025=a\277\373\275\341;\374\274\r\242/=\372E`\275N\211\212=Q\227\037\275\350.\301\2752D\253=&r\277=\271\026\246\275\266\355|\274\367\276\333\272\222\276b\275\3739\220\275m#\233\273\253\372\377<\203\2022=%\350[<P \035:\324nu\274\020*\002=\236D2>J6\254\274\277\262\324\275\264\177\221\275\261b\313\275\354\202\013>\014\025\256<ha\267=\027\220j\275\r\024\314\275bW\332=]{I=\337vK=!\366<\275\022ie<\363Cw=Pe\255=U$\003\276\204\277.=\300\2131=\364\002q\275@\023q=\360\223\026\276\010\267\005=3\242\001\274(m\321<\221-\272=\334\255\033=\240\003\"=;\361\'=\236\230!\276\316A\207=\356\267\210<\223\312\'\275!\234\001>IoP\275\301\272\227\274\n\271\365\274\345\2711\275r80\2744\230\344<\243\013\025=\355)\220\273\t^c=\003)\356\274,\246\221=\315\275#=D\034\327=\002\307q\275\362?a=H\022=\275,\246`==\337\253\275\335\031\254<D!\207\271\362/\327\274\320\024\253<&\320\263\275,\275\225=\3046\232=\035\366{=l\003\202\275\357\250\t=+A\353\274\254\244\213=\004b\035\275j\307H\275,2\221\275\026\372\351\275\221X\270<\305\336\327\275\363\275x\2731\243\032\276\000j\270:\325\372\247<\000\223\367=AK\350\275\341|\034\274\372c\244\275\031\341\362=}\007\036<\322\243\264=h\2571=EV\215<\005\272@=I\204\253\273\256z\005\275"
      }
    }
  }
}
node {
  name: "LSTM_1/kernel"
  op: "VariableV2"
  attr {
    key: "container"
    value {
      s: ""
    }
  }
  attr {
    key: "dtype"
    value {
      type: DT_FLOAT
    }
  }
  attr {
    key: "shape"
    value {
      shape {
        dim {
          size: 6
        }
        dim {
          size: 256
        }
      }
    }
  }
  attr {
    key: "shared_name"
    value {
      s: ""
    }
  }
}
node {
  name: "LSTM_1/kernel/Assign"
  op: "Assign"
  input: "LSTM_1/kernel"
  input: "LSTM_1/kernel/initial_value"
  attr {
    key: "T"
    value {
      type: DT_FLOAT
    }
  }
  attr {
    key: "_class"
    value {
      list {
        s: "loc:@LSTM_1/kernel"
      }
    }
  }
  attr {
    key: "use_locking"
    value {
      b: true
    }
  }
  attr {
    key: "validate_shape"
    value {
      b: true
    }
  }
}
node {
  name: "LSTM_1/kernel/read"
  op: "Identity"
  input: "LSTM_1/kernel"
  attr {
    key: "T"
    value {
      type: DT_FLOAT
    }
  }
  attr {
    key: "_class"
    value {
      list {
        s: "loc:@LSTM_1/kernel"
      }
    }
  }
}
node {
  name: "LSTM_1/weight_regularizer/Square"
  op: "Square"
  input: "LSTM_1/kernel/read"
  attr {
    key: "T"
    value {
      type: DT_FLOAT
    }
  }
}
node {
  name: "LSTM_1/weight_regularizer/mul/x"
  op: "Const"
  attr {
    key: "dtype"
    value {
      type: DT_FLOAT
    }
  }
  attr {
    key: "value"
    value {
      tensor {
        dtype: DT_FLOAT
        tensor_shape {
        }
        float_val: 9.999999974752427e-07
      }
    }
  }
}
node {
  name: "LSTM_1/weight_regularizer/mul"
  op: "Mul"
  input: "LSTM_1/weight_regularizer/mul/x"
  input: "LSTM_1/weight_regularizer/Square"
  attr {
    key: "T"
    value {
      type: DT_FLOAT
    }
  }
}
node {
  name: "LSTM_1/weight_regularizer/Const"
  op: "Const"
  attr {
    key: "dtype"
    value {
      type: DT_INT32
    }
  }
  attr {
    key: "value"
    value {
      tensor {
        dtype: DT_INT32
        tensor_shape {
          dim {
            size: 2
          }
        }
        tensor_content: "\000\000\000\000\001\000\000\000"
      }
    }
  }
}
node {
  name: "LSTM_1/weight_regularizer/Sum"
  op: "Sum"
  input: "LSTM_1/weight_regularizer/mul"
  input: "LSTM_1/weight_regularizer/Const"
  attr {
    key: "T"
    value {
      type: DT_FLOAT
    }
  }
  attr {
    key: "Tidx"
    value {
      type: DT_INT32
    }
  }
  attr {
    key: "keep_dims"
    value {
      b: false
    }
  }
}
node {
  name: "LSTM_1/weight_regularizer/add/x"
  op: "Const"
  attr {
    key: "dtype"
    value {
      type: DT_FLOAT
    }
  }
  attr {
    key: "value"
    value {
      tensor {
        dtype: DT_FLOAT
        tensor_shape {
        }
        float_val: 0.0
      }
    }
  }
}
node {
  name: "LSTM_1/weight_regularizer/add"
  op: "Add"
  input: "LSTM_1/weight_regularizer/add/x"
  input: "LSTM_1/weight_regularizer/Sum"
  attr {
    key: "T"
    value {
      type: DT_FLOAT
    }
  }
}
node {
  name: "LSTM_1/recurrent_kernel/initial_value"
  op: "Const"
  attr {
    key: "dtype"
    value {
      type: DT_FLOAT
    }
  }
  attr {
    key: "value"
    value {
      tensor {
        dtype: DT_FLOAT
        tensor_shape {
          dim {
            size: 64
          }
          dim {
            size: 256
          }
        }
        tensor_content: "O\345\277\275\203L\036\275e\336\216\274\242\331M=\007\026\214=|\033\010=\344a\376\275\367\026E<\306AP\274\000\371g=\277\032+=\257\254\323\273\021r\034=\214\0261=\352\375B9\243/C\275\336\334+\276\256\202b<\034g\212\275/\036\231=B\345\356\2749\274\204<\214\213G<+\372\003=B>\n>\354\371\371\274\3710<\274\236\254\211\275b\223p=G\354\244\275\253f\260\274Pd3\275n]\036\275\205\035/\275\240\223\306\274\360\237\277=Q\243G=\356\233\027\2769!\216<\260\222\024\276\225\037\241\275\017\243\327\274\267L\312<{\313\210\274!v\327\2751D\225\275\372\014\260=1\310o\271\252\241\223\275\020\007s<c$\355\275\014t\016=\224\243\260<h\311\215\275\225\377\017=\332\013\236=\362\225?\275\026\204\r=\177\207\377\275Ge\274\274[W\215=.+\036\274Mg\033\274\220^\017\275CB&\275 :\007=%\006%=\031p\223\275\017\276\200<\243\3704=s%\326<U!>\275\241\373\n<O1\222\275{-\324<\334Xj\272T)\260<?\235\007\275\023I@\274\336N\"\273\353\306{\275\034??\275x\260\246<\177T\202<E\t\322\275\372,\024=\223\201n\275\260\313\267<\346h\374=\242ow=PA_\274\252>\202\274\260\374k\274y\301\270:nY\213\275\325\n?\275\271$\265\275y:\t\275C\021\177\275\216\256O\275s\215b=\221X\321;\356\0076\275\030\264\241\275E\021b=\227\r\026\275e\231\035<\221\254\020=o\025\355\274\303\220\'\274\021\2173\275M\263\261\274L\030\254<\273\316\214=\352\212\302=\362\003\262<\242\nn\275\226A\260=c\337\240=\251\330\t\276\'!\321=\203\035L<\351\275\340<.\314\272<\227\215\265=\004\337a=\177\027\241=9)\346\274\013\275<\275\224\'2\273b%\326:\t\217\004\276\311*\221=\356G\276<@O\305\273I\345\206\275\003\300\264\275G\243\255\275\236\224\210\275\017\031J\274`-/>\2727\000\276z\354\236\273&\023H=O\003\"\2724\355\212=K\021\024\2751\374\177\275cm\200\274\226\221\301<\234:\211\274\'\232\014\27515\325\274\r\250\007=\034\354`\275\220-\217=\340\341\013\275\266h\272\274#\344\214\273\006`\233\274\010\005\035>z\3648=\2021\232<\364\205\366;\010\226\217=\245d2\274!\001\335\275\314q\014\275f%\346\274\347\257\177<\311\013\334\274Q$\327=\235\275,=q\027\002=\025]\366\274\350\241\236<\364\264&\274G:\253<\247\001\202\274t\027+>)\276\205=X\236)\275]#\246=\327\363\004=s\010\210=!\3362\275\237\205\350\275\030V\276<;\304\360\275\033g\353\274&LD=]\020\003\276\312\333F\2753[\261\274\242\324\336<^H\025\275\004\365\005\275\350\371==c\271;\275\263\310\215\274>R\010<\225\243!\274\223\363\346\274Q\343\200\275\244\330\234\274 \321\005\276\247KU\27594\321\274i\000\360<k\014\034\275\r\025\375\274F\206\207<\001B\200\275sp0\275m\300\277\274\010\245~\274\177zi\274\220\252\211\274\316\025&>Q\326i\274\005\327o=\224\"\254<\303\023\305\273\366\226\224\273\301\251\207\275\027\255\016\275\023\255\352=\332\271\244\2743=Q\275\313JF=\317\256\014=\217\0305\274\\\263&>\201\222\326=\204\371\314<9Sv;\352\311\211\274\272\255\203=o\022\210\275\010\366\253:\265\216\257=\265\323\310=\201\371\236\275\201v\226=h\262\033>\222<E=\374\323K>\200\0259\275n\316*\275\214\354{\275Hx\357=\203\316\264<z\367\005=\0247\313\274\000\277\361<@,\362\274}&#<g\253\006\276\262\203\002=\177H4\274`\235M\275\304:\024=\245\236\212=.\347)<v.\263\274\326\027S\274\243\313=\275E\177\371=\330\t]\275\305\023\013;a\272\010>\341\367\372\274x\360\335<\275\201\201\275\250\373J=v}\"\274\272p\372<\253\t\\\274/\362\326\273Uj\302=\236C\321;\333$I=\033\270\263\275\006\247i\275b\003\214\2744\030\002==\032\r<\242W\336\275|\317\002\275\017\344\376\274\020\0252\275zh\363<c^Z=\313\001\313\275!6I\275Q\004\301\275\004\336\366<t\257g\275s\301j=\314\253\232=\337\226\216= \311\225\2741\177\237<\227Q\324\275\271\332\031\276\341\240\351<\273s\205<Xa\022= \301S:Iy\307=\004\022\236=>\373\033\275D\370\325<\247\351\341\274\223\2257\274>1#\275\014\371\320=GP\205<\343E\325<^\376\332<\326\273\357=\200\373\234=\225\212\013\275s\246\374<O=\320<A\307\336\2741\232\313=j\223b=\207\013w\275\242w-=\214\022\240\275\226:\027=\213U\261\274\241U\335\275\n|\223\273_\357\037:\271\035H=]u\205\274\274\227\026\275\031d\010=\234X\254\275|M\252=AIE\275\330=\260\273\3454\372=\201\261\256=\267\237<\275\321\010\027\276x\242\213\275\243\206\221=\230\006\316\275ZI\323\275_\270\205=p\321\315\275\2531\245\275f\320\377\275\347\343\220=\223-\000=6\036W\273J\000\257;Q\352.\275\244X\306=\374\206s=\344_$=\010\014\360\275\237Z_\274\221{7=U\263o=\266\273\262<\325\271\202\275\355k\001\275\363\016\300<}q\207=M\036\311;\006\325]=\235\232\026\275\261\267,\2746\301\014\275\361RS<\357\220\363\275#\300\213<A\217\377\274\235V\325\274\210gR\275y\263\216=&!\236=\340\377\326=O\020m=\376\005\014\276`x\225\275\037\005B=\177\236c=\033\343\r\275\361\006\220<\366\357\201\275^\375,=\3176\353\275\351\034\223=\243\'\203\274\270^\347\275>\233\306=\327\360\226=\r4z\273\360Z\211=k!\264=\'\035\232\275[~K\274\364\233]\273\031\211[\275tS\276<\214\373s<\302\355\204=\365/\334\273\213R\314\275\206I\366;\364\332\220\274L\221l\275\266\006\365=\313\320\314\274\033\310q=\233\t\326=\257\375_\274\261\233\252=\261\2657\275R\302\020\276\202|j<\273\021P=\345\0024=\317\257\300=8\005/= m-\275yB\331\275\326\232%<\362\371T\275\27347\275_\n\267\275c?V\275\327});:?\222\275\373\350\201\275.\333\n\275\236\354A=\271\031\253\274\237.\244\273\3569\335\274\341m\310=\304u\211=\030\207\200\274\271h\371<G\336\003\276\267\273R\274\026^\320\273\360\255\245=/~m\274\331\024\017\276\274\307@\275\355\036\240<\200\261\017\275\307Fn\275\205h;\275\361o\226<\274\316\241<\300 R=_\231<<\006a\233\275\236\306\350=\303\310\362\274\227\340\006=wa\023>\262,\220=\243\252\262<L~\241\275\267\336\266;\361\177\256=\202\232\305\274G\t=<\304\306\037=\374\373\r=g\263-=\331\345k\275\354\261\007=\203\345\032<\3503\000>b\260\222\274\217\210\336=M\216)</\335\260=\330\265-\274\357W\017\274(\271M;\321\260U=a\256H=U1\210\274\266\207\221:\202\225L=\355L\037\275E\t\000\276\016\r\255<\253\0024\274\210\334\214=\233\330\203\275\346}\300<Ve\030=\303R\261\275-\360\265\273\355b\224\275D\006\016\275|\223\016\274^bD<\320\030\266=-2`=\006{\017<\352\366Z=\277\372\251\272\236\324\206=\376\3760\276\257\027\035<=\260\031<\212\0306;\306h\352\275\220\221\317\275Z\341]\273Re\326\273Vp+<9\243\236;xt\272=\r\340\311=\235\303\231;\331C\257=\202\014\002\275h\227d\275\363W\000=\305S\277<\363\370f\275%\313\242<E\244\373\274z\313\250\273\'\214#>\264\005\024>9Y\204;\025\323\205=u\324\220<>\027J\275\203\1776=\3636\347=d!+=y\324\272\274,\177,\275#\312\352<\262J\204=\031\030\254=G%\271\274\002\311o\275\317eg;\360\227r=\243\3547=2\001J\275_\036\353;\251\2340=p\026=<S\310\033\275\211\262S\274\345\244\265;\231\022\321\274a\265\002=+(\342\274\201\225N=k\361\264<sM-;Y3?=mp\010=\222z\200\274{!_\275\347:\227\275\232\346\025\274\237\001\'\275\340\005\013=]b\300\273(\217\021\275\211\252\305<,=\200=v\004\250=\035d.\272\257\234\376<\304\377\022\275\317*\024\274\314\352!\273\224\224K=\270\020\372\274\3201\034\275:WR\276d\010\346=TG:\275\246W\347\274\026\211\262\275\250Q\007\274MU#=\216@\210=/\253\203\2758\374\000\275#\267P\275\014y\223\275\347\232f=\202_\230\275\203\306x\275\305\347\024<\020\227\216=\221k\030=)\3325=\032\310\271<wX\026\275\020\344*\275\216\340]\274;\234\314\273\000\250\254=I\353\202=\364\342\353<\2622\201=\353\307\313<\332\337{\275bl\233\275c\324\333\2758H\324\274\313\n7=\371K\307<\233\222\264\274\235\003\016>\370bV=}8\022\275L\231\260=\337\332=:;\325p\275\253\327\206\275\201?\251;n\307\351\274\267vj\276\323E\001<\234.\314<\020\361\032\276b\210y<\377cs=\221D\234\2753\361e=\217\326\340\275+\275\000>NiJ=\366\364*=n}W=1\031\316\273\206.\317\274$\251\203\275\331\336\376\274\031j\260=t\032H=\353\n\362\274!\031\025:\301\363\211=\364\242\375\275\346:\270=\302\217\251\2736\034\237\274M\212\005\273\020\211\333\274\265U\336\275\301\223#\275\342$\000\275\357Y6\276Y\212M:L2\351\274\030\257P=[\221$\273z\ne=7v8=\341{\233<\321|\006\276f<p\275\317j\032\275[\351\203\275\370\307\213;W \351\274\364H\311=\025H\263<{\375\303<\365\307\'\274p\005e\274\364\364\323\274\274T\006\275\360d\273=\004\260\023\275`Q\324\275r\334\231=u\0138\275\350a\322=l\376 ;\271Z\344=\2261\244=\276mr=\\y\255<\"\222\255=E\363\036\275K\223:\2759Vm=4\337@\275\234_==\340m\333\275\217\366\317=ak\375;\036~\001\273\333k\231=(G(=S\340\314<\220\251\341\275<P.\275\216\373j\275\245\000\230=v#\250\275\242\227\224=\271`\300;\007\373\324=\235A\001\275#!\202\275\225\210\201\275\'\304\271\273\367=c\275f\016\245<\206%\273=\017b\270\274\036s\250\274\215\353\331<9\nd\275g\236\023\275\227\n\025=(\334\326\275\247r\213=\347\253\333\2747:\307<\035\352\206\275[\004\376<F%\234:U\320\025\276\026&\027=X\272\301\275Ph\232=\024\375_\275\346\240\023\275G\337\225=\262\323I\275T\202\227\273\312k\223<$\254^<\267~\036=\247\251\371<\357\336\253\275\261\212\276<\304\203\364;\376V\207\274\350?A=\336\3763\274\321\355|=\274\341D=\235\235\245=\310\001\034=\232(\r=\275\031\300=\260\271\210=\241\024\267;\317\251\320=\271\315W\275\010\377\327\275\235~d=\347\374r=kJN=\332\250\006\275}\336\221=\2626\324;\362\250\020<OLK=\3367H=\221\013\240\274\331\364\271\275\363\370\247=\330\344\230\275?5\307=\026^\310\274\271\010\007\274pA\030\276\217\351\233\275\3301\262\275i\355\346<_D5\271\002\322\023=%\273\017\276:\001\365=\257\327(\276\302sr\275=r\024=\220\213\207;\006J+\274\226e\027=\021\271S<\036\005<\274\205\221L=\313\030\031;^bK\275\311\351%=\273s[\274\333\245\301\274!\026\210\275T\027\257=\264\222\264\274\212\346\316<G\025g<\273\024%\274+$P\275y\3215=])\213=\366\220u=\347\274/\274\227\010\267=\361\232\214<\373\2559\275\0349\232\275f2^\274l\243\006;\221\310\310=\317.@\275[R1\274\235\326\213<\374\367\224\275*\023f<\246\237\342\275\375X\241=X\013\013>F\264\007\272\215\3659\274\t,\246\275\367\231\343\274\265\242\027=\275JB\275U\275\037\274\rG\350\275\223n\231\274\305\360\236\275\245\032\357\274\3024\323=K\241j=)\270B\274l\202\352\275\206\222,=\334\321\200\275E\263\373=\341>\237\274U\010\370=\351w\212\274\276P\n\276\310~L=\332\236\026=\001\364\330\274{+\255<}\277_\275~\241\230\275\275V/=\375\032\313<\312!\3638\305\304\020=\302I\203\275]\271\025\275J+\343<\256&\2439\306\321\376\275uCX\275ok\273;\203\367\237\272f\001\n=\025\302\273=\016;\033;\277\216\220\274\344\023\275=\235/\030\275\025\330$<\233&\344=\266,\366<\276\335\':b?\031<\364\016\323\274\014*\016\276\227\242\034=|\222\201<\204\260\t\275\225\343\304\275vs \275>\352\255\274\353\343w=\256$\371\274\243\006O=\2352y=\266t\357=\277(\361<4\216\241\274\200\032\360;$\317(\275\226-K=\021\241\004=\250\363\032=\036\263\274\275Z$\235\274\265l\200\274\216\343l=\350\3008\274\255\243\013=\231%;\275\230\003\377\275\324\301\037<6\304\377\275\207\326Q\275O\271\343\275;\360\317\274\035\250\300<\30087<\217h\304<*\373\220\275\374%\250\274x\234\246\275\345<\r\275rV<\275\227\3132=%\322\232<\204\007\275:\231\323\257;\344\213\203<\310\305`\275\340\032\025\273\024\003\023=0\000\260<\010\333h\275\330\345A\274\221\030S;\304\020|;\'\223\233\275\375\310\304\275\226\315\204=\006m\333\275\251\250|\275\237:\025\275\256\347\212=\037\356\026\274\326!\210=\235\345\216\275F\355\340\272\342e}\275\233\377\275=H7\370\274\337~\001>c0)\275\312D\352\274\005\020\204<\256\223<=\317\234\244\275\372m\033\274\325L\210\274\257T\177=\236J\253\274\031\030\216\273\333\342\361<2j\337=u\3346=\256?n\275\212\227\275=\215\004\214\275^\236#>\257\000\210=km\003\275U\273\311\273\351\020\024\275\337\360\n>\325\204\014\275%I\374\274\002h\t=\"OD=\324\236M=!D+=\001C\205;\331\305\371\275\3563\210\275\352\306H=\004}\270\275\356\2655=\030\242\240\274p\362\341=W\375\021\275\313\2638=\\\020g=\206\023\037=\270\214\355\274h@\021\274\355\240\264\274L\271\033\275\002\333\276=\276\244c\275\242&b=x\267\276;sO\355=\235f\351\271\275\346\360<<A\205\274\035}\304=\270\201C==#S\274\275l\374<\376\356\321\275,\3119>D\317\207=\357\\v=|\324;=\302+\025\276\035\200\002=\0079\235=\3264\245=\026\364\262=\223Y\214<\365\277\224\274\254\211D\274\251y%=O\304\006\275\024\342\226\273\003\032\314\275Y\341\211\274\316s\327\275\236\311<=v\311\377=\304\345\255=\325\225\030=U\017\213\275\233\n\234\275D\t\244\275\312`\013\274\006|,=@\232\322=S\241\337\274\251\2355=\037\021\"\274@\202\022\276\244\363\010\274b\030\343=e\276&\275\343\"U\275\365{8\275;]N\274\331\355\253\274)4g\275\276\\\026\275\274\213\374\274\004\217E\275O\020\270;\375\017&=\337\247\375;\373\314\001=;\266\256\275\226\033\200;B\263O\273{\254\213\274d\"\007\275\226\373{=\005\336\007=\241\315\256;\366\004\310\274K\217\n=_ \210\275\214\010\236\272\017\005\226\274\210RA\274Uv\231\275\220<\207=V\342\332\274\2313\014\275\251\200T<_\307\\=\341\356\341<L&\220=?\267U\275\035\244\253\275\370\n\324\275\211\344\367=k\375\203\275\247\252\232<\\,\372\275\330\346M\276_\246\234=\372d8\275\242\335\252=K\234\365\275\3138R\272BK3<\214\"!=\030\201\205\275\316\030e=\242*4\274\017,\014\275Rx\035\275\340\211\232=\303k\005;\'\251\030\275\217\264^=Fl\323\275,\331\362:\016\265\257\275\371\301\342\273\270\002\256<\344\357\244\275\377\307\010>*\037-\276\033X\207\274s\\\311\274\\\223\373\275\212\237U=x\253C<gr\374<x(\202=\370\033\375;]a\350\274\016\307\374\275\300QN<\271\024\026\275\233\212\370\274g\355\211\275\177\321\312<\303\316\225\275\367\035X\275\271\274)\275\365==\275\247\310b=\335\n\010<\340\246\237=.Z\332\274\004\007P\274\262R@\275-\303\270\275\261[\324=|\274s\275\300\037\233\274r\375\236<g|\035\276\010\303\331\274i\353\237=\232\337\020\275\3332\206=\270\311\214\275\177I+\275z%\324\275\'\304\177\274ro\230\2754\371\265\2733\374\300\275\317P>\275\321\370\356\273)\206\251\274\373\201e\275\"\202\244\274=\034\"\273\337\2479\274Y=\010\276\024\275!\275q\216\201\275\256\025\017<q\210 \275\004`\333\2749\203*>\005._=6\215\262\275\3463.\274\024\212+==\254\021\275a\022\006>H\025\254=3D\273\274\320\rG\275\034\274\254\275\217\302h=%\3435\274\313J\260\275F\035\346<\200\212\261\275%\256\001\2751\276,\274*\376\244<o\035;=+MP=\206\320\022=\376\026\370\273d\270^\275\336^Z=g\224\231=\035\373\326<\335\261U<D\312\217:\202\211\2019j\262\013=\277P4\275\224+\331\274\307\212/=\350V\364<V}\007\275-\016\000\275\234\352\244=.J\201=\276*\366<\262og\274\264\264\221=lc1\274\373\301\250=U7\340\274\224\036\222\274\232\364\366=w\252\341=`\036G<m\324\372\273&6G;|\261a=1\277\222=\275<\033\275\017\223\256\275 \230\004=j\315\333=g\377?=\357H\245<\033W\232\275\'|6<\303T\233\274\252\271\210<\312Z\351\2755\334\312\275\235&\370=\311a\226\275\0306\246:\374\346\255=\036\003\274\275\220\227\314\274\254\022\203\273\243\332d=\261ta\275\214\'\232\275\340N\244\275\3741\256=%\031\201\275\033\240\307\274FJl;\001!\325<\375\253\034\275|\270\272<\317V\322=\276\207\302\275\245\310\342<V\333\035<a\263d=\353l\025\275\247[\323=\351.\221=\023\006><\317~L\274a\344\357=\223\252#\274\036\363\341\274\315\227\326\274w\226\312\275\253\333\261;\357\245\'\275\305^)\274:\241@\274\'\230S\275@\270\246;\222\024\320\274\335\216\257<\272\330e=\321\277%=\266\367\347<\253\352B\275\260C\001\275\311\245\006>\300\314\361=\301\2604<\376R\216\274Hp*\274\273\314\004\275[\310\036\275\272P\232:\017\216o=\246\270\247\274(\304\252=\323\276\235\275^\246Z=jw\354=\231\265B\275zs\234\275KN\251:\355N\207=,\356H\275sz\"\275>\222\377<\273\\\210\274LH\354:\265\225c\275+;\360\274\366\372\025<\212\"\264\275\251$\355\274\205\263\262=)$\201=u\341\260<eE6<\217\277\345<(\034\'=\255\\\275\275]\322\212=$\221^; \320\302\273\256Q\275\2759m\226\274\306\'\220<\177%N\275\213\005l<o\345\033>\360\177\206=\033\236j=`\007\306;\004RW\274\366\260\224\272<\277\211\275\373S\337:\231\322\243\274\257L\202\275\207\305\343\274S\004\352\275[\372f\274\241V\350<\257\204\004> C\026\275\332I\354=J\216\223=\016F\024\275!\000\214<\210\254\245=D\225\260<0\023f\274\016\302\302\274\037?)\276\327A\376<\376<7\275\222\033:<\243\005\241\275\206\371\210\275\212\022A==J\300\274\323->:\202\220\276=\035\274\211=m\267\243\275@\315\343\274\210\263\320=\211u\203=u\315T;\323*o;^w\201\275\346u\277\275\330O\370\273\250T\247=\016\246\262< \302W\275U\246\275<\037\001a\275=\334.=\302\0261<\230De=\3666p=h\336[<\331\017,\275\n\301\311\275\260\025\211\275A\'\311\274\303\255l\275.\332g=3\374j\274U\252|\273\340J\256\274\315~\033\275>3\242=\nD\304\273Z4\263\275\330\311\255=\211\t\237\275\376\223-=\270K\321\275y\364#\276\334~\005\275`\n\263=\237\000\234<%\204\001>\3776C=\341nx=(\r\362<\212\021\001=\235<\306\2754\007\323=\263^d\275\035\254\020=h;\204\275/*\253=\322\3746=\372\324\000;\243k&<\326\362\037=\204\252\274=\353GD\275=-\226\275\204\247\n\276\021l\'\273}{-\276\210\002\274\275\354A\204=\346@\237\274\200(O\274\t\342\021\275c\000\r<U\203\326\275\310\004Y\274\342\263\026\275\350\023\333\275\t\002\335\275\245R<\274=(\371<\005\333\234=E\276}=\247}L\275hC\304\274\326z\207\275}\375\325\274\341\020\304\275\000\2343\275\213\326\333<\033Q~\2757W\023\274\251\357\237<\013\204\n\274nC\260\272E\220\004>\223*g=\226\267\231\275\240\324\216\275\016P\033=\210\226\327\271\257\352S\274$\243\264=\337\263\301\2753\'t<\305*\274\275|\230c=@\026)<\237x\005\276w\257\025\275#\313p=:\233\016\275|5\223\274\311\001\234=\323\325\347<\271\014\033=\355\202@\275gu-=~O\003=\n{^<j\275\"\276\363\255)=4\336K=\271\"N=Y\264\231\275\275\036\242\275ye\244<\373fA\274>\214\225\275 6\327\275\201\226T\276\277@\313\273\347\300\251<\230\224\354\2749\3123=\031\373\342<\213I\316\274v\034-\275\205\217\340<\200l(=\341\035f\274\203`\320=\206&\247;L\303X\273\366o\344=k\333b\275\363Q\206=\355*\376\274\023\366\341\274\225\357\016=\"jc\275\262\210\000<\375\330\332<\306<\025\275\252T\237\275U\006\222=\006\214\025\275\235\332\240\2740$\264\273Zm&=P>\261\275\"\231?=Z\234~\275\356J\214<\034\302\263<9\377\276<m%\000=\202\335\255\275$BL\274\345\375\216\273\267R^;h\303\264=\371\304\205\275@\275\022<\200\340\214\275\200\371\200\275`\025\373=\n\0305=[\023V\2753\002\247<\317!\007>\240{\360=|\036\202\275\r\205\000=\304\310\361\274\367l\030;].\244\272\243\026\214\275\344\2211\275qo\320\275\220\303\235=*\324d\275\007\241\237\274H\354\332<~\205\224\274b(\t\272+\304\324<\004\034?=\365\nL=\255\001h\275\270\353\257:\361\024B;\251\205a\275\013N\266<\203\247\333\274j\035\217\271:\001\361<n\020\244\275\246\2525\275\377\251\230\275`\310\356\274$\r\n=\000\242B=\327\325\032\275\201\002z=\376I\314=H\204\264=\354\340\311\275\370\313\r>\277\263\320=/\300\204<|!\375\274\363\001I=\031Z\335\275i\375\037>@\304 \275\303\267Z\275~< >\365\223\352\2745\330/\275I\373\275<\302.\244\275\264A:=\016\375\004>J\360\010\275\031%\006=9Xu=\271\021$\273\313\305\205<U\3322=\357\215H=b\277\201\274\033\252\340<F\034\034\275\353\r\226\272^\220\000\274i{\244=\037\030\017>v\342\346<\370\243\r\276\251\023?\275\221u\025=oa\265=\277w\303\274\026W5=!;\021>U\223\267\271\003\266=<\253\037\236<+%\013\275\327\025?\273e\247\204=+\261\030<\241T\217</\204\'=\264y}=\200<\177\273\274\322^=\306\245e=&\340C9\223\247O\275\027N\364<s\237\256\274\316Q\250=\361\336n=\205\037G<)\327m<\026\005R=X\233\027\275f\\X<\007\022b=3\247\211\275F\306\225\275\320$\315<\330\226\034\276\235\274\262<\'MY=\221Y\275\275|\336\005>A\220\021=\\\233S=k\246\226=\303`\242\275\364\3748=_m\221\274\336\365\262\274N\241\347:4\374\253=\342\215\362<\225\336j\275\271Q\001\276\227\244\233\275\232}8<\330I[=U\343}=\374\"$=x\337\010=l\232w=\032P\272\274.\016\026;\330x\201<\257\n\235=\356\364\326\274$X@<\347\316\"\275\215&\277\274\362R\262\275~\325\204\275yG\367<\316\306@\275\275\341\356\274k\203B=\214\001t\274\245\207\305<>\205\336\275\232X_=\357Z\030<\203O\273\274\\\261\366\274d\274\242;&:\314\274\317\3764=[h\374\273\211\264\302\274@(^;R\004\001=u\333\245;\241IV\274\025Hd;\363\253\022\2756*\004\275\320!\036\274\3027h\275\014\033\227\275\356\352\027=\000\203,=\314S+;9\n\353\275\027\335r=\211\177\033>\r\000\206\275\323\223\310\275\000%\315=7\227\250\274\201+\035=\006q\330\274Ag\331\272\004\342\226\274\357\333\014\276\315\276\254\275\343\\\275=\207\204|\274\342\255\305<\363g\223;5\344\234\274\235\226\200<:H\315::\305\213=\261\'k<%\271_\275v\272\022=\027\033\272\274\262EY\274M\032@\275\261\343\252\275+\371\n>Y\226\357<\247\214\234\274\201\233\251=T\325[\273\225\217V=\305\235,< l\300\275\013<\026=\213\343\246\275\302\013\314\275\307F\331\275{\207\234<O$\031\276\362\213->\226\301\305\274\311\335\237\274\030\205\300\275\035\347\215\274\374\335\307<\362\323\216=o\303\225=\272}\235;\223\307\212\275\274]\240\275\213\177\247\275E\372\345=w\200\265\275\334\006\313;\325\350x;\312\206\207=i\340\350<\346\002\214<\214}!\275\272\227\037>\334\202m=\335\204\036=\272\361\255=+\007\307<\214\367\225<\351\333j\275\013\220\260\2759\023\245\275\016F2<Iz4=\372\350\201\274G\273!:\304\371\356\274\2447\241\275\202\235#=5\377\"\275\032Q\300=\027v\005>l\335\027\275\210\034d\275G\324\254<*\224j<\217\003\007\275\002&\'\274\003Y\200=\365;\232;\357\323\267\275.\324(\276\266\234\322\272\000\376==\271`\303=\275\203\231<?\317!=\304G\223=qP\371<OP%<\2275\016\275\274\252\253\274\377\322\241\275\202Z!\275iU\345\275\251\2003;\010\037#=C\343\241=P\270\344<g\350\203\274\301\362I=\224\360\005\276\377\204Y=$9\">\215=\255<\251\266\030\274E\300O=\240\325\335:\336\267z=\341*\272<\374\367\302=u<\240\272\315n\246=\237\224\217\275\333?c\275\014!\207\274o\213\221\274w$7\275\360\224&=\023\'\302<\223\377\250=\333m#<\300\367\013>\367\355\245=\342D\207\274\025\337\200=2lU=\272F\236=\336B\004=\214\371\262=\203T\233\275%\032)>E\215\257=:\342\253\274\300\261\204=\030\362\204\274@\203\221\2743\272\255\274\365%\352;\327\217\005\275L\204\251\275\274\230[=\241^q\275\027\260\342=h\270\346;\317]\341=\036\374\024=\303\275\366<I\215&\2734\375\326;J\360\207<mE\271\275\345`\203<\005|P\274\230\275e=\023\351\303\274\370\324\315;\226R\000\275\233\273\256;\257f\t\274\363\223u\274\344\2512=V\330J\275\304\314\234\274\327q\001>\035\256\227=\340.%\275d\343\204<\216\020\n\275\236\373s\272&\226\306\275\247>\371<>\240\216\275\024D\322=\220\021\231<\305\271\244\275\344f\010=\t\207`\275O\256\330=\346\226<\275\320,y;\0227\276=e3\027\275\303\3360\275\r\025\324\275\342\342\r<UYS<OU@\275)q\240={) \275\023)\245\275}\022)<BC\027=k\034o=\225\265\233\274\350+\006=\267\204\226;\256\212\004<6\207\220<\032e\010\275\341u\211=>\371@=\237\367\317\275\016\247i<q0Q<\201\270n;\t&R=\363\t\201\274~\362\177=nc\320=m)\336\275A4\276\2740\335\345\275\372@B\2747\264^<\336\316,=\226\354\031\275\247\362\336\275\322v\225\274\215\342\361=g\0172\275+\203\321==\235)\275\353\341@=\023*_<,o\326\275\207\374(\275\216\031\003\274\256G\330=\244[\355\273\034\357M=\027\320\275\274\247\301\006>\322\324\350\274M\372\272=\'y\325<e\200\336\275ki\231=?|\301\274s\232<\275{k\214<\023\266\232<ui\321=\324\300\303\274\223\211\037>\035\302\334\275M\254\203\275\326,\262\275\337\200\250;\373\343\247=\202Y\217\275\335\311-\275\2463C\275Zjt\275\315R\275=h\027\315=Qo\250=\375\224\002\273$\246q<DG\340=\305\250\030=O\263H<\326;\014\275\330\277y\275\202\017\327\274\000\376k<\264\332y\272\360\2767=\330e\233=\223\352_\274\330\216\334\275\3576\031\275\216\"\001>\224\234I=>r\377\274\027\202]=\231\270\237=\356\304E\275\351\333\005\275*\213\267<\374\242d=\312/\021=,\215\202\275\014\202v\275>?x\275\256\261%\276\002!\276\274M(\221<\264L\361=w\367\023\275\323\t\343\274n\003&;A\002\232\273\247\304\037\273\241\232\272=\341\272q\273\305\256\236;S<\250<g\340\246\275\312\203\000\276\313\342Q=\345zg\275\366\271<\275\246z\344\274\037d\227\275\226\313z<\350\336\225\274\325\262\n=\230|m\275\324N\r\276\271,\300\275\352u/\275\035\301\337<9\222\325\275:\230\352=.[\225<\301vF=d\264y<\374J\021=\nc\224\275\351\001\251=\312\026\230<\377?\257\274uY\377\273\256HR\274,j\200\275\n\225\233\274P\335_=\245\344\336\2742\025U\274xm*\275\'8\024=\023\3476=:\303\206<\240\'q\275\371\226\266=\377\013\314=G\325\355=.\"\211<\364E\213\275\226\r}=5y\252\275 >\004=]\035$\275\367\231\317<\371*\312=Uuv<\223\177Y\275\216\334`<Kg\t<\226L\001\275\221\347\312=i#\311\275\3708\317<m@\323=\270\277\236:\\\307\203\274\'\357\177:U\246\317=\264%\336=\374h\t\275\247\260\022>v\270\024=m@\236\274fYE\275\305\325<\275Ws\034=\240\252\236;\221\222n<\322N\022<\232\223\235\274\234]8\275s\n(=\341$\357=)\3661\275\270{\247\275\303n\327<\240\374\231=\022o\256=]\030\n\274U\325@=-g\300\274\301\231\250\275w\3709=N \034\275\341WZ=\346\211\336\274\022\370\333<\3502\034\275\2726\244\274\373\270\237=E\312\265\273\263T\242\275\340\372A\275\033D\274<\224\323#\275\034\377\314=Xt@=\273nP\274\355\253v=\241\237J\275G\2252\275C\367\260\274V\004\3749-\247y\274\002q\264\2727\246\260\273\375\033\223<\257K\377<Y9\270\274\014\254\252=\241p\255=61\030=\330\250D\274>\360i\275\236\204\262\275q\"\006\275\3058\227=\236{\325\275\236\221\255\275\354\216\204\2741\235\007=;\242*>S\332\010=\177$\337=\\\027\033=O\275\214\275\034\312*=Fm|<G\024\307<\030\331\304<&)\223=31\314=\211~\227=\256\0277=\263x\344;b\nX\274\273 \206=\337\304E=\233\260\315=\036~g\275\331\241\322<\323x\373\274\243\010\224\275i\022\235\273N9-=\267$\253<&\303\033\275\243\177&\276\224\334)\273\232K\316=\262\024 =\234Y\263=^\364\255\275h\357\202\274\222\247Y\273\314B\353=\177\270C;\223^\342<\256\326\336=8\330\211<\202\343\004\276r\230_\275t^X<>B\276\274\310\366\240\274\207\260\277\274\242w\035\275L\001\215\275X\260A\275!=\241\275\217\270\307</I\336\275\013Z\247\274\267u\272\273au \275<m8\274I\021~\275\234+\256=\024bP\274\005\303\350<\256OD\275\224{\016\2748b\304\273\313\327g=\360j\223\272\245\036\322<\320\214\300=\207x\207=\232\234\331<\366\241\032<q(2=\213\002)\275\376\215\360=`\353\222<i\234\014\275\342\337\240=\230M\355<4\006\207\275]w7\276\247\347\265\275\024\034\240=\346\206\316\274\200\376%=\326\013\345\275\337ig\275.\250g=E\245$=\035a\306\275\247\310\241;\247\2578\275\376\225\370\274\363\026Y\275c\'\256\274v1\357\275\005H\270\275H\021\037\275\322\255\213<\347\250\336<\312>\\<\371\033\315\274 \300\255\274\230\342\343<\245\240H\275\237d5\275\3250?\275\033z\017;\354\024\002\276\210c\246=7\206\350=\2506\224;\342\232\210\275_@\271\273\265\033\037\275\342\255Y\275\007\215\267\274Y\326\261<\214\270\241\273B\216\r>\322?\r=\354\"\242=\330\241\276=G\020\376\274\255\2571<\210\277\002;\3700\303;\367R]\275*)\237<uq\223\275(\241j\274\302\226>={\360\200\275;\023\017\276\306n];g\314\211\275\300\204\010\276\247\\0\275?\232I<\\\001\267<\370#\372\275\247\010\030>\022v\222=\352\302,=;,@\275T\017\037\275\333w\303=\027\201\261=\0010\242=\017p>=\251?\275\274\001R\262\275\301T\370=\261\267\325=+Yd=\216\301b=\370\002d=J\021\031<\235\203\330\275}(9=\346\263\206<\372[\244\273\236|\203={,\226\274pW\035\275\346\342\305=\250\241e=\246\355\224\274y\241\021=\256\325\252=p\313c=\353\313\347=\2633\002=\0149\352\275{\276%=\372w(\273\372x\265\274%\245\205=\212\232\016\273YO\210\275\255\225\215\274\304KX\275$\207\326<\017m\365;5\264\245\275\rp\370\275\026\027\335\274z\263Y\275uV^\274\232Z\220\275,G\312\274\355\226\203\275\276\027\207\275m|>\275\026\301\206=\033\327\262:\031P\362\274\357\007e\274!\337\237\273\370-\271=C\355\027\2754\312\251\273r\032:\275\016\277\276==\001\321\273\241\301\250\274\325\0304<\203\332\320=\363\224\271\273(\0046\274\364\005\275<\353\303\207\273\306d\002=k\377\343\275\302m\007\276\255x\373;\007\335\213<\320s\377\275\320\n\022\275r\017\207<V\301D\274\341\005\246\275@O\037<kyi=\201;\361\274\013\304\0206*\335\301;\302n\033\274X\316?;\177\364\215:\201\232\301\273W\325\227\274\001\252\341\275B\035\233\275Q3\300=\211H5=\001QX\274=\372\022\274\353\343\240\275\006\346\351\274\364`L=]\006\367\275\264;j=\317\345&=\231\341\200\275\2362\035\275\236\247R=O\023\003=\261\014;\274w\033\327\275\212\316\324<\360\351\001\275\0351.\275L|\003<\330\362\010\275\241`\277=@\030u;\325\253\242\274\210\3350\274\205\250l\274\377p\3527\342d\360\273eq\373<Rp\214=\326I\025>\023T\342=\205\317\251=>GB=;a\266\275&\3466\273v\027\240=\203y\300=\271w\253=\371\305\337\2753\006\347<\342H\323\275\0360\364<\013\036j=\036h\027<%\230\244;\341\217\220\275\247\356\237=\035kh\275\366\200\264\275\321\377\022\275Aj\375=\243\236L;\242\3626\275\014m\000\276~\345\232=\177\272\264<k\023\010\276\013\000\310\271*\202\275=\324`\252=\253\205\026=_\202\004=2o\257=\352/\237\274\370\245\221<B\307\277<Z\226\317\275CE\3759\004\366\222;-\374\215\275\357\313O=\307|\347\275\275\226\215\274\307\034\360<\360\250{=\366Iy<)}\247\274\207\372\247=\177\003\334=\021\255o\275\2705\006=\027N\264\275C\247\'\274\247\023\037\275\037D\277\274\2558\301;\232\036Q=\245\350\374=m\253\210=\032*\022\275\273\315\345<\353\373\212=\201-\242\275s\031\222=Q7\340=\347-\326<o\242\377\274\201\244\224\273\3100\302\274P\004$>\364\365\233=\2578\364\275tF9\2759E\307\274\366\024\210\274D\365Y\274I\211\223=\371\217\242=\313/\000\276K\314m\274\371Q\366=n\321\262\274\325\2638<\264\2170\275|\t\274\275\272B\233\275P\231Q\275\371\010\337;\260O\233\275\006\216\023\275\021I\245=\333\3622<\262\364\324=\235\340j<\007\362=\2750\234\023=\3541\221\275#\256\301\274\206\275\014=\275\004$=aCo=Z\204\203\274\005\371\270\275k\203\324\275Al\000<4\350\376\274\315\014 >B\312\021=g\245z\275\321:|=\032\250\345<#)\354<\316\3617\274\316\037Y<jmV=\177U\227=\232o*<\0142\375\272\333E3\276\331h[\275\026`\310\275x\325\206=\276\350K=\030B\021>\240SN<\211\366\t\276 \241Y\273\211\333\354<\376\331\266=\341W\"\275p\2752\274\231\312\276\275H\006F<\222\212\350\275%\271\223\273\tE\344\273\355K\275\275OM\217\274\020\300B\275\231hI\2756;\273\274\305\203\306\275r\005.\275Kh0=z8R<\r\332\320\275ea-=lOS=\006\003,\275*\310)=7\321\236\272\3106\225\274\346f\215<5\243\367\273F\212\373<fQ\247=\206|:<\227\234P\275\337G<<\274\332y=\330\2758\275\244\373S\275\205\266X;g\236\210<\231\222q\275\201\317>\275\252\260\t\275\364\000\270\274\222\034\345\275lN#\2757N\266\275\327\333\376\274\314\372\262=)\241\001\275\217\246\373<7(4\275\326yf\274\036R\336=\334`\021>\211d\266<\323\212g<\216bz=\037\206~=\237\350f\275$\222\262<S\360\336\273lg\031\275\025\342t=G\330\201<\374\001G\274\275V=\275\362\215\207\275\220\0263\275\'\306\020<z\266?=\021\200\017=\0109\266=y\215\006=\311Be\274\366o\364\274\350\316\316=}\003\017\271\200\001\262=\357\364I=\361\257:<\215\252\257<~\237^=5z\216=r\334\237\275\267\242G\274\233\254E=\036Z\222\275*\255\254\275Y\177\261<M\301\001\274\305so<\327a\373\274Wgi\274\240\372\007>\036_\241=d[\352\274\023}\221<\001m\351=n\264j=9X;\275\337\007\301;\024\021\213\274]\036\005=\377\255\244;N\354\027\276\360\034\304\275\367\304\307<\2422\201\274\264h\024=\224f\010=\325:\300\275|\212^\275\306@\000\275\210\316\201\274\257z\355=>3\352<\003\215H\274\223\363%<=\037A=)2\313\275C\017\317\274\247\017\202=\2065\372:\361\301\225\275qv\000=\330\367\263\275\302r\247=\366\222D>\001\002\205=\262\323\203\274\277\"{9\264\217s=\250\032\207\274A\312k\275~\361\310\275\215\364I=\303D \275\020\021\254=F\324\231=o\373\231=\3649\310\273mHc\273z\212\026\274\270\322\221=\365L8<\353D\330\275\2245k=\031%\266\275pZ\016<\002\277M=\017M\202=Z\343\274\275gy\241\274\271\303+\275zh\311=\370\302\t\275\351YF=\030\005\035\275\223!\307\275+\023\335=\243\332\247=\010z\225\275\276\034\n\275\326P\007=l\"Z\273\241QH=A\370k\275\000r\027>Of\326=zc\220\275=\251(\275\025\215z;\312\310\242=\343zO\275f\245\232= ,\263\274\325\210\324=Z#\"\274d\200\210\274b\361\037\276\245w#=\243\306 =\001\357\340\274{\276S=\2348-\2757\212\211=*\310\"\274\037|\007>\354\330u=\212!\205=\325\246\261\274\034.\334\275t\002f\275\374\244\177\274]\3622=\234lf=[\332\261\275sdI\275X\017\333\273\220\343\026\274\001*\t\275\210=3=ms\212<\001X\n\275w\220\231\275@\202H=^\343\211\274tq\323\274\272\320\242\275\030%\352;O\254\014\275Y\210\017\275\201\356t\275S\254\236=V\226\375\274Ol\"=\236H\201\275\215\202\214\274\200\307\245\273\270\352\225=\037}\\\275?UZ;v\230\317=0$\026<\240I\013\274`\247K\2753\331\202=1\310\351\275\316\360\363=;gw\275\375\244\220<m\323:\274\252\3430<8\234\265<\270\303\020=\262\200\364\275\210\227\257\275RF\315<,\250\034\276\214\322&\273MD\025\275\207\234<\275*\032\340\275\r\352#\275\206\203|=\377\246\201=\3352\342\275\304\034\214\275\341\247\010=_wa\275\231(\226\275n\010\262\275\0048\360\273\024\365\224\274kv\025>\207\356\370=\"\250\204<\007\0272\275\'f\026;\255\262\242=\'\307\210=/\377=\275#\031\320=\240\331#\275\305\322$\275f\370\204\274\362\330\313\274\202#\276=Q\351\206=\021\275\313<A\002\225\275\352^0=G\373F=*U\215;gy\250=oj9\273\332\3723\275)\306^\275\t\227\t<\310\273r\275\237\n\357\273jF\261\273\037u\216<\010\224\246\275h\n\002>j\376\235<\230\211\250\275\327\273a\275U\334H\274\330\3473=kr;\275\211Ee\275R\267\021=y`%=H\257~=g\267O;6\214\204=4\206\024\274\327\330\257=Kz\303=\261\273\020=\223*\232\275`\000\310<K\257\247\273\220\023I<t\342\310\275\232\340\215=n\020\177\275\216\350\301<CgD=vD\234<\275\207\377\272B\'\021=(\270\266\274#\003\t=\343\250x=\"\217n=u\036_=yI\023>\316\212w\2750\022\354=\272\2339\276w\005\013\275\374\302\307\274,\276\001=y\0260\275\271\333\315\275BD\004<>\005L\275\375\233?\275\200i\225\274\t\277\205\274\252^9=\372\230\202\275KC\241\2750&\253\275Q\013Q\275@\355\206\271g\245_\275\254\222\345<#-\255\275\331K\322=\312\377q\274\351\360\231=\336;\321\274%\345\017=\214\357\"<\353\305\345=\220S\004\276\363\376\177=\000\374\311<\341\322\204\2752\253E\275$\241&\275N\355\342<\274\322z\275\3616L;>\014\243=4\363\214;\032\321\013\27511#7\025-\006;F\326\037=\2066P<\275\236O<\275G\"\2750\224\261<^\2073>d.\317\273\320\251\310\275QR\216=\255\236\027\276\346\324\310;\303=\252=\3448\236=\2460\240\274\337\256\024\275`\204A=\230W\337=\000\310h\275\025a\205\274\263r\212<4\301\216=\317\026\227=\33338\275J\250\200\275\372\211F\275\344#\243=\005m\225=\366=\277=\250i\327\274\371\350X\275\363\2357<\\}p\275\347 \310=;\214\257<\\Z\001\273\377p\324;\327\261k=\313lI\274\324`\211<\315\t0\275U;C=\371O\270=E\237\214<\006\255J\275\334\020\267\274\371\350\'=\317\335b<\266M\200\273\000z\314\274C\030\235\272\356b\303\274}\220\326=\025t\251=\350\354\300\271E$|=\214\252\373\274\262\263\021\276+\217\320\275\362A\201<<B;<0\320\021\276#\365\007\275$&\216\274\205\230v\275\010\003\'\275\366\210\273\275\321\313\025;\213\333\337<lX2\275\371\364\255=\244j\232\275\007\001\t\275\225\3564\275\263h\246\274\242\312>\274[[g=XV\247\2752\023\001\2755\264r\275|1\260\275\n\220r\275\310\211\317\273\354s\227\274m+)<i\361P\275*O\207\275\344\255D\274\325S\303\27445\324=\3325i=\340]\322\275\020\313\004>\210U\332\274d\214F>j\361\212<\305x1=g&\375<YW|=\203\031m==\304P\276)\341\233=p\022\256\274\277\2658\275\267m\277\274l\037\275;q\030\273;\000\235\002>+\330\260\273\033\305\307=`E\025\275g\033\340<\244\304\313\275~\244\302\275\322\t\010\275\036%i\274$*\306\274\316\323p\274\001\222E\275\201\236]<\002\345\220\275\003\256)=\336H\263=`u7\273\321\352\016=~\345c=K\311^\275\231w>=P\002\373\273\346\332\343<,7\255\274\205\037\017=\316S\214\275N\277\302<\364\360\315<\'D\363\274\233>Y\2749\035\273<\321\254\317\274!\3432=\302\025\232=\303\230\305<h\344\201<\014\326S\274\376>%=\205\033\342\274\016\270\271\275\302\014}=\t\346\231\273\273\361+<\337\342\314=\231\020\260\275\313@\232\273j\032\'\275\311\237\021<3\242\010>\213<\226=\314\346\222=Z8\330=\334\200\220;\2425?\275R\344\305\275\306\247e\274iE|\274x\304{\275\351x\002>bz\245<4\234\331\274\355c^\275\300\222\277;a\346\345\274\252\023)\275\255I%=\312j\341\274\010\341\005>\230\2711:\350\252\312\274\031\375\002\274\017\327m\2751\375\373<\261\347)=\231\276\267<\\\314\233\275|\213\272\275\355VZ\275\216\033\027>\010\346\206=\345T\240\274\236w\334\275\267\2316;x\357\\<\327Y\245\275\376\203\000\275\273h\273\273F}\255=\332h\352\274\307\221\217<j\377-=@\001\217=\037\363\272\274\001\345\010\274\014\266\345<\342U\323\275Jql;\360\323\013=\222\010\014==\034]<\250\003K:0\251\216\274Vv\341\274;\277-\275\332{\037\276K\346\032\273\005e\230<\230\220\024\2752mn={\371G=\223\223\036>\273\227\353\274 \234s=\030\262\025\276MK\350\275\320\273\231\275a\372\260\274ho\"=3\004\"=\330`\314<AF5\275\357@\230:\266\3000<\353\033\200\274\206\206\321<\224e\004>\347\356I\275\016^\366<\355/\251=nS\363\274\267j+\275\335*\263\273\356\325\217\275\031Is\275&\225\273=\333\342\273\275\223P:\275\232&W<\035\250Y<\357he<\250\000\001>L\232\254=\361\273d\275/\236\023\275y*\023\275\250<\202=M\002x\274O*\301\275\223\317s\275\306H\366;\026\'\311=\201d\027=\014;D\274\2568\'\275(\310\222\275\305\305\241\274\202\235\005<\316\316\272\273\371E\255\275<\351\r=\245C&\275\003\325\n>\376\275P=\203n\225\273FEE;\014\256<\276\326\257\221;4*\021\275F\361\322<Y\025\'=\016\345\024>\013\005l=\025g$\275\"i\205\274@\232\344;\374\301q\274e\3778\275\261\001\370<\261\302\366\274\363N\005\276\352\220\021=\023\330\322\275\003\3165\276a^M\275\275\367\366\275>\034\251\275\242\222[\275\375\235?=\037\336\270;V3\212=\3069C=\026.A\275\021\245>=\276\317\261<ph\333\275\300\212\275=Am\255\275\276Z\r\275\322\rT=\364\375Z\275\247\267\237\272qV\263\274\032\336\221\275Y\027B\275\314S|<\320\017\273<U\275\242\275\340\270P\275\211\030\354\275\314|v=Z@\273;\230\366\303\274\245\316\217\274Y\357\023=\340\331\035=\265\372\277=wm\031=J\261\t<+\245\271\275\231Y(\274\307r}\275\200\274\324\274\2011f\275Y\333\241\274.\177\332\272\342\001\024>\353\202g=_\034<=\210;\277\275m73\275\037-\222\275f\001\255=\301\004\343<9\203\346<\263\017\006>\310\356i<\027\322\254\273,.\031<\325\312U\273BZ\261=\022o\321<W\036\260=\014U\226\275\334\336\001\276\247/\223<\275\364\316=\253\221@\275\304\237n<\233\212\210<\020~\035=\212\342\240=\354\306\t\274\324\316\020=\235Qp\2759#\307\2730f\023;\365S\257\274\265\017{\274\341O\272\274\276\247\264<2\324&=K\270F<M\351j\275\223\020\016=|\210\206\274\226\360\266\2732\023\231=\031\307\002\274\332_\023>\272\300\307;\213D\230\274\253\267\260\273\256\316p=\375\205\274=iU\233\275\231\"\201\274\007\314\317\274X\375\253\275\312\363\210\275B8\017<{\277\265\273\236\217\243\273\344\201\317\275\034\352\177=\203e\225=\200?\371=\227\272\020\276\007\325R=k\302@=\323,\001\275\345\303\014=\257Cz<K`0<y\004\276\275\370|\212\273\272\374\356\273\246\307r\275\332\315\260<\307\204C\274\326)<\275\226\273\260<\315\352\037\275e\260A=\326M\340;\376\303\210\274\002\023\303\275\221\2464\275 P\212\2730\315\203=\212\314\r<\200m\336\275s\334\230\275\367\370\351:\355\336R=V\353\037\275Y\240\256\274\270\327/\274\035\376\306<GU\224<\357\206\321<t\342\303\275{\264:=g\000s\275C\337\245\275ak\236=\001\267\230=\275\360\007=\372Ju=\262Q\222\274\201\264\237\274\014\226`<\274(\210;\314J\344\275\263\314\361\275X\005(\275\275\372\223<\230b\204\275\236\215\033\276\330\002)\2754]\2529\315E\215<C\034x\275\017\213\240=k\004\220\274\361\rl\275f\010\332=\023\216\356=3\010}\274\244\344\n\273\253\275\304\274\273\024\203\274j*\225\275\211\020\"=\031\035R\271 \002\215\275x[\274\274]]Q=\267\240\244\275\021*\237=\307\232\373<{\205J\275\030Z\252\274=\301\257\274i\377\215=\304yd\275\301\236\020<\345\034\231<\203\263\271<+\355~\273\210\273\336\275\216\027\325\275=\376d\274\224z\212=q\260\321\274\356<\212=\227\354\255\274l\342\243=\306|v=|5s\274t\250\021\275\372W\307<z\001\243\275\212\205P=\023\247\257=\222\034D\2756\307g\274F\343\013\275\345]\263\274J\226B=\315)\266\275P!J\275\304\032\233\275\007\337\263\273u\017Y=&yQ\274x-L\274\277CQ=\276CY\275\327P\003>\253\315\313<\317\340\356<\0264\260;\032\253 <\252\010<=\270\253b\275\370\3745<\232\266\275\273\303@Y<L\005\300\274?\232\314=\\uZ=]\254\310=!_\315\275\277S\243<v\217\317<A\322\274=dxM=?M9\275\361f\267\275\034-M=v\336f=!\001\215=\211\301\373<\347\255\r=\232\206\007\275\351\255M=H\026\203\275\230\275T=\363\236\224=]j\265\275\016:\367<j\377f<J=L=a\270\302\275$L*\275q>k=\347wA=\304\007?<T\354\221\275u\037>\273\217j\010>\257\r\003<\036\253\003\275uP\374\274\257\304\360\274kr\304\274\026\350\246\275H\\\366=\212H\233\275Q\033\027\276!K\207=\037\t\224=\r\244\246\274\343\270\210<\310\256\003>P\276\343\273\211\210R\275\366\334\240\275\344\306\001=Y\246\300\274/\2272\275\313;\217<\035\327\322\275b\323\t\274N\210\250=\336Z\216\274=\203\253=\275x\336\273\326\326\014\275\360}\370<\300\351\232=\"\202\202=\377\r\227\275\350\266\237:@\002\352<RE+=9\024\307;U\341^=\345+\215=\006\231\302<\210VZ=_bL=\2576I=\372S)=\\O\t\275\322\227\226;\303\211\346=\336=\365;\211Vk\274)S\366=M\303\313=\'\211\235=;\204\233\274\025\003\023<\374\023\213\2752\345\\<:!Y=\253\273\377<\374\231`=\212\273\265=\300\215\016\276R\356\252\275&\364\024;\332\207\215\275\236\367s\274b\343\274\275\373\\\010=H\331\321<\216\243\234\275E\0028\275\313\2434\275E\273\003\276\346\207\010=G?i=\036a\213\274,7\220;\273\311j\275\334\264\013\273\376\033\233=,\314\014\275\211\332\201\275$L\034=\221m\244\275\305-\370\275\267d7;\336\314#>\356=\242\275\021(\3729\351;\363=\210\276\002=8\023(</\367\022\275\201\334\211\275^\201\203\275\342\261\237\275.1\212\275\031u\235=\276\354w\275}\007\253\275W\2165\275\257\303\220\274\304\312\221;\310\360\373<\373\017\257\275\"\326,\275\3439\270\273\314u\027<\005&\335<\033n\344\274\345r\007=\314\344\330<\316\336A\276\007(4\274\330\244\366\274\350\007\016>.\340\200\273w\007\350\275Rp\230=\242\177\322=\"_\353\273\341O\264\275\335\034\234\2748+_\275\022.\217=O\232\225\274\322\331\325;\315\034\267\275VF\325\274?5\202\275\221g\005\275\300\004g\275\230\177\214=\201\004\277=\265(T=@\025\224<R-\036\276\300\262\274\275\032C\022\274Ax\332=\367\2724\275<\354\270\275\275\000\224\275\020\260F\275e\003\211\274)\326s\275\021\367\346\274H\255\236;}j!\275\244d\355\275\317^S\275\375\271\007\276\316\366\353=A\240\237\274G},\274\250\376\200\275\024\335\004\275\374\216\204={-\317\274\335\333D;\2524\323=\021\t=\275\351\340\\:D\273\267=k@\321\273\321&K\273\027r\321\274;B\212;\365\200\210=\370k?;\230\211k=9\333\336\275\336\000\240=\343\014\306\273A\3470<\274\210?=\315cj=\022Z\330\275\000\016U\274@\r\267\273\220\246J\275\247q\216\275\361\305q\275\241\204\363\271H\n\t<\220\231J=\017j[\275\'\014D\274%p\025<\252\332\025=\017\354M\273\253@\t=w\333J\275\333\326\241\274<\324\031\275\262\237\371\275\307J\301<\217\232\024\276Q\241\'>\310\020\007:\314m*\275\215\332\270\274h\276\t\276\250}N=&\317\024\276\232\233_=<\017\201=)O\003>\037(\177\275c\332\r=)V\t\275\350\242W=\021e\325<\330\r\336<\261\261\010<z%\037=\364%,\273\347\2133<\"D\203=\212\375I=@\301T<\255\310\";\356\227\237=R\344\226=H_\033\274\017\376\262\275\021G\355\275v>\220\274\005C\022<W\022\274\275\331!?\275\202\220{=k\213(\2746\240\331\274q\332\267\275\003\",<\034I\320\275R\"\272=\354\242B\275\243\022;=zm]=W\341\037;e\265\273\275`\272\201=\206\005^\272\376\377i\275\2146%=x\224\323=Zn\t>\331\206B\274!\230\347=\246\345\024\275\n\036\261\274\022r\216=\352\303\r\275_Rc=\315Fr\275\256\346\341\274\361&\010=\374\371\242\275\234\347\271\274\221tS=\365\271\321=\347\032K=\255`\206\275I\004\007=\023\205\212=\377\331y<>#=<\252\n6=\307\327\000=\311],=\331\003\275\274Y\240\200\275p\350\024=\207\177\322=YI\265;d\nM;\267L@\276\375YG\274\330\007\312=-\000\347=$hi\274\255\221\367=Nr\336\274\363s\375\2732\346\'>T\330\351<\242\373\251=\316J$\274\312}6\273\237v\001=\202\005\270\275M\327?=\204\213\177=\315)}\274\212\277\266\275 \347\326\274\003\254\r\276\2400(\276\257\rS\275\256\225\340<t\260\370<\361\222\017\274\320\350h\275N1\235=\253c\314<\345\312\266<N8i=SP\212\273-,\325\275\021uZ<l\232\210\275\273\375\204<GN\016\275g\030D\274\272mp<;\013\311;\377\216\226\273pm\275\2740\252\024=\203\372 <\251\376r\271\240a\213=\203\342\220\273\225\010\220\274\207]\324\275r\245]=\n\'\030=\0059{\275\350\257F\275\216\345T=\021\320f=v\221\257\274n>\032\276\376\230\346=\272d)\275~v\356<\213\307\245\274Ps=\274\016wT;4@\245=!l\234=\232\254X=NXQ=J\344X=\212%\360\274\370\227\304\274\314-\237<\247\377\032<\222\013\361\275^i\215\275hC\001\276\'\353\017=\323\360&=\330o\237<L\342\304\273\003\324\335\274;\224$=\260\263\345=%\376\357<\002\352\272<\370Q\220<\n\030<\275o\017\021\275\227\342\227\275(:\336<\211w\352\275j\327\203<\273\372\034=\315\004\034\275\311\306\007\275\216w@\275\212c\273<\374\354\232=\345\236\212\274\335c\210\2758,\n\275\304/d=:\314X\275\374\266\026=W(\201\275\326\003\325<C3:\275\245\335S=\216E\025\275\303\200\321\274\313}x\275RJ\215\275\215V\233\274-`\350\274\334\355\216\275\373;\231=\364^\322=\231\370\202=\314\365\205\274\324\277\364;\036Y\226<I\237\374\274D\017\031=\366V\263\275]\354\013\275(\025\020\276+y\277\275\273\'\226:R\256\321<\270\351\030=\221\247G=k\223\377\274\351y\324;\036\025\232\275\313\213e\275\010\237\213=3\216\274\274W\314B=\010\314\333=\024\3766>\212\024\257\273\343\303\277\275\240\231r\274\374\206\233=\033\030\027=\253\030\035\275L \\\275h7\266\273\t\226\356\275\261\230\254=\271\232?=\321d\233=\\X\235=\216\304\032\273\227\023X<av\237=\266\2321<\362\315\236=\212\333\226\274rR\252\275`\316\315;\036\345g\275-\251\247\275\0178\222=F9\304\275Pd\255;T\\\224\275\272!\353=\224\334A\275\377\257\347\274\330\241\233<E\014\323\274\362\222\347;\207_u=S\037\001\275Mc\305\275\t\032\214\275\312\364\273\274\014\343*\273\265\270\226\275\000\304\000\275O;6\275\205\255,\275\374\265\003\275\365\203\252\274\352\257\373<~\262\240=\321@I\274\377\334\370\274D\310\300<\314uV<\005\014,\275{\312\342;\223CG<H\033\256\275\016\354t=ou\336\274\232\324\263\275L\020E=\345\355\013\276\027\0073<?\303\312<\354\255\017\275\023\312 >fTe;\214.\262\275\366\014G\274\032\237\225\274\365\313Q\275\366\346\350\275\357> <\020\027\"\2755L\272=\343j\220=\267\236\t=\331\305R=V\237G>\265t\200;\353\237\361;\215B\241\275}(\350\272\235R\033=d\334\354\274Zcq\275\'\256W\275\347\017\234=~\257\231<z&\276;&\343\276= +K<\002\203\013\275\236\336\206\275;}\261\275\243\326\343;c\234R<\327\277?\276TU\310\275\261\023^=\3049\253\275-\375\001=\375\273\026\276\227l\200\275\266\372\237\275\2567\300\273[\2310=\305\215\221<gR\253<\311J]<Q\013\023<F3\223\275A\251\327;\340\004\233=+C\264\275\305\027%\272\230\326A\274^\221C\275S*\342\275\2468~=?K+\274zxn\2740\'y;\004^\211\275R\244\322\274\306O\203\275-tv=\003\366w=\266\377\215\275\004U\354=(\013\200\273^\347S\275\201\311\322;\362\330d\275\344\327G=\014A\014\271\024\t\250\274\3520\264\275\241\034\330=\022\220\376\275\352\r\226\274/8\226;\027\327\224\275\301\n\273\274\270\267\334\275\244\252\355<c\3248\273\227\241\336;J\014S=z\237G=s\241\331=bMm=Q\262\265\273pDp\275\334_\001>\246\320\266\275\022h\332\274\254\265d=1R/\275fc\344=\261\240\331\273\373~\027\274f%\357=\337\336|\273\216\317:\275\3568E\275\201/\257\274\013\303\021\275\232\010*\275B\264\330<c\265u<\325Y\226\274\260\025.\275\357\362\026=\001*\240\274\355\331@=\376^\017=\017\253E<\220\252\245=\214\020^=\314v\224\275\314!\347<\324l\323\275A\267\207\275V]\206=\331\334\245\275\236\336\025<Bh\216<\316\2664<\247c\306;(Q\t\273\231\277\206=)\0046=\360\326\255<\310\027\263\2734\034\342;\313\267b\275\277\001\245\274\273\352+\275T\205\325\275}\014\276\274 \034\234\274%a\354\274*o\020<\303\336\250\274\303\275{\275*8]\274\323\240,=9\310C>\312\300\300\275\315\330F=y\026\037=\340>)=\327\312\270\275\265\305\313\274\032C\313\273,\032\267<P\326e\274\220\324\374\274\2207\345\274O\247:\273\010\"\313<\201\353\231\275\021|\346\275\206s\321\273t\227\226=\030F\254=#\264\277=\233\375\021<\014\242P<:V\213\2742A\213\275]\274\227\275q\263\263\275\327\366f\275\271\267\\\275\201v\270=\266\352\005>\316\316\022\274tG\r>\204\324+\275 \241\027>a/\344<\205!\316=\232\322\360;\014\002!<0\006\223=\367&\364;\347\355\261\275\277\334\310;\221V\t;\207\n\202\275B\225\363;f\256\220=\036L\336=\206(\237<\236$\237<\036\370\234\275\350\243\031\274\336\026E\275\264\376\372=\265\344\224=\363i\334\274\251\000\r=\214\305\r\275\032YY\275X\034=\274\366\361n=?l\201\275\232\265G<z>\317<s\303\325<\317\352\230<\2057\\<F\330\204=\334\233V\273Ki0\274y\000\333\274\265\256\231\275dP\254\275\346\254\251<\307\177\344\275~?j\275\001JM=\251\310\017=\303W\266;q\356\233=!C\214<\257,\320<\336:\311\274\303\271\262\275e\326[=\005\'\220\275\3747\226<\274U;\274jW\267<\205b1=\260\200\275:\232\247\014\276\373\210K\275\254\362\236<\001U\350\274\002\233\325\273D\225\223\275\234\007@\276\202|\276\275U\325\312\275\253f\237\2739\230\325\274)\210\303\274\243{^\275\333fL=\016o\231=\233\013\320=\250\277!;\013s\200\275l\304\216\275_V\020<Z\366\350=\352\034\355<t\263\\\275\323\366\225\275\225\342A<\n\242\200=ly\256\275\245\276\177;#yw=\351\207\217=KG\333=\256j\347\274\226\023\003\276\375b\375\274\177}\341\274\225\"\277=_&\320\275\330\251\240\275\371]\205\275f\307\366\274\227\013\007\275\333\n\016\275\250\225\005=\014I&\275#\216\254\275\2554\037<\326D\210=\235W\261\274\356\353\211\275\203QU\274G\362%>\021\245\224\275\245K\252=\275\223+=\276\206A<\246\305L\275\002\014\264<\2738\205=\010o\247=\250C\351\275\017$#\275RQ\036\275\013\253\211=9Ie\275d\221\342\274G\305\006<\302\236\207\275\346\302\261=\032$\350=\263\220\014;\202\016\267=\017\276O\274\214\264\273\274K\317 =/ M=\327>\021=b^\013\276\245\251L=\255\252\250=\2564\214=8\356\202\275\016)\261=0\314\350\275\321T\323\274\305V\302<\017\205D=K^\372;\256\377\310\274\262\362\236=V\0066<\227Sz;\023$\216\274k\373\037\2745\256J\2750\030I=\343\323]\275\253+0=\221\257I=f*\236<\273\227e\275\177\200\267;\246\027\275\274\341M\342\274\333\032b=[.\211=uV\310<1\034A\273\2062\335=r\3673\274fz\274\274\367\341\333;\304\000\261=\034\346\035\275\246\300.\275\r\362[\274\244Y\252=\215\354o\273)DV\275\300^\"<\310p\202\275i\006\n<\276\204{\274d\305\315\273\240\250\216\275\312r\310<cI\200=\257k\265=\373\030\264\274\352B\321\275]\034\334\275\002(\022\275b\267%<\353\200\0348\317\232\023\276\234\302\023\274\3535}=-\327\204\274\251\333?<](\373\273d\220\260<\267?\033=\330\027\"\275#\274y=\330\254\245=\334/s=\212\350\225\274n\370y:\366\375\247<\327\342?\275\005?h\274\024&\341<\214\262U=\234\":\274\300\236\027\276\317\014\317\274\000E\017;\005\3020\2754|\204<\0342\337<\tW\010>\320\261\237\275\nd\324=\351\307Z=\224u\002\275\035\373\336\274p\211u;\261\3775=\3559\024\274<\246\352=\270`\263=X\020\226=\275\302\344=\307Z\021=\t!\376\274\336h\266=Pb\224<9\013K=\306\025R\272\216\210-\275\\F>\274\301\260\334\274\204C\275\2740\333\031\276\337\213\223\275#\371s=\213\330\301\275LM\336\275u\301\355=\225\352V\274\201\352\031=\030L\034=\212\355\211\275\363\210\t=\331\242C\276\356\001k\275\311\347\005=\004\2218=\244\217\243<x\312U=&\303A=C\343\027\276\212\212\256\275a\301\217=2%T\274\3615\227=\021i;\275\024\212z\274d\325\013\276j\264\214\275@3\263\275\345\201\010\275\210\307\200=\273u\207=&\214r\274>]&\275@{\216\275\354p\226\275\310\026\360<\376\203\005\275P\274\344\274\226\340\352\275Ji\n<%{P\275\275:\270:\210\323\024<W[\200=\225G\327\272}\216,<\225\355\224\274\024\323\225<\323\360I=\321\227r\275\265W\262\274\260\257\362=!\353?=\3627\243\271\347\027z;q\230[\275(#\214=\2337\237\272=\025\032=\241\342\014=\217\267\316\274c\341\352<\254c\003\274\352\1778=\342\274\003=5\235O\275s\023[\2755\305?=n\254\'\275q\214\003\275\264\202\203\275!\nL=\270Y\225\275\022\260\"=\3572\207<\244\277a=\322(\243<\273\347\356<v4\233\274Pr;\275^\220i=W\252\310\275\345\204\252\274\254\313\214=,\007Z\275\366\301E=\332\322\216=Zg\n\276\376\276\242\274\325\277\246\275\237\250\270=\314\262\203=\317\255\347<`\027b=\215\213\223<\212\223\003\274\333P\322\275\314\275h\275\220\321\362\274\002zp\275\022+3=\375\364\200\275\2573\241=\006\333\242\275\303~d=\004\350\363\275U\246\326<-@i\275\032\017\016=\014\301\321=eG\211=\242v\032=\0224\235\275v\234\251\274\360\201\031=H\374\242\274i\275\264=\242u\240=!\025b\275jiQ=t\247\216\275\305a\271=\227\0169\276\234\266\232\275\207H<\275\002\354\311=\317\207\002\276=\352-=C\017\"=Sm\206<@\340\010<]C\202\275m\004\250=\335\317\217\274rP1=t\207\242\273i\277\004\275y\304\200\275\272|\204\275\213\327\037=\327E|<\005t\220=\244~\252\274A\373\243=?v\212\275X\377\017\275\201}f\275\360T~\274\036C\026=tTT\275\010~~\275\217\343k\274\375\344\261\274\263\030.\275\032\033\227=U\'\314<\276F3<\'\203\300=\373}\356<\301~\361\274\232\225\223=\004\017\007>\260\335\334\275(\0328=\210\211\212=\342\323\305\275@\255\264\273\206O\262\274&|b\275\324\264C\275t\210\202=\254\276\351<\3202\362<\t\211\200\274\354\222\234\275S3k\275b\021!=uo\226=\374\001\033\276\310\007\221<\324\031#\275\007\026G\273Wr)\275\351\214\304\273n\245\325\274\356kr\2749\231\202=s \252\275\371\016\323:\372\334\267\275z\241P=rG!;\330o\222=HS\t;\200\302\n\276\217\022\257\274\321\2062=\223\207}\275V)\325<D\025\310\275\235\260Z=\005(-=\330\307\231;\354\0316\275\242\365\344<\010\034{\275p\342k=\312\313\334\2749i%\276\237 \344\275\264N\372:\361#J\275\313v*=\346N\027<\243\317\227=\3345\022;\006\256};\240\255\374\275\010\020\303<\354At\275\341\351\373\2736U\210=\202\024\244=GY\223=Y\277\021>\236\370\340=\0021\251=\246\302\220\275\250\033\200<uR\235\274\352\214~\275\332p?>\350\364\255=\352\036\r\276@N\025\274\272\243Q\275\270\336\224\275X\220R< \235\351;\'I\263\273\226\227\277=\354\324\010\275\037\226\033>v\214\250=\005\340T\275\324\013\016>\206}\242<\3130\203=m\013\330<\231\231N=\321\222\271<\372\211y\275\264\357,\275\354-<==\267u=$\305\373\274\004tB=<\353\026\275kf!<B\237\202\2748lR\274\036\010\354\274\316\274\275\273\034r\033=\300\235\343\275dn\355\271\347\205\004<iTm\274\2242\r=\301:\317\275\024Dc\275\217\206\264;\352\016\244\275\"\306\303=o\271\204\275T<.=\\\001\320\2758\306*=4\255\346\273\010K\031<.\'\247<\334\020\303\274\177\221\314\273O\324\315=w\211\305\275\3358\356\2757G]<3y\273;\"\310\250\275y\200\261<\020\004\220\275\371c0\275\276I\303<\277\2106<\027\2445=\277\333%\275\t\013\005\274\016\301o=o<\321=\251\020$\273\310\013\271=Z\025P=\320\255\200\274\023\024\232\274\313.\311\274\261z\206;|\235\212=|\003\020\276X^\n=h\332\021\276H\236l\275-Ky<\360?\277\275gS\033<\276p\271\274}2`;}\312\013=\025\367\237<l8\226;\212/\245\273\314$#;\236t\034\275\242\315\204=\\\027]=\304\255\r\275\326\334\246\275Lx2=sKn\273\203\010\025=f\2510\275\312\024\300=/Z\221\275!\202\220=\020\373\">z\310\211=\242\n \275\030\212\351;(\343\250<?\243\253\271B? =\224\273\244<p|X\273\017\375\235=\032J\301\274h}\261=\3258\322\274\006\244\304\274\270#\255\274!\354C<\302\231\345;r3q<[\211\210<X\301\237=v\364\320<UG\316=X2\315\274>`\010\274\274\214\260\275\217\305\035=\245\251\242\275\211Ka\275;\035\r=\264\361d\275z\035\232<T\001\361=\333N\351<\344\356\215\275\033)\255\273@\263X=\217\003\225\274\342\357\021\274C\257\347\275*k\023\2747\240\037\275\2361\023\274\265\273\234<\262\026\035=\037D\316=\001;\211\275\257\303\256=\243\275\"=\230\253+>]\266\235\275\247\334\274=\321D\216\275\367\354+=\004\3032=\312\377\002\275\021\337\032<\214\355\324=\223l\024=\002\351\324\274\230a\251\274\261u\204=\335l4<B\274\366\274\342Bw\274`I\007=\251\001\007\275\234\365\262=\277\025,=\231\257\251<\275\217\313\275dd\033\274\246\305,\276\214\342>\276\260\317=\275\354\371\032;r\335\017=\276r\227\273~\022\322;\266:\320<{\371\235\274?\270\235\275\332Hx\275\212\244\352<S\312\220=\326\315_\275\t\217\343\275\357\331T\275\000\r\n\276\270\304\024\275\232\302C\275\345\001\212<\234=\211<^\252\211\275\373\317\343\273\332$\202=\202\314\244\275|\347\234\275\235\027v=n\342\013\275n\t\t\275\232>G=g\312\016>\324\3076<\311\321\327<I?)=\334\365~\275\375\276u\275\225\362\271\275Cu\220\275\222\201\343\275\262\274\367\274\263U\034\275]\242\006\274\027\227\212\273\352\036\375\273\361\000\246=\252G\231\274\206\274L=\037\336,=\250\210A\275\020\370\265=2\344\340;\225\217\032=\267\354X<z\371Q=/\214\336<5\0064=2\210O=\275u\257\274\353(\007\273\360_h=TF\177=I<>\275\347E\205=A\273_\272x\263\270\273\347\275\200<\370I\330\274+\265\305=\210\365\340=\331\207\004=\273_\240\274\351\270\223\274\031\205A\2756e\313=\335=\350\275\221(\303<YMw\273\270\375Q=\332\236\221\275P\2640<\321x4\275\372\335\233\275\326)\205<\255\354\305\274\322\334\275\274\277\"n\274\rk\363<\343\277,=\304r3<a\234\014=\331\244\253\275;\360\262=\031\364\025=\332\346\267\275kwO=\027h\316\2725Q4;JmV\275\376\017J\275\201\263\255\274\221\200G=\240\255\255=E\227\002>\345\212-\275\352o \275x\312\200=\223\320\r\2751n\354\275\315\2604\275d\005\257\275.\006\331=\005\253\307=\005\254\t>\r\263<\273\023\377\200=\007\301\207=a\276\213\274\301\\\334<?\326g=`F\216=5\020\036\274\226\204\204\275)\247\212\275M\301\371=}\331m<\362!\326\275d\203\252\274\333\354q\275\207D2=4|\271=<\354\326\273\033\006\237\274\210\222\222=\313\257\006\275\223\020\004\276\356\017\325\273\350\034!<*?\375\275c\250\033>.\341U\275\333\343\021\274\300V\311=\017d\237<=v\300=\235\324\021\276O\262L<{\272\212\275z=\227<x\351\372<\207\037\207\275\354O\304\275}\213p=;\347\033\275J\264\302=p\224\031\275\205~\017=cip\275\235\377\341\274I(G\2752\307v<\242\327\367;\027\342[\271\000\315\244=@\242\021>T\351\334<\356\035\241\275\020\370\370\274\341\037\257\275\270\310\265\274\375\023\306\274\222\260z\275\217C\252<\311C\352<c{\316<\246O\227\275q\260$=\"\267\334\274Y\035i=\002m\243=\242\333\257\275\301\335\007\275\030\307\030\275\365\235\322:\362\235\217=\311\300G>\rd\204\275\211\356\343<\363\243\016>\275Aa\275P\274\221\275X\007\212\275L\270\255<U\372H<\207]\232\275\\\035\263\275@\177\363\272\364F\376\273\351tG\275T\007\030=\2316\022;]\224\222\275\200\204\347\274\302\025\246\275O\220!\275\336F\236<S\345\356<\372\001\373<\2200\265;\203\342\247=\026d\334=\256\013\202<8Z\351<\240\371\023\276O\232\024=\335\347s\275:\214\235\274x\221;=\207`^\275sP\311\275\337\347\332=c\347\240\273\3179u=\305\332t\275\0206\227\274\\LL=Z\337+\275\321\036)\274\273\316\351\274\r5\220=B\371\264<k\032 =\255\205\035<\002K \275BN6>S\366\'\275\300\224B\275\205\002\251\275\026 \026\275\311\246\027\275\347^6\2725\211\224\275\375\327\235\275\362`\205=\260\006\210\275\031b\356;\201\375\323=K\214\303\275.WC>\\\030\357\275\002\327\010<\366\245\017\275\275\021\233\273<\244r\273A\334\272\275y\241\356\274\333\335\210\274\026\242\246\274\255\266\343\275E\010W<\363\230B\275]\001,\275\305\312\330\275\"\021\205<S\231$\275\025\367q<\213\360J;\350P1=G\024\007\275\356\211\377\275\036\017\204\274M\270\321<1\250,\275\272\306\345=\217j\237\274\302o\243\2741\037S\275*\014\243\274\337\374\007\276L\224\351;\014\373\240<3{\037=_T\007=\271\326>\275\205Q\321=\364j\207=\013\302\273=n\"\243<\370\204\030\274\335y.\274\340\001\263;\315\024\314=\254\305\221\275\212\232\260=\330\3706\275\212\261\255<\023\225\005=\333\333T\273\325\226\205=%\260\n\276\272\334\"\274\344\265\003\275\\\314\313=\312\265?\274nT\230\275&g\361\2749\371\006\274\204\237<=MW\213<\204:\263=\036\340@=\350\013\220\275\024\257s=\322 \350\274\320F\364\274Wl\234<\202C)\275\270\356\"\275R\206\372<#\246\365<\205\265\252<\346S!=\303\n\330\273\200\215\014\275mf\265<\236\314`<\323\025\"\275oq\267\274\344\351\020<Az\223\274,\331E=\234\273&\276\017+\336\274a\347|\275S\245\251=\226G\205\273\177;\225\274\374\310D=\240as\275\000\'\362<\350\275\367\273\241\225\010=\0309\351\273\344\2645=\371&2:hf\276<\306\215$>)\217\274\275\301TO=\000\353\014\276\220S\036\275\342\2166\275\246\000\211=\036\313l\275\025\353\246\274\'\203q<:\'\262=Z\251m\274w\307\277\275&\316\004=7\010\275\273\005\035E\275\250`\206<)\327<\274\201\024l\275\1777\220\274\350\376\264=\007\223\307;\270\240\221\275)\262$==\264\340<s9\265=\260\277\262\275?\203\330<\333\237~\275pdc=\244\345\264\275x\245\t\275\000\221\353<o\320\207\274gS\244<R\333\"\276\226\200\223=\254b\243=\010\342\024\2759\375\306\275\003\374\264<X\n\002=\016\330n=\220\326v\275\344\200.\275\267\265\231\275\2236\017=\275x\247\275F%\377<J\303\003\273H\257\031\275\225*\235=[E*\276\235\315n\275\222\017\252\275v>\205\275\235\251\230<\371\215\376<\206\307\203=\370\346\230<\013\032.\275\031\266 \275\302|\305<\363\023\265\274ee\263\275\333\"\202=\324\321\272<\335!\004\2756\236j\274\364\376\307\274\265**=^\333J\275iuf\275K\025c<\325\026\371<\204=A=\313\225\256=\224c\017<\353\323\273<J\200\316;F\300\371\273\t\']=\365\361\035==\330`\275\333\374\201\274\037Zq\275U\342\375<kN\014<\001\365\361\274\210\313V=CPX\275j\260\342=\005\177d=e[\257=t\3263\2756{\210\272`\365\212\274i_\271\273n\013\251\275Z]t\275jK\321\275T\016\210\275\313G\212=\335U\243<\003N[\275^\000\207\275m\024\031\275\304\000(\274\211Y\236\274\016r\315\274\354\377\216;fc]:JG\302\274\265\300g<8\352\360\274\"\255:\275\006s\262\275\317\177\303<7m\016\275\372\251\307=&\357c\274w\217s\275G\020\025=\020\032\205;(\256\353<u$\336<\312:\014\275\2676\036=\315\264\010>,Q\002=\0004z\275.\232~\274K\000\227=\337\n\302=pV\024\276\rJL\274N\257\\=X\031\354;P\350\2619\307\245\025<\276c\025>vr\377<\333\326\272\274\020\363\270:Y z=5\021\304<\256u\n=#\3525\276cm\204\275$\367\312<\322\367~\275)*\227<\210\217\260<\302;=>\216\247\\=\200\325\263\275;\222\332<\033\374\202=\314f\236=X`\356=^\2249\275\033\007E\275}\342n=\304>\261=\350:\037\2759\nR=0)\024<}\367n\275 O\225\2749\343\310=\232Y\201<\304\270\177\275\255\"\331\275\351\307\245=\330\225\t\276\306\010[\275\227\3167\275\361\335\315\275\257\035\357=H\232\017\275\363RV\275\336\302d=\363\306\021\274)\231\217\275\367[H\275\244\264\003<\223k\256=\314\"\300\274\031\230*\275\372\240\245\275\223E\322<\210nH\275\037\246F=;\251\241<F\360>\276w~\206\275\327\231O\275r<\277\275\246Y*\273\031$(\276\206\036O\275\211\274e\275/\370\367\274\000\266\357<\335\362\337=p2\020\274b\216\370\275(\033\262=\204!*=\313\250\025\274y\023x=\241\273\362\275\357\210\022=\311\352>\274\267\304V=\014\\\356=\025Q\001\275E\270\200:u%\353=\0041f=\314[\t<c\331\242\2752\2202=\347\231\342=F\201\220\274A\024\244\275\231v\302\275\344\264i=\231\310\r=S\236\207\275\275\266\222<\314^\275=G\307e=\204\326\200=\337L\200\275$w\205<2N\212;\031\227\034\274\311Y|=\2022\001=4\277\213\274\013\373a\275x\320\001=\2558$<\032\265\273\274\353\211\355\273\325\373\257=\252\225K=\010\200\004>\257\254\032\275z\342\022\276\276\000\234\273\226,-=\277\2712<C\304\275<\021\320\324\2758.\224<\316>\022\275B\357\217\275\203\310\346=\335\232\273\2759\311@\275\023-\255<f\004\325\274\003\250\367;\267\026\370\274\231\026\006\273Kd\202<&R\203\275\2135b\275\214D\334<\261\375\377\273\276[\370\275WB\306<(\336s\275r\\H=\330\006\270;\305\235\320\273\271\215\265<\001\333\326=\365\226\216\274\204\222a\275y\271\334\274\204I\237\274\256\250\010<\007-Q\275\\B\236\275tv\273\273\313\364\364=\263\231\277\272\003\321\213\275`\374\025<\243\006U=\375\2425\276?\214\217\275\037G\213\274\322<\"\274l\017\022\275>5\245=(S\020<\021y.=\030\364\n=\002\350S\275/\225><\3539\220\274t\322\2239\2673\210<\223s\004\276\233d\274\274k\003\333=\312a\311:\374s\234=\307\206\303=\030\307\016>T\0177<b\251A=A\350+\275:\352\014=l\354\376<U\335%<\010\374\274\275 \366-\275\367\356Z\275~@1\274\254\376\243\273\227\377\177=i\245r=\240\274\256;!s\027<\307\261\201\273\'\007\362\274v\377\326\275\251D\354\275\003z\n=* *=\333=\274\274\205\231(\275\237\314\271\275\364\325 \274\304k5\275V\253\307=\252J\302\2754|\377\275\004\200\311<\265\263a\275\203\372\341\274T\255\230=\314h\005\273\266\334\004\274\303\364\202\275\244H\332\273\321\244a=Yo\025\275H\021L\275\261*\371\275\230\353\311\275m\367\035\274\035\321c<`\223c=^;\344\2754\222\255;\257\3632\275\370\tQ=U,\321=\\/\247=\373&\267=\337\244O\274\025\226\233\275V\351Q\275u\256L;\263\332\266\274|>\322=\031\254m=\007e\276;\236\211\300\275\376\351\220\275bo\246\274\2206\336\275\314\241\317<.\313\315\275\205K\261<\245\004\222\275x\276\304=\256\330\317=\360\2314\275\370\374\241\275\304\301\204<\234\032\230\274w\264\336<\337\260\004= T\330<\354\343\363<\'\260\217\274s\300\257\2747#\211=\276\026\234<#\336D\275EKF=x[\354<+\204A\276\031\'\025\275\240!\211\275\353\020(\275}\241\013=[%\273\274\342&\216=/Q\254\275\nJ\203\274\207!\232;\030\276\315<\307\2123=\255T\352<\235_\234=\036\202\243\275}\225\361\274\244/\025=IH\333;\232~\354<\356ZS=\266\371\262=\371n\310;\203\256\200\274jxZ\275\253\275\"<\312\017u<\327\273\225=Y\2655>\002O\303;\302\t\'<\r\255\334<\334v2=x7\014\276p`a=\306\312J\275\216\350\257\275d\0142=\322\315A\275\213~\234\274\025=\376<\265\363\243<\325\256\311\275}\032\256\275\366\233\211=\264\0375=E/c\275\317\272\235\2749\310\265\275\367;\341\274\272\253\300\274\351^\027>\210\303\216\275\372WE\275xa\033\276\214\327*<B|\240\275\217\201\374=\252\'0=0*\026\275\007\330\216=i\372o\275P;\363<\020~\215\275X\252\263\275\357\207\003>)w\306\275o\261R=8\211t;\211\314_=\266[\206=\305h\356\275jBn=\252\205\247\274w\343\203\275\362\302\233<3.\346\274\240@\201<\245!T\275\013\326\204\274\333K7=\244\346\203<aJ\302=\311\277\301=\020\247\034\275\001\017a\275\\\337\203\275\246\275\370\274\262Y\200\275(\025\311\274P@\260\274\356Wd\275\335\370\313\274\310B\n\276W\207\263\275\035bb=\355\333D=\267\322Q\274\301;,\275B\251\231=r\302.<v{\260\275e/D=\024\001\022\275\227\036\346<\316m\203\272\237\311\232\275\022\330\345\274?A\215<<\007\242=J\205\210\274Q\233\265\2738\304\315<\300\373\213\274\022\240\213<>\214;\274)E\211\275\350^\220=\230\302\335;E\363\003>\360\017\345\2745\377\225=\221\240E\275\232n\354;\244\320\201\275\265\314J\274\317\213\"\276\254\241\025=\364\307\335\274Z]\332\274<\032\322<\247\3304\275\372\332\377\273\203\212\341<\334U\251;c0q<\364\006\345\274j{G=$#\234\2755\243\230<\215\340\027=\005\327\275\273\227p\255\274\312\352\334<\225H];\263.\315<\005\360\245<\342>\317=mh9\274\225x\251\275\035\344\"=X;V=~#\230\275y\207\200;vZ\266;=\025h=\177\275\346=\333\020\275\275=\315\017>Q\341\004=Y\265\"\274\340=3\276\230;R<\235G\331<Lo+\275\260>\263=C\222\372<\0140\003\275\253$<\2752\367e\275\314\340J=,\2125<\031\212[<\000,~\274:^[<\213\252\332<\352\263\262\275\343\222v\274a\311\216\275\001\310\002\276\242\240\224\275\2170\263\274\"\304\351=r\324\210=4\313\304=\333]\305<\270\301\014\276\346t\013=Y\202\005=\225\366\217=\021k:<}\304\343<\334x\262=p\326R\275H\221\351<\215\342x\275Q\265\232\274\355\270\264=\212\246\035\274\377\260\215=\204\230\267=7km<u\210\244\275\234,W=v?\236<P7U=}\251\004=\262\004M=\351\203\n<$c\323\274\276?\224;f\237\275<\307\317\376=K\330X\274\222D\300\270\335\303\031\275*/\034=\032\030\320<o\023\037=\270\212e\275\026\022Q<\303\007\033=A\025\004\275\033x\300<\274\347\300;\314.\311<\262\247\202\275n]\224=@\341Q=\276\221l\275\'\242\331<\234\333\t><m\350\275\337\013\330\275\354^?=\033#\260=\326\224\235\275S\000\267=w\371\220=\\\256j=\"]\237\275\336\277b<\343z\220\274}\204y\273m\013\200=\312\214\313\275w\214\202\275\254\231\333<S\360\341\274\263e\223=\034\236;\275\200\026\246;\2077%<xH\203<\240\332(\272\245yx\275\200+\004=U@\271=\326*\241\275K\025\t>\002\276\314\274\346w!\274N\270\306;-1\300=\334\037[=\036\"W\275\245\276\003\276^\302\260\275g\002b\274-\224\274<\'\302E=c\250\243\273$\r\322\275h\322\251\274\263\332\215<\242\234\220\273\224\247\222\274\232\317\223\275\341\353\245\275g\361\301\275\013\350\273<b\273\275\273\036\356{<\205\331J<\340\210\333\2734\213\273\275\340\375W\275\342T\n>\231\270\275<p\263\370<\231_\224\275\306\262\303=\241\224\320\275\000\034K=\373\313\207\275p^.=\013x\251\274\232\335\253\274\3316\312<\220[\360\275[e\331=_\316\253=o\377w\275\205\352\210\273c\333\234\274\200\331?=\026s\347<\332\242s\2743C\276<j\203\263<N\265U<+\366\264\275\275\256\226=A\311h\275\303\242\261\275p7\217\275(L\332\2759\331\231;\315!\233\275\267\025\035\276\313\275\250\274\2702?=\345\360\272\274\266\202\257\274\365\302\372<\364\355\264<8P3=\234s\316=u\352#=x\204\350=\222\341\244\275\314V)\276u\335\240\274\000\367\362\275jN\272=\335z\n\276\215\213\177=\\v\034\275\363\277a=H\036\001=O\363\365=~;&\2751^4;\376\031\216==\036 \275\250\243\302\273)\372f\274HN\026\275\341\201\266=\264\255\376<\225*\213\275I\222\030=^\230V=\316\017G\275\006\265\244<\266\025H=\304\246\322\275\362\024b\275\022\004\336\273?\244W=`-k=:]\337<\004\025\223=m\367\245=\214\323\231<\233\376\026>\217A\031=RT:;\023\306*<-a\303\274\r\377\356<\034\027\004>\262\000(\276SV\244\274[\312\001\275l\310(;\365\'\177<`d6\275`]C\275mh\370=\213\276\000\276\206]\206=\'\273\205\275\341\025.\274U\324G\2734\310\177\275\231\324F\275\227i\306\275\244#\222\275\305\357\212=\t\274\010=\242\343{<Q\303\273=f\304\037\275\270n\270;?3\324=e:.\2747\223\226=_\360\033\275\010\230\201=i\324&\275\026\211\360\274\3067L\275\221w\312<\332\000\255\275\240AB=\366w7<\354\331$\275\205\356\254</\002y:\224\233C=\017\200\016=\270\243|\275\004\353r\275\327.C\275>/%<\350.\350<\376;\017<\033\356\233\275\014\243\231\275P\236\303<x:\253;\335\217#\275l\t>\274\021\233\332<\014\311,=\027\306\252\274L\273\347\274\226\222K\275,\201w\276Z\377\022=\310\325\207\275\302\364\242<\231y\326:\306\022\230<\353f\352=\0000\305\275\334\345\230\274\224W\376;\266u\262<\346\344\033\275\036\324\334\274]~\312=\321\345N=\360%\247<\314{r9\337\345\245\275\334\231\224=\347\254 =e\317\213\275Dmw\275\260&>=I\024\371\275\246\315\034\274\362M\314=+~\270<K=6\275\262\231.<9]G\275\3422\365=\222k\014;.\261\312\275\337#\\\274\311/\216<\257/\242\274\216e4;\317\204\237;`$\306\274B\346\272\274\201\306W\273Ms\276=\232\357$=5+-\274\366\"\201\275\032\177\264\275\274e@=\311\030a=\274\031\326\274\360\304v\275\304\303L=AUu\274|a)=\233a\323\274<\300J=\247\247\234<\t:\301\274\r.4\275\2339\300\273\304\006\001=D\244\023\275\236\326\003\275\216\r#\274\322\342\036<\264\332T\274\247\273\321<h\225\326\275\315\270\037\275\327\256D\275a\\\007=\035\275\005=:\330{\275\321\023\326\275`\273\032<\\\2448=T\330\203\274?\263(=\016<K\275\347\211\241\274I\016^<$Zw\274\006\037^=x\003\244;\357\002|=\010\207a=\313\331\331=\203\016\022\274\001=\035=\352`:=\352\002\365\275\247\342\221<\355\256\037=\242\314\246=\003k\317<q]\303\275G0\277<\220\224\211=J\336\345=\242/\244\275h\247\221=\031\366p\2752I\033=\256\006l<E1-\275\001\036\226\275\001G\232=\n\261\032=\0035\233=\013K\271\274\357\226\273\275\221+\\\275\005\244\305=\013\366\006;\270\310[=\001\363m=\rJ\240\274I=\377;\270\205c=h\245\241\274[\010\n\274|M\301\275\017i\313<1\304\226\275H\242;=\tl-\276\006i\225<\001\334\270\274\264\230\223;4*#<\270\352_\275\315\316F\275N\007_=\247\277\231<\323o\"=E\004z\275)z\317\275\371\217\034=X\227c\275\225.\256\275\225\032\246=\177\3045\273\000\331E\276\354TQ\275%\267\343\274\022R\257\274\316\234f<( \017>\241\221\242\275\367\266\222=\250\204\375\275\305\025\264<\023\264c\275\232\2676\273\010\255U=\345i\231\274\221\310\255=\360 T\275/\301[=\211\367\007\276\350T^\275T\240W=\323\307\256=\270\222\264=\266#\245=\310p\312=\260\245\217=Boj=\206\211\313\274\202\324V=\277\3438=\204\234\236\275\n\217\242=\251v\013\275\323\202\'\274k\260+>q;\036=E.\202=\3266m=C\310\247=\\(#\275#\233z\274`\230\347\274X\323\236\274\324a\205\273\213\211\203=\037\366I=\001\325\206<L\\\006\274\300\003\362\274\257\240d=b\364\345;\303\316&\273\2039\227=\"\030\370=\212\350\230=t\307\332\273\305\010;=\357Tf\275!u\320\274-.O\275\356\230\343\275\346\351\017\275\345Q~\273\030\007\327<\3759\n<\340?\215\274w\255\r<\307\315\331\274!x\317\274/4\026\272\014\370\361;g\300\324\273\315\201\317=\206\273t<F\201~=\3726\271<y\'\t=L\347\275=|\202\341\274\227\t\010\275\177\354\365\275\342\240\t=\017\354I=\225\267~\275\233\026\\\273\373\230@\276\306\031<<\223X\225=0\325F=a;\320=\203\237\254\275\006\315&:\336\351\217=\'\301\021=\030\020\017>)D\261\275\361J\330;\r\253\377\2758w\314=]Q\203\2759\024\212=\303\rf=\002\317\247\274\303\372\324\274\024\260\230\274\014\270\203;u\317.=\350<\241;}UV=\267\022\005<OQ\274=\211\343\360\274\034\002\201\275|Q\224=1\002\001:\226\236L;$6\245=5u\213=\020\0044=\245\375\216\275\314\321#\275\2321\372<\257\203.\275\004w\224\275G\257\024\272<\002\024\275\252\320 \274$\320\"=\023}->\303\234T\275/\010\001\275^\342\363<WQ\323<\3626\215\275\025\340p\275\031\364\016\275N^l=\256f\010\276VF^\274\254\020\270\274\302\207\031\275R]\271=\241\002\271\274{\356\211\274\303t\302<?V>\275W\222\277=`\226a=tA\016\275\306k\035\275\325\203)\275* h\275a\212\200\275\347\301\303\274\274\306-\275\240wb=\223\025\357<\013\265B\275-Z\"\275_\262\177<?\306T\275\234\306\263=\205\253\t<\321 9\276\204\374\312\275\352|9=\226\224_<\303\021\230\275-<`\275k\264\024=q\236\265\275\205m\320\275O#9=\010\270.\274\344pi\275\230\023\266;3SP=\244\343\020\275\366ux=q\304+=6L&=\315f\265\275\014\347\367\275\213W\332\275{\007+\274\264_;<\374\t\307\274\245\232\240\275\330a\322\274\rF*=\257\257\273<\0018\021=\331\331\216\275\245\3277\275\256;\255<\303\325\354\274@\203\347=\010\\\254\274\335\231\351=\177\213\367=\342\360\005\274\200Fo\275\344\352\350\275\374\260\241\274\3301\204\274\003\227\302<vB\317=3i\360<\024\323\325=^_\262\275\027\340\215<\016\200\002=\351Z\007=W\266z\275b\357\200<\267\230\210;p\\\370\273\337r\210\274\264c\324\2745q\203\274O\216\234\275\241j\240\275b\010\222\275\231\344\272\275\023\277\t=\343IL<\362Q\216\275\206\273\243=%\271\331<\205\250\217\275\205\277{\274\273\220}<6\n\r\275a\250\222<\343\217r<\203[`<\231\300K\275\211\314\260=)\2178\275}\306\037\275(\021\201\275D\n\332<\260*/=\013j\362\275\2479\277=:4H\275\n`\223=\256\320\022\274\201\t@\274\2508\224<Q`\263<`\245J\275\304\350\203\275\273\006]\274\257\371\003=i\344\276\274\025X\002:\376\354\365=hz\013=\261}\231\275\221W\244\275\000\260\004\276\335\004\350\275kS\034<V\2213=/v\204=$\220\331\274\227.E\275<hd\275\367H2;_\t\003=\260;\334\275nTJ=\231\333\024=\n\214\276\275\035R\255\274b\376~\275~\351~<\016\342)\275\256\374\037=+,\313=`\016\\<\344\311\207=\355\n\007\274\326n\244;\320{2\275\2125\313\274a\325Y\274\314\214f=8j\316=*Fl\272B\212\236<\330\2142<\020\303\r\276$p$>\2264\200\275]\007\241=\250\030\224\275\320\231z\275\221\375\334;B\236\214<\237@/;\032t8\274\032\006\311<gs\350\274\220\264\035>{\321\265<\345\257\013\275\027\2464\276\246l\027\275\201\226\232;t\313R\275\024\035\254<\272M\002\275o[\311<\221\\\365=\206d\251\274\035d\303\274\312\372\221\2758\036\265\274FI\014\274\004\023\256\275\370\025\007>\240`\341\274e\306\304=\250W>>\225\271\362\274\366u\207\274\327C\373\2746\317/;PPY=\267{\260<\"f\204=\344\207q\275\"B;=\205&\006=\325\222v=\236Ua\2742\007q\274o\035\360\274\204/\353\275&\210\014\276\321\337,\275_Uk=\210\306_=\320\330\225=\005\020\333=\021=\352\2755\302\304\274\177{e\275_\315\n\274[4P\275\236X\377\274M\320\310\275\023\000\257\274B\312\352;\267\032\032=\301\020\241\275\216,\013>1\005p=]\275\222\273\362\224\323;y\024+\274\200\266\347\274\214\377\306;\365\2238;\222#\255<\376K\243\275\217`l<\2424(\276U\275\237\275\266G\212\273\355\340L\275\302gA\275\325\r\302\275(\r\014\275\374\310f<\006\231\311=\301\313\006;3\204h<[\211L<L\243\261=\317g\212;)\205\221<.t?\275\177\234w\275\032s\232\275#\226\210=\362\225\370\274\374_\"=\035\362^\275\0005\212\275*\237\005\275ue\203\275\313\023c=\227\021\301=\221\024\"<\030\020E\274\215\312\241\275_*\'=\343!*=\323W\352\274\3065[=\260\357\373:\331\034\364:\205.\032\275\304\235\004\275\311#v<\014\346s<\"\320\344\275,\203\205\274\014\256\215\275\034X\251<|\3626=_o\023\274\005\331\n>\2709\357\274\330\305\023\275Z+z=O\204\n=j\364\221\275\271\213\241<\240\274\314\275\357\'-<\273\355\261\275p\203\217\274U9\227<\334\357h<E\311\226\274y\350G=\344\013\270=\217t\027\274\033*>\274\031\245U=\373$E;\262v\235\275\266\325\257=\233\236@=!\325\034\274\315\376\372<\005\361\007\275\006>\265\274\213\347\225\275\254/\345\275\257\3352\274\240\345\375\275\332\245\017>9 \202=\223\327\251\275\001\220\226=H\177\331\272\0019\275\275O\240\017\275\374\373\364<n\375R\275\264_H=\030\226\347\275!z+\276\021\252\255=\261\303\313=\263\263\353:\345w\260=\3471A>i\030\215\275Vf\246\275\233u\233\274r\261\225=;xP\275\217\220\304=\273>\341<\013\271\010\274k\256\257\275\016\323\313;x?\345<Ct\253=\214B\227\274f\200\324\273%i@\275`\265\031=[\204W\275\250\033U<\234p(\275\321\0064\276\305\0318\275\002\230\277\274!\2007\276\274\235\030=\016\362\020\275a\202?<B\277\031\275\224~P\275o\247\001\275\324\343;\275\362\223\243<\222\021\233\275\212T\t>\031\345\002>\370\253\203\275\032\360\013;\306q\275\275\035\323d<\017\345\026=\316@\307;\253 l\274\237\3274\275\033\234X=b\274\022>/\243_\275\242\204\026:\272e\271\275\235\001\026=\014\325\213=\\\364]=x\337\373<o\001\224<?U=\275\205\016\360;\027\177H\273\310C\t\275\322@\230\275\000\310\313\275kOz\274\363\373i\275\033(k\272\370\373&=\007\310\035=`\217,\274\221:j=\376P\025\275\371\037\272\275n\313\"\275\253\270\016>\235\226%=\027q\322=\315\3701=)\327\201=U*\240\274\023\n\013\275\003\024\310=E\367(\275Y\223\306=\276r\252\275\277 \324\274Jki=7_\021>*:\335\275\263\245\266\274\276\376\035\275\2413|=\027J\233=b\335\310<\266J#\274\300w\r\276\221m\252=\376\207\024=\324\303\356=E\212\236\274\027<\251\274\300qA=\302)F=\323Y5=\245?\272\275\376\307\201\275\020\241\252<\253J\333;\377\245n\274\2420\241=\226\336\305;\2239\210=k\211\022=\200\311\304=\342\022\317<LQ]\274 \027\r;\273fS\275\010\354\251=\260\205\252\273\234\251\030<J(\247\275l\361\205\274\255\367l\275\014*\207=@\275\217\275\233\304\005=\321\221\'=h\341\207\274\002?:=\364\320\371=IF\234\274\004\350\316\274\350\017f=\270\310\350<\222\372C\275\335$\232<\037\251)\274\366\0105\275\031\323\221\275\207g\345<;h\373\274\237|\334\2731\3272\275(|/=\252\260\212=\355]\255\272\263\0248\274\223\371?=\316\327~=c\014\226=\217\317\266\275j\3459=\244\276-=?\221c<\375E\277\274\347O\307<~|\237;n+\005\275\213\005T==l\254\273\266\346\226\274\226@\033=\001\013U;\316\336\275<\225\031g=\307\256\006\273m@\323\275\376Lb=\270Vi\275[\350[=\343\325$\274e\364\313;\360\"V\274\226\360\234<Y\273\020<L\316\013\273L\335\254<Z\241\341\274\364\002~=/\231\335\275\007\367j\275;\232%\275\212\3507;\361j\265\274-\225H=\006A\331\275\361\006k=\006Q\212=z\307U<k\350\n=\254M\266<\314\315\367<\257H(\275#_\207\275#W\331\272\327v\'\274\266g\037=\007\374\031\2754\352\017=\000\236\034=\240\306\031=\234/\270\275\266\035\335\275v\003\224\275h\331D\274\221\226\213=n\020]=\220\017_=r\261C=7`\203\275|\357x\275k\335\271\274X\233\240=\rz\251\275@\216(>\t\206[\274\375~\336\273{\233\357\275\'\366\016=m\3236<\201\346\324=\276\025L\275\007R\027\273\205n\242\275dy\252\275AtP\275\342\306\237;\236\375\250\275X\3045=\234\020I=\033\337\263\275k;\324\275Y\345\n\275\036\0369\274\030\252\010=P\370\206;\262\214\220=\327e\275<\177P.=\270\335-=\3341\004<\033\267\237=q\321\222\274\351W)\275\377p\375=\225\346\341=\rx\256\275\360P\272\275\300L.\275\021\365\200\275\\\354\315\275\256-\217=\243\326\024;\005Pt\274|\363\244=\351Xz\275\0005\n;\345VB=W>_\275#\001v\275\233\033\367<\254\234\360\274\211\203\030;\302\377~;*\320C=ex\370=H\372\313\275\350\024\033>\323\317\304=\274cM:\001\333\347\2744K\003\274H\032Z\274*\007\231=\337\231\"\274\231\001\032=\223\273#\275\353\317u\273\255\326\302\2753[\235=\016\226\275\274\2165\354\2750\375x\275\035\335b\273\351\031\003\276[\3010\275\210\313\373<-\336\004>\013w\203=^(\200=rk\236<_\t\307\274\225\262\t\275\265\230o\275\267s\340=\377\360~<R\234\341;\320\035\002=\254s\204\275\217\177\202=\210W\376\275<\204\264\275G\202\354\274.i4<b\246\270\275*\203\255<\327\002\321\273r\202\256\275y\345j\275\271@\212\275x\364\327\270\215Lh<\217m;\275\2366\230\273\2126\210=\235\202\365<\317?\351\275\032q\205\275b+\222\273#\375\n\2762N\317\274^\032$\276\213\262A=\351R*=<\353\3379\312\022\274:\344\024\224\274\247\005\355\275\205\215C\275\n\215\240<\255\034\241\275\021\n\177:r\321m\274\265\001\246\274o\331\026\275a\302H=(\273\001<Q\306\241\275O\370\202=\032\216M\275KQ\241\274x\005\213\275-\022\257\275\023([<\014\245\244\275\310\213\271\272\251p\226<E\311\250\272 \334J=si\007=\252\202\242\274\344\030\247<]y\335\275\\\002\246\275K \000\274\002\245\'<\246\"\005=\273C\211\275N\036\257\275\220\354\225\274\231\232\237\275\335O7==\260\336\275\0310&\2735\016\016\2768\356V\275\354:\332<1\227\212=\031\370\362=%Lf\275\240/\256\275D\375\224\275yt\257;\212\204\376=rm\223:\215N\205\275\243\312\225\274\331\232\200\274\371\276D\275%u3\274z;\221=?\330\">-\346\023=5\2349=\007\307\021\275\250\251\357\272\324f\010\276U\356\230<\t\346 \274\n\304\332= aZ\274\032o\320\275\246\2139\275\372m\333<\367\267\240\275\3424\226\275\252k\317\275i\202\221<\245\250\244\275\315k\344<\226\353\002>\027\217\265<,