node {
  name: "keras_learning_phase/input"
  op: "Const"
  attr {
    key: "dtype"
    value {
      type: DT_BOOL
    }
  }
  attr {
    key: "value"
    value {
      tensor {
        dtype: DT_BOOL
        tensor_shape {
        }
        bool_val: false
      }
    }
  }
}
node {
  name: "keras_learning_phase"
  op: "PlaceholderWithDefault"
  input: "keras_learning_phase/input"
  attr {
    key: "dtype"
    value {
      type: DT_BOOL
    }
  }
  attr {
    key: "shape"
    value {
      shape {
      }
    }
  }
}
node {
  name: "LSTM_1_input"
  op: "Placeholder"
  attr {
    key: "dtype"
    value {
      type: DT_FLOAT
    }
  }
  attr {
    key: "shape"
    value {
      shape {
        dim {
          size: -1
        }
        dim {
          size: 200
        }
        dim {
          size: 6
        }
      }
    }
  }
}
node {
  name: "LSTM_1/kernel/initial_value"
  op: "Const"
  attr {
    key: "dtype"
    value {
      type: DT_FLOAT
    }
  }
  attr {
    key: "value"
    value {
      tensor {
        dtype: DT_FLOAT
        tensor_shape {
          dim {
            size: 6
          }
          dim {
            size: 256
          }
        }
        tensor_content: "\247G\200=\364\266\213\275\341\375N=\221C\227=\265\265\316=)\235\331=\313iV=\0379\356\274\212\215\230\274\n\250\371\274\204\234W\2755A\231\275/\344;\275\374W\362\271p1H\275\306\262\311=\240\241\024\274sy\006=(~ \275R\226o\274\324\345\361\274\210G\020\275\352\033\r\276S\225\206\275\247\204<=\r\236\177\275$~\365\274\241\362\022>\r\257\321\274n\353\264=\337L\263=\373\347\250;\020\247\007<\326\360\276=\352\222o=\034\177\226\271\203-\206\274\tz\222\274\345\335\246<p\342\003\275\310\274x\275\355\326\220=\320\226Q\272\310ig\275\2334\023=]\2419\275u\244\000>\301\nv=`\263i=\335[\265\275N=\335\275e\365\371\274\3614m;z\303 =\035\224\240\275\254S\035=\216\313\322\272Sb\345<\004\360\216\273\245O\215\275\035\373\326=\204Q\202=\242\307v\275\234\3073=tb\301\275\202% <3s\376\275>[~=\351\261p=3\003\236=\"\334!=E\200$\276\344\316j\275\263G\242=\031\225:\2757W\226\274\222M\207=EB\330<@@ \274K\3050=u\362\275:e\370\215=[\010F\273%\023\267=vLD=\312\003?\275\240\211J\275\006\304-\275\202\223R\275k\255V\274\001\021\340=y\352\325\275\240\026\025=\271\373\357<\334\275\203=X\200\311\274y\277.=p\312\007\276G\355&\275m:0\276?\351\002;\342\253\202=\357\324\314<\346|}\275\243\273\340<\350O\351\274\211z\255\275\016\220\003>\\\377/<\302\207\030\274s\244\226=\032F\206\273S\211\374<\027\246\346<j`5<2\234\371\275q\350m\274\336l\331\274\"\276\243\275.V\315\274EN\201=\276\\\231=\205\251\030;\001\350\325\274uB\251<\356S\244<fz\001\274\265\317\\=\232\2463\275\177\261\353=d\010\201\275>\213\317=]sW\274\220\360\236=\317\311Q=\274\225\233= ]\207<K\0000\275\014\201\214=h45=\251Q\366\274D\250k\2758\255\254<\207o\370\274\257ol\2744X\237=\303\005A\275\302\\\\\275\223B\236\275\242\311X\274\025\251\030\276\305\274\244\274!HH\275\212\177\215\273c\314\205=\370h\372;\\)\323\274\304\022\263=\373\263H\275\373()\275\3314O\275\366\2464;jT\246\275\336\036\003\274\2456\352\274_Dj\275\343\007L=\243\0233=4\027d\274B^\250\274\246\020\216\275\r\300 \274I\267@=y\310\366<\013\256\031\275N5>=P^\304\273\373uv\275Cp\240=\031\3235\275j\343\203=\005\2710\275\221\3256<9\270\313=\233\210\000>\242\231\326=\355\024\203\275\312vE<\212\375\261<\010v\272;u+K\275ta\353;R}6\275\004\212p<\302\236,=\364R\035=\335\300\217\275\010H\221\274jO\301\275\375\356}\274\036X\256\273\030\0234\275\210\346\303=\023Qv\274\3011!\275\363\245\020\273\264J\337;\337\n\235\275\031\365\230\275\273Q\036=\313i\340\274\267\026\t>\t9B=\000\271\026;\352\257\241=F\237e=\365\327\206=b\251o\275\267\024\330\275{{\362\274\370\374\305=\343n\352\275\\\017S\274\233\300\240\275\360\022\022\276\177\377\016>\373\277N=\271\344\235=\302\245\204\275\3054\251\275\275\301\207=\022\317z\275\274\217\361=\2107\036\275\260\323a={!3=\342\330P\274\363\224\034\273(_)\275\215\362\316\274\222$\026\275}\302V\275\233\'\037\275\302|\252<\210G\331=\356\260\220\275\247\236\275\275\270K\272=\361\366>=E`\203=\266\337\027\275\260\277g\275\022\r\275\274<\346\005=U/C\275\361e\306\275\210\'\204\275\275x\362;\016\250A=\371D\226\275\352\255\217\275\212\tA\275\014\250\005=$\"\264\274\304\231\005\275\317\341\017\276\210\017\211\274\355\323\341;k6t=\304\320\222\275\030?<=\n\327;\275\316\316\303=\267Qf\275+]\331\275;\341]=\323\027b\275\034Q\270;Lv\226<\031`9\274Uv\223=w\032\332<vH\312\275\235\016\234=d\277\230\273[\035m\274K-/=/kJ=\303f6\275r;-\275\314B\245=v\377\005=\304#\323\274\342\356#\274\353\214\035=G\333,=\307\017\343;,\264|\274\332\215\373\273\003\024\247\275\242\301 >\214\211\206\275H\233\303\270\203\213b<?U7>\346k\000=F\260s<\375@\005\274\221\213\205=\351\276(=O\020\277\273\301\333\253=)H;\274\330\233\224\274QS\321\274\335b\264:s\371H=.\262\215;\034\266\306\274@\000\346\274\331\027\217=\037\024\332=\ru\342\274\261{M\274}.^<]\305\254\275\376u\240\274>\262\206<\265l&;R\222i=j\351\263=\217D\036=\347\026e\275\317(\026\273\3410\335\273#\355\270\274\274\364\027>\364W \275\300\361*\275\354\022\220\273=\357\261\275\037f\305\275\\\323\235\274\001\314}\274\021\n\321\274\200\0022<5\331\231=\327N\331\274d\355V\274)\020\206<\341{ :?i\332\273G,\310\275\003W\211\275@\210]=\225\026P\275\266\355\025\276\255\001^\275\231|?=r\207\243=\3367\327=\305Z\241=\255c\016\275gy7\275\246\334\217\275\276iG=a\2036\2753:\263\275\t\275P<\204\335\367\275+\315\374=\207\375\240\274\027\020y\275VZ\377<x\206\334=\273\327\274<\211\032\334\275r5\361\275N\314\302\274\270\216\336\273\355T\227<\212\272\206=\2335\261\273\372\224\336<\230*\215=R\025\023=e\365U\275\355\263\256<v\362\263\273?v\225=;\010\373=n\245I\275\267|\210=\254\200\375\274@x\n>\000&\274=\033#\\<\276c|=\0325\255=\273\342\207;\373\212y=\264u\330\275\303\346b<\007@\254=\264\275P\275\260\247c\275q\315c=\020\201\013<\273W\363\275oU\266\275\204\233\361\274\346\263\007>e\332\227\275\002\373\270\274\275\356i=\020N\353\274\241\313\325\274\272\257\r\275\2771}<\267\354\233=\345\302e<\224u\365=\371\274\375=VI\312=\374-]<\370\\\371\272\300,\223=\350?\324\275hw&\275\024\312G<\277\336\272=&7\367\274\010^t\275$\214\361\274k\361Y=L\231\275\275\205Y\355=K\274F=\255]\265\275\236\246S\275\274\317\211=x\216\340=\207\t)=s\273\337=\3775^\275\213\363\205<\372\253\247=\211\256\002<\272\"\242=Q\204\201=\323z\330<^\316B\275\250w\307<;A\336\275\200\256\326<\320\006\243\275AT\224\274\321Dn\275(\3726\275\362\352\272\275R\262\366;o-\340\275\273\"H\273>\316\004\275\032\317*\274w0\343=\260\243\205\275\037m:\275\220V\026\276F\261\212\274\210\017\221\274\260\264\026=*5\277\275\232\266z\275\0367P\274\316\230\016=;\001\321\274[\351\333=u\027\365\273\3330\003<RN6\275\257\210\326\274kP\305<0\342\372<\227\223j\273\316\321\207=\202\367\177=\341 \227</\265\203<\300\036\337\274\232^\251=M\220\325<3\014&=\327\270\307\275\266\262E=a!\035\275r\263\217<\361\006\265:\275\303\371;\336\374\230=[X`\275\316Ca\274V/\344=\217\245\322\275\035\245\035\275\260\332\271=\363S};D3\317\274\344\345\352\272\013\215\023\275\247vz\272\225\266\205\275\255f[=YF&\275\341\224\006>\353\341\253\274\023\261\302<Ni\213\274\223p\266\275\327\321\360\273<x \274\366\027\316\275\252\311\374\275\016\212\353;\372\201\037\276\020\355\321=\217>\307=\026\221\345\275\275e\364\274\\\000\022>\010\257[<\021\004g<|\330\010\275\354\224\327\275~\"\'=\332\256\017=r1\372;\340\312\355<t\230l=\221\003\247<1\245\252=r\366\302\275\371\222\275\274\014_#\275\"\332\032>\177\225\022\276\010\304\240;O\233\220\275\030\343\327=\201\336\236=\276\003\254\274v\t\260\274/\345~\275\2779\317:L\2255=\331\254-\275f\345\313<\266\231N\275Ys\257=\037 m=\n\207\217<C\243_=\266\241\t>\024\327\035=\354vr\275\037\371\277\275\311|\212\273\221\363\020\274\031\364\013\275A\211w\275\010_I=5\370\023\275#\2416=\271\204\217\275-b\345=\031/F=\366\247\352<e0Z<Ypb=\344\364\215<\232a\216\275\313\370\'\276#,\273\274.\223P=\253\252\262\274\352\277a=\242r\205\274b\316U\275\340\307\333;=\021\211=\037m\251\275\006\352\230=7\212\031\274\032%\257\275\002\"\302\274\364*\244=@y\312=\007-\214\275\221TL=\366\351\212\275\267\221x=\251\036\332\275\2544e={\272\273\274w\362u<-i\003\276\377\302*<\236/\220=\227\220\243<S\3672\275\023\255D\275g@P\275<\217\035\275B8\335<\321\273\n<\234LC;\306\223\340<\341oG\273u\3060\276\027t\231\274\200\233k=$\317\261\275\360R\265\274\340}\275\274\334<3\274\277`M\275\246\205\035=\205sP\274\025o0=\n\014\021>\3640\302\275\271E\237\275\356\375g=\373<\213\275\331K =\217\353\242<<(L=W\233\255\275}\017\027\275\215\000\233\275\362\211\026\2751\261\274<eK\317<\326\206\302:\344\311b\275A\222_=\323\201X<\200\240\273<\005C\343<@\314\210;YJy=\370\377t\275\222u\345\275\251\022.=`\217B\275\227\035\272\272o2\324<\244 \315;\246wN=\263\346\027;)I\277=B\244}\275\177m\203=\277\003O\275~]H<cI\017\275\256\235\303\275\265l\215=V\3078;\326:\r\275\036\235\014\275\325V\252\274\225=\227\275\256\025?=\335\003\233:\231\251\325\275\251J\236=\351\021\230=\271\340\201\275\320\301l=`\005\361\274+\005\236\275e \250\2757\231\375\273\336l\001\272\244N\202\275C\314\322\274\231r\022=\317\326\200=iD\006>\325\306\266=\222ew=\020\335*=\245SG=\354\205\237\275qH\355<-b\234\274\240\354\237\275\361\322\022\275\371\341\234<at\306=z\026\227\274\341\2001\275\023q7=+\317\257\272D<\250\273b\317\016<\201\377\213=G\344\315\274p9X=s\020\214=\221\302\333\274\272\357\344<SV\200=\210\253\356=\361\314W=\264ZX\275\270\024\274;?\"7\275R\222\211\274;\365S<\001\207\\\2757\215`\275\223\022\2478\004\365A=\021s\007=\277\320%=\325\033{;\213NC\274\007\366\'\276(\003\206\274\252\2605=\376\\\320<WD\267=L\026e\275\217\214\347\275\212G\210\275\246-\013\275\212\035\262=H\357\200<su\201\275qD\311\272\222G/<!i\344=\200fG\274v\002\360;W\211\030\275\327\006\310=\035\016\304\2754\245\260=\255\222\353\274\300&\243\275c\014B\275\210C)\275\374\r\351\274V\306Q=na@\275\263d\351=\033\007\304<\213\352\326;\3728\002\275\345\377;\275\255\366\026;6`\302<\033\322o\274r\002\001\276\235\362}<\311\250\217=W\351H=\2401f\275\346\"\023\275\035\203\245\275\365A\274=\254\366w=L\341\t=\224d\260<\335\253\036\275\315\245\375\274\002(\236<=\031\330<H\202m=Q\374\026;fU\376\274-P\305\275F\347\251:6\221\246=\371\324Q=\225\213)\275\252\354y\275\270j\202\275F\203\352=Xc4\275\010\346U\274\303\365\220\274\230\225D\275\253\303\273\275N\231\223\275,O\224\275l\301\346<o\003\r<1\322&\276,\270\345;q\223\254\274\332\274\036=\027\335\236\275\254\034\t<\262v\030>@\300$\275\210\342\311<\337F,\275\244nP=\027\363\316\274+\016]\275E\325\217\274\237\274I<\035\001i=n\3056\274H\271.\275Q\263\022\276\270#q\275\203\222\307\275\330\3065=\265O\353=\232\262\357\275\251B\202\275\274\342\033=z\306\002=6R(=\372\316\356\275n|\201=\201$\217=W\366\324\275\034\327\337\274\340\031c=O\352\250=\242\325q=w\256\344\273i\227(=\231f\256\271\r\376#<\277\303\200=(\320\"=\207\272y\275\215\325\252\2755\266Y=J)\310;\202\r\351\274\332\227\213\275\305\263\017>\253\207o<j*\025\274\001\243\206=\311\376+<O;J\273\212]l=\313i\315\275k\234/\275\242\327>\275\n\321\237\275\272\000\267<X\3033=\210?\303\275\205\200\220=\371\333\312=Y\201\246<%\313\200\275\217q\232<\022\222\026=_\376e=\240\335\216\274\204\001\220\273\301\337\244\273\243\317\274<W\373\216=DO\006\276\027$%=\364\270x\275\373P\'=\331\250\304=_#\311\275\212\256\345<\304\354\360\275u\360\365\274}\367@:,\006\206<\325\315\";\036\204\242\274\024\220;=\250!\n=]\373\300;\257.+>yj\035\275K\017t\275\275\3566=\362\352\326<\330\344\021;\t\203\005\275\2041\010\276\361\372\227\275T8\267\275Gz\230\272\026K\265\275\256\313\344\275eA\273\275\325Z\313=\267\366\325<e\341Q=\305\360\211<\352\013B\273?\352\246=\030\322\240\272\365\260\251\274\316\020\354=\3724 <\227\234\017\276su\250=\261\211V\275\276\010p=\223\300\004\276!d\221<a`\350=\265\376\221\274\313\371n=>\334]\275/\364\264\274\367<3=\004\315\302\275\360\314\346\274\rr\014\276\230\213\267\274+u\253:\003o\267=)X\365;\277y\351<7K\240;z\372\n=\022^\250<b\323\000\275^4d=\n\216\246\275\332\270\200<\323\240Z\275!\276y<\234\367=\275R\227\033\274\002Z\235\275\007j\324=\335\006\336\274\270\233J\275\355\275\343<\007\333G<\201\261\274=\r\013\033<\201\300\362\275\206\023\216\275\231\374U<P\233\304\275\333H\002=\216\"\006=BoK=\014\314p\275I\356\002\2757@a\275\034\005q;\331R\365\274\267>p\274&\022B\274~\010\340\2750l\225=W.\205\2752\230\205\275\207\271\354\274\220D\223\275\377\230\277<\311\220\265=\031/\362<\205\203Q=f\377\027\275\344\317+;A\262\207\274/Q\t=\257s\002\276\373\302\255\274\300J\305\273\025$M\275\271\001\334\274]E\025=\354K\201=\364Q\014>\213]\314\275,G\235\274\2038\217\275C q\275\370\034&=\231\231P=\311\257\010\275\023\276\341=\373\007\331=\243e=\2752\352Z=\327\014\210=\250fb<\342\251m9\213\216\235\274+\341\263\274\275\331\247\274\rs\007=\307\374A=\331\335\303<\321\212^\274Q\021\254\274\267\267\327<\330\345p<\2450I=\026\353\314=\241\312w<E\366\033=5\231\202\275\rz\262\275\335\t\320\274\202dy=\377s\036\274%\021\227=\344#\340=0\274s=}\201\030<\347\221\327\274U\255\331=k\277\035=\274J7=\337-\232\275\261;\335\275\224\371\312<C\000\266=/\371\237\275\221\333\210<\3617\263\273\264 y\274\327\312\261<\032\362\256<\222d\246=\255l\231<\024&\301\273\360\334\004\276\307n\323\2737D\273<\333K\303=\031\373\221\274\261\214\221<\367\343U=\276f\252\275\017\374\003\274sP\212=36\233\275\006\321\363\274\r\024\036>=\031==p\203\240\273mg\242=\305\303 <\363E\222\275\271\315\221=ja\207=EI\355=@J\342\274\335y\300<\373cP\275l\026\314<\306%\030\273\034\004r\2752\217\023\275\273\030\224<\017Y\270\275@\026\322=\251I`=\224\355\264=\362\311Q=\322\365\341<\360eV<\033!\364=\300A\201<\003j\255=j\250q>\013\375B=\3342&\275\330\031_\275(\274\204\275Qg\003\275g \217\275\335\233\005<4/K\274\360\026\001\274\212\201\337=\376\261\272\275z\372\236\273\003\212\251=\353\377\323\2746\300\217;\303\374Z\274ax\225<\330\336\325\274\n0\203\275\206j5=\037\\\n\275\204d\333\274w\300D=2\3304=8i\370:\324\323\245=\007\253%;\333\272T\274\314\024\272\275D\232q\272f\231\372=\370x\334=\236\377\035\275\004 \323\273B</\276\221\350\361<\003%\206=\025\247~;z\352\255\274CI\234\275x\313\223=\363\232\001\276\322?\355;0\275\307;\264uJ=\351\367\023<\370\375\247\2756\374\322=,\263^=i\263\010\275C)(=\271\3077=\023\351\241\274\020\344*\275\210\304M=\351\244\232:j\216\304\274\310\207[=\245\261\216=\257!\303\275*\214\202\275\323\352.=\274\256\241<Dg\t\275\243\374\222\275\222\345\\=\272\241\260\274\023\234}\275z\251\223\275\002h\251=\246\013\336\275\263\034\227\275\266ML=\\\272\034>\224.\305=u~\272\275\027\311\030>!\202Q\275\"6\320\273\200\230\257\274\211\201\246\275\244\307\254\274\262\344&\274\211\217%\274\205\305\364\270 \\\212\275\223\331\207\275\370n\036=V\177O:a\033\210=\250\302f\275\275\241\340\275\322\377i=\347L\r=\300\341U\275\247\237 =JC\211\275X\273\227\274s\360\037\275\224\226\334<\r\277-\275\200\037\256<5\254|\274J\3407=.j\375<\324\203\341<\336U7;\307\346\033=\363\353\266\274\261\375&=\014`m\274\002\034\220=\'\250\242<\211n\016<Q\332\222\275~O\324\274\2354-\275\255\312m=\215\325\027\274P\240\333\274\230(\246\275\251\3161=\330 \033\275\222\3435\275\224\203X=\273\013~<\341}\327=\333\277\203\274\2774M\275\270\243\206<2s+\275\246\363\305\275 [\323<\372\372\275\274~\274\234=\255\361\261=+\224\202;\n\333\036\275\233:\252=\240\006\226=\277\354\243\275.O\313<\207\245\345=\360\227d\275+\213\034\276p\260\022=\202\241\207\274\324C\325=sM\377<\030\225\241=\247\3519;\222\217\210<\023.%\275\023G\201\275\231\266\225=\2357\324\273\020\374\314=\372X\230<\223J\303\275\\1\006<\374,b\274\314a\212\274\324\234\263\275\312lC=\2628\211\274.\364n\275U\325\206\273\316\3746\275y~\234;D\224\273=\326\375\037=m{\347=\226\001\232<\237\265w=\347\256\230=\000\272\230=\274\007\260\275\252\270\276=A\251\315\274\3479\216\275\214X\363<\017\211\323=x\200\305=\025\245q=\345\317B\275\372\005\304=\205\004\334\274Y\201\026=!<L\275o\271\223;\340@;\275O\351\005\275h\373\321=\314\3376=\310\017\324<\237\021s=\210\037\004;\025\314\271\275\367\354\202=\225h\301\274\274]T\275\":\247;\243|\272<\010\274\235<y\3079=0\203<><G\235<\2511\222\275\340\023\335\275z\027\034=\324\264\210\275p\335\336\275\326\352C\275r:\240=\037\305\210<\004\230\253\272\241\t>\275\244\216\343<\374!\360=\005\375\"=\335\302\366<\013\001\240<`\203t\274\356\'y=t2L=>5g=\200N\237<\210hv<\303\023!<J\343\211=+\313>=\254A\306;\n\266\255=\201\355\211\275\004\211\034=9yQ\275Tk\220;\330\016\003\274\2253^\275Z\237\271\275\304\323\225\274Z\234\274;0\364\274\2746\263\024=\212Y!\275m\203<\276\303\337\013\274\232&\321<\345\216\212<\0216\"\275\350\275\265\275\023\226\351\2750\315\263=\2564\247\275)>\243<\017G\350\274\323\177\314=\013\217p<-\246`\275\261[U\275\370y\220=\3732\211=\377\324%\274\232\256\224\275\253H\031<%\362\303<\234\026\217<\265\253p=\005>\002=\326\\1\273\325\262a=\306\"\t\276yg\376\274\345f\310=\335\241\010=\026fl\274\002-\220\275\177U\"\275\366\236\007=\333\007\252\272Vq\365=s\203\356\273\304\037K=\305BB\274Y6\005\274\332\221(=\343\377\221\2724o\320\275\231\330R\275\246\344Q=\251\035\243:zz\353\275h-\337<+\030\237\275\302\357\036\275,\250F<\264\265\016\275X&\365<p+\213\275U\356\020=(=\215\275\301~:=M\3510\275}\210D\2755\3670=\323?\345<\224/\002=\346\255\214\274U\326\212\274\310l\027<\027\315\007=F\276\007\2751h\202\275\014=\271\273\323|\372<\224M\304\274\035\372\333\274\331\226\344;\311\262\231;Yc\225\274\374\274\245=y\374\r=\256\006p9kKJ<@^\203\275\227\t\253\275\037\326\262\274\363M\226\274A\221\213\275\210U\304\273p&\021=j\261\243\275\233.n\273\037\211\036>&\377\237\275\306~\321\275\002Oc;\260\227\267\2745\376\210=\264\241\221\274\245\233\006=\271\032\263=\007j\026\275\332\313\264:\352\207$=\207e\003>\r\226\237\275\224\0361<\026t\004=\320N\025\273\300\255\345\271\307y.\274={\215=\226i\317<9Z\210=\312\370\370\275{\222\267<\213\323\362\275y\247\023=\245\225\261=u3d=\016\027,:i\027\256\275-\335\014\276A\302G\275\335*v=\261\345\001\275\242\316\000=\211\036\371\275\016\225\217\273\270\027\371=\227\210\345\275\376\033\356\273S\307+=]2\300\274\233s\033\275%\234\200=D\267?=\355\342!\275p\337\205<\277\202\251\274\352\302\217<H\212\345=Tx\212=\362=\210<\253\263\313\274\324\017\214=5\351)=#*7=\"\247\004=(\347\204\275\016\354i=\226\304\245\274o\030o=_\312\007\276\257\326\345<H\r\004=\341\375}=\361\365@\275\277\016\262\2752\"~\275D 7\275,X\035\273\340\204\260\275\352x\205\274A\306\232\275\\{&\275u\232P\275{\220\346=g-n\275N/\357\274\270K\305\274\025\241\212<\203\230\037\276\302\374M\275\247\201\245\275\214K\311\275\246\307_<c\267t\275\343\375\314\275\231\350\034\274\317j\222\274\030\035\005\276/\352U=\030\344\324\274\263\234\250\275\357\235\267=\031\317\343\275p\265\316\275\354\357d\275\313\224\005>\014\014\211<\227\027\225<F\016\240\275\007b\032\275\022o\203<\355Z\003\274\275+\252\275\245\344L>^)\322<\020\341\327\272\265V\273\275\314$\201\275\2679 \275\3446\371\275oB\300=\266\n\244\274\211u\355\274X\357j\271\373n\2749\373p\007\275\rh9;\315\203\027\275"
      }
    }
  }
}
node {
  name: "LSTM_1/kernel"
  op: "VariableV2"
  attr {
    key: "container"
    value {
      s: ""
    }
  }
  attr {
    key: "dtype"
    value {
      type: DT_FLOAT
    }
  }
  attr {
    key: "shape"
    value {
      shape {
        dim {
          size: 6
        }
        dim {
          size: 256
        }
      }
    }
  }
  attr {
    key: "shared_name"
    value {
      s: ""
    }
  }
}
node {
  name: "LSTM_1/kernel/Assign"
  op: "Assign"
  input: "LSTM_1/kernel"
  input: "LSTM_1/kernel/initial_value"
  attr {
    key: "T"
    value {
      type: DT_FLOAT
    }
  }
  attr {
    key: "_class"
    value {
      list {
        s: "loc:@LSTM_1/kernel"
      }
    }
  }
  attr {
    key: "use_locking"
    value {
      b: true
    }
  }
  attr {
    key: "validate_shape"
    value {
      b: true
    }
  }
}
node {
  name: "LSTM_1/kernel/read"
  op: "Identity"
  input: "LSTM_1/kernel"
  attr {
    key: "T"
    value {
      type: DT_FLOAT
    }
  }
  attr {
    key: "_class"
    value {
      list {
        s: "loc:@LSTM_1/kernel"
      }
    }
  }
}
node {
  name: "LSTM_1/weight_regularizer/Square"
  op: "Square"
  input: "LSTM_1/kernel/read"
  attr {
    key: "T"
    value {
      type: DT_FLOAT
    }
  }
}
node {
  name: "LSTM_1/weight_regularizer/mul/x"
  op: "Const"
  attr {
    key: "dtype"
    value {
      type: DT_FLOAT
    }
  }
  attr {
    key: "value"
    value {
      tensor {
        dtype: DT_FLOAT
        tensor_shape {
        }
        float_val: 9.999999974752427e-07
      }
    }
  }
}
node {
  name: "LSTM_1/weight_regularizer/mul"
  op: "Mul"
  input: "LSTM_1/weight_regularizer/mul/x"
  input: "LSTM_1/weight_regularizer/Square"
  attr {
    key: "T"
    value {
      type: DT_FLOAT
    }
  }
}
node {
  name: "LSTM_1/weight_regularizer/Const"
  op: "Const"
  attr {
    key: "dtype"
    value {
      type: DT_INT32
    }
  }
  attr {
    key: "value"
    value {
      tensor {
        dtype: DT_INT32
        tensor_shape {
          dim {
            size: 2
          }
        }
        tensor_content: "\000\000\000\000\001\000\000\000"
      }
    }
  }
}
node {
  name: "LSTM_1/weight_regularizer/Sum"
  op: "Sum"
  input: "LSTM_1/weight_regularizer/mul"
  input: "LSTM_1/weight_regularizer/Const"
  attr {
    key: "T"
    value {
      type: DT_FLOAT
    }
  }
  attr {
    key: "Tidx"
    value {
      type: DT_INT32
    }
  }
  attr {
    key: "keep_dims"
    value {
      b: false
    }
  }
}
node {
  name: "LSTM_1/weight_regularizer/add/x"
  op: "Const"
  attr {
    key: "dtype"
    value {
      type: DT_FLOAT
    }
  }
  attr {
    key: "value"
    value {
      tensor {
        dtype: DT_FLOAT
        tensor_shape {
        }
        float_val: 0.0
      }
    }
  }
}
node {
  name: "LSTM_1/weight_regularizer/add"
  op: "Add"
  input: "LSTM_1/weight_regularizer/add/x"
  input: "LSTM_1/weight_regularizer/Sum"
  attr {
    key: "T"
    value {
      type: DT_FLOAT
    }
  }
}
node {
  name: "LSTM_1/recurrent_kernel/initial_value"
  op: "Const"
  attr {
    key: "dtype"
    value {
      type: DT_FLOAT
    }
  }
  attr {
    key: "value"
    value {
      tensor {
        dtype: DT_FLOAT
        tensor_shape {
          dim {
            size: 64
          }
          dim {
            size: 256
          }
        }
        tensor_content: "$D\356\274q\314\233\275w\375$\275l\321N=\3033C<\216!\236<\353\353&>\264Mt\275\350\246\002\275\257\021`\274+\020B<\025\301\345;\017\233b=\007\255f\275\231L\276\274\242 \t=0\234*>\230\331i=)P\261=\242\231\235=\021\353\251=0\255\213\275\237\351\276\275\236o\006=J\306\366\274\364\036c\274FY\227<\273\3711=Q\342\355<\305\202\274=fb\216=E$W\2752\007`\275,\240\207=$\366\024\275\316\027\013=o\305\333\274\252z\276\273\205\016 \275u\003\032\274\014\240\233\274\"\323(=T7\244\275\275(U=VZZ=\'\023\225\275<\357\204=f\341\006=J\275M<\266#\213<\005U!=\034\210\266=\3748\253\275?fU=\010\340\004=\310\013\331\275\252`\340<LM\031\275\345\256Y\274a\231\304=\001#\006\275\006S\030>\353\377\372<\364F\242=\363:\000\274x\313\216\275<\315\355=|\347\325<\343|\315\273a\000\242\27523\264\274\365\250\377\275\372\302`;\241\004\323=\001\337(\274\352j$\275\363\025\026\274\335\032\275:\207\007\341<\257\007\256\275\276\022y<\032\326_\273\326\035k\275\322\271\230\274\271\'\270<0q\360=z\2228<\214\316]<H\236\330<\275\342.;\264L\215:PwE\275r&\022\275%\316\222=\231\250\256<\270\264-\274\240N\336\274\302\017w=E\330\\\275:\311\363\274\350vo\275\023\224n=)o\254\274\226\364\273:\001\320\260=\300\363\371<z_\335=\037\270c=\216\237k\275\005\207\312<\303\236\221\274s\321\211=?i\326\274\214\304\317\274/\272Y\275\350o\264\274%\323\351<\333\200\334\275\024S\335\273PI\350\275\313\004\265<n\251\315=\3732\205=\367\204\302\273\3561\365<\"\346\362=\241\337\3549^\003n\275bE\\\275l}\265\274\224\203t=\260\276\\=\177\220\255\275\243+s=R\013@\275Z\023O\275\256Gb\273m\301\221=\001z(=\004e\021\275=e\324=y\315\243\274\244`\"=\317\271\240\275\366{\363==a\364;\331\365\233\275\261\323I\275\241\213\351=\264s\006\275\2532\242=\025\331\030\275\267\366\373<#\314\314\274\324x\202=V\270\230\275\rF\005>l\317d\274\224\310\236=\323I\341\275B*\177=\250E\303<D\322V=\344N\311\2747\316\215\275\214\320\242=\'DI\275\321\355w=\332\347\241\275\332\026\377=}\366\316<)\264#>\376\247\204<\r$5\273\337{\275=\371\330\211\2756\277\001=d\260\206\273:H\257=\'\317\027;\224\004\021\276s\223&\275\216\032\246\275\256\250\005\276\232\252\202\272\326\262\226\275\251]\302=A\303\367=\021Db=s\211q\274\377\316\305\275u\356\237<\206\022\264=\310\201\367\274\241O\342\274cq+<\026\366\212=v\205\317\275\241X\237=,\275\366<\023\210K<\2512\010\274\321\251\033>,\200\223\274\314LH<\202\343\201<DJ\020=\027Q\352=\220\371\312\274!\242E=\364re\275n\271\267=J7\247<#\313&\275\252\002\200<\376\313\260\274\261\t\'\275~)1=\250T\214\274\332@@=\213\303k;X\326\202\275\307\027\245;Q\017\036\275\353\227\303=\256\236\242\275\233\370f=\216\327\230;|_U\275T\301\272\275,\235\371:\220r\223\275AT\251\275\001Y+\275\207%\006\276S\316K\275\200\036\224\274\317I\265\275\027\367+=\010b\020=\005\220\030;\313\226]\274\004\034\254\275R\234\035=\237\233\225\275\027XP=\223\350\023\2756\010\211<\361*\244=b\304\261<\361\331\243=\2239\224< %\244\275:\212\267=E\371\216\273v\023\267=s4I\275\r\250\227\275\367\230\217\275\304D\245\275\003\033\311\274\336q\n\275\303uX=\210yD<\303\003/\275-\266\022=\366\027F=w\377/=\321\224i\275\315\265\245=j\213\321\274|\007\311\274\355\004\345;29C=\306\360E\275P_\342=oi/\275 H\330\275j\004\267<\220\226\261<\261\353 \275)\301\372\274\331\0003=\251\307K\275H\346E\274\021\016\237=Vy\014\2753\031J=H)\024=@\332\323\274\301\251\200\275\342\245\023>/i\370<\274\030~:\326T\204<\244\372\247\275#`\360=\236\261\362<\363\374[<I\236D=\255\021!\274]\007\r\275\r3\373=\277\201\237<\342\220g=}L8\274c\341\270\274\365]\260=\207u\207\275avT\275\352\222O=\207\r\022=7\007\014\275\351\315\255\275\345?\370=\022\023\264\275\255(t\275XCT=\005\222q\275\0249\303:\005\024\250=\022j\221<\336;\300\275\215\036\332=\t(\273=0\212~\275\203&M\275-\267\200<\330\013\206=R\373\300=1\326\275=\340g\350\274\277t\377<o:\001<\260O\264\275&+\303;q\252\372=\316\023\306=c(\214=\316\346\034\275\275.\367\275\240|\'\274\034!P\275\265f\210;\266\361\272\274|&\022\275tL\207\274\024`_\274\203\343\251;M$H\275\2605{\275\352\230\317=\370\007\307\273iN\256<=\013X\275\037\211\242\275\2172Z\275]\000\232;\033\364\232<\001\267\363\275UH\313\273K\321\r<0>\222\275\344\312\230\275\323\322\351=m\266\317\273c\270\262<\364\341\332\275\260\'\000\273%\206\263=\272O\247\275\373P%=\314\2168\274\327\010\026<e\255==yu\242\274C\'\022\275\336*\336\275\320*G=\'\"*<#\022?\275\004\332n\275\370gs\275\237{\n>\346\340\342<\307\220\263\275\306%\242\271bq\364=U\345\267=\224\304+>}\273\"=\357T\230\275\024`\250\275 +\007>\022\331o=(\226s=@Z\355\273\310\005\026\274c\226n=V\222\323=\230\243\n\275\253\363\264=\3453\265<\230\020w\2753\346\277\274\345\216\223:\353\024\t>n[\000<48}<\326Cv\27518\007\275\361\316\317<\031\035\000<\233\007!=8^\311=O\275V<\201\213\376<\375\340H=\240\242\252=g\0033\275\307s\n\275q\307\222\275\206\327\202\274\274\323\027\274\356\302\262<\004\343\361;\360\241\364\274\327PM=\006x\331\275qE\227\275f\352\261\2757\225\225\274\313\260\211;\255m\020=\304^\216\275\367\020,=H\000\325=x4\357\275\310\312D\275)7\265\274\235z\226<\222\2677<\241\000\203\275=\253\006\275+\271\325\275W\246\225<GZ\201=WV\364\273H \241=Mj\260\275T9\323\275\253K\271\275[I\007\275\252\232\001=\351\001\277\275\244\370\376<\330\024\231=\354\346|=\255\321@\274\327\210\273;7\001:=:\244\271<\373/\216<\365M+\273+YO=\342g!\275\221\207\200\275f\321\243\275o\236\236<\313\240f=\313\020\206<\236\204\220<\005f\363\274\273h\315\274\377D\232<\361.\356;<=9=\255o\321=D\217C\2756$\246\274\262f\264=\220\027\034\275t\210\243<b\327\212<3\340\314\274\270\002\203=\234{\312\2751YC\275\364\000X=\024(\226=\300\220\324\275\036\372\241=l\253\236=y\245q\274\341G^\275Zd\r\275\303\0367<l B=|\316\372\275\234Sh=\375\307\021=\311\231\363\273\256G\027\275\n\317\254\275\345\355\371\273\2409\260=\005\356\240=\250\354\352=/\343\007>\033H\364=\177\231\260=y\202\177<\313\007\027;\035[`<\246\277\331=\352J\347\273\032\207a\274\342\256\317\274l\337\345=\033p\246=\353\347\244\275\264\333.\275\244e\220\275\360\2334\274z\3667\275NW\250\275\333\007=\275 d\024<}\302\315=\0352\372\275>[x=\335H\215\275\261\2371\274z\201\232=,\307S\275\r\262\026\275\016\005\004\274\331;\230\274\333\375\332\274XuX=\277\201\351\274\'\263\271\275\307\241:<z\276f\275=\247\245=9Q\211<\343&\034=\n\220\332=%\2204\275\202\032\353;\206\tE\273\340\326\030>e\210L=e\353/<(\320\221=\026\320\272=\204\025\206=\307;\321\272*g\263\275F\033\212\275\375U\023>iW\220\275\021\202\311=\244\031c=\315\320u\275\304\377k=\242N|<\267\243\364\273\024\025\227=\213\260\251<\371\265\215\273\254\006\272\274\314\260(<\013\016$\275C}\342<;\333\251\274\244\230\326\275\230Y\240=>\276Q=\360c\365<\307b\017=\014\274\r>\276L\207\273\264\220C=08|9\255\020v=V\344\304=\251\217\256\274\022>\322<ewD=\327\345\204;}\200\302\273\360a\253\274\353n\023\275\374o\221\275\330\221\362\274 \3175\275\021\366:=\3431\336\274\0305\236<\021\0046\275\0222#=862\275\007*\265\2741\2469;\271\n\261=\241\016\324\273\246\325\215<\031\334}=\021\344q\275\344\211c<\376\240\231\275\310e\232\274\335\004\373<9\177\241=\037\363w<\273\203\t\276\360\301\241=b\013\004\276\022\\\337\274m;t<\325\265\253\272\360M0\275\340\003\230\274\264\235\205=}\3467\275\313?\031\276x\224b\275~\220\210\275.\252\301\274\331\200\221\274n_\237\274\035\225\360=\"c\004=\333\342\203\275\023\377\202=jIU\275.W\034\275;[\034;r\244l\275H\3117=?T\020\275#\260\371=\\\225\275\275.\373M>rQ\244\275\177\222J<\260\354\321\275np\006\274>;\312\2734l\323\2759\025\354\274\264V\323=\231\0045:\017\352x\275\033\225\001=\314Y\007=\354.T\275:G\345<\210\252\245=wt\305<g\332\205\274\324(/\271m\213\t>\017{=;\253\n\006=\267\337=<\"\313\237\274?$?\274\233\315\261=\033\345\271<\374\347\002\274\360\342\265\275\3149\026\274?W\241:.\366\251<\026]\204\275\270\225S=\203v\n=\032w\206\274\254+\247=\023\320\326\274\261\365\350\274\302\213\000\276\351\333\021=\347-\227\275(\307\303\275`\235\350=\022\327\261=A\002\346=L\303\214\2756\347\214=\013N\257\273\2519\372;\300\244\255\275w\\f=\234@\274\274\2778\002\276rP\274<\034\272%\274\272\317\206\275\263\027\313\274c\204\254=\'\002H\275]\251\376;3/\000\275gsA=?d\334\274\264\343\207\275z\033\266<@\247;= \352\266<\216f\277\2734\367[=/\314\264\275\317L\225\274\001u\211=\270\3613=<]\036\275\'\210\340<\233\352\272=3.u\273\206\335\260=GL\243=\336a\312<\001\243\332<[j\336=\2643->\372\352\'\275-\243\331=\221\273@\275\'\251n=\247\000\237\275\212\"\303\275\304\005`\274\213\262J=\346iR=b|J<\3523\320=\033\301x=\324\020\217\274\213\343\332\275\244\342\303=p@:=\342d$\274sv\211\275\032\305\264\275\236\226L\274\317\261u\274|\337\327\274\335\341\223<\200gF=\r\353\210=\371\322\035=\0260\225\275\006\352\266\274f\tZ\275\360\310\033\274\2400y\2756,\362<S\266\334\275\024\362\343<h\233\266=\373\007\233=\t\375u\274\264\225\210=\'\002z<x>\204=\004?G\275\261\217\244<\362\272.\275\257A\337=_\353\004<\334h\271\274(\377\301\274\313\254|>Cbb=\244-&=;\232\312\274\217\025\207<\023^\200<\333\344\216\274ZE\020=\310\241E=\360Y\253=L\371z\275\220\210\341\274\355=\014>U\226q\275\030\207\357<\022\201u=\277\221\225=$\303\221=\025\376\267<\342\270r\275\244\004\264=\253z\017\275\376\271\214\275\245\2069\274\030\003G\275\307\034Y\275\030x\002<\036\202\332<\t\347\275=#S\251;\001I\377\274\344E\356:d_i\275xx\354=\"H\211\273\233\263\201=\351\246\177\275\213\005\245\275\037\240T\275\r\233\211<\361\315 =\3144B\274\205\370v=\335\342\212\274t\361\215<\271_~=\346\306\342\273\367\331\267\275cs\351=\024\326\037=\267Lt\275\307\304\000>1{k=<a2\274\"Lq\273\tC\203\274]\227V\275\001\260/\275\022\304\210<\275-\216\275I\253\177=\200\304<\275\241m\355\275>\227a=\'}\022=\215\220\356<r8\030=?X\345\274\224Z\207\274,\367\367<\234\032N=\313\302\331\274\306\315\310\275\272\273\020=\316^\203=\314\255\205\275\250\032\327;\001_w=+\216\262=M\341\334\2734)\302\275y\0162=_\357\276=\316x\034=\376*)\275!O\027<\221\001\367\274~\262\251\275\262\314\335\275\230\'\277<+\210\224\275\366\023\242\273\241\350\337<\3129+=_\245\211\275D\362}<gI$\274\314s\211=\225\221\307\275\363\214\207\275d\004l\275\217!=\274\337v+\273\363Q\341\275\274O\307=\273\341\340;\214\340;=\330\035@\274&\350\346\273L\217\350<-\214/\275\305\225V\275\036L\210\275qg\222=\244w\250\275CQ\035=0\027p=\273v4<\260\241\352=\353@\'\275b\"$\275\237\340\273=\377\211%\271\346\016\266=C\322\242\274\021\366\203\2741$\232\2739\350.\275CfW\275\271t8\274\264\026/\274\322W^\274.Y\302<q\270\372\274\207c5=\177ze=\311\033\336;QM\343\273Q\353U\273\335\331\201=\223\340\343:\324+\\=\007\034V=vR\223\274\215\221.\275\202 \024\275\312\355\317\273\215\311#\275W#\\\275\371\340\t\275\010\317\243<z\241|\275L\336\200=\025>\260\275\177J\206\275\032\315\017=I\272\227\27332-<\340\2229=\t\007\034>2\356\337<O~_=/1\247=\366\205\221<\374\253\316=\226\273A\274v(\241\275?H\307=c(\201=<dd=$e\200=\3505\014>A7\356\272\357R\240\275\362\354\022=1FE=\035\345\025\276\303a\227\274%:?\276\211\315\002=\335eH=\000\347\022=\233J\227=+_\210\273\013\245n=0\266\003\275\362#W=\030\202\021=\276y\377=h\277\310\275I\253o\275\227\373\220=\030]G\275\316V\336\274\'\366\213=\262&$=n\213\353=G\345\203=\314iE<\365\2252\275\361K\031\275L\213\250=\313\215$\276\356i,=\237Fd\275g\254\341\2749\304@\273\315\345\340<\303\345%\275a!\244=\333\326\201\275\010\314\366\274v\005#\274\200?(\275\360\352\373\273\256\210F\275\302\007\273\275\210\330\336\275\242MJ=\222=\264\274\311P\200\275\245\231\244\273\207\016\356\2745\345\306\275._4>$N\034\275\001\276\257=\\[v\275`J\376=\277-\322\274\237\374-\274\254V\355\2759\030t\275\260\210#=\352\376\223\274\233/\231<\211\nb\275\036\305;=\243hg=^\'\245<W\023\035\274S\271z<\310\016\r\275\221\345K9\351\233\273=\225^\217=0\004\261\275\304\357}=\244\272\267\275\312m\311\275\224<\010\272#p\267<\000\337\233;!a\004\271\010+\364<\320\211t\275\376\221\013\274o6\017\276\266B_<\024\0312\273\333\201\217\275}\250~\2756\016\242<j\256\236=\221\307\003\275\345y8\273\177\004?\275\010LV=XV\346<\212.1=\200\024\037\275\021\225\203\275\016\003\232=\324\027\266\275\275\370\235=\321\263\217\274=\351\013>G\235\255\275\005\273c=AH\237\275\177\324x\273g\360|=0\306\030:\030\n\246\275%}\200\275^\272\370\274\022\335\252=\026\013\032=\321n\256=\353\220)<G\'\350\274i\200e\275\033\213w<\376F\212\274jH\327=0\223p\274\262\365\366;\030\265\332\275I\264\351\275\317x\205<\203\2533=3\335\261<\005\364H\275\331\215h=\316\373\332<\332\010p<\023\251\366\274\310yA<\303l6=\260u\002\275\201\331\265=\343g\301=\320\303k<v\206$\275\253\236q=\rk\212=\374Z\234=\241\315\266\275_\350\'=ds3=S\322\333\274\246|\0069\250\354\035<\314\214z=\004\"(>\306\317\351=_|P=\325\2063>\251{\215\275I\3054\275\332\233w\274\203\016v=lc\003\274\311*\3339A\325\346=\354\2615=\"\214\245\274J\330\331\274p\222^\275g\307\342\274\310q\306=\317\261\375=\024\341\322=4+\332\275\361\250\323<\267\032\010\275\246\0217\273\214n\213<[\017#\275x\247\322;\370B\007\275\237\226x\275h\2322\274\251\214\037:\035\274%\275\\UB=\371;@\275\234\003j<\003C,=\331!S\274\024\257\r=\354K\353\273V<\006;4\367\201=\251z\270\275\256\350\327\274\210\020\300\274i9m\275\350\311\t=\234$N\275\203\022\274=^\376\237=I\245\t>V\034\267=\225O+=\332\317\007\274\323\234\023=\313i\335\2749\314,=\307\n\254=\241\013\021\275\260`\202=\363zL=f,\221<\010\3250=\275\301T\275\032\333\300<\275\263\234<\311\220\267=\003\226\010\276\321PQ<D\371\363<\263\276:=\326\000\037=m\310M\275C\372\242\275\373%\216\274M\265\027=\354\214\036\275[aX=\230e\251\275\033x\032\274@\250\005\274\307\362\256=E\026\027=w\374\344\275\257\273\202=\n\250\300\275a:.>V\263\337\273\237\305\020\275\254\214\323=\307\023\275\275\302 b\275\253B\202\275\235\310\355=L:\004\274\202\223O\275\266\256.=\337\366\005>\247-t\275\331\rK=\010\030\\=w$\276\275\025\337\270<\264\025\253\275\006\202*\275\220\010\226\275\363\317\t\275sR\210=\300\034\205<,\332u=\221\325G=\00217\275\227\201_\275h\200e=()S\273\364\3351\276\352\262\013\274\004f\010\274k\006\261\275\372\276\252\275\t+\237=\037c\032\276\030\214\004=?\220\212=\213l\246<\224\324\217<\tpL=c\215\031=\363\344\311\274\310\0026=\373y\236=\322\224\203=\373Hu=\025\247\013=&\317\223=.M\001\276\024\365\303\275\224&\232\274D\030\\\274\235\357&:\2104^=\326\315\302=}>\037=\255\252\335<u\232\357<;\246\177\275\003\313\210=\327\022\303;.W\257=\226T\345=\243\020=\275\243\226F=Z\020\331\273\265\216!\275x)\003\273\346W\213\275w\324\205\275)9g\275\241^v\275!g\320<\306=\223=d\n\312= \0320\275\"\255R=D\277F=9\342\370\273\330&\316\274\375\271\235\275\313Jk<\000\277\334<8\014&\275\2200\253<\313\326\003>\260k\206<\272\243!\274\327%\245\274\303\324\240<\244\235K\274\341C\216\274\211\235\305\2758yB\274\362l\212=\357j\024=E\344\275\275K\256\270<z&Z\275\014\203\r\276\003\345\317=\'\r`\274 \322\223\275\271\036S\275\377\340\227\274\014+\350\274}\324\010=\227\206\327\275\247\t\323<H\243\337\275)[\225\274_\235K=\033Y\242\275S\010X=\354\340\266=\001p\010\275_\244\251\274T\035\215\275}\222\235=\204\230\022>\231\273\017=:\354\257=n\240\225\275\217,f=$\366N\273Y\302\214\275\305\330\303;\251\307\316<\350k\304=\017K\355\274\317(c\275c(\237<\364\306.>\024\231-\275(\326\320;\002\013\363\275\324\317\246=\'Q\346:\027\273r<I\210\221<\231\001\372\272\374\247w=\376\373\341<\330\202\377=\274\341\005\276\004\027\367\274h\223\253\272b\r@\274\253\034+\275\300W=\275\350s\216<\330\'\234\275\366\027\035=\312\022b\275\332z\'\275\310\014>=\222\323b=\223\355\235<\203\305\253\275\377\357\241=\241c\325\275P\223\024\274q{q=6\033\375=~\263\243=\232\366u\272\326F(=?!\231\275\255.\231<xT\257=\006(\000>\273a\006=O\245\273\275^\r\237\2754T8\275\372\347\215<\340*T\275x\253q\275\217W*\275\315C =e-\316\274\274\246\227\273\342p\202\275\251PB<A\342\321<\312`\265<\370y\010=\230\364\276=\215\023\345<\274D\t>_\344\362=[S^=\266:\367<\000+\313<\231\250*=w*P\276_HA=\002X\316\274\201\010\025=v%\242<\307\320U\275\251o\370<\306]\270=j\370\263=\370\370\233\275\305\\\226;\344\n\276\275\003n\027\275\226\346{\274\313\347\021> \366\316\275i\304\206\274.\024\361<\351\371k\273w\312\3419\'\310\345\274Q/\266\274x\264!=\214\002$\275\325\272\245\275A{\267:\302\220r\275\031%\226\275\203\355)\275\260\014A=\016\215[<^\263\371\273\332\241\323\274\347\305\363\273F\353{\2758\002\273<\245\313\337\274\251\n+=]r\003=H\235n\274\001#<\275%\231\004;\0242\204\275\244\266\030\274r[\270\275M\342C\275x\3017<}@\000=\367e\215=\367!\275\275\360\001x\275\223\326\312<\000%\267<\333\366\256\275D\350\224<\345\366\032\275\304\000\003\275h\3105\275|C=\275-D-\274\r{`\275\364I\214\274\217\305F<\030\265\224\274\210w\310=\231!\220\275-\024\254\275N\023\306\274\206\227^\275\324\005q=g\301[;)\325\312=\010\256\212\2740\020t=m`\002\275v\366c=\371\316\262=\334\306P\275\220D\024<i\364*=\375$\240=>\344]=\353{\372\275\336\346\221<\214D\315\273p\264\216\274\213\216\215<\262\374\333\275d\005(<\351\n\356<\203\315G\274\347\002\347=v\212\201<\027\346m\275\316]\256<49\241=8.\000=\037\203[\275?.S\2757\343\002=\362}\251\275\231\315\252\275\2128\027\276@V\223=\371\373\205\275\265\"4=\356\330\224\275\232\213\341;\216B\375<\022g<\275W\252+\275\320\006(=U\010\211\275\356nT\274o\355\353=\336-=\275&2\264\275eB\004:\243\311/\274\005=V\274\t\240\"=\366\016\221\275Y#J\275\353h\217=\233T\r\275\321\366\022=\241\236\203\275[\303\263=\304\227Z\275\307\274W\274R\266\217\274\014\231(\276`=\262=\246\013\275<\365D\235\275\277\037!<\376!\233=\306@\216\275J\350\202=\376\241\353=\253\345$\275\225j:=\0078\"\275\343\371 =\352\001\317\274\311\317\331=\032A\2128\030%\237=\231\331\345\274*\371i=\272\364\244\274\372\357\313=\000(Z\2755}A=o\010\371<\005\207\022=S\004\035=\377mn=}yp\2755\241\230\275xX\263\274\267\377\001<\'d\227\273\332\363\213=\024\255\221=\305\314\'\275\316H\363\274\323Q\001\275\003\014+\276\361\255\240\275A\262\030\2757\313Y\274\377\371\206<,\250\336<\035IU\274\305\242\254<\013\345\373\274\231\t\221\275\373\243\204<\335|\361<\203\025X\275\265]\311<\300\004\207=v\356?\273_\3510=fOX\274\221\354\203\275\315?\310\274\270\246l\274^\320\265\274o\213J=S\rt=\203\376`<3d\035=\216\313\277\275\355\335\220\274T\\\224=C\375\242=3p{\275\200x\224\274b\n#\275I\000I\275\037\021\340=\223\r\270=\226c\346<\351G \274\351\255\241\275\243\206\223=\335`8<,\001\315\274\240\357\232=\020\306\\=\312\346>\274\256\363\007=\026n\243\275\014\020+<`R\350\275\375\036@\274\321\002\333<1JK=u\342\241<\375\325q\275\251\3214=\310\"K\275\271\025\363<j\333\332\273j\213\205<\217\t\267\275\355\2330\275`\264\265=\371\205^\275\367\350\323<\351\361\013\276t\006\363<\331C\321<-\203\271=\230\325\263\2757\323H=\265\315X<w\277n\275;\303*=\260\305\255<\313I\343\274J\301l\275\344\204\214\274x\006Y\275T\300\267<)6\315=\356CE=n\3462>\300\253P\275=y<\275\331F\035=\356\3025\275]\303o:\352y\232=/\021\317=\360w\244=\250\255#>\0265T<\024\226#=\353\251\307\274\371\365\030=_\2014\274\305\310c\275\005\350\211\274e\260\376=\353\235\004=/~s=\364\020\350\274\374\001\325\274\355Sg=o\262\017\275#|\332<j\323\006\275I\315=<\003k\355<3/\212:\337H]=SD\320\275\023N\233<`\255^=\036\312e\274\370\324\307\275\351\204\317;\344\235\203=\352\377\024\275\232W`\275\355[\242\275\372z\253\275\201\323\347\275:\317\255\275\001\343\031=.\232\335\274\323\313\304=\302\347?\274\217\223\277\275\304*\331\274\364\306\257\275\365\227[=\312\014a\274;b\321\275\245p\231=\343\213\001\27531\211=Y\332\204=\247\273\346\275\306\244\207\275\215\005\316\272 \236\260<a\023\222\274\277\252[=\265Z\014>\201\311\260=\311\261\027\275\347F2\274@\207\300\275\312`===,\001>\243\370\204\274\274\323\230=\231\324\242\2749V\017\2768|\324=\036\354\035=l\305\205\275\177\217 \2747\211{\275\317\3153\275t\302\374\2741U\225\2756\354\213=\351T\361\274\360\336\326=P\254U<\013,%=\230\304\\\275R\212\034\275\006\025\001=\367e\342=\276\265\001\275\204\215\215<\2076\002\274\373\352U<v\3669\276\001y\372\273X\"Z\275\0345\200=\\\376\354<}\216\376=oVJ\2753\241\256\275[\312\313=\346,.=\220\370\274\274\"\300\033=-\273\216;q\215\005=\345\020F=\203\251\000\274\231.\031=\261:\223;d\363\002\275\220\335\233\275\3326\275=(\345\234\274\022j\346\274\002\034\256<!\276\021=\230\353|\2745\243\215\274\221\024\325:\'\005d=>\316\262\274i^!\275\255\247\025>\217\371\253\275\214M\203=\371\336.>\350\334\221\275p\305\254=\351\034\353<Q\206\303\274\255o\245\275q\014\005\275\220\224p\275\325<_<\372\312\037<\231\352R\275n\275\206\275\204\300\223\275\236\373F=\364\316\211\275N\306\265\274\030\353\232\275\274=\314<5 \031\273\363\2703;f\351\003\2768\357k\275\302l\242=_\322Z=\330\307$\275r\374\017>\325\256\023\276\213\365\237\274\321\0007\275\tf0\274\316.\037<\236Tx=\213\317\354;\3140L\275\361\010\t=\347U\351<Q\336\235\274\022\237:\274^\007\331=\'\034~;\235\315\364<\363\300\r\275\010,\021\276\360\237\002=:\251\356<\241\3462=\220\223q\274\3302\205\272\373\240\355\272iZM<Gt\025<\260%\370\2747\360\330\275u\320w\275\374\023\310:=\336\271\275\014\033\202<\2137\221\272\002\242\370\274\363\373`\275\254\037b=N\214\212=\013@k=K\222\013=\213\255\253\275\314\326\215=\374(\327\274\240~\'\274\220\342(\275\332\314\204<\313\250N=\034}\035=\246\005\353\274\346\224g\275\250N\363\275~,\227\275b\355\r=)\223\036\275u^\375<%\024\351=\024\313\022<q\322\274\274q\332\205=\350\312e<\364\177v\275\236<\016\276]j+=l\213\264=\2320\212=v\t-\273\001\312\274=\250\326D\275\211\252\'\274\262c\201\275]\023\\=Z,.=rr\205=rY\343\274\010q\216\274L~\201<~\332-;}\254\227\275<\252\232\275\225I\275<]\275\010\275%H\361<40\003;q\266\267<LW[=b\2747=\240\t\253\275a\r\323<T\366\013>p\312\276\275a\003\217\275d\240\251=\344\273\320\275CAQ=\364\336\224=\310\321\005\275A\343>=\263^\004=\311\204E\275\014^\231=\337 \244\273bc<=\272\2709=\326\330\030\276\273z\031=\262c\303=\353R\223=\264\363\237\274/\332.\275Pr\207<al\305<\327O\351=#g\277\274\304C\342\274\302\344s=\342\002(=\366\204\213\275\377n?=\220\244\272\275\223c\316\274\030\200\340\274\020\373&\2756\216\267;\271\330\207\275\033W\207\275\233\247\256<\310\355\212\275\205\320\305<\226\235W\275\"D)\2765\3249;\323Y\031\275\224\013\025\276IY`\275mh\217\275\022\346\021\276\345iz;i_\216;*\n\311\274-#X=\303\276?>T\331\240=O\020\244=\t\331q\274L\255\254;`tl=\002\235a\275-\252\270=\022%q=\250\257\352\275\242\334\274\275\007;\271\275\267\016\022\273@\326\276\275\257F\271<\360\376\341<\\\271B\274\260\r\260\275\371\366\341\273\223\007\237<E\266\225<fyl\275\343\251A<w \242=\332\254]\274{\370\230=[\"\257\2734\t\277\275UB\376\274\n\363\003\275\025\005\245=\331\355~\274\002w\007<\030IN=\360\263)\275\317\306=\274l\245p\275LQ\010\274\367\001-\275\241\024\321\274\266\272\204\275\212\006\220<\320\020\236\274\0145J\275\360d&\275Y\234X=L\036\274\274\022\233\252\275\000\303K\275n\370O\275F\311\'=y\322\361<-\223\261<\221\376\243\273y\306!<\304\227\236\275?\225W\275\355\025\235\275\3445\353\275)l\204=)y7\275RA\331\271\367\272\016==\216\016=\371\260\261\275\t\315_\275<\340\322\274\375D\026>\010X\330\275\210\206:=\373\235\023\2754\302\205\275\003\010\312;)\362\214\2753\241\004<\264\3646=\210\032S\275\322\207\260;J\007\342\274\252\252`:\273\340\035=\r\310p\275]qz<\307\235\244\275\026\036\377\275<\2523<\360\256\324<\267];\274%qg>G\2601=Z\275\260=\201B\037\274\231\245\033;\033\255\276<<\240~\273\236\243\\\2754\313?\275yp\243=\257\257\n=v\n\032\276\036\370\023\273\276\211\035=\366\205\023;W\006C<\312az\275c\024o\275\005\262\036=\"\346\312=Q\233\340\275S\323\004\275o\001\333\274\207\231\232\275\217D\227\275\310\312\206\274\237\004\024\275\376I\264=\300\212\233<I\010\307\274Y\241\215\275+\371\300\275\345\342\242=c@:\275\344\266J=\255\355\013=\000\310\001\275\027\243\300=\227.\013>(\304\006=\345O\240\275\032\373\003>\376\260\203<^\261\376\274\305\373\335\275P\256\223\272\350\361~\274\300\315i;\230C\316\274\314j\235<c:\"=Y\373\337<\020\303\214\275P\n\245;\024\025\007\274\335\335\226=\024\227s=\200\204\010\275\274\331\004\276\2315\231<\302\216\037=z\006>\275X\005\255=\354\315\364;]\307\031\275ME\022=x\322\216\274\342\361%\275\222G\257\274\\\243\034<_\375\\\274\036Z\253\275\250\346\217=\216\306/>\336]f=6\220\267\272N\001\200=\022\224\247\275\001er;\341\325\026\275~\002U\275/]\007\275\220\347\211\275\274Q\225\275\2673\217\2756\337\225\275\223h\007\274a\314\340\275}\233\374;\274\300\314\274:{\340\275\025\203A>\315\372p:\312\270\347\273\343Y\331\274q\034\364<\252\274\320;o^ \274m\326$\272\266\265>=\3107\350=\324fB=Q\227$\275\321l\314=v+G=\317G\254<\222\0252=6\3137=\366\001\214=\326\231\005>.\374\032=@\250\254\275\232\216P\273f\215\207=r\250x\275[\0260\275\361\340\336\274\255\361\306\274\0026l\275Z\205]=-[+\27500\236;\351\242\225\275\361\027\344;E3^=\204\342\340\275=\260/=Zw\010=sF\241\275\020j\360\274/\3039\275\254\302\303<\333\347\030\275(\277\351<\241\230/;\342\272\231\274[l\202\2752[\224=l;\034=n\243\306\274\372\366\245\274\220_\226=\013Ol\275B#\307=\251b\302\2757\225\016\275\261\316\376\275\020\254\010=C\227M=\303tV<F^\245\275\364\013\377\275\025\324.\275\230\210\376;B\325\325\275\303\361\270=a\314\340;\247\220\232=\360\271@\275\202\347\013=\031\315\327=y&e\275\030\\\227\275\214i?\275\323\363\302\275\216\241\327=e\240\223=\373\313\245=X7\341\272!\324\246=@\227\261=\344\032\204\275d\275\277\275v\226\036\275\3668o\275\270U\341\274\035\345\264<Ya\320=\277\324:>\035\201g\275\"\270\005:9\202\202=\220\357\020\275\367bW\275\341 \261\275uV\314<&Wd=v^\346\274\321%\006\276\223\225d\275\336\037\355;\322K\341\2758X*\276\002\300\206=Qe\201<\377\220\241\273\016I\022=\r*I=IRx=,q\024\275\336ZR<\3071\353\275$r\265\275I\343c<z\375F\275\363\371M<x\227\004\275\366\306\317\274\222\2242=\331\273-\274\214\\\226;\262\227\323\275\377\231^=\204\n,\273\326\371\227=\036I\306\274w\304a<\247\275\321\275=Y\212\275\245\2765=\235l\364\275\375\217+\275\376\377\260\274\31004\275\231\250\223\275PDd\275\225X\313\274\334\ts=\272\322\"=\023S{\275p\013\210\275W\210\022=p\007F\275l\305%=/\211t\275c\374}<\205v\226<\031\217\347<\035=\254\275n\024\036\274\353\216<;;\016V>dK\333\274\202\216\"\274xv)\274\364Mk<\335yi=I\005\230<\342\002p\275\367\311U=\222qP\275\371\210\225\275\\\227\363;\337\300\213=\377\213\315<\210d\220=\205\214!<(\340\316\273T\031W=T\020\023\275\370\200\241=V\356\234=V\177$\275\027\031\267\274\220\220\275\274\346\333N=_S\023\275\246\256\372=\372wu\271\377\256\222=\320\025A\275^\030\007\274\306\245:<\013\177\216<\331\2509<3\372\017=\360\307[\274\372H\373=\246\355v\275Mh\347<\241K\000\275wp\010\275\213u|=\013\t\331\275\316;\351\27547\323<\361\211\271:\224\036\215\273\245\232\014\275\312\301\322=\345=\364<H`\014<\'\214\270\273\235\013\335\274I\311Y\275m\006\216\274\003\256\016\275D\262\305\273\206\200&\274\"8\254<\250p\022=6\262\177;\326\336\t=\242G\361\274\270\336\205\275[\217m=\210\272\235;\375\331\361\272!\370b=v/\026>\275y\220<\243\340P\275.^\256\275\307\317>=\341gR\274}F\250=\342\016\005=\373\254\033\275\026h\002\276\312\273\347=!\254\213=i\351\253=H\034\207=\374\223\215=3\376E=U\001;\274\347\306\210\275?9\205\274zC9\275\331\022\253\275\354\263H=\242\274\177=\264\2641\274\021Kr<\300Zq=p\300U=\"\272\021=r\226G\2739\313\274<\304n\323<\026\303\311;`\364\307\274@\033\001\276\nYL=>Cn=\347\242\330\274\010\327\026>O\371L\275\246b\227\275\026\210\251\274\322Bk<G\214\\\274J\361)\273\3340\226\275a\366\271\273\260\355v\275o\313\306=ngs\275.\210g\275\3340@\275\273\023\225=\025\221r<\263\251\204<3ey\274\3626\274=ZUO=@\335\227=\216\023\t\275\372\016x\275\212S\240;Z[\202=\370\205\374<\351\274\321;\005\304\240\275\260f\215\273\231\212f:9\256\247<\n+?\275>c*\275S\363\016\274\001\203:\275\270\202q=\014\023Y<`g \274\277\375\200=\311\263\036=u\205:<\030\273T\275Y\366\267=\233\013\303\275\023\2256\275\n\025\212\275\360\364\310\275\264\371M=U\255\255<1Z\265\275\005\225\246=\277a\222=&\254\036\275\036H\335<\243\366\203=\225\220B\274P%E=\004\303\214<Ib\230\274\021e\200\275b@\214\275n[\000\276}\024\301=w\240\212\275\343O\033>\364\333c=\032/2<\311\274\311;\271\026\333=.\351S\275\031U:\275\337u\246\275`\274\264\275t:\301\273\376\010\241=\220\270\214=@\203u\2747\023\357\274o\234|\273\321\214\233=\327\205\212<w\3014=h\347\202\275~e<=\300\272Y\273\341\361\256\273k\236b=\244\177\241<,\240\317;\265\350\232=\240\256J\275\254\312\224\275\221\344\013=j\244\235\275\301\335h<\316\233\250\275F\3721\275:\232\206\275P\'\212\273&g\305\273WI\213\275\265H\251<\247\002\231\275\244?\036>\367]\321\272m}J\275V\275\214\275\304\213\340\275\2209\273\274\311\365\241\275\334KE<\3021E\276A\310.\275\322\t\324<hd\001\276\245\034\010\275\372\362p=-\027\213=\263R\001>\353\311\206\274*Q\302\274\250\343/\275\005`N=\253\276\305\273\031\346?\275\2075@\275\330\223\253\275\177q[=4l\230\275\366\206\251=s\205\252=\242TG<\266\350\360\275\333\222\250<v\253\225;\345-\203\275-[\340<\332\231\002=\345\267\246<y?\303<\366\215\230\273\360\200p=\333\233\230=\027\206\316\274\241$\213=\027d\246=\343/G\275\310d\330\274)\356\303\2753\337\361\273]\372\227=\364\372\232:;G\244\274\206\270\262\274\365\270\203=\243\222\341\275n{b\274]\371[\274\245\314\003>\250\376f\275J\212\344\2745m\037\276+>{=\017Y!=aI9= \224j\274\272\250\021\276R\236\374<\230y\020\274\004^\236=Y\264I;\204<R;\2311 ;\331:Z\275\331\021\242\275;\337[=.\331\300\274Bu\225\275\222q\364\275\010u=\275d\226(;BY\357<\0340\007=\225a\247\275\232\250\256\275\023l\037\276\260\340\342=h\336\204=\225(U\275\034\223\330\275\303l\317;\202M\247\275\007\330\323\274cK\253<s\275\233\275\224Q\314\274S0\023>\321:\225=ck*\274\324\377\320\274zq\336=\253\200{\274R\307\330\273d\226\024<\307\307P\275\032l\371\274\013\221\225\274\334\263g\275\240\246\266\274\217\302\235\275~\332\202=v.\257=\213cH\274)mG\275\254n,\275j\206\320\274\000\377\005=\235\177#>\342\254\252\274\301\372\n\275\267&\n\276\256L\242\275\025\344\263=\332\354\313=09\215<\314\024\003\274\201&\356\274\247a\255\274a\262\236\275/\213\213=SZ\301<\3205\272\275\336>\212=\335N3\275Q\330-\273\204\240\315\271\345\201\265\2751\222\367\273\224t\201=\253\331\306<\215\247\262=\036\265\225<-\016Z=\222\240\205\273$\006\311\275\371\321^=\241*\313=\220Y\320\275\303t\221;]$\274<\t\375\262\275\374\340\363<T>\324=Q\023\343\275\t\312\246;|$\177\273\361\203\017=6OQ<\203\r\233=\007\016_\275\242\037\223=\360Rm=)\321\266=\352\323\335\275[$;<c\372|;\231\330\370\274\202\002c\275\251E\'<\210P+=-$\006<eC\220\275]t1\275Z3\217\275<\321\274\274\317\005V\275\'\270\241=\241\177\234=c\2159=\204\022\301\274\343|\347\275\300\311\311\273i\271\206<%\315\333\275a\000O\274\026\217\207\275:\312l=\354\240\001=)4\213=\245\272\016\275\\$^\275$\275\221<\357\272\357=\241\232\303<E|\\<\362\336\330=<\216\377<\350\017:<\302=\177=O\033\352\275\362\230\254=\215y(=\311\205r<\256\037\214=\314A\370\275K\330>=\256S)\275\364\221\223\274\256\264h\274\004\r$\274\312R\016\275\361\007\203\274C=^;V\327\365=\200\307\342\275p\324\207\274\006\375\177=\250fX\274\370i\324\274\354\336n\274\336\334\350\272g\024\235=\3313\240\274d\025\225=K\242\013<\371L\267=\'\206\231;\236\250\327\275\376\017\316\275F\201\002=^\314D=\t\000\036=\211\336\330\274(\200\026=[\336\342\275\357k\230\275?\216\367\275\023\250\367=\203\3104=\037s\272\274p[\274\275\344\214\n\276\003\320b<Ax\'=\223\004K\275(\222\013\276\256&\177=L\300\254\275~s]\274g]\022>\270\356\204\272G\247\260=W`\035\275\021Q\365\273\334:\310<\356\375g\2750\252k\275}\003\223\275=\204t\275>FT\272q$H=\303\303 =O,\263\274\211\377\217\275\323\231\253<c\336|<\363\251J<\322R\240\275\254\245\374=\356\010\363=\235+\272=\030:\025=\334XE=!\232\007\275tBk=v\267y=S\321\022\273Qc\022;\275v7\274\007\234U:z\371\216\275\201\256\256\273\322\026\177\273\245\"\230\274\330x\311\275A\220\227=W\264S\2747\323$\275}\327\207=\263\2517\274\372\366\037\275\375\364\\\2720>\"\2757\024G\275[\'j\274:8\201\274j\204\025\275\267\332B\276\023\033\331<o\260\"\275z\324b\275\205\305\021=&\313\032\273]\257\001\275\242\243\317=\320\025\252\275\200\213D;E\036\\;\206T/=E\t\355\274<\252\325=\016R\024\2764o\363=\000\200\336\274\266$p\275\240s\230<\370kK=B\304\017=,\037{\275&\214\203=\346\005\364<\325\022\025<|\205\\<\225WY=\333l\301\275E\323#\275\365SX\275\305$\200\273\351@\267\275\325o\255=}l\311\275Y\264J\274\007[\272=\243\373y<\033\233p<t\233\266=\357\333\025\274\225x\354;\342\266\204:\203\304P<\027\017\211\274\372\372\026>lg7\273\267\336s<A\226\022=\261\372\235\275\t\201^\275k\373\016=\202 g\275\245W1\274O\326\240\275\034\257\273;\030\020\201;,\371\333=\201\354\336\275\273\223\'\2750k\t\275\333\304.=\205I\242<\024\205b;\036\344\227\274\345)\023\275CL\231=r\252\201\275\264\037\005\276\\\357\331<\203.H\275Ad\243;\241\241M\275J.\261=]W\232=\324\000O\275w\226B<~\362\237<\207\372|<\021\274\212\275\003lj\275E\202!<\3678\242\275\220\035\'=\371\375 \273\240N\005\273r\345\341\274l\303\353<\"27\275\253\323\025\275\215\251\\\275\364\031\361\275\032\307\366<Q\343S=\"\030\252=\330N^<\031\227\265=\036\"\212=\036\305\361\274\313&\274\275|I\260=xI\315\275<\352\240=\016\261x=\225\266\353\274:H\036\275\246\202\340;j\347N<\277\207\206=1\301\336=\003\251\301\275\204b\235\275\021\352\'=\000\204\315\274x\\\251\275\270\020\021=1O\335<\004\365\235\275\220{\024=V\240X<\'\036Q=\370\237\276;Z }=;\253\244\275\376\\t=:\254\275\275\243d0<\020b!=~\350a\274_\001\363<\013ys=iW\314<(\016\037=\324\037a=\302C\261<\353\320\001<L\203\221;\323\215\230<I\226\252=v\362\214\274\022\262I\275/\333\267\275+\207\345=\\\343\210=\371\267\017={\r-=\313\334\236\275\353\313}=\03749\274\241\030}=\321k\331\275\343\0109\275\001\251B=Y\207[\274\020\245h<\336 \035\276\354\212\247\275\377\366\'=7\264\256\274\214U\273\273\\\032\267=;\307\027\2741\277`\275\027Uu\275\340d\214=Z \270\273\024\264(\275\255jt=+\252\'>K\257^=\251I\300\275\200\231x\275\351R\315<QW\362\275\201\325;=t\370C<\362>o\275:\221\367\274\025\026&=l|\213<\351j==\006\232Y\274\210\024b\275x35\275\206w\303\273\356\3370=i\261\247=t\\\336\274\342\336n\275{G\023=W\353\332=&\307\324\273;\2424\275\264\031\207\274L\033+\276]f1<\024\276T\274\353\013F\274\261:\343;\210\202\017>jG\203=)\330\353=}T\207\274:\226\307<0\340w\275\267{\222<\'\037\243\275\202\276\320<\222aS\274\360}N=V\357]\2744\253{=\350V\230=\022|\222\274\333\231\213\275a\372_\275\252D\242\274\342\222\253=\227+<\275\265\327@=\025d\257=\366/\261\275\356#\013;\305\304\265\274\255\333\352;\3116>>T~\017\276\255I\020\275z,\017\275\307\341\331=\033\037E\276qz\223\274\246\216\342<\222e3<\233\303c\274\351\"o\275\235,\035\272\2612\354\272K\275\r=\361\026\007;\372\264\014=\267\247\214=X\264\"\275)\231\306=\236}d\275\336\'\267<n\271\215=\006I\'\274\016\206|=CY\200\275\215\025\213\275k\2543\275\023\334\325\272\016\337\206\275\350\203l=\224\332\022\274\003\2400>\311\322\346\274\370>\210\274G\366\007<\030\363\232:\346\374#=\337\364\020>)o\277=\210\2564\275E\021$=\023\266E=1\351r=\273$\342<\214\224\006\2755\374+\275\234\212\366\274\206\355\301\274I\257A=\300m\266\274\241\022\250=\241A\225\275\223)\354;\362iX\275W\236\267=\013`2\275N\321\272=c\353!=6\246\317=\010\206\203\275\033\204\341<\356\245\007=\263 \256=^\326\207\274\337\2377\275\221$\252=&#q\275\216r\251\275\367_L=>9\203<\022\250\223\275z\324\246;O\005\257\275\376L\367<\305-\361\275\033\003j=\355\026\340;\013\243\223:\222\'S=\214)S=\365\216\026\272\261\321\231=n\336t\275<U\225\275\376\335\344\274\354\233o<\323\013\211\275\265\205\031\276\261\336D=\r\253\213<\360\310\224<\023o\032\275\351\340\203\275\365\006\201=V\330m=\356\315?\275\313C#\275\200,\013<\343B\247=@;\374\274\237i\260=<\304]\275\344\313\264\274\376\366\027=r\314_=~\331\222=\316E\261=2\007\206\275\236\232\236<\177#\360\274q\273,\276\257\247\024\276\016`\342;\357V\036:B#\031>\353\261\226\274h\301\233=O\377\235<\364\216\355\274*\303\233\275\256!f\275\370>\314\275\'\2275=}g\253\275\365\237\311=%\022\272<!C\241\273\327c|\274AU\204\275Bo\347<F\353\270<*\331\372\274\274\3248\274\375\313X=\030\3341\2743\037\001\276\222\236y\274\ry\376\275\364\275A:\032x\031=g\032\315\275\016Y\000=\200\323\250<\3150\\\274\271\255\246=\331M\253\275\355\224^\275J\374\t\275\027^v<\236u\001=\331}1<\322\264\366<\341\344\264=\371\002\245<7\"R\274\267W\264\275\301\352\177=\302\267}=\255H5=\332\207\r\275\316\345\270\275\373\273\316=\220X\010\275\347\327\251<\2079\241\274&\221\220<\034\314\214\275i\360\031\275j\375W\275mtK\275\001\233#\274\\w\357<b\325\\=\332\3072=\316\330\267\275S\304\355=\221y\000\275\030\242\t\275H\214\216\275\343z\035\275\200\217\016=\036Z\240\275\023h\r=V\213,\275\267\n|=\'s\200\275\361=\033=\276q\325\274\237\003\254=j\014\030=\245h\362<\203g\207=d\220\375=\343\245\036\275R\016d=\251\250\301\274\202\246\244\275\002\306\222\275\325\316\226\275\351\353\346=C|\324<\0261\243\275\323x\316=\220\253\023=\337\016\"<\311\034?=of\211\275\256\373y\275\220U\231=\377B\225=\310w\014\273\230\200E=\037|C\275\205\010\022<\251\264\225\2744\215\306=\005\224\252=\325I\036\275Q\235#<2f\236<c\034\317<\232Ub\275\231\253\375\274\317\363n=\320\3302\274\345\036v\2756\363C\275\214\343\311\274\260\267\033=\312\205\260=\257\205\232\275\304\301\177=\326\263a<\177:\216\275\317C\356\275\201\017\377\273\332\350o=\356\204\023=\242\311\246\275\316\321\306=\301\247\007\2755&\272=\201\255\351\275\263m,\275n5\312\273\0106\030\273\031\261\311=:\220z=\254\361^\275j\276\030\275n,\330<|\325^\275BGO\275=\343\240=\311\207\007\275\221\367\231\275\024\025^\272u\347\232\274\032\304\206=\321\334\001\274%^\215\275\305y\273<\215;\253\275\275\301\314\275\230\0162\275\314\237\220=\274q\251=JCI\274\373\026\300\275\371<\024\276_W\360<\377@\311\275\327wy\275\207\030\033\274\260x\354=\215\220 \274h\371s=\004^\026\275:\030|<~\034Y\275\266\237\275\274Z\267K\276\006c\214\2745\010H=\232\222I=q\244n\275:\236H\275\255\351\362\275\335\257\332<_\220\205=\250s\313;O\200\206=\313\355\300=\334\3260;A\360[=sF\300<\330,\326\274k\206 =\224\210\001>\274\262D==\347\314\275b,\033=\001\231S<\311\332\301\272\235\227\323\274PIT=e6\377=\t\257H\274\201\320\376\274\004r+\276\374V\023\275\r\226\030>t\261v\275\2254\224\274\341{\031=\"\253\302\275\262\3739\275\253\314\244=oHb\275\2103\260\273\213\325\031\275\005O\3269\303\243\323<\272\215\344\274\246Nn<\270\332B=\030A\271\273\272\002\036;IEj=\023K\\<}!x=\203L\217=\016\027#\2748~\206\274\207_l\274s\360\262\275g\276\223;\351\337\374\274w\330W<F,\304=O\351\3639\233sO=\200\021\031\275\025\200\004=\243{o\275\251I\303\274\2062\t=\020/\275\275\361\303~\271\233\"6<\007\361\273=nm\205\275\003f\200\275:\267\264\274Lo\036\275\307^\254\275O\210\r\2743N\201<\302\256(\274\360~@<\311\334\003\275\037\013/\275B\325w=D\205\336<^\376\025\273\226\214\215;\305\203\344=sa.=\001\240k=\037\202 >}0\020\276\006<\270;\221\246|\275\2554\304\2748\257\025\275\277\340\220=\343bo\275w\220P\275\351;\201=\275\211\212\272\003\034\303=\240c\007\276\005\245k=\033\300\347=)6\334\274\214u\205=\037\301\031\275\341\315I\274\023\211\272=\262\333 \2758?\215=\361\206r=v\377K=\211\\\003\276(,\023\275d\312\253=\245\020\254\273\316\354\206\275c>\247<\275T:\275\010kV\275\362\313\260\275\331\204\340<\310\307Y\275F\245&\274\022\203\031\275q\007\250\275g\245\302\271\324gc\275\247\227\003<\212\036\347\275`\252\377\274UHC=Qy\316;}g\221\275\246W\243=\023\237\264\275\023t\203=\266\327Q\2757#\"\275\003\241\336<\213e\325\270\326\025v=o~Q\275\255\271\343<+D\306<I\034;<\202p_\275\2309\305=\266-\206=\017v\210<x\032M=f\252\213\275p\304\271<\313\317\t\275\270@q\274\200\364\215\275\247\3639\275yE\n=c\356E=:\t <\312\322]=\255\177\3079Hz$=\360p\224\273\313\204U\275\263+\203\274\244\324\315\275\276)\352=,\252\023==\320\262=\253\221\261=e\334\257\275d2\313\275>lr\275&\336\341\274\367\312/=,C\315\275\312v\361:\032:\203\275\225\027\225=\210\361\356\275\273\335\024>\014\005,=\301\247\241\275\017\305f\275\206\317l\275\034xX\275\206\177\317<\314L\'\275\336\020Y\274\230\275\017\275\331\204\363\274\360\372\327=lZ\233=\007\017\215<\233]!=:+\254=\252R)\275\014>\252\275\367\007|\275_V\n\274\274Z\n\274\265\245\302<\004$(=\260\036\244=d\247\000=\222\375\305\275\247\313\033\275\204\261\'<w\020\030\275\203\3742\275/_\231\275\273\224\251\275\r08=2\361\017>\240\201\027\276\313\370\331=7\251\016\2740c\271=\355\357!=\210v\317\274b\014\261\275\016\224\263\275n\214 \275\243\005\252;\253\234\326=\223A\302=\264(\267\274_Rk\273J\"\246<\r\210F\275\010\242\352<\224\311\372\274\213\025l=~\261z=\224\001\376\274\"\325\315\272WtF\275LeE\275\220\310\230\274\327\375D\275\350\331\361<S,\213\273[\222\207\275\224<\312\274i\020X;\201\022\013\275\026\230\301\273\344\237\362<\036\207\020>\372\227\322\274;\241_=\027\274\021=\336\021*;\\\253\t>>$\034\275G~\225<\317\240!=\002\343\016>1\330e\275\"\010\235\273\263\237\2158D\346\202=\307\376\261=\330~M=n-\353=<\374 \275l\376t\275\316\220/\275\035\244\34792\203\251\273lx\357\275\330\016\260\274\260\374Y=p\226\037>\246\350s=\025:\252<s;!<\006\244O=\035\270\262\273pX\206=\224\226+<\177\017\211=\304y8\275\363\270\'\275n\312==\000\377\264\274\200qC\274}\021\262=L\351Y\274{\030\224=\317&-\275*j\n\275\262\252|\275>\2000=/\240\020\275U\037\310<\214\r\371<\024\311\267=!do\275\315\270\350\274\315B\324\275E\257k\275\224Q\221=VL\'=\210\335\t<\201G\213\275\371F\262\275\330\3102= \r`=O\024P=%\225\363=\351\345\213=\254j:<\200p\232\275\226\241\234\275z\310\006\276\266\311\276\275\345t\255\274K\225\303\275\023o~\274\032\017\223\275\232G\330<M\344\203=l\370v\275\2132\201\275\357<E\275\2704\261;4VF\276\201\034\221=u\361\322<\225%O\274P^0<\335\036,\275T\033\222<\t\237\"=\227\t\342=\247a\202\275si~\2759\002\275\274\000\335\031<\025V\244<\335K\\\273-\250\346\273\204Zp\275_\035\224=Z\371&\273FX\020\275h=\212<8\273@=\236\273\233=jo\014\273#\n\256\275p\302\204=)v\206\275]J\207\271\244\363\022=\375\204\007=\314\206\240\275\007\245\034\274\367P5=\177\344\345\274\342C\320;\304u1<\314\251\226\274p\271\270\275\243\271\340\275u\t\035\275\020tx\275\366\361[<\370jk\275_\272\333=|\016\344\274\234Eo\275\227\367\037<d\344F\275\310\323\033\276s\007\227\275]\264\234\273T\265 \274\3219\262\275\t\3534\273\022\307\300=V\357\234\274\314\301==\372Ax\275\016\301\226\275B\333\201=MuI;\375@\342=D=\243<\356Cm=2\001\335<\357`7\271b\371!=G\254\215\275\353n\202\275\206?\360\275\303\000<;\256\020w<\277U[=\213q\367\275\022Y\321<\277\266\254<\206R\321\275\340\034@\275?i\255\275<H\326\272\257\032[=\206.t=a\360\264\275\215\017\377\274\'\244S\275s\031&\275\017\243\210=\321\2505=k\302\264<\216M2\275\332n\364\275k@\022=\365\t\346=\340\337\273\275y\210)\276\267\324\260\275(O\234<f\232+=\022\332\223\273e\020\233=\274\260\022\275\230\003\235\275\220z\255=\204h1<+\271h=F@\217\275lX\004\275X\360 <e\2660\274\304\231E\273\030\302\220=\217\315y\275>\216\025\275B\244\263=\2404\370;\220\377\207\275\327F\274\274\276\217\r=\033\017L<>\313.\273q\242\307\275ZS\246<\007\323\264\275^u\336<\350\177)=\231}\223\275y2\361\274g{\263\275\341\004\315<\240\313\247\275\326_F=<\374\310=0\251\364\274p\004<\275\303&\324=V\307\247\274\372\033A<\207\005*\274$:O\274\210LN\274\361\366\272\275\373\252\245\275\303\002\260==\315\367\274\342\361\274\274\241}w=pB\035=\367\317_=\312\367\200\275\207\020\312<:\254\014>\031,#\275\257j\240\274\221\347H=-\371T\274\010o\213;\337\231\026=k!+=\003\200h\275\207\302\331\274t\265\014>\025;\274=\2624\333\274\nnF=\373\230\203\275\347E9\275\213\247\006<\302\373\025<\034\004o\272\342\356\030\2746\337\224\272O\246\374=\260E\'\274\300\034\006\275\343\203\312\275D\237\267\275\307\240\216=\005\273\322\275\375\225\207\274\016\344]\275\204\353\250\274\267\240\t=8\303\323=\037P;=\271\211\215<p9\316\275J\266+;\0311o\275.\030\346<|\351\276=\'\356\">\254\376O:\241\304\006=/\331\222\273\270sx=Be\016\274\353\245\250<\205N8>\245\236#\275C9\007\275#\353\303\275\274(\245=%]\364\274tV\327\274)]\372=\214\235\023;\374`\'\275:\233\227\274yLH\275\252\013\r\274\327\t\025\274\325\033\277\275\331\306\353=\034\205\344\272\006h|\275n\024\010<\346\020\266\275\3510\351\274\302\021\236=\303O\035=Q\235\005\276\375vc\275\365c\313=\211\205\245=!\233\207\275PA\336<\334\306\302\273\341\305\224\274\277\220><\310\325|=\002\260A=\353\262-=\372\273\t\274\311y\234\275I\241<\275M\342j\274E\306T\275b|\251\274\257\333\217=\313\211\320<\017%\'\275\n%\'=\317\252/\275\375\t\014\276\250\240\272=\376\177\031=M\363\025<\340\271\336:\234\337\"=\362\362\336=\334\304\245=\352Fh<l\351t\275\355\213\324<\260[\334\275\033fq\275M\313\314\273E\364\336\274\2272\006>\215%\243\273\010\305\023\275Y\316\034=:\2441=\220\230\200\272\032T\300\275W\343\254<\367\251\3678\237=o\274\213\314G<q\333\020=\201%\306<?\377\222=\365\035K=\013X\362<T\206N\275!!F\274\3315?\275\037j\202\273\310\363\242=\326\247K=bd\003=\033`\200\275K\360\010=\332/<=u\226\356\274N\227\275<\362_\234\275\345\246\030\274\254\3658\274\264\270\314\275\010\245\023<`& \275gv\363<\260\275\316\275w\315G=\204V \2768G\271\2749S\312=|x>\276$\211;=Ic1>-\353\n\276dI5\275V58<\344+\255\274\030E\262\275\343\205@=\037}\031\275\013\301\246=\352^\'<..\204\275M\n\330\275nq\310=Ut\324<\222HJ\275%\375\027>\332n0\275\363\352\251<\346\367\031=\2658\213\274\006w\244\275!+\332\275B#\n=\244C\344<\357\255\n\275\314\007\225=\237\203\234\274\343\211\026;UA\205\275\340m\360=\301\252 =d\262\320<\000)6\275\n\000\267\274\353c\253\274P\315\270=\275\235\271=\277Cy\275\346G\342=\245\026O=/\256\334\273\\{\205=\037\005\304\275\225v\225\27436\016\275U\215\n\275\370\227\356\275O\335/=&KR\274\273s\224\274fr,=\006\332\204<\2267\322\274\003\'Z\275\373;+\275\367]\253\275\330\363\256=\364\332+=\312\023\215=\007\010\206=7\233\013\276\353A\234\275@?@\274N\245\225<\301\222\003=\305A\030\275\253\242X<\224i\t=0x\202=\211\371K=y\340\225<irv=\267u(\273\370B\007;A\3420<Q\343\332\273V\344\006=x\n\241<9\235\231\274\252]`\275\032\271l\275I\272w\275w\355!\273\240\267\377<4\261\310\275#\216\225=\002E\020\273\353\304\217\274\356L\205=\340\343\253=\372P\372\274\204\320\261\275\t\376\025\275X4\333=E\316b:\266\033\216=\212D\307\2723c\022=+\272\005\276\235\3260\275\275^\367<%y\356\274R\274\244<vqT=\320\341\263\274ZVY=\257\310o\274\331\240p=\035C\021\273{\274<=\350\237c=Vq \275\226<f\275\356\251\001\275\263\017\251\274\377s\201=V\201$;B\304\211=\242\200%>@\223\344=ca\263\273y<\026\276ST\261<8\372\223\275\315\223\240\274\226$\005>\277\233\271<\247vm\274Q`\210=ad\024\275\375-\334<\274v\321\275*Ve\274h\276A\275\355s4\2712\r\334<\265T`=\304\016\036<f\330m\273\370\213\301;\306r\371\273\370!\343\273\225Z1\275Q\354(\276W\373\026\276\'\3636\275\254$\263\275\371\t_=\277\247\022=\266~\333=\333{\220\275X\315\257\275<\376\241=\356\322\262;}\254G<\304\277\242\273%3\254=\302\231,=\347\330\224\274\227\020\276;\323\336\355\273j\215$\276j\365\265\274@\317\260=c\3528\275\263\251U\275\356r\315=\033\\\265;U)\267\275\224!+\275\316\375\313<\271z\254;\321\235\351\274Hm\203=\026\260>=k_\254\273\013\t\200\275N9m=`\356\263=0\242\303<\262\353\266\275u\306;=\306\014\310\274\365H\347\273\";\202=Yzd\275\254\036\250=\000\316\n=\341\366\206<\234\263#\274Q\352>\275\327[F\2754?<\274\312\021\206\275<\241\313<\246\307\212<\300U1\275\201&\251=x\356\200\275\240\337\246\2757.\014\274\201%\032<=\251\224<\276\014e=\327@\317=\263r5\274+\324\221\275\375\355\303=\256\023\212\275\251d\326=\364\210\263=\251\253s\271\277o\337\274\361\363\361\2746N\334<\305\365\264\274\t\377Q\2750\304\001<\322N\200\275\322@\370<\310\303K<i\200\275\2732Bk=\301x\311\275[\311\251\275\264n\026\275xrO\274\247\220%\275Q\330\266\275\207\225\025\275\034\316l=\312|t\275\260\323\314= E\277\275\'\177)\274\013\277\'\275\016/\225\272\267\334\r\275;pH=\237\313\223\274\023\2552\275\332~\330\274\213\\\235\275\220r\245\275\021\235}<\362\373\032\273\270\016\177=d\273v\274\245\353w<\330r\235\275\\TN=m\373\305=e\221\251<.NG=qM\263=\374\376\020:RQ\330=\005~\016\275\263\301a\275\263\320\336\275\312\211\332<g(k\275Z\241x\274\211\321\250<\304#B\275\272\004\372\274\']\014=[D|\275q\310\254=n\331\306\275-s\n>+\344`=\244\257\020>\001 ,\275:W\374\274\031<\366:\302\016\255\274n\315\220\275\005\335\014\276\351\350\246=r\214K\275\353e\030\275Z\204\305\275\2713\305=\212\225\240\275\257\013\211=\027\274\026=\345\370@\276\260\367\365<\257\346F<\205\355\254<\2135\236\275G:\276<\271>\231<\221K\030\275\247v\370\274\024\231/>\n8\032\276\235\002a\275\256\273\236\275t8\250=\350\036\024\275\263\245b=\212.>=\346=M\275\331\363\342=!(\203<\267\207D\272\324\037J\274\366\356n\275\0049\303=\n.\r<\366\273\027\275#\242\230\275\001\032\005\275\274\237%\275\232\020\002\275\0323\"\276\344O\274<\302\2029\274#\307}=\351\017\244=|\316\263\275\234\374;=K\336\203=\357\\\372\274D\204{=e\350\201\274rFT\275S\242x=7E\360;^P3=\371K\332\273\345\260\371\27395\236\274`\310\245=\324\007\303\275#\236\276\275\272\016\224=\256\020\207\275-\260G;*\005\203\275\256\360\213\275\351-\035;\335\250\313;\213\360\370<ZP\031\275$X\260\275qGM;\237\210\226=\212\265\263=\353h\324\274\375>\277=~>\236\2754\270\227=\341@\305=\323\331u\273\305\272Q=\330\031I=6\271\245<\024\264U<\200/4\274\303\226g;\310\232H=S\364\236=7~\021>\265\332\271=!\315\336\274\240\356\252=|\"w\275\304.D=Hp\215\275\234\001e=\337\250U<\t|4\274\336\034w\275\322\325\222=\224mO\275\311\323\016<\345q\210;\225>\277=z:\255<\026i\014==\233\006;\220\237\202\275Ki\226\2752\272\350\274\007\340\270=\245|Y\275\010\207&\275\205\353\t\275Ni\274\273\205\333\236\275\354\034*<\327*\216\275Pd\257\274\336]\033\275D\201\202\275\035;\014<sA\213<P\357Y=Ab\257\275H\374\305<\3747\220=~\220\252\272\367VP\275\354\010R\275o\025\036\2756\335\304\274nc\320=\276\233\223\274\0167\235\275\221A\377\275Z\211X\274%\267\326\273\325\212\256\275\255\031\334\273L\027\233\2732@\235\274^*;={\031\003>N\262(\275\247\315t\275\r\310==\362d\305=\035\206\234\275\323\316\277<\363cl=0\223k\275\363\243\210=\234|\304\275\312\252|\275\265pL=|G\204\275\336Ef=\221s\027=\360A\313\275\252\337\016<\231\003\303\273\227\372\016\276JT\235\273\241\274\261\275w\032d=X\243\315\275\007\356\266\275~\341\325;\237r\375\274YIv\274,\237\000\275\r\nl\274u\303\266<\352\356\'=\227\321\327=\366\261j=\313xf\274\343\261\020\274\377\324A=\365G\331\275\254)\233\274\316\200\215=yq\036\275;?\260\275\325\300\354\2753\225A\275\341a\217\275\376.k\274\323(\277\274\215\360L\274\254\276\373<Y}\331<\375\'\264\275\220\252\255<\240L\020\275B\315\260\275\r\t\207<\323\267\022\275\356\363\017>I\3503=+Q\240=\310?\347<\262>B\2750\n\014\275\373C\341\273\245\211)=/s\345<\373\2245=-\263\020=\221\363v=\024!\021\275I\217\332=\r\372\006=\364\177\273=\025\345l=;\2172;\252\243\"=\304]F\275Q\000\224<\025\305#=\241\227e\275\364=f<E\017+<\303\030\320\274L4q=\232\010\306=\343r$\275\022\273.\275\235\307\006\276|\244\017=\312\2610=\265\027\256=\261\223\226:z]\352\274Pt\211=\346\277;\275\321Z\221\275\204L\'<6\246\\\275-\314=<\266zL\275zz\204<\211\345N\274\331\204\201\275\234\253\220\273B\250\265\274\331\r\214=\226\301\007\275\225\246\307=$j\366<\177z5\272@KZ<\177n\347=cN\247=\365+\004\276S\324\211\275\244\271\250=\2425:\275\214\n\310\274\016\303&<C3\335=\261\264\007\270\014\365\340<\224\005\351\274\013\363\226;\263\272\030\275\222\027\251=#N\234=\304\245\316\274\305\371\217\2728L\347\274#\215\251=\330t\277\275{6r\275\001\274F\275\270\364\277=\310$T\274\353\202\215;e,T=OF\036\275\262\023K=\232\014\036\275\316#\357\274\222G\351\275\206\216\006=\244\331:=l\242\230\275m\335\205\275\360]\347\274\3078\223\275\271V\020>|\031\371<\322\t\307\2759n\017;@\253\252=\227$\201\275\363\nP=\207\300\216=$m\234=\352\302\204=\362\342\322<\t\204\213\275\354\203\004\276r\257E=*\363\334\274\334\027\223=b\225\232\275%\362\365\274\302\362\257\275\327\251T=lz\215\275\344\372\213\274Mb\001>i\317`=ks\363\275\367\311\023\275,<Q\275\370\024\343<r\024\325\274\254\376f\275M`\263=\277\374\026\275\030v4\275\020\367p=\020\261\225=[P^=u\225%\276\331|{=\3372\314<I\373c=\342\235{=\013\377\350\275Z\257\'<cXM=p|\262=\3245\237\275\244\362\016>\004\237\321={\276\025<B\360\222\275Y{\205=\344\246\217\275\376\375}\275\354\267\250\275M\'0<\267\265o<24\212\275I\304\233=\274\352\007=o\217\017<\375J\301<E\316\220=*:\206<Z\006L\274s\013H\274R!\346=\341\342\261\274G\007\"=g=:\275\362\273\213\274\242\265\340\274\244v\337\275y|?\274\275\233\250<N\344\252\2754\256\214<\344h\234\275\367\357\271<C?!\275\023uH\273\275\332\006\275\213\246\247\274\264\026\230\275![\240\273\264\365\361\273\022$\315=\236Qh\272\2307U=\372\226\202<\356\371R=e\036\227\273\017\032\305<Z\326\200=i\366\002>\210\246\205\274\357\021\274<3O\250<,\243\213\275\225\364\005\276\377\266\025\275\216\005G\2748\276\243=bG\n\272\230\323\200\275\225O\361;\303x4\275\017^\363<M\212%\276\377}\314=\317\032#=\320\336\354\274\3718\312=\351K\004=\310\206\374<#\335\277=\340\244\361\272bv\332=r}\232=\267\313\263<\230\267U=\354\243\363<,\t\326\272\370\227\265=\200\216\237=\365\310r\272\005K\016\275\340?\016=\036\331\231=\033\243\014=y\212\207\275\257\017\236\272:\336\337\274\272\031\020<\"\327\277<\336>\333\275\311\006i\2746\027\252<4\351\210\274\220`\201=\212;\245\274,\234n=\345\274\242\274\222\315{\275\214!\235=\242\243\034=\272\272]<\261\006\330=R\034\244\275)\356\305\275\235E\322\274B\367\334=5\231\217\275\027;\211\274g\3440>/2\350=\217R\010=\300\214A\275\023x\030\275\'u\230=\036k#=Q\345\206\275\3626O\275\334\036\250<\020\276\316<\356\345\237<\037K\235</ \341=z\250\213<%\257\324;!\276\203=V2\246\275\224V\300\275\335\307\207;\244F\305\274 \032\247<2\273_=\335j\210<\312+\232\275\221Z\274\274\377W\017=\273\313\205<\340\265\216=u\t\216\275Ty\272<\305\205\202\274%\313\273\275\225\336\211;\270\256\375=\34400\275\031\250\016>\037\314M\275\256\335\221=\376\340\235\2751F\230\274\000\231\367\274.05\275.IX=\335\210\032=\303\210\016>U\355\024\275\233\261G\275\253S\236\275Mf\235=Og8\275Z\243\314\274\023^\230=Em\260\275-s\211\273\017\251\211\275\372pF=\022\340\316;\330\214\233=\225\251~<\024\300\251=\316\024\215= \357i<\265\200\264=\320\245~;FeG\274\342\333\332<Q\302\211<v\240\374:\312j\177\273Rf4\275\371\360\024=\001r\362<\215\3047<\r\245\365\274\323\344\220\275\301\205\210=!\344t\274\314\3735<\032\220\034\274\016\261/\276c\266J<\376U\341=Cf\221<\023\353\325\275\276\327\232\274\007^\037=\300\000F=\364\312\001\275~\266\027\276\034=K=Ft\333<5\346\021\275=\314\304=Db1\2753\027v\275\250\313\210= N\327\274\177K\336<\004\027\307\274\364\013\036=$\362\316<l\360\267=\033^\207=\242\'%\275G\221\005\275#\263C\275\314\r\312=\216y,\275n/h\275\002;S=\377o\206\275Z\322\037\275\255\317b=U\375\034=\310\340\265\274\366My\274/\267A=\232\313\217;\305\340\"\275.fG=\010WF\275Ot\233=\020\305\211=.#\240\274\351\257\013\275\231r\225=7)\313=\2417\333=\3274\205\274\346/\214\274\005G\276\274\353\374~=_l\226\275\241\374{\273\362M\016=\210r\232=\035\335\263=.\340\260\275XS\264\271\2370G\275\262m\246\274\217\255\236=\021\330\240<\023@\205=\256(\231=\315(\025=\332`2>}\2613=\232o\033>Bj5\276\356Jz=\365hQ\275\001\r\317\275\202h\314=X\000\003\275\240;H<\3166\241\275_\360\013\275\246\207\361\274\360|\031=\346\306\372</\373\026=P\231q\274\216\372\000>M\357\326=\325\225}=b_z;hV,=\275ED\275p\220\267\275\356\202\030=\230\001 =\221\236E\275\371\031\373<\330\036\257\275h\215|\274\354\262\036\274\246\372\356\275\354#\354\274\321Y\322=\266r8\2745\010\261<V\350H=Pwl<\272\033-\275\223jI\275\010M\377=\373i\360\273\000\214\300\275)\3001\276\373\371\223=|~\257\274\013K\002=\300}\223=Gb\t=o\256,=,\253$=^\333\367<\345-\255\273[m\336<R\241\206=\024\225l\273\225\231\016<@\327\213=\205n^<\013\272y=\262\215\245\275\"\265\203=2\240\301\275\267\016\345\273eD\013<\020\262\024\275\221g\220=\240\373\006>v\363\005=\001g\344=\351\375\256<`\2175\275\243\300\375\275\326\1779<\216n\033=\263\326\321<\322\231\'\273l&\022=\315lA=z\333\243<T^\243<\274\033\257;\322Ht\2734\255\263=/I\265<J\010\334<rsF=j\027\033<8\343\203\275\3459\312\275\313E\315\275\000\266\356=#qS\275\226&.>5\237\017\275\'|\244\274\007\260\231\275\223)5=e\324\222=\211u\211\275\022k\366=\305\024Z<\240\276\332\274\022XA;\366\241\224<\'B#=j\300\343<s\021\205\275wq\333<\000\333\010=`u\225<\2611o=\243X\013\275\206K\205=\276A\237\2721\010\032=O\313g\275\217\276\212=tln\274\220\201\n=:\360\211=M\300W<\217\306\231\275\021\356\236\275Xq\r<\265\021*=|%\340<\317\224\355<F[\212;L\037\020=d\221\320\275\327\255\026\276\364YD\274\344=|=\307)\370\274y1\020=\226\363W<\005\272l=\2210-\276I\363\255=>\357E=*\302\267<^\022\035\275\022;\204=n\013Y=\225\342\356\275\225\216\240\274\306E\032\276gB#\276\244T\004\275\016\025K=Q\375\333<\232&\220\275+\267\234\275\322\344\335=w-\206\275S\301Q\275\003\343\021\274\277\031\270\275\023\010A\275;\331j\275\372\262;>L\n\247=\"\340\343\272\002D8=Ci\235\275\264`\341<\373@\301=\266\222\014\274El\254\274\305-\241={\356E<\225J\306\2751\210\024\274\177\312\034\275\260\223\346=6\204j\275\n\300j=\025\204\204\275\326o\274\274\340N\020\276S\024\277\275\315\323\333\275\214\363\036\274\355\244\266<:lJ\273$\247\"=k\232M<\272\013\356\274\215\255\306<\342\346\232\275\263_\213\275\370vI\273\274e\245=\346E\"=\366\3065\275\004\n#=s2\250<\006\024\272;U\373\233=\305LN<\333\353\256\275\263\3170\275z,\025\275\347\302\323\274\342\004\025=}.\320\273\026\315\327=D\335L\271\027<\016\275v\3411\275n\276\203\275\315\320\"=\244X\331\274\315r=\2758Q\205=\312\002\325\273\203\3105\275$\254J=\365\322\344\274\356\323L\275\031\225n=\005\020\022=P\212=<C\302\227=\n\0316\274\312\022+\273\255\310\035=\343\014\357=\373\220\204=\247=\'\275q\204f;#\261\037=R\r\342\275$c\315<Qp_=\013\017\253\275\210\236\035=;\305\212<\344\343\266<d\364\345\274E\352\'=\324\203Z\275\314\005\266\275)~\365\274G[\013>+M\357;\212\250\377<\345\2062=\306\325\253<jc\340=\212\177\331;-\"\030<&\250\310\275\221t\211<S\340\213=y1e=\266]G\274\322\231y\275\207\311\010\276\264y\251\275.x\273\275\273\327\200\275\024\231\324\275?\2466<\024\331\270=\"dZ\275\265\016k=:\243\026\275\315\206\301=\226\306\314\275/\t\251\275 |\032\273{\223?=\005Q\310<Z\201\234=\000\323~\273\313\344\224=\242\014I\275l&\010=`/\214<\246\363\237\274m\n\272;\241\224\2608\032\313\035=\242_N=\240\245l\275\244\205\207\275\032)\232\274{\272\030\276\235r\020<\374\256\n\274\235\377/\273\263\350\024=\222}+\275\021\032o\275W~3\275(U\002\276\334;\254<\272\001\344\275\332\311\252:$\360\306=\202\014\216\275\277\2639\275j\233\230<\"s\202=\203\016*=\373f\t=\272\260\255\275\003v\315<\212\360>\273\230\236\270\273\266H\346=\356\316\250\275\007\244\366=\022?\242<\250K\270\275hH\'\272\210\326\262=\344\266\216<\321\224\351<\322\030\002\275%6\003;\302\031\301\275\302\325\206\275\n|\031={\323P\274`\275\272\274\356\001\001=\212\202\207=\276\024\032=\2658)\273\271\3070=\261\300\252=S\213\260\275\217#\023\275\262IG=\312?\272\274\375a\337\274\256H\271\274\021\327\347\275\r\367@\274\354d\333=pD\221=\217\031\227=\001e\214<\0270\026=\374\325\376<\032;\357\274\304,#\275m\334\372<.\314\212\271q\360\252=\356\3259\273&\201W=\330\262\005=2\314\021>f\227\201=\352U\224<\014\010\237:\210\023\231\274\230dN\275\236#\273\275\253\024\013>;=\324\273\324\237\n\275FS\340<w\247[=%\244\345\273N\376]\275\272*\321\274\246\207\230\275Q\225 \275\t\314\212\275\330\262\t<R\222\332<y\203g;\3725\240\275\322\027\307\272\326\373E=6\312+\275\20553;\206\314><;\214\005\276l\032\013\276%6c=\341\236\262\275\236\233\233\275m\007\024\275D\033\244\274\326\331\020=nA\2009\312\200\203\274\020+z=.z\222=Ax\023;\365\376N=\306xa<\\\214\361<)p\223\274\033\350\007=-\362\250=\254\331.=\244\034?\275\3613\343=8\376\334\273o\320\235\274\313Q\030\275\342\262\005=r\362\255=nN\234\275\243\332\372;\313[\030=\351\007\021\275W`\232=\321UZ\274;\216\205\275\252i\371\274\251\205\022\275\364\3567>\212\313\035\275\000\030\024\276\246\364\251\275\300\245,\272C(\220\274i\013\206=N\016r={\347\277\275\000\316\242\275\323\217\231\275\034\'\361<\014\206\013\276\234\003\033>#c\212\274\377\214d\273\225A\334<\246\034\370<\016\020\246\275\321\035\264<\'#\200=\327\201\351=b\275y\275\252\342\217\275\230\n\245\274\354\247\261\273\376\ti=\243\001\017\276\n\311\205=\252\227\243=o\334\225\275\225\n\026>\306\304\005\276\3450p\275\357\247\374=]\246\367<|\224\013<\177?\327\273+\355\n=\266\343\377:\273 \231\275\262\200B;h\027\203\274\336\211\224\274\352y\001<\037\212\221\275\225&\206\275\360\026\267;=\270\354\274}\244\022=1\317\374\275m\362\272\275\007z\262;\267G\234\275%\274\030\273\237\206\010>\254o\247=\235/\233\274\316_\340\273\357\326\021\275\261\375\031=\227e\354\274\313\240\226;O\226\226=a<L;|\316\303\2754=\260;~\274\230<\2409\244\274\241\303\262=7\242\314<&\247\212\274\225\3334\275T\225\352;(M\355\274\337\350\034<t\207\036\275\007\325l\275w\362\247=\366\3577=\303)\337\275\242B\227=\327\266\024\274b\262\000<\255\331V<\300\236\261=\206\372\231\274\365\002\210=\025\'\256<\201\001$:\266!,\275F2f<\231<\207=fYe=\017\376\261\275\314\374\211<\252\032\335\275L\220\331\274\255\2227\275\032[y=Wt\214=\356\000\035;\265G\314;\236\230\205<n\2075=\"\272\261=[|\014=\r\354\344\275\376\201\252\274\031\2007=\311\324/<\"\367\001\276\357\364\245=\023j\300\275u\330\205\275V\2700\274\001\277\276\273rP\\<%\263\357<:A2:sa\013\275\016\372\"\275a\330\005\275\271\177\250\274\315\353\247;\263\360\205=S\343\210\273\253m\263=\330\270\215\274d\030\255<\336\037b\275\'\205\342\275\353\375\266;\'\336\376<\0005\005=\000s\235=[\271\217\275\020\326o=r\016\034\276\326e\232\275\226:\032=U\342\261=\007@U=\341\320-\275\325t@\275p\232M=\276L\243=Zd\024\274W\305e\274\362m\\\275\n\305u\275\213gL\2757\374\336=\256\266\226<{_==O\247u\274\355\266\303\271\354\031\313\275T\204\002>\367\244m<V\035\027<\320>^=U\363\'\275\243:T\273\344\343\230\273\030\027L=\312\225\215=~\tK<\r/\216=\177I\021\275\236?\200\274cvK\274-\016\305<y\032\201:\356\344\224\275\205\032\240=M\304p\275\207\373\220<\370\230\264\274\t\006\277=T,\344=\330\357\245\275\tx\020>}~\271\274v\310\013<dP\277={x\316<]g\205;\365\252\013\275\317\251O\275\022\222Z\276\357c*\274\227\373i<\345s\347<\342\257\244=\343\"\027<\354X\360\274i\250\256\274\362\370}\275x\270j\275\007@\233\275%j\350<\227\242\370\27594\t\275.WS\275\242xB=\265RM=\332>*=\354\265\275\274I\246\375\275\231`7\275\375\320\326<Y\274\022=\014\024_\272\205\324\234:Ah\r=yG\365;\346\372(\275\361\003\214=&\333E\274]v^\275 ]y=\306\305\212\275\344L\353<v\213\366\274\n\325\030=\260\022\353\274K\222\034=\032\332\030:Kw\234\275u\316\r\274\024\340\216\274\340\212\251\2747\305\001\274r\026\252=\034}\026<\216\221X\273\316\222\r>\300\250\231\271X\256==\264\370\006\275\223\365W\274\002*\277<&(\373\274t\253\230\275~\302\366<K\250\031\275\253\245\004=\024R\265=\262\374\220=\351\200\223<\225q\307\275r2\227<\270\246\221=\025\211\200=\322X\241<\032\223\306\273gg\327;\r\336\027=\351\366\233\275\303)O\275\374\264`=jQ\002=\325\211\357<s\330\210\274\304\314\017=\356\250{=V\312\240\275\314\3727=\':\245=\340h\246\274\230\020u=W\035\304=G\371\262\275s\312\266\275\246\213\336<\304\247\212=\017og=\262\306s=\373\035\305<\313\316Y\275\360\030K\275mn8=o\254%>\241\227\255\275\252\340\360=\273\363\364\275N\271\313<\003\224\034\276\240\237?=\r\355\222\275k\235R\273G\327+>\306q\277<\354\325+>\224C\027=\201v{<6y\214=\262v\364\273\306\277]<\253\221=\274j8\326\2748\322\222\273\2630\257<\035\\\216=!\315\246\271Y\251\243\274jZ\203=-\004\006\276\303\324\250\275zI\367\275\177\017b<\267_\340\274\231\202\377=\221\216\024\274\305\327\357;\370\367\005=\272\204\t\275v\030y=S\355\014>ORy=E\350\201\275\260\354\002\275o\332\263\274\333\025\326;\376\333J=\242\032\224:7?\261;\327>M\275\315C\222=\235v\021>w^\222\275\214C!\275\250\352q=\241\030\204\275\304\005\303=20\344<\313\214@\275\236\302\017<a\301\335\274g\374\002>\367\261C=\217z\201=4\010K=\346\274H\275c\333\351;\014\276\010\275X\007\"\275\274H\212\275\204\000\242<2\021J=\261k\n\275\351\310\210\273\017<\262=\t\324\206<g\252d=;\356\247=\352\354w=\346cx=\272\277\215\274\013\256C<\311\211\227\275\346\004(=\365\214X\275\322l\324\274q2\352\274G|\207<t\274\241=\270\246\361\275\225\376\033=?\227(><g\375=\201\305\017\275\256\306\036\274\236F\263<8\332K\275\321\t\240\275r\304\206=\271\220\272\275\331\226\254=E\314\221\274\017J\021\274\335\312H;\021\220<<\300\365\003\2750\351 <\203\310P=l\'=<\251\\\210\275i*\204\275\316Z}<\360W\252;\207\254F=\275\016\020=\237=5>\246c!\273\002K9\275\222\301&>\201\322D=Q\rN=\250\256+;\375l\255=\036\366\201=Y\203\362=\017[T=FO\226=\275K\235=\010\272\224\274~\333\240\275\335-\237\273\256\361u=\345\037\004\274\335\2470\275\343\020[\275\033\255J<\362\242\254\275\3272M\275\356*S\275\263\240\302<\366P\260\275\375\301~<\001\264\247<b\221\246<v\307F\275\317$\020>\221\325\263\275v\310\262\273\021%\036\275\262\224\374;\303H\205<\256\373\373<\244\t\032\273\322*x\275\213\216i=[\365\214<\306z)\276\200\205\016>\010\310\030=\370\276\257<\001R\021\275\370\t\343<\362\334\270\274\357\233\213=\325.y\275\277\370\331<\214\374\030\275\367 *\275^\315\262=\336\003[\274\277\345\261\274\367(\360:d\227\031=9\205n<\254\256\216<\244\365\301\275|C2\275\372\336\037=\rf1=\350\302\227=\316\006\316=0\233\034=\200\006\231\275\356\362t<\342\353\034=\253<M\274\244~$>\207\337\"=\321\324\204\275?\376\374:\252\372\031<|\327\233=\352\201g\274\030\214q<\036\272\'\275\037\360\315\274\334\002u\275\346\346\022=\272\213V<B2\371\274\351S\203\274\247\302/\275\267_\033=^]S=|io\275K\235\341;\377\265\242\275\342\362\205\273\006\3123\275Ry\330=\265al<0\003\037\276\276\360\010<nt\000\275\321\345\244\274\204N\352\273\365\260,\273:\013H=\026-\225\274\303\351N=\021\244\205:-m\312\274\2540\232\275Ib\207<\325rk\275\300}\006\275i\376\016=\263U\206\275p\245?\274I\3437\272\2402\266=\230\033L=~\351\304=\271\034\212=\246ij\275h\036\036\275\301{\251\275y/\034<\2743\230=.\275\374=\230^\000>s8\023=\334\032\302\275\277t\237=\r\327B<\201l-\273\233{W\275J:\231=k\203\245=\224A2=\366\365\026<K\316\353=\002\227\212\275G\r\001=\233\204\272=>7 >\323\001\271\275\343\325\303=KD0\275]}m\274V?\211\275\"\330\376\273sU\010>2\233\336\274\250\274\013\274q\230B=\016\240A<\263\273K\274\030=k\274RE\231\275{\202\014\275=\240\023=L\276\037>\241KO=\222\250\206\2746*\221=!\032\260\275\224\343\244<r=8=\312\'-\275.\332?\275\353l\230=V\341^\275\033\020z\274\316*\354<#J\025\275\270\016\223\2741\036w\275e\326\024\275\222w\007<\240N\217;\017l\226\274\325\035\374=q\367\334\275\254\'\025\275\256n\274\275\003\312:=\257\346\311\274U\031z\274\234\013s\275t\366\267<\302\306\267\275\032\365\230=y~4\275\001\032B=\312\261\026\274\001Dc\274\361\243\242\275\337\204O\274\346\003A=\026\017\006\276\221`\n=\257\331\035\275#|8=A\325\362\274a\270\035=\313\214\026=\201#\317=\034\344d:\3704\330\2740\311\004;\331\217\227\275&D\351\274K\220\333<\332\306\213<\211\004\232=\247@\212=h\320\266\274\023\332\264\275]\374\207=\307\332\351=\006\351\314\275q\204\025=\317\213z=\003O\222\275&=\362\274\3407\r=\024\023V<\037&\'\275!\010\230=\347\\\022<WF#\276\350\217\272\275rxx\275(\215\226=r$\367<\027\327\231\274\366\267\264\275\013p\323<fb&=#\272\206\273Af+\274_\327\314=nb\203<\324\324\373\275\361\2427\275\300\220\361\275\010\366\250\274\366\204\272<\322\034\214\274\321\320\003\276l\"\032<c\374l\275\021\215\226=i\034\220=\216.\224\2753\017\202;\275\315;<\206\204]<\014\237\301\274\245k\353=\200\331\212\2749\225^=\204\226\333\275\257\'\024\276U\354\005=\032\236y\275\306OC<\030\261\311=\200\200\246=3\353E\275\342\246\177\274G\322\271\272\037Kd\275B\305\r\276\202\237\375\275\226\313\362=\025*\034\274\025j\215\273I\021E\2757!@\275\310\224H\275\241\256\232\272\336\263O\275\264n\r\275Vp\251\275\026|\227=\000\271\036\275\267PD=V\205\307\275\277\024\307\273\214\335\242=KK\231=\t\271\"\275\347\371\307\271\272{\371\275dR\256\275\352\345\353\274\347,\031\275\321Q\023=\256\0002=\220\000\025\275\254\033:\275\312\361\363<\301#\204=\305\361U=\340\323\351<\303\313\017\276\350\255\246\275\236I\263=\377\241C\273\024gh\275\003\244\353<\216r>\275)\274;=\343\226\363<p\345\255=\212\232z\275\3574\024<\370D!\275\324\227\212\274Wh\312<\r\320j;fo\314\275\014\354\333<\321\210\330<Q\350\013<\321\250U=?l?\275I\317\n=\322\023\017=\214\353\006\2759\264\215\273\0066\003=sP9=\236\345\244\275x\236d\275#\304l\273\344y\321\274\354\200\235=6B}<\231\355\345\274F]\037\275\305\263\210\274\363\2474\275F\375\314<\277\177\310\274\323\013\221=\324\360}\275xG\010=\2224\222=E\346\006\276\025J\217\275\301\221\364</\2651\275=/\035\275\0203\246;S\351\274\275\350\212g=\0040\274=k\n\211\274\021\212\017=\375\354b<\244\260\225\274:o\356\275\325`\277=\242\357\002>\326\271\372\274py|\274\213\203\210;\264\322\223<\230p_\274?\373\216=R\214V<\000\354\024=\247K\246=7\277\305\275d\263i\272\241y\237\275&\255^\275\277c\037\275\332\347\302\274\237Z\245=\033t\350\275-h\263<G\346\333\274\233;\000=\346(\263\274\355*\241\275\373\030\231\273\246{\266\274\314\034\302\275\036\2577\274[G3\275\3669\352\275\356d\330\275\331\250\234\275\263\272\331\274\320\2359=f\220\004>\341s\243\274\235b\227=(\000\302;\212\364J<it\022<\313L\254\273\347\177f\275\261\177>\275.\034\363\274\264\273\215\275\321\002\206=Y\036\320\275\373\"{\273*\274\303=\206Av=\233\031n<T\257\001=\357\312\206\2746\3766=\205TI=NoM\275\000\351L=\315\316^<4\355p\275U\377\017\276\242\310\210=:7\034\275\317\336\221=\027\206\302;H\274\021=IS\321<\004]\265=\234\206\232\275\364\006\t=\2729\240\275\353\241\270=\350\321\237=\233\275\241\275+`\237\275\036\321\306\275\3404\217\274\032\324\235\275\020\232\017>\3450&\275\345[\254\274\036\320g<\237\002!=\277b\326<\021\263==g)H\274\240{\275\274\234\323\303==\177\203=\303\305\216<\257\376\365\274\223\231J=Ku^\274\017\375\346\275\010\355\332=\260l\243\273\311]_=\206\310\215=\010\317\220\275S\254\201\274\201\216\217\275\024\n\217\274\273\376U;\211(\244\273\023\331\336=\350\312\214=\350\220\241\274M\367\230\275\322\017\305=q\355\357<A\241\261\274\206Gz\275@\246V=e\001x\273U\332\226\275\316\005\201\273{\235r;\204\311\003\273\0254\177\274Z\005\035\275\224\361\r=\r1\205<\362\265\313\275\'\323\"=Y\210\200=\332\332\201=-\240\205\275U0\014\275\037\217\302=\0373$<\3132S=\254L\357=\212Bx\274&W\374\275\305m\201\273\326uC=\275\352p:S\205\t=\241\317\264=[\236\022\275\2434\330=D=\334\275\366\221$<\223\355Q\276\335\327\036\273t+d\2745\220$=F\036\003<b\252\244=\n\352\337\274)\020\346\275\000\264L>t\256t\274\341\244\221\275\324\2720\275r\232\354\274\252+*\2743|\022\275]\221\336\274\314\356\000=\304M\332\273|UU\275\305\236\246\275\274\351\206<\252\267\013\274\311\007\007>\257\2369\275_\341\275\275\372I8\274m1\250\275\247\273\232=\326\001+\275\272\307\007=\220\211\034=F\352\332<a(\347\274W\374\033=\210^j\275\250\237\237=utG=\320\203Z=\025\336B\274\205P\277=\373\271\205\274\230\350\251\274\360.\200;\227\001\306\274k|\221\275\241E\221\275\232\250\205<d\312\212\275\332$\357<\230`\002\276\311\263\224\275`\003/=\033\227\306<\033\302\017>dA\343\275\366h?\275\365\205\203=h_\247=1\004`\274\316\373p=\227|\001\275\364sV=\201\276==]\304(=\231:9\273\004\212\235<\035\337\'=\377p\364\275\020\001\217=\237\221\032<g\320%<\2345\321\275Yj\271\275\230\177\033\272lr\374=\267\352\317\274\342\375\346\275\031Q\247\275\026\204$=\"\230\032=\037\314\024\274\024\304\345<\320N\020\275ocD:\013B\267\275\363\036\375<\200\n\025;X\374\251\274At\334<U\tN\275\006\001\272\275[\201N\275\25044\274\2248\000\275\356\345\316\274pm=\275N\202\220=\001/\246\274F\272q=\273;\002\275K\tN=j_8\275wr\215\275\206\207\352\275j\220\004<\005\022\263<1!R\274\202\226\260\275A\325\246=\227s\322;a\002\331<\334\210i\275\302\355\365\274^q\016\274\245\"\036\274\377\337\n\275;\270\344<X\010\312\274\352L\006\275\325p\222\274U\356\220\273\327:\263\275\221\336*=\232\306\243\274Y\210\235=\203\254\276;\223}C<\362y\317\275y\224\251\274\201\251\246\275.\032\r<8i\356\275nz\303=Q\273\234<\274\001A\275{\005\037=\247\336]=\255\376\177\275\343L\245\275I\333\020\275\037\334\027\275\256\220\234\275t\026~=F\307?\2757vQ=\223d\024\275\313\\\315=\035\333\024=\2343\017>\257\205\233=\276\262r\275x\236M=o2\355<\3524\035=\333+\\:f_\266<\220>V=X7\353\271\025\223\277\275F}4=\320\032\'=\017h\034=\024M`==\337\213<\226\206\256\275\001\003G\273\322\317\021\275\004\343{=\2167\032=@\033\374<\022,\241<\256\nl:\n\205\302\274\344\257\205\275\305\031*\275P}\215\274`M@\275\246\220\300\274U\226\016\273\3229\227\275+\004G\275Q\262\304\275\302 \220\274}\377H\275_\010\346\275\255\374\023\276\214\275\253=\314(\300\274\241W\363\275\007\025\177\275\021\367~<IVw\275B\267\001=\272\003\t>\245\222\277=\324\271\203=\227\334\360<Ov\026=tF\032>^\337\010=\327\030\235=\206\034\207<\274I\020\273eV\202\275\017\301\326=\231\241Q=\357PU\275\207\273\247=\236\030\263\275\371h\307=-s\225<\277/\002\275%\217\316=\221P\331<\316X\235\275\210@|\275\340!6\275\307\320\020\275\261\351g=\024\014\002\274\230\0163<\344\006\333\273\331\347\032=n\036\376<\" \362<\305\220|<\265\365\210\275\250\307\216\274\n\027\233\273X\373\031=<\343\320\274#\027\234=\347\244\251\275\330qW\2754\215\013=\236I\352=\245sN={\262 =\212\334\242;h.[\273`\262\271<c$]\2754{~\271\304\214\353=\273xz=t}\311\275\373\376?=\255\260A\275\356\240\306\275\\\376!\274\337\212\222\275\241\nc\273G&\241=\336\321\025\275\350\222z\275\230\255\324=\276\202s\274I\364\353=\300t~\274n]\332\275Y{J=\347\255\315\275\300v\212\275\261\351\026>\013kw<\311g\031=\261\260\370;t\224\342\2749\204\215:\003\rX<\327\036\221\275S\221N=n[)<\202\220\344\273S\324\375=R)E=\206\016\332=&\004\007\274\336\026\333=\264\236\222\274`\343\201\274\247f\273\272\254_\202<I\310Q=\225\247\220=<\325\327\274\233\250\223\274\321\037\r=\313\262\001\275\375O+>+/\215\275\236-\265<\312\332\025\276\262\304\270\275T\313d=\200K=\276\271]\234\275\241\255*=\237?\271=\251\302\264=o\353\226<\361:\233\2757\367P=\231\255A<u$f\275l37=V\272\034>\013F\204=\357B\210\274_\231k\2757\371W\275\020\r\207\275\275\360\201\272\211+\256;\317\306\315<\016\026\016\275\3775\024\276\333V\322\2744+\005=\210\327\342\2735\013\215\273V\032\237;\253\\\244\273#11<\232#\216\275\303\346C=\256\202\301\275\"\202\325<\303\276*>\362V\324<$\031\\=\310\260\013<4j;\275\241\032r\274\303}\250\273\215>\004=\251\307,=\371z\203<v\302\313\273 TM\275\236\373\000=\360\221D\275\022s\034=\271\301\262=\355?~\275{a\305\275K\2670\275\224\257l=\276Y\243=/\307v=\372\376\230=I.U=\346\276\227<\321\004\225=D\025\224=\302YE=bW\327\275\262\332%\275m\365\346<\335p\242\274\3056\371<c\235\220\275W\2721\274\343\216\243\275f\347@<\375\320\215=\000T\257\275\203\372\005>\326\225o<\302<a<\352\027N<i!\263=/\310\231=x\026\213\275Gj/<\025\256\267=\337\030\344\274\315G\202\275U;[=\3729F=7C\207=9\263\035=\345\234H\275T\237\253=\2340\035=\236\n.\274ni\213=\264\225\227=o\331\352;\227\235\356<\022\324\206=A8\233\274\376\225w\275\342\274f\275~\307\010\274\325\372=\275R\336\266\275\227W)<}V\262\275\332\303\375\273\270U\211\275(r\270\274\255\025\035=\257\210\201=6\315-\275\247\200\343=\263\017Y\276\220\363O\275\r7\003=[[\305\275\306\256\013<\211\242\345=:w\224=b[\224=\032\233\006>l\253\276=H).\274\250s\276<\t\367j\274\264\213\257<b\244\252=j_ \2766\261\037\275\354h\177<\022?\237=\265\361\253=%uR<\311C\227=\353;\215<\324\266\264\273#\313c=^\376\226=\374\361t=\321\307\350\274\364+\376<\223\231\"\275\347\317k;\316\266\234=\327J\202\275?\377\010=\352%\006<\267\336,=aG\330=T\220d=\227\004\210=\357\304\235\275\222\277\255\273I\230\336\275iN\374\274\t\203M=\260JL=\334\353\242\274\340jr=\t\033\232=\345\321\263<\316X\316\275B\206\177;\253\373\200\275/C\000\275\276\373s\275\226\261U=\374y\002=\224\025\234\275\352w\202=\2714\232<^\'X<<v\032<{\005\263<\223\371=\274\245!\240\2732\036\301=e\205\215\275qW\345\274F\355\211\274\210\307W\275\364\014\200\2752\366\025\275\224!\241\275*\212\326<\220\230\302\274\031\326d\2753W\366=_z\336=\213>\327\274\'Bs=\367\267\232\275\376\341\272<\035\000\275<T\336\300\275z\211\036\275L\273\026>\375\214z=V\266\215\275\236\377\316=\304\304\304\2756WV\274\272W\314\275N\275\366\274\311\025\324\275\213\0245\2758z\243=\213N\201=\270W\317\273\222\003\217<\365J==\253|\231\273\325\276\243:>\233E\275\236\347\221\275LS\302=hR\321<\251\247\360;:\022\220\274\216\346\351=\260w/<,\217\216\274\226\256Z\275\014\346A<|\312\276<9L\303\275\317\265\021\275P??=\225\223\014\276gj\006\276CQ\022=\360\377\370=q\376\374\274\320\3723=\312\304\245=Z\034\370<\003&\241=\007\221n=\232\340\314\275x\257\251\274\204\355#\275wD\377<ny\006=#@\326\275\246\320G\275\003)\352\274\301\215I=\n\353{\275\034\005\374<\347\232m\275\3315 =\204\244_\275\203B6\275\372\330\025\275y<\363\273\234\261\255<\227\2068=o\354\220=\003\254\252<<<P<w\210\255=s\274\022>\241\322K\275~V^=\271(\033\275H\016\031\272\262M\326=\200j\256\275\365\273\264\275\322\305\332<\311g\267\275O\266\024<\025\365\305<)\277\305\275\305\226\216\275\361e\371\274a\242\003>\214\246\364\2743`t\274\006\213\033=%s#=k\250\354\274\261\030\354=[a\244<):}<\256KF=V\240\240=\337-5;\335\023\216\275<19=\226E!\274\253+\'=\263p0\274\344\242==\203\002\274=\026\324\201\275\304\334\237\275\235[\251<\363\253\332<\242\022t\275\374:\354\273Ce\264=\230|\313\273I\024\231=m\241\221\275\330\351X=]\224\222=G<\242=K\303`=\333EM\273\267G\245\275X:P\275\tB6\275\356G}\275\361M\342\275\375\377\250\274Hwj\275\347\037\222=\303H\344<\275\366\332<\020\277h=\316=*\275\353j*\275\345\035\223=\263\315\326<\361\0331:\t\346\236\275\245 |\275\327~\207\2723\226 \275\343}\362\274\024\215:\275\246L\262\273\017\315\303\275\371\224x=_\322\260\275\n\252\360\274\354cJ\273%\250)\274]|\025<\312\367\004=\355\332#\275\371f6=\207\341e=\2204J\275\371[\326\273\313\026W\275rZ\211<\037\203s<\216\306\274\273\031\351\247;:\377\t>B4Y;h\247\353\274M\321\311=\211W\277;\036\232n\275\311_\'\276\020}\347\275\225#\275\275\207\306\376\274\256=M<\006\026*\275\\M\235\273T5\305<\227\377\246;\354F\t=A\263\034\276V@f\273\335\346\307<s\204i\275!\337\363\2748\003r\275h\216h=\354\272\024= `T\274\270\274G<<\t\317\274\276_[\274\333#e;\227uI=\035\214I=\357a\267=Z\0069\275@\030\304\274w\376\374=\016\231c=S\r\246=\001J\034=i\335\240<\350\323\236:H\013\270<\251y\352<\262\000\224=\364\257N\275\245\312\213\2748\341Q\275\216\377\363\274\227\351U\275\363\311\302<T \273\274\377.\310<_\276\256<\276\026*;|\010\226=\225*\307\273\025\357\375\274\266\251T=l\257\265\275\010\233z\274\201\305L>\267\322a\275\025\347\3619,\337~=\220\360\334\275\333:\253=7\371$=\034@\030\2741l\225\274u\254\353<\016\373\244\275\232v\353\275#9-\275\245y\365\274qm\302=\333\224e=D\371\"=\311\031\266\275\010\252\206\275}\215\341=9\370\340:%W\000\275\211dh\275\212\346\273\2751\265\306\275\251\354\307\274h\006M\274U\304\317\275\365\365\312<\014\n\364\275\313\\\314\275\257\251]=E&\234=\326\353\203<\334\207\323<\3407\211<Z1\031<4\234G\274\227\321\302;-\246\372\274L\314<=\024\247\312\274!\216\204=\320\227\312:1\261E\275\214\3063\275\025\363\311=\320\027\315\275!\247~<A\353*=\303\022\236<\363\033?=t\244\022=S+\364\274\356\001\334<\033v\030=\372\rg\273\336V/<Up\227\274D\200\315\274\010\237\177=\343B\375\275;\220k=\027\371\374=\375\026q=Y3\212;\374+\255\274\235\037:=\364\203\261\275x\314\313\274\201\333\256\275e\224\356\275N\0202=>\324r=W\360\370\274\321\310\026\275N\343\316=U\265B=^\366\370\275?\254\224\275 