node {
  name: "keras_learning_phase/input"
  op: "Const"
  attr {
    key: "dtype"
    value {
      type: DT_BOOL
    }
  }
  attr {
    key: "value"
    value {
      tensor {
        dtype: DT_BOOL
        tensor_shape {
        }
        bool_val: false
      }
    }
  }
}
node {
  name: "keras_learning_phase"
  op: "PlaceholderWithDefault"
  input: "keras_learning_phase/input"
  attr {
    key: "dtype"
    value {
      type: DT_BOOL
    }
  }
  attr {
    key: "shape"
    value {
      shape {
      }
    }
  }
}
node {
  name: "LSTM_1_input"
  op: "Placeholder"
  attr {
    key: "dtype"
    value {
      type: DT_FLOAT
    }
  }
  attr {
    key: "shape"
    value {
      shape {
        dim {
          size: -1
        }
        dim {
          size: 240
        }
        dim {
          size: 6
        }
      }
    }
  }
}
node {
  name: "LSTM_1/kernel/initial_value"
  op: "Const"
  attr {
    key: "dtype"
    value {
      type: DT_FLOAT
    }
  }
  attr {
    key: "value"
    value {
      tensor {
        dtype: DT_FLOAT
        tensor_shape {
          dim {
            size: 6
          }
          dim {
            size: 128
          }
        }
        tensor_content: "\034&\310;\303\300\232=\331\202l\274\322H\347<ife\274\r\3404<\345\201\234\274\242N\206=\2018\210=n\366\361<\322>\272=\321L\206:\\tO=\n\004\276\275\340\024z\275rf\200\275\371\277I\274k\315;\275\314cO\275[V\316=-I\020\275y\353V>\360\255\344<\021\020\362<\320\270A=\010m/>@\373s\274J\337\324;\363\373\\<\227\343\220=\205\214\327=Hz\031>Gi\341\2758\3653\276X\206b\275e\036\307<\310\263\271;d\307\006\275\255E\234\275\226ta\275\353\236t\275q\364K\2736\242\372\273x&\254<\323\267\243=\314\014Z=x\367\253\275\276;\355<\251L\350\274\267L+=\'\275\214=P\310\003>aC\010=k\2014>\3000\232;\377\226F\275\036\277\256\274\363\2213>\022Qp\275\325C\275=\177\272-=p\177i\274\246]\034\276H:\340=\265\262\r\276\346~\261\275\005\257-\275s\347p=\016\307\335\2745k\310<\212\177\031>>G\254\275\004\206(<\351\257\353\274a\220\001\274y\007R=\024\001?;\331\332\036\275<\032b\275C\257\310\274\344z\030\275g\367\217<u\264v=\370\255\237;\300bB\275\276w&\276\326\330q\275\r\366\207=\022\262?\275\366\254\310\275\266\341\346\272RI\3339\276\372\017\275Ndy\274t]\030<\344\330\253=&\251\342;\256\360\316=\2731\026\276G\375\233\275\206\356\306\274\371\000\033\276\367\313\022\274\314T;>\325\321\250=%\210\234\275\236 C<o\201\346=d\201q\2757\323\344<Y\325\267\275\300:\237;P\320\205\276\344Ms>\033\275(\276\326\304\273\275x\2001\276\321\2255\276\017\010\226\275\315Ie\274\203\205\354=\245\013\205\275\233\302\342=\trM\276h\211\226;\204\277F\276\323*\224\275\262!w;\0049\311=\267\353\312<\263sS\274\334\212L>\257\230c\274\331\273\245\275K\2379=\021\370\261=7\244*>d\260\004\275~B\021\276U\347\216=\2028\243=\265\317t>$\237\213\275\373\324\247\275T\274\347\273\221\307A<\212\330\221=\255\\\233=\336\017\r=I#C=;Y\037>J6\266<\020\230\365\274I\301\352=|\r\024\275\241=[=\242\031j\275\350\023\275<b9\327\274\211\321\327<I\206\234\275\271\350\027<\201u\251=\321\232\002\274g\312\021\275\265)\200\275F7\376={\253R>\335\341\243\274<\227\032=\222F\317=\222\310\302\275g\200\027<\332+\317\275V<\022\276\225QZ\276\3008\233=\026\223\250\275N\350\217\275\317\t1<\325\274U\275\314\202\231<-\220L=\364\317@\276\333\370\201\275O*1>\303Mj\275\301=x\274Z\346\360=\022_d=+\342\342=\272\327\346<S7-\275\210\346_\275\361I\321=&\345\273=\332\372\303\274\323\001\003\276\237\361\343\275\312\306\035\274Hj\'>W\025?\275\tuM<\301m\260<p\255\333=\276\274\211=\341\320\373=\335W\210\275b>\273\274\264e\020\276\273\325\265=\272\310\272\271Y\315\322=ZL6\275O\256\277=8\023a<\001~\355;\234y\306\274\265\276\010=>\374\303\275Y\036\207\275\351R\320<\324a+=\371^\033\273\337\366\272\274\375\273\231\275H\376\230\274\307Tn<P\312\326;x\035\254=,\276\025>\216U\017\275\215V\267<s\222\307=AQ\213\274I\245>\2759J\354\274\213\243\235\275\216\000\240=B\201\377=W\266\256\275\366\267\010\276\315u\205=+m\017\276\370n\201><\221\t\276\034\031\216\275\274\370\037=\245\365\317=H\355\271=\036\207\227=c\266p<z\236\006\273O\221\251\274\336j\002\276\352\316/\275\256\347,=\335\307\306\274\007\305W<\354\226\330\273\254\234\030\276\335\341\317\275\007\360\344=\224\301\324\275q\243\035;\033\000\026<\026\300=>\010\261\216\275\254\307T\273\004\014}\275\233\324\322=\345\016\022=S\363>=\357\325\321\274`\221\r>f\034l\274G\226e=\212\314\253\275\275\366v\275\204i\352=\331\254\036\274M\3079=\326E\322\275\205\326\003=\r\372{:Wj\311\275\020\272\360\275\3709\223\274>\031\034\275X\264O\275\213TG=]\327\201\275\036\373\n<\216)_=\275+6=\275\367\351=T\004\013>\222Vx\276\203\006\022\276\376\003\001\276\354\200\244=\336\221%=\246\230\312\275\305\035\260\275\313\3277\275I]M<\364\031\343\275\255\340\317<\3618\036>g\037O\2768\352s\275`f\236<i\331h\275\234\376\216<\365\023g\275h*\316\274#53>\217\216\013\276\311\325\247\275v+\257<l\225\233<\365\351\236\275r-D=\300J\356\274.,\247\274\325VZ<K\271\260=\356\234\366;*\222\000><8\334\275<dg=\206\222\262\275\220\313\002\276 e\024\276QB\334\275\27642\274=\033\224=1\224\324=H\312\234=Lzg=\350\023\251=\317\366\354\275\353\316~\275\006\254.<\321$\254<\351\313\332\275lN->T\324\272\275$\207e<\005\002\337\275T\314\235\275\265g\312=H\n\014:\024\014\340<4\022\332\274\216Xo=\2504\033\276\316\207;\275n\332,>\264\304\020>\220\310B\275\302\370\005=Z\330\202\275$\304r>\354:j=\007\2071=\010\323\025>{\303\356\275\221H\005<\266\245\261\275!n\223=\276?\240=\245i\324<\251\0177=\277<U\2758\014\335\275l,o\275\372@\003>\274\220\232\274\265\373\350<\337\334\263\275\227D\"\275\324\224\242={1[\273K\302j\275\313q\036=\021\273\244=\223\020X\275+\316\247\2758\374N=\324\240\364<\204O\344:,\230L\276I\200\220\275\017o\025\275\312)\223;BY\215\274\320\342\224\273\345^?\276G<\t>Tw\365\275_P\350\274\375\221B\2768\324\204\275\035L\307=\256\221\316=\014`\007>\'d\307\272\010K\352<\201\n\032\275\214\225\364=\345\203\363\2756\261\004\276\203\207$\2753x\264<_\020D=\354\215\350<\201\344\016\273\212\370-\276\242\313\202\274\271\253\001=\353\n\332=\306\n\230=PW8;2\014\344\275#a\202=\325F\367\275Q\326\212\275v\333\236\274\317K\307\275\302S\t=\332\305l\276\373Z\204\27455\237<f\177\366;\2632\343\275\306\337[<\240\201\246\275S\317/=\303\241I\274T\253l=\300\210\355=\335\267\031=/\376=\275\007\363\351\274\334\n\002\276\342\246\201\274/\363\214\275\303c\256=\230#o=\210\014\036\276)\356h=\362\010\372\274\253\r\245=\0134\326=E\036\007\276\201\277\253=\353\335\366=*\337\301=;\326\010\276\220]\032\275B\027\232=\026\214A\273\214\322l=k.\267\275qMU=\220l\230=\024s4\276\346+\237\275{\001\270<\265{)\275\375a\003\276S\'\324\274\373\340\014\275\025\'\230\275\206u\333\275_\345\t>2%\355=\220\230\355\275\260^\036>0]\007\276j\027\331=\336S\361<\377\027\202<\330\374\356\275\304\036\356==\276Q=y\235j\273\343\2524\2768u]=\260\004\315\275\377\362\263=BQO\275\037\347\367\275\023\271x==\2345=h_\212\27426\331=}Xm=\254d\003\274\375\003\312<f\232c\275M\024\211=F\037\001=\022\3138>\340\270\220=O\274\033=\377\244\340\274=,\243=\037N\212=\267\003\235=\225P\351\275\307\017\303=\351H\r\276\350\216\010\276\r\016\001>nb\200=XH\210=\210\315\236\275\003\265\217\274\220!o\275\030\305\213=e\211\021=\033\021\353\275\346J\366\275\334d\370=\206/\023\276\325\213\240<4\r\316=\364fl\275o1\030\275g{\322\275\263q\003\276B\027\235\275\215\364\021=\204tb\276~\362\206\274\365\010G>\341!\214\275\330pv=\tc\331;\201~\006=|^\312\275\034`\366\2740d\326\275\007\263\272\274\224A\331=\254\311=>|\327\235=\002Z\237;17v=\007\241\027=\262\235C=XE\256=\214*p<x\332!\276\3205\232<\232t\r>\003\301V\275\000M\002=EG\201=\246\033\313\274\035\336A>\240\361\244<\253o\215=\221A\021\274\325\354@\275^h\207\274\227\220r\275FK\227<%Xa>\337y{\273|\252\023=\220\315\203=e\250\003\275\213\027\204\273\376\275!\276\030\223\301<\310\037.\274\315\317\025>P\235Q<\n\002\005=u&\277=\303\330\000\275\357\243\027\276\006\202\203=8\247\277=\323\351\201\275J\345\010<\366\224y\275\036\273\177\275\032.\221=\005;\302\275\357?0>\215\233\326\2747\255\355=\246\301\272=\204\177J\275\376\251\305\275\177q\220=\t\030\022\275\345*\032=kH[\275:\"9<6\372\010\276\356B@\275\257\355]\276Q\301&>\005\003\276\274.\3358\275L\234L=L\023\325\273\313\035\020>E\266\331=\020C\2309\312W\236\274_\367\374\274\261?\023\275 O\336\275dL\004\274\350\211+\274\346\202\341\274\256\307\363\275_\360.\275I\013\273;\327}w=\261\2574=\333\307\272={\271\002=\362=\345\274\212\357\033\2750\0171\274Vl\001>]^*=\001\257\251\275\372\316t>\250`\264<\337\002\266=\257\347\210\274j\314,;\260\275x\275|\3358;\251\263\367=\376<n\275\243O1\274J\3268;4\323\000=L\230\317=\341\251\277\274K!\242\275\356U\325=\324 \235\274\345U\r<\202\005\234\275B\251 \274\366\345\r\275\305w\226<a\251q=\230\253\210=\005=\227\273\365\273>\275\002\254\312\275\340\241\351\274\014\373\t\275\240i\004=I\305?\275\321#$;\363\323\244=\302a\342=\354\304\010<\252\230\314=\374\351\242<\'N\010\276\236\271\016\276\353\016\264=Z*4>\237\352\371=Q *\275nw\027<\037Xs<\376\247\301\274\313M\237\275%\343\r>7\311@\275\000\031\340\274\203Y\370<W\367\014\276\360W\363\275*\255\265=\3202\202=\344\177\273\275\221\307u<P+\016=\020I\241=\006Q\007\276\250t\213=\200 \223=l\377\243;&\262\021\275\353\271\201\274\304a\025\276W{\326<\205K\361\274\023#\321=j\320\204\276\030W\016=r\235\235<\263\333\000\276.\345{\2751\277\201;\005(\366\275\266u\352\274\374P\035\276\201\321\n>A\036\215=\222d\317=O\262\211\275\202v\215\274\302x\251=w\260f=\210\020\331\275\227\337\313\274\374F$=\213]\225:\032\036i=\333\"\027>\334\013r\275\035\351\271\275$\242\225=k@\355=\357Q\232=\267\"V>\2401\205=_\215A=g\237\344\275\362t\035\276\332\"\212\271\021q}>;Y2\272\322U\205=\035\222\000\276\016E\304\275\020\302S\275\371\210\270\274.\267X\275\005tO>\232\362\240\275\215\222\313=|=T\275 \343\275=\341Q\255=\257\370\227=\376a$\275\311\225\027\276sf->ay=\275p\271\214<l\017\226=B\257\257\275_aq=m\247\r>\230\312\016\275frt=BE\371\274S\000\230=2\254\303<\342~\361<\273\320!\276"
      }
    }
  }
}
node {
  name: "LSTM_1/kernel"
  op: "VariableV2"
  attr {
    key: "container"
    value {
      s: ""
    }
  }
  attr {
    key: "dtype"
    value {
      type: DT_FLOAT
    }
  }
  attr {
    key: "shape"
    value {
      shape {
        dim {
          size: 6
        }
        dim {
          size: 128
        }
      }
    }
  }
  attr {
    key: "shared_name"
    value {
      s: ""
    }
  }
}
node {
  name: "LSTM_1/kernel/Assign"
  op: "Assign"
  input: "LSTM_1/kernel"
  input: "LSTM_1/kernel/initial_value"
  attr {
    key: "T"
    value {
      type: DT_FLOAT
    }
  }
  attr {
    key: "_class"
    value {
      list {
        s: "loc:@LSTM_1/kernel"
      }
    }
  }
  attr {
    key: "use_locking"
    value {
      b: true
    }
  }
  attr {
    key: "validate_shape"
    value {
      b: true
    }
  }
}
node {
  name: "LSTM_1/kernel/read"
  op: "Identity"
  input: "LSTM_1/kernel"
  attr {
    key: "T"
    value {
      type: DT_FLOAT
    }
  }
  attr {
    key: "_class"
    value {
      list {
        s: "loc:@LSTM_1/kernel"
      }
    }
  }
}
node {
  name: "LSTM_1/weight_regularizer/Square"
  op: "Square"
  input: "LSTM_1/kernel/read"
  attr {
    key: "T"
    value {
      type: DT_FLOAT
    }
  }
}
node {
  name: "LSTM_1/weight_regularizer/mul/x"
  op: "Const"
  attr {
    key: "dtype"
    value {
      type: DT_FLOAT
    }
  }
  attr {
    key: "value"
    value {
      tensor {
        dtype: DT_FLOAT
        tensor_shape {
        }
        float_val: 9.999999974752427e-07
      }
    }
  }
}
node {
  name: "LSTM_1/weight_regularizer/mul"
  op: "Mul"
  input: "LSTM_1/weight_regularizer/mul/x"
  input: "LSTM_1/weight_regularizer/Square"
  attr {
    key: "T"
    value {
      type: DT_FLOAT
    }
  }
}
node {
  name: "LSTM_1/weight_regularizer/Const"
  op: "Const"
  attr {
    key: "dtype"
    value {
      type: DT_INT32
    }
  }
  attr {
    key: "value"
    value {
      tensor {
        dtype: DT_INT32
        tensor_shape {
          dim {
            size: 2
          }
        }
        tensor_content: "\000\000\000\000\001\000\000\000"
      }
    }
  }
}
node {
  name: "LSTM_1/weight_regularizer/Sum"
  op: "Sum"
  input: "LSTM_1/weight_regularizer/mul"
  input: "LSTM_1/weight_regularizer/Const"
  attr {
    key: "T"
    value {
      type: DT_FLOAT
    }
  }
  attr {
    key: "Tidx"
    value {
      type: DT_INT32
    }
  }
  attr {
    key: "keep_dims"
    value {
      b: false
    }
  }
}
node {
  name: "LSTM_1/weight_regularizer/add/x"
  op: "Const"
  attr {
    key: "dtype"
    value {
      type: DT_FLOAT
    }
  }
  attr {
    key: "value"
    value {
      tensor {
        dtype: DT_FLOAT
        tensor_shape {
        }
        float_val: 0.0
      }
    }
  }
}
node {
  name: "LSTM_1/weight_regularizer/add"
  op: "Add"
  input: "LSTM_1/weight_regularizer/add/x"
  input: "LSTM_1/weight_regularizer/Sum"
  attr {
    key: "T"
    value {
      type: DT_FLOAT
    }
  }
}
node {
  name: "LSTM_1/recurrent_kernel/initial_value"
  op: "Const"
  attr {
    key: "dtype"
    value {
      type: DT_FLOAT
    }
  }
  attr {
    key: "value"
    value {
      tensor {
        dtype: DT_FLOAT
        tensor_shape {
          dim {
            size: 32
          }
          dim {
            size: 128
          }
        }
        tensor_content: "h%\r\276\326\003\013\275_3T\275\277\035Y\275\211^\204\275H\313\021<\007\000\234\275\035Z\247\275?\346\254=s\327%<\215P\024\276&\326\235=\226\362-=\230b\003>\302xe<\215\261/=\374\245\255\275\321o\201\275~^|=\335\374e>\033\314\372\274\353\204\322\274kX\035>\310;\362\274\230\314\255=\343\357\t>\365Rz=\227\236,\275\210(\301=u|\004=\304\316\010\276\257\253\r\276H\213\006=\305\253\332\27459\332=7\356\310<\317?\t=\"\374g=\00662\276wD1<\013\260\273\275\030z\034=\360tX>0\241\004>\357h\333=\354|\375\274\243\0106<\030k\257;\223Z\262=c\274/\275n\227T=\360\264Z=\222\266]=\372\322N<\0377G\274\231\256\201<\251o\177=\224zt<\216\263):\276\320\234<ea)\276\301\n\352\275!\375\003=\341\317\372\275\000X:>\333\371H=\240\261`>3\200\310=\263\267\367\275\346\236\243=\335\376n\275T\340C\275\005z\t=[\306\232=mw\271=e\307/\274\235l\016=\013\323\375=\t\300U\275M\222\003=\3204\301\272\261\251\213\275\205\206\227\275P\276\325\275\376\373\334=\231>\374<\270\303\326\275Z^s\275\274\3328=:o1\276}\262x=<\\\006=\374\371\003\276mi\000=\376\235\215\274u\272\000\274\'\356\205=\004\323\305\272\371\270\364\274\265\201\202\275\030\005\023=\037n\347=\264\300*=\205<\321=u]\256\275\363R\036\276\261\345\302\275@ON\276\004M\025\274\330\003R\275i\217\014=\212Z\302=\362/\341\274\215Y2\275(\347\014>\225<\'<\037t\017=\227\265\327\274/\231\021<=\265\267\274\"\001\307=a\037\262\274\236\317\375\275\356\225\016\276.\332\303<0gV\276\250\202\034=%F\020>\376\001\272\275,\206W<\277\002~<\234\0333>f\033\276<\"\017o\273]\245\200=U3]\275\315}4;\254&,>\024\375\004>\307\312\334\275\3203\025>22\367\274\277\366\037>T8\216\275\233\263\245\275n\020\342\275\366K\350<\307\332\004>\371\372\253\275\203\314\032\276\027a~=\n\361\001\276\262\351\240\274\252\n\034>Ed\365\273\206\375\374\275\366*l\276\007\026\211\272Mv\210\274\263\335\004\275\3612.=\0005\t=\312\'-<\252y\304=\025\223\211=\036\3606=4\260&\275\327\345\t\274g\262\271=\303\362(\275\331\367\315<yS\260\275\334q\335\275?\004\301\275\202\275$>Pu\004=\027A\003\275\365K =\264r->;(\223=~?\360\273\336s\313=\271\227\223\274\3678\356\275\371\266f\275k\212\022\276\351\246\255=\006o\037=b\262\352<\247p\026\275W3i<\211&\216\275\326\204\302<\360]\006\275\3512\263;9F\250\273W\373\224\275\266:r=2\217Y;\300C\221=\232.\004\276\363?\226\275\374<\230=\207\250\366\275\271\"\\\273\315\233S\275\215\220\320\275\261\343\032\2765\2412=\311e\303=-\206\301\275\264\240\010\274\346\302E\274\262\326Z\276\257qK=a:z\275\342`\037\275#p\231\275/d#>\212:\203\274\306v\216\275\364a\035:\357\202\353\275\226)n=n\371\005\276\340\331k<\3538)=Q\016F=^\242T;\" 7=Z\3074\276]>\326\275\224\377\273\274h\277#\273\260\254:>v\327\367\275\307\001\200=\237\255\270=\317p\343<c\235\010\276?)\021>\264\233\264\275\227\253\003<1\017\322=\235\231q=-<\271\274\315e\230\275\331\231\265<\277\301\354\274\340R\023\276\363\344\305=\002r9\274\3607\350<\260p<>Y\210\356\274U\t\267\274\300\034\024\276s(\364\275\246\331\344\275\365\341\033>\031\353\357\274\330\340\342<\322\206\236\274\236\025\267=<\303\231=\241\373\021<*\341H\276v\364\270<[\340\260\275\3130\360;e>\342=W-\270=u\t+\276v\235\237\275\\\207f\276\324\336\277\274E\320\201\274\227l\211\273\003\220\267\275\210\017\366\275O\2005\275\334\254\024>\235\213\\>\304\3473=\026\366\365=Uo\334<\303\001\204\274\242\"7\275E\246d\275E\300X\274.\274\335=?\304\231\275_\321\301=>\353\274=J\231\t\274:\346\n\276\364y\034>\200@\352\275\313\005+=\304\226\273<\336\\\344\275\344\201\352\275s\337Q>\220\320=\274 \317\"=u\243\220:\002%<\275O\265T\275S\374~:\206q\210;7e\217\274\201\273\354\275|\013K<\336\277\005>%Z[=I\007\'>\347p\236<(\004\205\272F\357\005\275_\006\310\274\374H\357\275\270\200\371=\353A\020\276\211bV=S\\^<\310P\246\275.A\014=v]\361\2746p\014=2\315\234\274\271\206\024\275\013\376\231\275d_\333\275KC8=\2632\232=\346P=\275\237i\323<T\035n>\376\210\331\274o\307\326<\233\364\200\275g\323}=\177\306\216\274}\316\313=B\tW\273\327\353\312<k\273l=3\035+<\202\312\345;\230\363\220=CW\322\275a\230R=n\014w=\324) =q\227\357\275\206\372\323<C\025}\275\r\253\032=C\361C\274\372\224\322=\244_\314=\273/\234=\207\377E\276\266\307\275<\223\321\n=\351\004\355\275@7\020\273\374]\322\273\323\355\241\275\023V/>\332\271\210=\301;5\275\325\251\234=\010z\212=nfp:\230\323\257\274\367\013i\275\240\373\364=\262\204\215=\001\317\225=\035\244\223\275\323*\260\273\202NM\276X\275D\2755\037\235<\n+X\275\321\210n\275}\350\366\275\372\261=>|\017\205\275\'\375\205\275p\330\307\275\301\366\214\275a\3626\275\375\035\204\273\031\371]=\000\031x<\230\344\273\274\237D\032>f\313%\275\202\226\003>\246\361\320;*\317\342=R\314\210=>A\205\275\205\220\024\275n\322\000\276i\236\227<\250\340\267;Z\364\232\275\n\205:>\364\2250<c\372\034>l15<+\206\231=(\220\357\275X\226m\275\316\207\354=\210<n=?\024\200\275\333s\353<\r\002#;!\024m>\237D\276=\314\373\336=\217w\201\274v\257\235\275\304y\264\272mP\236\275\304\200\371\275_\005\346\274\206\240\370<\260\375\231\275V\017\333\275\254>\207=\337\211E\275k\001\212\274\220\340K\275\023\352\303<\210i\325=\210\013\372=m\317,>\377\033A\275\037\006\r>|\320\305=\365\276\032\276:\271\275=\236H\232\275\235X\305=g\376:\276\211t\201=\366$\337:\232\206l=-\027\231\275\000\006->d\360}=S\220\3708\177\311\026>&\265\205\275H\257 \275w\207\217=k\360\211\274KF-\2754L7=\032\rI=R%\301\275[\010\354\275\267\331\246\275\352K\266\275}\335\235\2754g\032>R\335\327<\317\340\233\274\341d\026=\260\236\371=\207T\361\275\261K\003\274S\312Q\275\332\240\006\276\350\315\007=1\270\200=J\360p<\\\202\254<GZ\235\274\030\210\">\326\223n<\213S\320=(\201\000\276s+\013=\'\000S\275\277\360\205<\025\236z<\361\246\220\275\317\225\272\275\350xm9\304\014\224=\252\255\037>n\376\222:\2659\242=\341\240\204<\304\262D>%dH\275\257N\254\274y\324\275\275\264p\316\274Y\340Z=f\217\336=\232f0\276\361\003\231<E\333\340\274\253\245\203=\241)\"\276\356\320\374\275\003M-=\216\274\245=K\300\033>\023G\245\275\240\231U\276\315p[\276\355\317\004>\205\206\270=\236\344H\274\006\375|;\275u\t\275.\034\240=\361{\344\272\207;\271\275\312E\210<>\241\020=5h\005=\017;U=\344X\277=\202\016\376=\233\216\261\274\237\003Z\275\354\352\352\275\177\223\000=\264i\t>j\336~=\3015\276\272\334P\372\272&0@9\323\017\223\275\205\023W=\251l\024>\375*A\275\256\220>\275l\353\034\276\344\243\256<\326\206\201\275\242B\205\274\013\021o>\205w\347\275Y\023<\275L4c=,~!=\264i\351\274\341\2260\274-\331\337\275\036k\235<\r\245>\275\373\003m\275z\354\247\274f\366\350\275\235\366\246<\270\007\354\274\337\364\201\276\2564\350\275\024\204\262\275\276i\020\276\t\302\266\273\264\023\013\275p|\337\274\035<+\276t\200\202\275\216$\320<k\301\215:\345\216.\275\031\316\234\275c\264\226\275y\n\215=4\271v<\306k|\2748\"\250=\220KQ=\023\374\330<\302\234\224= $\230<\352\004|\275\273R^;\267\255\320;\335\023\025=)\223o\274\331ma<\201\004\331\272-Jk=L\222S\276\276\305\261\275G\310\277=~\241h\274\224WV\276O\314\036:\256\017\010\276I2\253\275\300\340l;Fs\006\275\372U\343\275\333\247o\275.\360\037>\255\246\341=\024OG<\001\"\022<\332\346$=\330,\030\275\'\343\203\275f\004\205=\240a\332\275\254&\315\275\331\006\244\275nG\246=\'!Y=\352\364\016=\306~\025\276\2319\213=\331\225\006>\225\311w=\214w\010\276\335\362\024=\177\255\';u\033\373=\211S\213\275DC\342<\274\277/=\214M\274<5\307\252=\006\217\234=\366\221\t\276\001l\020\276#\013\037>&\307D\275\335\214U=w\0008\274\276Z\t\276\213\373\342=a\024\034\275\'\341k<E\361\276<\225\317\003=\252vu\275\245\224y=[\242Z\275Q\215~\2742\212\014\274\027T\220=zv\024=.D\021\276\205\326\346\275O\344\232=941\275\355/\016\276T\006\306;c\003i\275\255\276^\275\264\t\016\276\246\203\203=Ew\331=\035fB\275[V~\275\3552\340\273\231\337l\274&\262v\274\331+\332\274\307\213]\276s\225~=l\312\014\275\226\257\017>klD<\006\024,\276\362=\306\275\326\177`\275\261\271i<W\270\023\276S/\345=fcq\275\275\222\204\275X\271]=\200\363f\275 m.\274\201j3;D.\033\275\034\036X\274\240\265E=\367\261\023>\351\304\034>\236\017^;\027\243\312=\332\002\302=5\201(=\211p1\276e\347\222\275\254\355\331\273T\210\r\274\326\363\200=\341T\311= \004H>z\362b=F\350\307\275\260\316\013\276|e\213=1(!\275\350\210;=\311\310&=q\346\244\275K\035K\275\375|\201\275\3612\030>^W\325\275\376\256\236\275s\261\026\276;\303\252=\007\315\227\274\351\247\005\276\036*\001>\2569\"\2769k&=\336l<=\3633P>\257\221\017>r\357\261=\213\213:\276\261\t@\274\216\3414\2762\263\005\276Y\234\320=\260&\214=\335\327\351;\332\r\367=\363\0023=\322\304\277=N<\370\274\311H\342<P5\226=\215\333\244\2750\252%\275\3379D\275\310\232#=\023\005\225=CT\220\275\0022\344\275\377\251\262\273_L%\276L\310\326<\362`\310\275\354|0>rL\271\275\257\014`\275\203\320+\275\271\353\236=\301\010\315\275\014\2375<\244\261\205=~\177B=\326#Q=\276)N\275\322p\221;\'\227\312<p\220\247:\"\025\"\274\033_X\276\020\272I\275\000*\036=\234-a\274;\232<=?\265\313\275\213\346\261=\206\221\007=7.\314=\307\316Q>\366\353h\276\326\034\342\275yW\246\274\205>c=\313LQ\275\355\004\225=\325\026\353;(\350}\274]d\023<\251o\312;\221\035\200;\225\340\372\273\016\224\237\275\262\030\025\273[\335\244=L\242\013>\316.\204\275\240H\223=\332wL<\255D\211<L\004#=|P\355\274\n\231Y=@\352?=\"\333G\276\313\326P\276\025\352\302<ws}=\314\317\"=\227\243\231\276;\243\003\276#\325\031\275\'\367\326\275\024\370\323<\330\222\002=\327\353\212=\253K\342<sX\252\275\302Dv\275m@\355\274\330v3\275\352~\256=\226+\366\275\217\362\210\275Wm\323=9\323\277=\342JQ>|V\341\275/:\016\275\370\017\014\276\000\233\030>\354\001\r>\301\303\204\275\253\274Q\274F\256\207\275\273a\342\275JY\027=\205\304{=\372<>=\370<H<~\277\036=\250{.>\263g\213\274_\245)\276b-\317\275t=\032=8\312\244=oE\366<\3509\225\274\314\355S=\234\0335\275\302\205Z\276ny\210<r;\361<\225\264.\275%\007\322<D:\037<\222l\'\276\233\202\310\273\340\203L\275bR\276<g\002\r\273\034\254\024;\315\242\306\274\322\336\211\2751B\272=\361v2=\237\212I\275\032\351G>\340S\330\274\033\037\274\274\016\035\364\272jS\001\276\376\025>=\035\t\340=$4n\275\362\312\244\275\233\234\210\275\356\243\220<Z\2401\275\353+\220\275\335\304\037=B\327\340=-\035(=\021\310\207<\325*\252;\306\357\272<$\345\232\275d\227\305=\212\316&\275e\035K=\232\262\370\275\021\236r=o\272j=:\267\207=l\271C\275&.\225\275\207\226/\275\310\010z=\345\211\021\276\006\352\212=\3115\320=O\017\240\275[A\222=l\027m<\3457\343\275`K\376\273\373\310\314\275f\276\352\274MY\310=\311\345\261=\222(b=\006\244\352=\233@<>\350\275\002=\211\273\023\276\"o\200>\331\261\251\2753\253\233\275\tZ\003\276pTo=g\356\336=\323.x\275\250YL\275h\377\227\275\221Ln=\244nF=q;+=\372b\027\275\2647\273=NZ5=q\014\037>\207\"\"\274I4/\275\367\375.=k\337\362\275\324\353Y\274Ve\030\275\236oO=\003\237:\276i+\216\275\346&\236\274\212\311\214=\361\364C=\241\010\'\276\030Bh=\231\021\'<\346\330\247<-\2472\276\002\352\352<\005\013\347=q\014\271\273\034\316\242<l\203\314\275\247\2523>\214\244\210=z\275\245\275F\346G=\014K\316\275Qj\246=\251\021\341\275l\002\252=R\255:\275\237\202\247\275&\324M=\376\374\202\275\302V\333\274\256\333r=\014b \275< \237\275\271\323\025=\346\"\016\276\2725\324=*d\220\274\225\237\177<\\J\256=d\364\374<\303Z\353\274\256\217\017\276F\345\251=\033{2\276\000-\t>\251_\340;n\331\024>\247%\267=\377c\316\275<\010\377\275\257K[\275RM\243=\010\034\r\276\254/\022\274\rEh\275_\353\342<\203\232\352<4\234\351=|\246\313\274\017H\274\275\230\220\264=\314\302z=\275jt>\370tn\274]\226\374=\332\\\350\274\201r\316=\371\255\212=^\333\330\274\215/9=\315\307k=\252\331\240\274\036\"\217=\262`\001\275\245\245\242\275\323\217\034\276V\027\320=2\221\353=\251F\260\274\322\202c\275o\317\330<\0362A\2742\357\001;$h\357<\247&\304\273\320\307g\275\020;\263=W\257\273\2759\373\354\274a@\262=\355\315\272\275\254\374\221=\366\032\t\276\303L\205=\r\276\022=\376t\304\275\251y,\275\004;\202<\035\3524=\211\301\325\274\202\211\245\275\307\270\277=\003\303\001=\3539\224=Z?\307\274J=\226\274\231\206\033<\n\333\245=t.\232=\2074\253=sr\210\275+e\272\275\017\373U=ucB\276\305\304?\275)&\327\275b\226\005>\0063\264=\261\366\023=~\245\007>\303\270\350=\300\361}=\025\322\255<\003\024\274=\240/\021>|\277*\276h\030\201\2726\225j\275\325\342\'\276~\2319\274\256\013\033>f\222d>#\034\247=\"\363B=Bt\037\275\233\344\037=\355\357\016\275\0109\242=\226\177\265\274\310\202)>\200Ly=\027 \263\275\025\217\275\274\032\274}\2757\3244\274\212\2058\276\333\n\377<\363\301K=,\231H\275%\375\252=\226\331\237=\260\r\330\275N\221\304<\205\027\021\276j\336r=\234\210\322<s!\302\274\3254\201=\252[>\275&r\332=\037*\'=\273\265\220\275\245e\255=\222W\206\275\344\340\276=\365\336\374=\327C!\276\0353\315\275\331\375\010=bJ\031=&\006\321=6s?\275\\\'\204\275\214\'p=y\327\010>5\r:\275,\036S\275\250B\241\275s&+\276\024lO\275\033R\222\275L\335 \276\341x?\276zB#;\365\233,\275J\351\253<e\272\332=0\037r;\257\371\351=,g\272=\214[\016:C^\300=N\360\353=!\267g<\241.\362;\326bz\274\334_=\275\367\346\241=\327\025\005\276\244i\354\275\314C\324\275\273\325\021=@\0032>%%\221\275q\236\202=LI.=&4\017\274\024\371\"\276Yu\300\2751\366\343\275\337D!\275\303g\324=\264e\313=\311\231]\274\362\227\266\274\242q\357;\312\235\200=\021\007h\276\271\016\252\275?\004\345\275$;\t=\217\005K>\024A/>\330\364\024\275\276y`=\200\201N<B\'J\275\017\0104\272\275\345\347<\366K\'>\355\324\013=\262\361\350<\226\356,\275\355?\235\275\372\374\257=o\360[\275\233\362\013\276\363=\351\273\316g\364=\263\022\214=XL\177<\277|\260\275J\'Z\274pX\313<\203\rh=&\316\243\274n\253\215=L\235P=P\341#>\002\331>=\272\246:>\225\\+>\3554\225\274\020\202\272<\347=\275<\336\307\306=K\352g\275\242(\351\275\362\207\271=8\226\'=3\3513\275\303\022\002=\374\325\251\274;\275\030\275\245\356O\275k\300t=\003\312!>R\340\037>\033\252b=0\336:\274\317\360?=h\207\034\275\374\r\000\2758\241\\>wW\362=\335S\245\275n^i\275l/\213=\264b\306\275\035F`\274\001\356\016>3#\366=}Kv=o\253\223=\203\370\327\273,y\365:)\200\364\274\322\347\233=\002\315t=%\233\034=\010\331Q= I\355=\327\231q\275T\370\252\275\324\214\264=\267j!>\361\370\236\275X\266\006;\237\001W\275\342\017?>!\312\256=>:\254\275%\205u\274&v?\276X\257\251<\277\231\247<\250c\212<\237\263\003\276F\215\203\274\206\350\273<wF:\276\313\307z\275\017\216s<\2161a\275\030T\301=\262f`\275\325m\233\274\032|\201\275\\\225\313<\324\323\202\274*\276\315\2737L\245=\002)\263\275\330Oy\273A\014\020<\034Fx=,\234\334=\261R\364<\225\342f\275\023\272\332\274\300}\017\275\013K\035\276\205-X\274\016px\274V\300%>Swo\275\331\326N=6\2543>\254\025\321\275\027\343V=\365\022-\276\3666\312=\355\320\245=\327\030\223=\351\264#\275\371\214\356\275Wg\315\2741u\317=\003\024\223\275\000\343\256\273X\357\302<M?N<\270\361\007\275YJ\345\274\306Yt=\343\312S\275`\255N\275\035\324\374\274\343\201\266\274\245\231<=\227\'\323\275\017\252\373\275!\306O=\372d\276<q)3\275\002![\275\016\225\260\272\241\317\204<\326\"Z=\327\020,=\371\037K\274c\3354\275O\010=\275M9\270\275\016mR\275g\330\321;kp\210\275\305\221\017>0\332o;\354 \367=0\202\222=\023\274~<\010-k\274\363\376\262=\213 \214=\014\322\330\275\024f\342\274~s\201=z%\311=\366\233\003\275\024\230\320=D\023H>\222\034\007\276=\000Q>\243\3301=4\316\311\275_\243K<\027\335\317=\325z+>&\262\310\275\273\177\277=\361\360\270=\256K\005<\372:\204\273\217\2736;c\220T>\221\314\004>Y:\\=phH\275\374X\225\274\314\266t\276\031\275\344\275\213f\021\275w\362y=W\303\216=\305\244\304;\032\005\336\275\271\323A>\311\3053\274y\344\275=\02570\276\325)\234\274\312Xm\276\365v\256<\230N\226\275\342\024\322=\355~\314\274b\334\320<\001\377\210\275\354\002T\275\305y#\276#\214\013\275\246\016\354\272u\365\036\275\021\016\263<\332ML\275\346\234\365\275,6\025=R2m\273v\035F>\'\266\376=\024 \027={\231Z\275\250\362\003\276\330.\021=\2001\205=\016\225\221:me\215=x\"\352=\300t\357<\340@\260=*\255\327=2\355\"\274\322\007==?\331\3528Gm\000\275\235\r\302=u\241\330\274\245Rv\275V\036\206<\231\005\364\275\2471!>\304.\315\275N\212k\275\265,\302\273c \300=j`\273=S\310\324\275\256[8>\227h\014\2758\354-\276\377\352(=\255\021P\274I\242\221\275\007\277\036\275-\340==\266^\022<D\t\005=?\303\273\275K\'\333\272hA\001\276t\007(>\307<\275=\037is\275\272\356F<n\325\310\275\017\375`\276k\227\304\275\273\322\353<\302P\240<\264\367\322;\204\251\315=\007\\\350=f;\350\275^\021\031\275\360o\251\275\375\334\306\275\320-\304\275\373\030\000=\tp\247\275f\231\246=\002!\001\276\371#\263=\331Y\022;<=\233<A\253\273\275\234G\375=\310\354\204<\333\246a\274\221\243\327\275\214\323\201\275p\252\331\275\014A\213:\200\233\274=O]\201<#\250|=\333\266\302<\217\007b=\311R\372;\202i\376=t\322\010\276\007\253\253;\337\251\334=\025\305\221<\010\357\031\275X\256\000\274?\215\017>\210vN<ae6=\025\033:\275_\264\306=\212\024\236:\365\010\202\275(\336\365\275\237\021z>\2032\260\2734\234\243\275a7\231=*\025R=\263\200\240\275t>\226\273\276Ol\2752E\326\275\231\261\'<\277\024\210=*w\301\275w\016\025>EX?<$\227w>\025\307\010\275\376\242\230=d\214\262\275\265\205\t\276\377\367-\276H\034\303<Cce=;\322\010=\327\276\354\275\256\3743\274H\251R\275\377\372\360<-\374\260\275\206\247\014>\'\0362>U\032[<\001\277Z>\"\365C=\205Z\001\276\"\261\016\272\254p\277=\016\346\361\275Y4\001\275o\310\272\2755K\355<6\375q\275\025\277\013>\342\267\r=*\210\216<\2475\301\275\212P\016>\324\024c=\341\237\210\273b\367\321\275\225\336w\274\2160\250=\376\241\320\275\244q\207\275\274/\314\275\220S\016=T*\256=\3037\306=\360\214\370<*\262\277=zH\362;\367\372v=!\220\261\275\377\317\033\275\362\234\211=\305E};>\021\">\321\031\004\275\t\243\373\274\265\343\017>I\n\236=\372\245;\275}j\246\275\271,B\275\331j\264=?\223\220=\305\216_\275\204e6\274\345\022\236\274p\206\215\276UU\210>\205\300j<\t\355^=\310\241X=P\320\\=\271\025\337;\311\031\371\274`+\243\2758\213\271<\236O:=\3316\272\275\272k{\275\033\020\247\275\351Ed=\265N\362=70b=\237m\027=\356e\253=\266N&>\323\021\205\275\303\357\263\274_\353\354:\210\307\252=\315m\305;C\217\260\275!\031\225\275\1771\325\275\251\363b=\220^y\275\037\241\302=Z\271\332\274Z>\023\275\367\005+>P\353\024>6T\254=\334!\365=\235/\267\274\307\370\\=43)=\211\272\014\276,I\004>PaW=5?\231=tG\202\274J\217\217;\367\371\002\275\207H\246;`\023\314=\252\214A=.o\365\274\262&&>-\3308\275d\'Q=\245\214\322\275\023X\270\275\350\014D>\027\210\244\275\254\032\342\275\227xo=\334|Q\276d\266\202\274v*\205\274\330\257\300<j\244+>#>\036>\213\274\212=4Ye\275I\317\363\275\027\275\256<nq;\2763\212\000\276\315\004C=)\213\273\275^\317%=\353N\211<\010\242\226=\242D\215;t\262\002=\2047\376<h\010A\275\370\006\265<\246\200\272\275\224S\221\274\273\024\210\273\304\325<=\257\207\332<\246\235\314\275F2\353\275\275~L=?\313\244=\216\365\260\275\307\n\277=\325\333\256=LX8=C\272\317\274\211\373\024\274\314\246\037=\232\330P>K\322\274\2753]\256\275\310M\313\274\206\210\017=\241R&=L}n\274\273J\020\276\276{\374<jCW=\255\013H=\016\306\020\276\366\333\211\274\275k\331\275,\002n\275=\353m\275Yh^\275\256\322\025\276\224\320\001\275\331\230\317\273\030\3460=m\325\225=\335@\r;2\025\245\275\236M\225;?\306\000;\025\247\270\275,\334\257=\237\213\222\275\317\'\250<\367 \367\273\365;\"= \031B>\002,)><O\035=\321\\\356\274\275\005@\275of\237\275r\031\256=\363\327\363=i\215;=\314|\333\275*}4\275\211\306\373<U\264\010>\347\204\030\276\365\273\207\275\360\r\000\275\"v\235\275\345\225t=\265\005-\275\250\021k=d\342z\275\206mn\275V}\312<\tH\302\275].0=\3749\362=\033\360\020=%\337\364=m>\267\275\346[\355\274\372\231A>\017\244z=\352\243\244=00@\276We\232\275\340\307\225\275\266-\310<g\225\014\276\341\212\272;\315\247\027>\370$\323\275{\372_\275\305LD=K\261\216\274\270\212\010=\220\215\276;l\001\300\275\333\345\315\274\203\267\276<M+\353\275\206\022\322\275Q\230\007=g\365,=>\'\371\275%\214\005>\252\330\3008C\2555\275\243\256q=\216W\212\275\030\035\014<i\365#=\222\276\204=\263~=\275\360\220\003\275\325\020!\2760\363:\273\021\322\356\273%\272>\275\245\031\307\275\331\312\302<\230\306\r\275I! \276\267r{=\267\370\334\275;6\003=\353\022)>T)/=\004r|=iq\311\274\345\223(\276(\321\217=\225L\273\275R\364\363<kQT\275\33350<\361>\024\275\241\250]\276\367r>=\022\371Z\274\354\342&=\004\2030\275\261^\016\275\020\2447\275\350l\200=\017\223Q>\240\017`>\333Y\204<q)>>^\323\372\2753\357|\275C\276\242=\353\371\240\275u\211\212\274\377\205#>x\260#=m=\333<\226\225B\276\204.\221=[\301\203\275\216\331O=0\364\177\275\375\263\244=\355\"\027>\270\014Q\274\023\315\367=6\002\036>\020$\016\275\272\023\n>\003A\264=\272\251P:\332b3=\316L_=\035`\250<\223\2509\274\303\200\027\273Gh9\273\227\036\202=M\361\226=\276a\330=\303G7>GS\224<\023\247\002=Oj\001=\2721\024;\212\t\332\274\275\022\225<mw6\274\022(\037\275\275\250Y\276\200\226\240\275\224 \376\2757~\034\276\373t\266\271[\325\261\275\317\357M\275;\307-\275V\3416>\307\352l\274\321\t\260\274C\377\001\275z\276\026\276\177\017\001>\264&^>\272\260\245=\277\266\274<\201\224\331\275\016\233\327<\207\3709>\320\342\205=\3767\255<\346\263D=\200\222\264<\177\361i=\325\245\375\275\000\262.\276\006\362\'<-E\334\275\254`c=\277\016\037=\201=\022>H\017\220\275\360\310\372\273^K\303=\362\245\000\275\021u/\273H[\314=\274\356\223\275\275\263\317<\364\215\327\272}\255@>KL\221\274ky#\275\363#H=\263!\312\275\261c\365:z\227N<\222?\'>t\201;=@\274\001\276\032l\n<\023\361U<g\005\360<;\020\210\275R\234\323\274\026~\357\275\227\210\254:Uka<\230\340\227=%\377\207\274\245\233\013>\270\332\334=\302\014\320\275\304\023\306; \221\203\276\255>2>V\313\t\275+\351\362\271\314Oz<\267\027*>\300\364\230=\366KY\275\253\237\t=\022\235\277=\377\344\332\275\\(\253\275\034\3341\275u\200\036\276j\334D<\227\325\357<>\r\327\274\226WT=\3157\327\274|\2731\276\027\033\266<\371\325\331\274\225\376U\275/\177\303=\276\020W=m\025\t>\320\267\247=\302?\345<\376\310\273=`8\307\275\337u\252=\375O\272=\266\230H\275%\275~<EX)\2754\301N\275\244U\031>\370\320\370<\274\2318=F\371\277\274g\235\323<\211\277I\275\006{\272\275\236@\334\274\205\362\321<\332{\365\275\301xD\275\253\204\245<\206\371\307=\264\036\367<v\227\216<\254\323\205\274>\356\n>*o%\275,.\\<\020(x\2753U\316\275\352\027S\273ll\246\275M\255\314=\035\021.>\354\303\t<\250C\335\275W\024\271<\304\316K\275Q\007$\275\036\3339=#\275\227\275\363]A\275\264G\t>\340^\337\274\256\340a\276\321\250\222=\304\221\n>\032l\261\275\010\030\025>\344\346\345=\004\214)\276O\227\244\275\023\240c\275\324\222W<\223,\264\275#2U\274\334*\374\275\032M\213\273}\021\337\274T\214|\275\035\233S;7^\244\275,\321\274\275\350\004\256=\214\2309\275\334\275\267=\311d\016\276(X\216\275\310\314\007;\201=\000=\250f\232=~i\255=S\331X\276\354e\341=2mM=h_|\275l\221_=#\323\312<\016\255\220\275ZG\023\274\231\312\361\275O\377\r\275G\236\t=\032\2518\275\364\325\374\275\333\007.\276\2670\204\275\254\277}<\307\005<\275d\007\371\274\254\232\024>!\230\231=\306\203\313\275\275\237&>\320\341Q=p\376\023\275.f&\275\212\355\353=\375<\264=\030\017\305\274r\231\307=\353\374\212<\2111\016>{l\035\276\345\350\265;-\252c=\212\037\034\275\372O\307<\250\250\271\275\373K79\025\314h\276\201g\036\275XI1\275\247\303\020\274J\324\010\276\216\277\310=\270\240\006=\002\267%\275\020c\376<nrX\275`\0375\2747\311\202>?\217\255\275\341\215\033\276\357\356&>\004\223j=#\270\336\275\330\003\002\274[\001\032\275\261\370\\;\267{\035\276\245\305\032\275\252t\215\274\010\263\261;\341\246w\273\220\0201<\037\374\374\275\260k\227=\332\365\375<\032\030\330\275\314\2347=p)\316\275\255\201\002=<\366\003\276)\200\372\2745\303\301<R\230\334\274\323\033\004>\t\016\201\275\002\201?=\341\320a<\"\027a=\247\030\276=\203\001*\274\344\002~=\377|\300\273\231o\347\275\275\367p=\\\nw=\236.\317=\311\227\215=\240\253)=v5i=t!E\276e\226\356=\272\314\275\274\004\035\327=U\331\246\275q\017\206\275tc\246;\362\306,\276\362\217^>\372-\222=\230o\321=\225\361[<]-s\275\257x\300\274k5\300=\331M\006>iI\243\274\300\265\332=\252\256\245\274\251\014\326\275V\2421\276\010\333M\275if\240<\320\303->O\3206>\277\317$\276S7\320\275\3213.\276\243X\275=18\360;\270\365\217=\344\310{=g\260==G>\336=\320\301\037<\\\327\240=\246k\242=;S$<\321\004\370\275\263\241\254=\365\326\254=(\314\013\274\335\240F=:\226\263=\r\273$>\263-j\276\007\335\312\275\244\316\032\276\354\'\312\274\240\201#\276%\245\002>\223\315\346=\247?\223=\017\221E\274\347\320J\273k\022\352<\307\247\242=F\371\245\275-\'\233:=\226\223=g\303&>I\025\355=$\210\223=\360\007\314<`h\342;\301U\373\275\273M\021\274\333V\207\275(\"\341\275\023Z\010\275\273B\370;;\354\201=\232q\343\275|\271\240\275\252\254\010=\037C\263=\037\221+=\034<\365<)\214\003=C\t\033>\323\261\244\275I\000\2669zCQ\275\006$\221<\2433`=#\356\355\273+\364\300=\013\244?\275\204\351\243<{\014(;\303@\203=\227\007\345=\223V\245=p\306\366<\373\017\263\275\022\026\324<\030MA\275\036x,=A\237\023\276$\324\206=^\013y=\006\373\276<\322\354\216\275\214\223m\2757\272\217\275\n\327R=\311\366\365\275\">\340<J\361\343=\216\315\223\275\345\024X<oY-=wL\260\274\216t\307=\254_\003>\302\370\020=\300\260\013\275$\317\032>2\370\303\275|\332g=\005*\241<\213\204\247\275,\032\177=\331\272,\276\262\242\377=\304\207\316\275\323\323\205=B\020\314=l}F<\343\213\000=\352X\357=&~\276\272\206\210\002\275\321Mi<\256k\206=\334s=>S\005\">[\307\220<8\352\350\274FO!\275\363\224I\275\013\277\226<\\\017b\274\247\216\235<^s\215\274\001\370\316\274H\362\n\276o|\361;=\361\335\273\037\002\315\274\006]U=\202\rI\273*\254\265\274\333v\031>\305\307\220\274%\2766>/\311\262\275\303\032l=\006\023c<\332>J=L\233\362\275\226\373\236=\0172S\276\362\310;\275+Y\314\274\n\010\211=\242\257\266=\244\366e=`\217\003\276PB\234<\312\033\331=\375^\353\274:g\177;\304\\\316=\177r\216;\004\0060<\017{p\275\234\017\307=p\206\304<\023\214\244=\r\017\354<\334G\201\275\311w\037\276\230\276\336\275\204\211>\275\370\006\302\274\347\331\263\274\270\036D=\235Mu= Q\375\274\311\261\215=4\222\223=E1\013=$\316\010>\017N\246=\245\351\000>\343\360\022=\212\227\253\275si}\274\370\202\n>\266nX\276\230\255\332\273&\216P\275\242\007\305=\034S\036\275\251[(>\\\016%<\331\023\272<o\277\002=py\327=\221\201\177\273u\202\314=\245e\'>fSC\275\314\320\365\274\216}\223\275Z\250\021\276\023\'\307<\310\217\203>\203\263\022\276z\250\276=B\315\302\2743\026\377\275y@\255=\373@\304<k\312G\275u{\32170\341.=\2536\207\275\003\203L\276#-;\274\255\263\302<\264\375U\276\223\331\001\272k\205#=\007\037\016>^\210\336\275\017_\342\275w\207Q<\232XL\276\013\001$=\354\364\200=v\344\236;K\310\365\275\001\277\277\275^(\224=s4\020>[T\275\275\016\022S\275\372|\'\276\210[\305=\360\264w\274\35520=\344\"%\276,\373\356;[\344\252=\013\017\264\275\222\017\022>\235\3748= \243\032>\002+l\274u\247\332\273\270\025U<*0^=,\252\215\275Zc\332=@\355\232=\374V\014>\026=R=[\352\213\274\324\343A\276 %\r<J-\014\276\222\252\266\275\370\204\034=\007\366\242=\213A\201=i\247\366\274w\217\374\275\t\355x=\350c\342\273\232i}\275\325\275Q\275\207\014\245\275\\\360\356\275\214\245\233\275\274\376E\275\263a\302<\326\372\010\276y\202\205\275\232\035\361\274\364K3=\256=\002>2!\001\275\333\033\016=\324\224\312<\023\230\327= \230\205\275\204\006\333=\240*\006=\033\314\200\275\010J\016>_o\350\275\213\235\302=\305J\2168\241\346\024=3\376\272\274\304\234\000\276ke#=R\002\234\274R\353\271\275\n\360\177=|\257\316\275K\025\n>\346(\216=\321\0278=c\242K\275\307\000\236=\016\315\333=N\244\236\275\033\310%\276\255\213\217=Cz\271<\201w\026>B\243\037\275LN\220\275\272\266\207\275\253\272\217\275\244\241\004<\366\007\371=yO\263\275H\033(=\241\"\265;\301\323\005=\344x\201=\344\371\317=}<\025\276]\217\315\274\014M\'\275\177g\222=\023\247t=\274;\311;})\013\276\366(\273\275\024r\342=\3275\020>\312J\363\275\000\325\241=~\366\016=S\304`>\344\226%>\366)\201\275\327Q\301=&!]<(\336s=\324U%\274\277\256\036>Y\270C<\030\2059\275\002\317\274<\300\243n<Bv\261<\270\001\210= t5\275kb0=\372\024\211=r\005\316=UMa=\336Z\306\275O\207\n>\3461\335=\262\235\245\275k\301C\276\np\227\275\222C\\\274#\207S=R\245\214=R\264\214\275\303\354\022>\243d\021\275+M\017=D\036\371<|\014\232<\205\251\355\2752!\002\276\275\033\'\274\2300\323<\225\272\024>l\246\213<\320\205D\275Tx\356\275\025\327\001\275\331d\006\276\036Id\275\324\370\315\275\315\353\366<ggf>\'\367\342=j\233\344<U\013 =\253] >Fn;\275`5\344<A\270\t=/L\342\275!#\306\275\036f&=(\000\016\272n\243\364\275\277N\272\275\221\002\321=\264%\360\275\303\016\235\275\301\207^\275\221\2013=\"GJ= \330\360=\340\303\241=\354\016#\276\026\246\007<\364{\035>\236\203\354<\330\250\271\275\210\026^\273l\245@\275bD\305=&\215\010=\222\244P\273\252\364d=\354\026$\275\375e\030<D\372K=E2|\274\201\355\005<x\232\271;\311ef=\371\r\212<E~\247\274\355\rU>\024\014V=\227P]\275\230Y\017\274k\022\352=\033\206\353;\305I\211=\233\006I\274x+\374<\200\267\023\275\34279\275\021\341\201=\307\331\375\275\035\362\274\275\223\372\342\275\\i\277\273R\230A>\205\301e=#\035\266=\310cw=\211\3424=\'H\203=\250\225\370=m\364\234=K\236\'\275\224\353\301\275\222t/\276*\321?>j\017p=\375ph\275\031R\211=\315\274\251=\2409\240\275\352\201$<-S\314=\324\302B=\203?\234\274VF\240\275\005\356\363\275LmM\273y\303\330;\247V\264=\217\2431=c\347\207\276\222\251F\275\264m\352\275\017\212A\276\372\234\207\275\336\316 \274\354\227Q=l\177\311\275\210d*\275\301\036\255\275\271\376\244<=\334\243=\213\001\303=\024\361\377;\214\014\270=\013\344\231\275\020\013u=7cV\275\353\222\205=`\313\344=\256\325{=\272l\036<D\227&>\034\005\256<\244{\363\275\233\331\306;\243b\216\275\030f\205\275\231\370e:\300\327\200\275\317\0015\274\024\304\027\276`\363\371<|\356\r>\277&\n\276~a>=\014\300\004=h\035\256\274\344\006\302=+\356\235=\"\341\244\275\037\315\212<\327\274\203<\373\021\205\275\365bZ=\237\205W=G$\233\274z\302\001\276\307\023\005\274\207E\032>=+\235\275\313\203;={V\311=\3348\256\275x\002\367=\225\356\2248\270\261m\275\200lx=$\234\336\274\252r\026<\244\037\224\275F\207y\276\301\247\037\274\361 \013=\265\350P\276\347\315V\275\025\200\t>\225]\254\275\376c\236\275%W\350=:z\330\275\336\362\210=\316~-\271\274\r\214=\221w\243\275\341;\262<\t\004\204\275S-\312\274[\315\236=\265\354\017\275\'\364\364\275\245zE>X&J=\216\317u\275j/\327<\376~\214\275\377\356\361\275\303&o\275k\030\252=k\327\263\275\3211\252\275u\024@=L\215 >\\2\264=\023\334^\275u[\224\275\025\214\"\275iXm\276\304Nu\275\331\335\345=\2349%\274\245\262\017\275\034\222\316\2753U\226\274,o\261\275\303\336\357\274\255\262@\276\217\257\002>\306\004\377\275\255J@=\305\217\025\275\260\355Y<\'\245j=\2347\226<\336\240K\275\306\002\177\275\3337\027>\3671\240\275\274a\t\276\036l\007\275\241C\356\275,R\216\275\323\312\'\275OL\002<z!:>\342\371Z\275\312\035\211=\200I\370\2731B\363<\2257\210=$t\204\275d\320L\276\007\240\027\275.\242v\275!N\177=\333\372\033\276\017\003O\274\240\240\004\275\271\002\253\275h%&\276\274\351\212\275\271\311J=\251\246\326=\207\241y\275B\315&>l\023\337\274g\034\027>\204\2771<Tb\207\275\351\210\311\274\331\270\334\275\331{1\275yWx<\237|\362=r-\261\274%\354\215=*\370\203=\037\3639\276\207\034\310<\331\314\334<\0077+=K\203\215\275\240\246b<\246b\336\274{\325\315=\\0\270;\343\240\373=\227R\261\2755\226\374;|Y\371=\353O@\274\271d\254=r\274\357\275y\247\325=\364\367\365=\037\035\205<\375\241\024\275s\277\204><[/\275\206oH\275\'+M\274\270\247\311\275}Y\224\274\035\212$<\235y\032>b\313\225=\354\353\016\274H\001\241=\331\361}=Z\'0=\357\341\214\275\224\335\256\2748\374S=9\264\241\275\260\355\252=\311\204\003=\266\324s\275S!\207\275#\001W\275\350\2228\276\351\332S<`\210\351=\312\347\005=\315m~\275\320\\a>R\317\002\274\330C\0169\310\364p<\200\302S\274\337&!>;\251\034\276\266\337\267<j\377\374=\242\357\036<\037\225\224<\2519X=\207\214t=U\'\240<\323*\263\275&P\377=l@u\275=\214\222\275\342+\275\274~\002/\270\216`\207=mT\233\273\270\373A=\\\372@\275\367=\017\276Y_\221<\202x\375=\245\227 >\370\304\370\274O\202\262\275\374\306\365</\372i>\210\275\337\275\232l\036>\'\213\341=\034\241\252\274\336\270\014=k\373\005\276\020\234\355=|\272*=\331\234d=\344#(>\346\004/=$\026\257\275\276\246\351\275\327\340m</\215\205\275\034\250*\274p\036\300\274\237\024\331\274H\325\375\275*\007\253\275\205h\235=\241G\004\276\304\203\260=C]\272\274/p\261<*4\'\274\177%X\275h\365\263=\351\213\035>\240\245\010=(z(<\366|{\274\336\t\001\271\243$\240=\362\202\014=\374\356z>G@\240=\227I\371\275\200X+=p\2778=\211\276|\275y\317\014>H\317\301=\306\r\324\275\326\177\227\275\312\341S=\'\221\235\275$\311I\275\363c`=\\\322\320<\340\310<>\207|\212\275\323z\246=\357\027\005\276\367a\024=I\247\261=\223>\027\276\231\343\022\276h\0324>\3267\227\274a\331h=\337\307\024\276\"\273#>\264K@\275\311U\2307|\024\270<L^\030=\'\355\245=\312\"v\274\253\240\035\275\315$\302<\277\354\022\275\267-\215=\200MT\276y\024\250<\253\371\351;\"\006\362=d\227\010>ER<\276Y{\273\275rc\277=B\030\261\274\\.\374\274\244\224O\275\037\017\312\274s\317\233=\202\000\346\274\217\355\003=\323\177r=\272\210\364\275\347\303\211<\ts`\275\203\263\253=\201\032\316\275X\365\240=?\243\361\275\312\302\346\274w\241\240=\250I\222=\270!\224\275_\023\223<Q\301\305\274<\273\000>\327\265G\275\365w\014=CE\334\274\253\367\325\274\242?\254\2757\212y=\345d\036\276\030&C\270m\230\016\2767\021Q\275\243;\352\275\272\365C=\317\233o\2761\032\312\275\320\310\002\275\237\021\230\275b\231\203<\2276\034\2758\221z=\336/->q\313,<)\346\224\275\341\002(>\347\320\245\274l\213\016\276\037H@\274\027\033\307=\320\244\223\275T\251\230=\303g\014=\352=*=\226\322\275\275\213\256\341={H\232\2759\356\364<\332\030\023\274\310\004\317=mi8\275~P\343=\262\372\027=i\026\227<\001\203\226\275\253\222\317\275\357\017\376\275\224\0013\275?2\036=\020m\007>\221\027\t\275\317\207\020=&G\216\275]\265\022\276\2051\276\275I\261\233\274\025\212\003<\373\200\345=\317\302u\275\227,\302<L\302Q\275p\267\204\274\327T4>N&\337\274_\033\247\275\243fa<(\347z=e\233\013:\2418\t=\3248\343\275\374\342X;\274\307\312\275d\310\343<\2472\323<<\240\274\275oe\207\274\324\340R\275j\275\272=\326\243\022\276c;5\276\3419U=\341\006\020>\271a5\274\352:O\275*\024\013\276\317\375$>\002\024P\275\273\202\317< \272\347=\257\214\206\275fe\222\275\341YZ\274\255\212\177\274\275\253\373;\322<j=\353\352\212\270\252w\326\275\254\214\247=q\016:=Q\325z\272\030\367\240<@\371\031=f\'\2529\371J4=\014\237\004\276\030\r\001>\013\007k\274+D&= qY\276SkJ\275U{]\274\255C\354\275q\003\r=P\331\301\274\347N\222\274\026\005h=\201u\024\275/\177\211\275\242_\337\275\033\233\225=\305\335\320\274\326\307\177=UW`;\345\374\020\276\206w\324\274\252\275\237=~B\213=)XO>\033\367\r\276\256\337\216\274\200\254\027\276\220@0\275Y\377\310=\022\355\305\275a\271\002>\272\204\242=C3\331<\356<\260=\245\272\342<p!\361\274=h\235=7\314\252\275\262\224\306=I\342\246\274\312\213\354<\243\343>\275}\315\033<\355l\r>#\257/>\245s\036=\362\354\255\275U\377\':\234z\240<J\341\200\275)\177\226\273\271\223\206\274\rm\034\275\305\312\376=X\314\231\275\241+\255\2758U\000<-U\373\275\nX\347\274\310\274I>`NF\276v\361 =\307\3166>V\303,=\244\007{=\366O5>\246\346\033\275\377\230\005\275\372\353\020\276\243E\320<\260\271\266=\034H\003\276\223\373\317=\307\341\020>\313<\271\275\n\205\214=\005\234\276\272\tE\310=\322P2\276\362\252\354\275\374\226H\274\330(M\274\242\201f\276)\253~=\261&\213\275\245\235.\274\346Y\300\275\021\376\262=U\207\346\2749\022C\274\335E\223\275\036%\014>\246=)\275\276\305\365<\364\214\031\276\3653\315\274O\274\217=X\036\234\275\030\320\3209\006\026\235\275\260\365g\274\360\265\364<\236\315t\276\247\317\250\275\257hH\274j\3059=*b\240=K\312K=\267\316t=\354\217\247=\2362F<\247\003N\275\340\205W\276\276\304,\276w\363V>\343bP\275\343*\310\275\036c\225\274>\227*>\313#\216\275\032\032\374=b9*\274\334bb>\372A\262<\033p\214\275\350\273.\275\222\336#>\204E\215=\014\007\214\275\t\037\357\275\210\3768>\275X\255\275\222\264*>\256T\355\275\236\336\354=C\035{=<0p<L\231\242\275\375J\225=\246!e=v\017#\275\376\351\261\275gm\371\2753\371\224\275\302\204\246=o\206\234<\r\357#\276^W\237=\002\026\232\275\256\346\300=2\037\246=\010\322\262\275\222F\341\274\373D\256\275\340\344\251\274i\277\330;g\277@;\033\227\211\275Y\212 \275\316n\005>,0z=\\\002\271=m\207\373\274I\014\362=\263\375\001=R;Q\275\264I\027>6\354\013<U.A\274M\302\245\275o\217\263<\027\026\320\274\014\361\001\276r\022\356\275\026\020\023=\325\317\300\274\363\215\204<zY_<\317\306\367<\275\002\326\275\342\034\267\275\025\246\036\274\240\300\025\275\017\325\220<8\311\312=\3135\241\275l4*>\214*\001\273\334\234d\274\270M_\275\210\3778=\023\307\372=36\315\275\345qX=\325\371\313<]\307\214=M2\325\274&\275\327\274\227\366n\274-\350\226=n\007\225\275%\014\210<p@\266\275TH\005=|\346\220<bo\252\275\001\262\315<$\277\301=.\220\330= \335\215\274\364\306\262=^e\311\275Q;\361\274\2265\017>XI\261=t\027d\274kX\363\273G\215\243<\202p\322\274\021h\262=\200\027\331\273\002\260\333\275\020\021\371=\363\212\224<\215\003==\221\232\267\275\267^\372=\375q\274\274XK\016>m\3038;\025\320\"\276Q\311\017=\001>\221=\\\352\261\275\366u\373<\225\213F\275\305\305q\274\013\230G=\272\251\246=\340\330\031\276\314\204\201\275\306\372\021=\003Qc\275\201\372%=\246\206S\275p\320\224<\240\210\263\274\254\333\304\275\364\037\323\275p\367I=\242p<=\331\255\022;<\232\223<^\211\216=6\245%>\234\360-\276\032t\274\275\256x\016=\036\262\337\274\354\236\362<\026\207\305<\237R\021\275\350\271A\2755}\300\275\332\303\325=13#<\007\376\030\276\357\r\003=\023\242\277=\203F\334\274T\202\225<\333\304\336=\211\316H=\013\3729>Z\303\303:\027\237\027\276\207\340g\275\035\3700\276x\177\207\274\236\322\035\276\001\344\270=9\267\216=\255\253\323\274$\377M>7\350\362:\314E\t>\3463\034<V2\022=\316\0043=\241lP:\'\216\325\274m\344D=5\'\305<0\326\357\275\356Yy=_\224\n>\224\203+\275\250!\244=\217\032\025>\350[\376=\320n\247\274TD\013=B\000\243\274ff\024<W\352\247\275\221/\311\275\3159\013=\306\r\027\276\032\227(=\316\204>>\301n\036\276\367T%\275\366p\372<s\301\224>\217\375\334=wn\202\275\231\034I\275\023\326\022\275v\316\'\276\256G\225<i\010w\274\023\336\204=\357\014\262=ic\266<]\2303=\317Y\326\275\277\302r\275\245\001\014\2762\2411=\374|\206=\354K\326;~\324r<6Hp=\375\263\375\275\231\374\017>\274\267\010:\304]\020\276\322\035x\2756\013\026\275vW9<\002\307\376\275U\341\355;\327\201\317\275*s\355<\250\356\021\276\224\204%=\305\340%>aD\205=\362\325\252=\253q0\276vh7=\034G>>Uyy\275\316\324\211>E\272\320=A\030*\275;\247=\275\315E3=\215\371\257=F\3414\275\307\016$=\357\323\037\274G\202-=\371\202\205<\347\260\300=\313\250\273=\350\323\226\275\003\314\314\274X\226\036=\372\256U\276\203\336\266\274\005|\202=\354Z\225\275\004\3226\276\035\021d\275\357\355i\275wK\204\275\302-\267<\031\021\n\2764z\226=)n\324\274\000\246!\274k\334\014=\360\327\256;m\325\002>\005\265\346=\220=\202\275\371a\347=\373\231\210\275\237\314\277=\231u\232=S\263\013>\003\033\354\27552\316=\350\323\353\275\311\372\224\275\3660\377\274v\242\200\2753Q\300\274\232NF\275\257\022L\274\265\034\306\275\'\033\002\276\006\307\305\275J?\231\274\347\235\251\275\220\372\n>R\035E\276\335Z\213<\021\032\035\275\232\203\257=\357\341\332=\347\251\201\275\377\313\n\275\037\367\243\275Ej\300=\223M^=K\263\'>$\253~=\200\260\305;\302h\023\274\020\277\311\275\032\254Y\275\215 \212;R\360|=\374jO\274\000D\236\274l\030\n\275H\216\016\276\335\010\337<\3560\216\2741\355\223\275\241 (\276\023\251M\275\2402v\273z\232:<}\370\020\273\305x\253<\310\315\232\275x<`\275\344\226\031>\235.\324\275q\212\344\275\326\256\243\275\030\256\303\275g\027\177=F0U<\306<\250=\007\330\264\275\252\272\022\276\333$\357\275UiG\275\r4\332<~\333\312\275!gH\275\022y\260=c\305,=\316(\264\274G\"-\274>Y\010>\372\306\006=E\264G>\260\327\t\275\26043\275\335<w\275\005\364d=\0003\367\274\317\302\232=L\025\314=*\355\347=|T\360\274\002\"\022=\334\257\034\276V\ne<\3644\341\275?\330\270\2754\244%=\\\\\005>\211\205\254<\343\260\246\273\003\323\032<\271\346\323\275t\';\274%\023\276=*\304\207=\214J$>w?\343;\266nx=\343j\211\275\022V\210=\341\217s:8\212\377\275\361S\376=\343\250\236=,\235\226\275}\035R=\331W\020>\314\310\235\274y\023?>\307y\354=\2567\302=\003\340\030=\241\307\004<GV/\274\360\320\326\275\302\024\221\275\3178\204\274\201\303\006\276s\000\351\275\207/\352\275o\212\006\275\221l\206\275u\337P=\327 f<\026\365\307\274\247K\007= 1\030\276G\307\365\275\021kq\275gi\036\275zl\347\275\255g9\275\275A\364\274\360K\334;\364\346\234=?\350\022\276\224m\n>\250@e=\360\350\323=\326 7<\034?o\273\264\340n\275TV\262\274>\'\350=m\211\264=\321\374\010\275R\225\013>\365\341\204\275&\300b\275\002\350\275<sD\214\275\274\272\017\276\003`\247\275\3014\245=!\257\006\276\347~\037>j.g\276G\326\271<\263\344$\275s\325;\275\010_\367\275\312\2613\275\365P\321\273\362\215\233=}\316\227=\tS\014>\222M*\273K\230\007=]\360\214\2742\227\320\275\360\333\200\2756l]\275\031\216\014\275\216@\355=\031\311\203\275\252X\">\303N\301=2\013)=4\246\025\275\235p\003\276&\246V\274\210\022\005\276\271\214)\275\233;\032=)o\031\273\334\263\316<\2423\334\2741g\230\275\357\321\322=\003\363\024>B\362\354\275b\256\226\275\327%3\274T\255\346\2741\250d\275\355\"\246\275=\244\342=\331\365\221\276\215\215\313=\205\205\357\275\3378\010\275Y\'\206<\013\r/<a\010\227\275`\271W\274\266\325\345\274\330\006\022\276\033\367\206\276m\000\251<b\333\t=\246d\355\2749_\r\276\235\251w\275\2258\222\275J\0367\275uZ\254\274j\241(\274:\006\\\274\361\300\327=\200\302\340\274\272\201\001=\244\026\300<\024\254\\<\220\365\326\274\356Y\271\275\203ux=\225\321\004<\270\352\210\2740M\220;\244\240U=~\246\307\275\305|#=\336*\001>\212\230*<\014\305}=M\254_\275t\210A=\313a\024\276\372\267\202\2754\303\221=\306B7\276\352\353\334\273\035\327.=\024ag;\276\352\216\274\267\022\'>)c\346\273\375\202\250\275\352\217\272\275\302\036\235=\342q\016=\371\342\346\275\352\227\205\275\337\216\r\276\2150\301<|b\007>=9\227<\243\366e=\216\216\273\274(\036\310\275*oZ>f\330\021>\036\352`\273\274E\360<\202b\000>\327>=\2735\3026\276\026\344\271\274\014.\362\274\244A\232\275R\257\262\275\264\234]\275\331\261\026\275\2133\302;\277\370/>\251\370\216<\275\025\221\275\260_\343<\222A\330;\305\320\327<Q\270\030\276\240H\340=m\335\307=\343\353\252=\243r\205\275\330K\345=\334\000\303=f\032\221=\201\016\303\275\245\334\345\274\024\261f\274\370\275\201\275\263\034\350=\321\275\244<\214\325_=\2433\220;g\340!\276\313Z\337=}|\316\275($\315\275#\276\210=O\374\332=\307\325\253<\366us\274o\304\275=\026\371\007\275\033\362M<\234{\363==\210w\276~\226\266<D\035\374\275\261\203\323=F\036\n\274\203X,>d\2218\275g-T=%\255\233\273\335\261\313\275\261\376\277\275\220\205\037\276\232]\250=\225L\325\275%4\030\276A\335\310\274\177!.=A\022\306\274/\353\"\276\323c\327\275\370\032L\274\306\347\214;\327A\226\275p\362\"=\345\3326:%\261\3249\243\r\017=k\010\000=\232B\"=0\232\240\274w\255}\275\246\252\361<\316\242{\276\334\007\007\275\232;\032=\225\233G\275\304\306\330=X#\013=\240\211\002=\303\337\200\275\212\272_=\2318\210=\232\261\227\275%B\267\274\254\257\021>s\373,\276ks\240=\"\t*\275=\250\255\275\330\177\242=\002w\226<\265\333\240\273\334\331\204=y\247)\274U\357\001\276Z\336\216=\224im\276\317e>\2741\276\337\274R*\215;^>P\276\367\014\017\276;G\023\275\343\376\340\275;\205\315<\260\301\321\2751\220\327\275\"\264\r\276\235\017\264\275zIu=M\354\304=\257\022\224\275\320\373\300\274\274hK=M \301\274\005X\r\276\025\2363>N8\351\275\036\242\311=q\262\310<b\264_=\255\001\334=\237\375\265<\320<\321\275z\364\260<1Z\021\276\235\345\376\275\227\252\215=\001\306\300<m\302\365=Tx\036\275\001\303\027\276`{\277\275\277\370J\275!\304\214=\251S\007\275\311\357\241;\202;\023\276\177dB=\317N\205\275DA\221\275\377-0\275\3401\307\274%2\247\275\006d\004\275`\2067\275\373\271\250\275\255\030N\276\260\2640=\033\377.\274|\023t\274U\031C\276\213\213\346\275\251\243\317\273\257/\342\275\220\352\352:\023\305+\275\354\376\022=\014\370{=S\033#\276\376\203\014>\007L\n=\200\227\323\275\330\367\233\275b\206\345\274\220\023\230\275\217\326\200=\357\\2\275\365\025\252=I^\001\273\363m\016\275\031\343\013>\261b6=\272\005y=>\2756=\020&\214\275fX\255\274\332\037\263=\220{+\276%\310Z=+\362\311\275S\200\023;x\214U=\347\247\365=N\031\n\276\303\353\231\275\232;\360=P\374\243=w\003\313=\324\311\210;\306\211\276\275\362\177\216:H>M\276,\377\340=\232uZ\275Yz\342=ERn<Z\244G\276\270f\025=\306@q\275e\355\264\275\362bV\273{^2\275-\271\016\276\207!\262<l74\275C\225\265\275\223$U\276q\347\224\275\250\231\312<\377,\277\275\346\031\345=\005\236\253=\240\272\227;\240\275\270=\325, \275\336U\036=\211\357\325\275V\324\316<!\000\211\273\224\315\230<\243W\006=\017\032\036\276\275\350U\275\003\235l\275>$\216\275=\230\346\275-\376\016<\215\246j\274\264\024\235\275\232\010B\275$@\030=\352\330\002\275\000o\306\273\307\231%\275\343\030\234\275\336\361\317\2759\337\324<\014\230\254=\340\331\231=\026\272\301<\215\313\034>\210{\333<\367\006\007\275j\322\215\274\3366\270=lR\373\275\305\343\263;\345F\037\276B\307\035\275\262\331\267=\337\246\030\27560V<\026\243\024<\022\333\265<\003\265c=L\214\310\275:\343G\276\203\024w<c\324=\276\222\276\366\275\273<\263<\367\'+\276\260$\346=\370d\322\275K\230+\275/\363z\274A\266\030=\213~\276;\201b8\276\303\267\002\276\025\254\245=H\202\215\275~&\232:\203p->\321Y\340<\2130\253=\217\307\234\275Cq$\275\221|\307<\231\006\343<\0250\363\275I\366u\275\362\222l\275\006y\331:\030\037k\275\317@\026\2762\360Z>\316\020\202<Z\253h=3S\202=C\353T\275\200?\370<\246\363\213\2743\3225\276\201|\237={[\274\275\t\000\342=R\366z\275M3Y\275<g\263<\263DP>\364\345\344=\336~\211=l\t\213\273\005\201\207\275\345a\n\274<\265\035=|\250=<\326\214\245=\"\014\353\275j\371\034\275\005\333\330=e\222\366\273\377\340\273:\365\252\241\274;yE=E\324.>C\236\004>\237\266\333=L\222\333<H.?\276\332\3427>\002@\013\276(%\032\275^\017\356::/8;\0307*=-\360k>;b\240<\005!$>{-\270=\023\365\036\275W4\237\274\255\237\036\276\316\035\007=\331\003\216\275\330\203\242=\262\346\243=\021\325\'<\217\006\010>C\360\031<\361\376\020\276\255\005+>t\327$\275\312i8;\371P\216=6N6>k;\006\276\331\237\203\275\317\257\304<V\220O\274\007T\002=nrP=x\340\227\275W_)\275\330\2633\273OwJ=$\225\256=\310\033\357;\343\037\257<*\341\332\274+8\367\275H\314\205\275sy\177=r7\334\275\302*\020=\n\024\010\272\232\264\307=mJ\031>]W\366=\033\323\337\275\241_\251:\033\345\n\274\334<\243\275\225\036\243\275\037\326T=#s\223=\364\217X\275\3032G=\340\366&>d,\312<e\266\305\274\\\333\230\275\210\246\304\275\002\321G\275SF\221;RV\363\275F\216\335\275\222\006\013>\327j.\275\305mx=tJo\274\t\340\201<W\263\016=\275\264P>\337\303\334\275!R.=\376`&>\244\267\313\275\254j\246=\032\324%\273\263\017\274=}\275/=zl\265;\014c\227\274\247\246\252=q\205\335=f]\002\275\032W\016=;\033\346\275Z\304#=\210\315\037\275y\373\313<(\021\221=#t\301=\322&P\274\032\224\351\275\026\340G<\306\330&<\266\217=\275|U\205\274\230|\017>\006\341\235=;\373\352\275\007g\226\275\266xi\275H\364\007=&\022\021>\215\005\217=\330\255\n>1x\225=\346\373J=\312\204\241=\332.P\276\031\333\245<\315\0039\275\034\322\r\275\213\244/=\315Z\270=?P\257\275\370\234\260\275{M \274\204\0051\275\374\355L>\002\035\'=\272j\300="
      }
    }
  }
}
node {
  name: "LSTM_1/recurrent_kernel"
  op: "VariableV2"
  attr {
    key: "container"
    value {
      s: ""
    }
  }
  attr {
    key: "dtype"
    value {
      type: DT_FLOAT
    }
  }
  attr {
    key: "shape"
    value {
      shape {
        dim {
          size: 32
        }
        dim {
          size: 128
        }
      }
    }
  }
  attr {
    key: "shared_name"
    value {
      s: ""
    }
  }
}
node {
  name: "LSTM_1/recurrent_kernel/Assign"
  op: "Assign"
  input: "LSTM_1/recurrent_kernel"
  input: "LSTM_1/recurrent_kernel/initial_value"
  attr {
    key: "T"
    value {
      type: DT_FLOAT
    }
  }
  attr {
    key: "_class"
    value {
      list {
        s: "loc:@LSTM_1/recurrent_kernel"
      }
    }
  }
  attr {
    key: "use_locking"
    value {
      b: true
    }
  }
  attr {
    key: "validate_shape"
    value {
      b: true
    }
  }
}
node {
  name: "LSTM_1/recurrent_kernel/read"
  op: "Identity"
  input: "LSTM_1/recurrent_kernel"
  attr {
    key: "T"
    value {
      type: DT_FLOAT
    }
  }
  attr {
    key: "_class"
    value {
      list {
        s: "loc:@LSTM_1/recurrent_kernel"
      }
    }
  }
}
node {
  name: "LSTM_1/weight_regularizer_1/Square"
  op: "Square"
  input: "LSTM_1/recurrent_kernel/read"
  attr {
    key: "T"
    value {
      type: DT_FLOAT
    }
  }
}
node {
  name: "LSTM_1/weight_regularizer_1/mul/x"
  op: "Const"
  attr {
    key: "dtype"
    value {
      type: DT_FLOAT
    }
  }
  attr {
    key: "value"
    value {
      tensor {
        dtype: DT_FLOAT
        tensor_shape {
        }
        float_val: 9.999999974752427e-07
      }
    }
  }
}
node {
  name: "LSTM_1/weight_regularizer_1/mul"
  op: "Mul"
  input: "LSTM_1/weight_regularizer_1/mul/x"
  input: "LSTM_1/weight_regularizer_1/Square"
  attr {
    key: "T"
    value {
      type: DT_FLOAT
    }
  }
}
node {
  name: "LSTM_1/weight_regularizer_1/Const"
  op: "Const"
  attr {
    key: "dtype"
    value {
      type: DT_INT32
    }
  }
  attr {
    key: "value"
    value {
      tensor {
        dtype: DT_INT32
        tensor_shape {
          dim {
            size: 2
          }
        }
        tensor_content: "\000\000\000\000\001\000\000\000"
      }
    }
  }
}
node {
  name: "LSTM_1/weight_regularizer_1/Sum"
  op: "Sum"
  input: "LSTM_1/weight_regularizer_1/mul"
  input: "LSTM_1/weight_regularizer_1/Const"
  attr {
    key: "T"
    value {
      type: DT_FLOAT
    }
  }
  attr {
    key: "Tidx"
    value {
      type: DT_INT32
    }
  }
  attr {
    key: "keep_dims"
    value {
      b: false
    }
  }
}
node {
  name: "LSTM_1/weight_regularizer_1/add/x"
  op: "Const"
  attr {
    key: "dtype"
    value {
      type: DT_FLOAT
    }
  }
  attr {
    key: "value"
    value {
      tensor {
        dtype: DT_FLOAT
        tensor_shape {
        }
        float_val: 0.0
      }
    }
  }
}
node {
  name: "LSTM_1/weight_regularizer_1/add"
  op: "Add"
  input: "LSTM_1/weight_regularizer_1/add/x"
  input: "LSTM_1/weight_regularizer_1/Sum"
  attr {
    key: "T"
    value {
      type: DT_FLOAT
    }
  }
}
node {
  name: "LSTM_1/Const"
  op: "Const"
  attr {
    key: "dtype"
    value {
      type: DT_FLOAT
    }
  }
  attr {
    key: "value"
    value {
      tensor {
        dtype: DT_FLOAT
        tensor_shape {
          dim {
            size: 32
          }
        }
        float_val: 0.0
      }
    }
  }
}
node {
  name: "LSTM_1/Const_1"
  op: "Const"
  attr {
    key: "dtype"
    value {
      type: DT_FLOAT
    }
  }
  attr {
    key: "value"
    value {
      tensor {
        dtype: DT_FLOAT
        tensor_shape {
          dim {
            size: 32
          }
        }
        float_val: 1.0
      }
    }
  }
}
node {
  name: "LSTM_1/Const_2"
  op: "Const"
  attr {
    key: "dtype"
    value {
      type: DT_FLOAT
    }
  }
  attr {
    key: "value"
    value {
      tensor {
        dtype: DT_FLOAT
        tensor_shape {
          dim {
            size: 64
          }
        }
        float_val: 0.0
      }
    }
  }
}
node {
  name: "LSTM_1/concat/axis"
  op: "Const"
  attr {
    key: "dtype"
    value {
      type: DT_INT32
    }
  }
  attr {
    key: "value"
    value {
      tensor {
        dtype: DT_INT32
        tensor_shape {
        }
        int_val: 0
      }
    }
  }
}
node {
  name: "LSTM_1/concat"
  op: "ConcatV2"
  input: "LSTM_1/Const"
  input: "LSTM_1/Const_1"
  input: "LSTM_1/Const_2"
  input: "LSTM_1/concat/axis"
  attr {
    key: "N"
    value {
      i: 3
    }
  }
  attr {
    key: "T"
    value {
      type: DT_FLOAT
    }
  }
  attr {
    key: "Tidx"
    value {
      type: DT_INT32
    }
  }
}
node {
  name: "LSTM_1/bias"
  op: "VariableV2"
  attr {
    key: "container"
    value {
      s: ""
    }
  }
  attr {
    key: "dtype"
    value {
      type: DT_FLOAT
    }
  }
  attr {
    key: "shape"
    value {
      shape {
        dim {
          size: 128
        }
      }
    }
  }
  attr {
    key: "shared_name"
    value {
      s: ""
    }
  }
}
node {
  name: "LSTM_1/bias/Assign"
  op: "Assign"
  input: "LSTM_1/bias"
  input: "LSTM_1/concat"
  attr {
    key: "T"
    value {
      type: DT_FLOAT
    }
  }
  attr {
    key: "_class"
    value {
      list {
        s: "loc:@LSTM_1/bias"
      }
    }
  }
  attr {
    key: "use_locking"
    value {
      b: true
    }
  }
  attr {
    key: "validate_shape"
    value {
      b: true
    }
  }
}
node {
  name: "LSTM_1/bias/read"
  op: "Identity"
  input: "LSTM_1/bias"
  attr {
    key: "T"
    value {
      type: DT_FLOAT
    }
  }
  attr {
    key: "_class"
    value {
      list {
        s: "loc:@LSTM_1/bias"
      }
    }
  }
}
node {
  name: "LSTM_1/weight_regularizer_2/Square"
  op: "Square"
  input: "LSTM_1/bias/read"
  attr {
    key: "T"
    value {
      type: DT_FLOAT
    }
  }
}
node {
  name: "LSTM_1/weight_regularizer_2/mul/x"
  op: "Const"
  attr {
    key: "dtype"
    value {
      type: DT_FLOAT
    }
  }
  attr {
    key: "value"
    value {
      tensor {
        dtype: DT_FLOAT
        tensor_shape {
        }
        float_val: 9.999999974752427e-07
      }
    }
  }
}
node {
  name: "LSTM_1/weight_regularizer_2/mul"
  op: "Mul"
  input: "LSTM_1/weight_regularizer_2/mul/x"
  input: "LSTM_1/weight_regularizer_2/Square"
  attr {
    key: "T"
    value {
      type: DT_FLOAT
    }
  }
}
node {
  name: "LSTM_1/weight_regularizer_2/Const"
  op: "Const"
  attr {
    key: "dtype"
    value {
      type: DT_INT32
    }
  }
  attr {
    key: "value"
    value {
      tensor {
        dtype: DT_INT32
        tensor_shape {
          dim {
            size: 1
          }
        }
        int_val: 0
      }
    }
  }
}
node {
  name: "LSTM_1/weight_regularizer_2/Sum"
  op: "Sum"
  input: "LSTM_1/weight_regularizer_2/mul"
  input: "LSTM_1/weight_regularizer_2/Const"
  attr {
    key: "T"
    value {
      type: DT_FLOAT
    }
  }
  attr {
    key: "Tidx"
    value {
      type: DT_INT32
    }
  }
  attr {
    key: "keep_dims"
    value {
      b: false
    }
  }
}
node {
  name: "LSTM_1/weight_regularizer_2/add/x"
  op: "Const"
  attr {
    key: "dtype"
    value {
      type: DT_FLOAT
    }
  }
  attr {
    key: "value"
    value {
      tensor {
        dtype: DT_FLOAT
        tensor_shape {
        }
        float_val: 0.0
      }
    }
  }
}
node {
  name: "LSTM_1/weight_regularizer_2/add"
  op: "Add"
  input: "LSTM_1/weight_regularizer_2/add/x"
  input: "LSTM_1/weight_regularizer_2/Sum"
  attr {
    key: "T"
    value {
      type: DT_FLOAT
    }
  }
}
node {
  name: "LSTM_1/strided_slice/stack"
  op: "Const"
  attr {
    key: "dtype"
    value {
      type: DT_INT32
    }
  }
  attr {
    key: "value"
    value {
      tensor {
        dtype: DT_INT32
        tensor_shape {
          dim {
            size: 2
          }
        }
        tensor_content: "\000\000\000\000\000\000\000\000"
      }
    }
  }
}
node {
  name: "LSTM_1/strided_slice/stack_1"
  op: "Const"
  attr {
    key: "dtype"
    value {
      type: DT_INT32
    }
  }
  attr {
    key: "value"
    value {
      tensor {
        dtype: DT_INT32
        tensor_shape {
          dim {
            size: 2
          }
        }
        tensor_content: "\000\000\000\000 \000\000\000"
      }
    }
  }
}
node {
  name: "LSTM_1/strided_slice/stack_2"
  op: "Const"
  attr {
    key: "dtype"
    value {
      type: DT_INT32
    }
  }
  attr {
    key: "value"
    value {
      tensor {
        dtype: DT_INT32
        tensor_shape {
          dim {
            size: 2
          }
        }
        tensor_content: "\001\000\000\000\001\000\000\000"
      }
    }
  }
}
node {
  name: "LSTM_1/strided_slice"
  op: "StridedSlice"
  input: "LSTM_1/kernel/read"
  input: "LSTM_1/strided_slice/stack"
  input: "LSTM_1/strided_slice/stack_1"
  input: "LSTM_1/strided_slice/stack_2"
  attr {
    key: "Index"
    value {
      type: DT_INT32
    }
  }
  attr {
    key: "T"
    value {
      type: DT_FLOAT
    }
  }
  attr {
    key: "begin_mask"
    value {
      i: 3
    }
  }
  attr {
    key: "ellipsis_mask"
    value {
      i: 0
    }
  }
  attr {
    key: "end_mask"
    value {
      i: 1
    }
  }
  attr {
    key: "new_axis_mask"
    value {
      i: 0
    }
  }
  attr {
    key: "shrink_axis_mask"
    value {
      i: 0
    }
  }
}
node {
  name: "LSTM_1/strided_slice_1/stack"
  op: "Const"
  attr {
    key: "dtype"
    value {
      type: DT_INT32
    }
  }
  attr {
    key: "value"
    value {
      tensor {
        dtype: DT_INT32
        tensor_shape {
          dim {
            size: 2
          }
        }
        tensor_content: "\000\000\000\000 \000\000\000"
      }
    }
  }
}
node {
  name: "LSTM_1/strided_slice_1/stack_1"
  op: "Const"
  attr {
    key: "dtype"
    value {
      type: DT_INT32
    }
  }
  attr {
    key: "value"
    value {
      tensor {
        dtype: DT_INT32
        tensor_shape {
          dim {
            size: 2
          }
        }
        tensor_content: "\000\000\000\000@\000\000\000"
      }
    }
  }
}
node {
  name: "LSTM_1/strided_slice_1/stack_2"
  op: "Const"
  attr {
    key: "dtype"
    value {
      type: DT_INT32
    }
  }
  attr {
    key: "value"
    value {
      tensor {
        dtype: DT_INT32
        tensor_shape {
          dim {
            size: 2
          }
        }
        tensor_content: "\001\000\000\000\001\000\000\000"
      }
    }
  }
}
node {
  name: "LSTM_1/strided_slice_1"
  op: "StridedSlice"
  input: "LSTM_1/kernel/read"
  input: "LSTM_1/strided_slice_1/stack"
  input: "LSTM_1/strided_slice_1/stack_1"
  input: "LSTM_1/strided_slice_1/stack_2"
  attr {
    key: "Index"
    value {
      type: DT_INT32
    }
  }
  attr {
    key: "T"
    value {
      type: DT_FLOAT
    }
  }
  attr {
    key: "begin_mask"
    value {
      i: 1
    }
  }
  attr {
    key: "ellipsis_mask"
    value {
      i: 0
    }
  }
  attr {
    key: "end_mask"
    value {
      i: 1
    }
  }
  attr {
    key: "new_axis_mask"
    value {
      i: 0
    }
  }
  attr {
    key: "shrink_axis_mask"
    value {
      i: 0
    }
  }
}
node {
  name: "LSTM_1/strided_slice_2/stack"
  op: "Const"
  attr {
    key: "dtype"
    value {
      type: DT_INT32
    }
  }
  attr {
    key: "value"
    value {
      tensor {
        dtype: DT_INT32
        tensor_shape {
          dim {
            size: 2
          }
        }
        tensor_content: "\000\000\000\000@\000\000\000"
      }
    }
  }
}
node {
  name: "LSTM_1/strided_slice_2/stack_1"
  op: "Const"
  attr {
    key: "dtype"
    value {
      type: DT_INT32
    }
  }
  attr {
    key: "value"
    value {
      tensor {
        dtype: DT_INT32
        tensor_shape {
          dim {
            size: 2
          }
        }
        tensor_content: "\000\000\000\000`\000\000\000"
      }
    }
  }
}
node {
  name: "LSTM_1/strided_slice_2/stack_2"
  op: "Const"
  attr {
    key: "dtype"
    value {
      type: DT_INT32
    }
  }
  attr {
    key: "value"
    value {
      tensor {
        dtype: DT_INT32
        tensor_shape {
          dim {
            size: 2
          }
        }
        tensor_content: "\001\000\000\000\001\000\000\000"
      }
    }
  }
}
node {
  name: "LSTM_1/strided_slice_2"
  op: "StridedSlice"
  input: "LSTM_1/kernel/read"
  input: "LSTM_1/strided_slice_2/stack"
  input: "LSTM_1/strided_slice_2/stack_1"
  input: "LSTM_1/strided_slice_2/stack_2"
  attr {
    key: "Index"
    value {
      type: DT_INT32
    }
  }
  attr {
    key: "T"
    value {
      type: DT_FLOAT
    }
  }
  attr {
    key: "begin_mask"
    value {
      i: 1
    }
  }
  attr {
    key: "ellipsis_mask"
    value {
      i: 0
    }
  }
  attr {
    key: "end_mask"
    value {
      i: 1
    }
  }
  attr {
    key: "new_axis_mask"
    value {
      i: 0
    }
  }
  attr {
    key: "shrink_axis_mask"
    value {
      i: 0
    }
  }
}
node {
  name: "LSTM_1/strided_slice_3/stack"
  op: "Const"
  attr {
    key: "dtype"
    value {
      type: DT_INT32
    }
  }
  attr {
    key: "value"
    value {
      tensor {
        dtype: DT_INT32
        tensor_shape {
          dim {
            size: 2
          }
        }
        tensor_content: "\000\000\000\000`\000\000\000"
      }
    }
  }
}
node {
  name: "LSTM_1/strided_slice_3/stack_1"
  op: "Const"
  attr {
    key: "dtype"
    value {
      type: DT_INT32
    }
  }
  attr {
    key: "value"
    value {
      tensor {
        dtype: DT_INT32
        tensor_shape {
          dim {
            size: 2
          }
        }
        tensor_content: "\000\000\000\000\000\000\000\000"
      }
    }
  }
}
node {
  name: "LSTM_1/strided_slice_3/stack_2"
  op: "Const"
  attr {
    key: "dtype"
    value {
      type: DT_INT32
    }
  }
  attr {
    key: "value"
    value {
      tensor {
        dtype: DT_INT32
        tensor_shape {
          dim {
            size: 2
          }
        }
        tensor_content: "\001\000\000\000\001\000\000\000"
      }
    }
  }
}
node {
  name: "LSTM_1/strided_slice_3"
  op: "StridedSlice"
  input: "LSTM_1/kernel/read"
  input: "LSTM_1/strided_slice_3/stack"
  input: "LSTM_1/strided_slice_3/stack_1"
  input: "LSTM_1/strided_slice_3/stack_2"
  attr {
    key: "Index"
    value {
      type: DT_INT32
    }
  }
  attr {
    key: "T"
    value {
      type: DT_FLOAT
    }
  }
  attr {
    key: "begin_mask"
    value {
      i: 1
    }
  }
  attr {
    key: "ellipsis_mask"
    value {
      i: 0
    }
  }
  attr {
    key: "end_mask"
    value {
      i: 3
    }
  }
  attr {
    key: "new_axis_mask"
    value {
      i: 0
    }
  }
  attr {
    key: "shrink_axis_mask"
    value {
      i: 0
    }
  }
}
node {
  name: "LSTM_1/strided_slice_4/stack"
  op: "Const"
  attr {
    key: "dtype"
    value {
      type: DT_INT32
    }
  }
  attr {
    key: "value"
    value {
      tensor {
        dtype: DT_INT32
        tensor_shape {
          dim {
            size: 2
          }
        }
        tensor_content: "\000\000\000\000\000\000\000\000"
      }
    }
  }
}
node {
  name: "LSTM_1/strided_slice_4/stack_1"
  op: "Const"
  attr {
    key: "dtype"
    value {
      type: DT_INT32
    }
  }
  attr {
    key: "value"
    value {
      tensor {
        dtype: DT_INT32
        tensor_shape {
          dim {
            size: 2
          }
        }
        tensor_content: "\000\000\000\000 \000\000\000"
      }
    }
  }
}
node {
  name: "LSTM_1/strided_slice_4/stack_2"
  op: "Const"
  attr {
    key: "dtype"
    value {
      type: DT_INT32
    }
  }
  attr {
    key: "value"
    value {
      tensor {
        dtype: DT_INT32
        tensor_shape {
          dim {
            size: 2
          }
        }
        tensor_content: "\001\000\000\000\001\000\000\000"
      }
    }
  }
}
node {
  name: "LSTM_1/strided_slice_4"
  op: "StridedSlice"
  input: "LSTM_1/recurrent_kernel/read"
  input: "LSTM_1/strided_slice_4/stack"
  input: "LSTM_1/strided_slice_4/stack_1"
  input: "LSTM_1/strided_slice_4/stack_2"
  attr {
    key: "Index"
    value {
      type: DT_INT32
    }
  }
  attr {
    key: "T"
    value {
      type: DT_FLOAT
    }
  }
  attr {
    key: "begin_mask"
    value {
      i: 3
    }
  }
  attr {
    key: "ellipsis_mask"
    value {
      i: 0
    }
  }
  attr {
    key: "end_mask"
    value {
      i: 1
    }
  }
  attr {
    key: "new_axis_mask"
    value {
      i: 0
    }
  }
  attr {
    key: "shrink_axis_mask"
    value {
      i: 0
    }
  }
}
node {
  name: "LSTM_1/strided_slice_5/stack"
  op: "Const"
  attr {
    key: "dtype"
    value {
      type: DT_INT32
    }
  }
  attr {
    key: "value"
    value {
      tensor {
        dtype: DT_INT32
        tensor_shape {
          dim {
            size: 2
          }
        }
        tensor_content: "\000\000\000\000 \000\000\000"
      }
    }
  }
}
node {
  name: "LSTM_1/strided_slice_5/stack_1"
  op: "Const"
  attr {
    key: "dtype"
    value {
      type: DT_INT32
    }
  }
  attr {
    key: "value"
    value {
      tensor {
        dtype: DT_INT32
        tensor_shape {
          dim {
            size: 2
          }
        }
        tensor_content: "\000\000\000\000@\000\000\000"
      }
    }
  }
}
node {
  name: "LSTM_1/strided_slice_5/stack_2"
  op: "Const"
  attr {
    key: "dtype"
    value {
      type: DT_INT32
    }
  }
  attr {
    key: "value"
    value {
      tensor {
        dtype: DT_INT32
        tensor_shape {
          dim {
            size: 2
          }
        }
        tensor_content: "\001\000\000\000\001\000\000\000"
      }
    }
  }
}
node {
  name: "LSTM_1/strided_slice_5"
  op: "StridedSlice"
  input: "LSTM_1/recurrent_kernel/read"
  input: "LSTM_1/strided_slice_5/stack"
  input: "LSTM_1/strided_slice_5/stack_1"
  input: "LSTM_1/strided_slice_5/stack_2"
  attr {
    key: "Index"
    value {
      type: DT_INT32
    }
  }
  attr {
    key: "T"
    value {
      type: DT_FLOAT
    }
  }
  attr {
    key: "begin_mask"
    value {
      i: 1
    }
  }
  attr {
    key: "ellipsis_mask"
    value {
      i: 0
    }
  }
  attr {
    key: "end_mask"
    value {
      i: 1
    }
  }
  attr {
    key: "new_axis_mask"
    value {
      i: 0
    }
  }
  attr {
    key: "shrink_axis_mask"
    value {
      i: 0
    }
  }
}
node {
  name: "LSTM_1/strided_slice_6/stack"
  op: "Const"
  attr {
    key: "dtype"
    value {
      type: DT_INT32
    }
  }
  attr {
    key: "value"
    value {
      tensor {
        dtype: DT_INT32
        tensor_shape {
          dim {
            size: 2
          }
        }
        tensor_content: "\000\000\000\000@\000\000\000"
      }
    }
  }
}
node {
  name: "LSTM_1/strided_slice_6/stack_1"
  op: "Const"
  attr {
    key: "dtype"
    value {
      type: DT_INT32
    }
  }
  attr {
    key: "value"
    value {
      tensor {
        dtype: DT_INT32
        tensor_shape {
          dim {
            size: 2
          }
        }
        tensor_content: "\000\000\000\000`\000\000\000"
      }
    }
  }
}
node {
  name: "LSTM_1/strided_slice_6/stack_2"
  op: "Const"
  attr {
    key: "dtype"
    value {
      type: DT_INT32
    }
  }
  attr {
    key: "value"
    value {
      tensor {
        dtype: DT_INT32
        tensor_shape {
          dim {
            size: 2
          }
        }
        tensor_content: "\001\000\000\000\001\000\000\000"
      }
    }
  }
}
node {
  name: "LSTM_1/strided_slice_6"
  op: "StridedSlice"
  input: "LSTM_1/recurrent_kernel/read"
  input: "LSTM_1/strided_slice_6/stack"
  input: "LSTM_1/strided_slice_6/stack_1"
  input: "LSTM_1/strided_slice_6/stack_2"
  attr {
    key: "Index"
    value {
      type: DT_INT32
    }
  }
  attr {
    key: "T"
    value {
      type: DT_FLOAT
    }
  }
  attr {
    key: "begin_mask"
    value {
      i: 1
    }
  }
  attr {
    key: "ellipsis_mask"
    value {
      i: 0
    }
  }
  attr {
    key: "end_mask"
    value {
      i: 1
    }
  }
  attr {
    key: "new_axis_mask"
    value {
      i: 0
    }
  }
  attr {
    key: "shrink_axis_mask"
    value {
      i: 0
    }
  }
}
node {
  name: "LSTM_1/strided_slice_7/stack"
  op: "Const"
  attr {
    key: "dtype"
    value {
      type: DT_INT32
    }
  }
  attr {
    key: "value"
    value {
      tensor {
        dtype: DT_INT32
        tensor_shape {
          dim {
            size: 2
          }
        }
        tensor_content: "\000\000\000\000`\000\000\000"
      }
    }
  }
}
node {
  name: "LSTM_1/strided_slice_7/stack_1"
  op: "Const"
  attr {
    key: "dtype"
    value {
      type: DT_INT32
    }
  }
  attr {
    key: "value"
    value {
      tensor {
        dtype: DT_INT32
        tensor_shape {
          dim {
            size: 2
          }
        }
        tensor_content: "\000\000\000\000\000\000\000\000"
      }
    }
  }
}
node {
  name: "LSTM_1/strided_slice_7/stack_2"
  op: "Const"
  attr {
    key: "dtype"
    value {
      type: DT_INT32
    }
  }
  attr {
    key: "value"
    value {
      tensor {
        dtype: DT_INT32
        tensor_shape {
          dim {
            size: 2
          }
        }
        tensor_content: "\001\000\000\000\001\000\000\000"
      }
    }
  }
}
node {
  name: "LSTM_1/strided_slice_7"
  op: "StridedSlice"
  input: "LSTM_1/recurrent_kernel/read"
  input: "LSTM_1/strided_slice_7/stack"
  input: "LSTM_1/strided_slice_7/stack_1"
  input: "LSTM_1/strided_slice_7/stack_2"
  attr {
    key: "Index"
    value {
      type: DT_INT32
    }
  }
  attr {
    key: "T"
    value {
      type: DT_FLOAT
    }
  }
  attr {
    key: "begin_mask"
    value {
      i: 1
    }
  }
  attr {
    key: "ellipsis_mask"
    value {
      i: 0
    }
  }
  attr {
    key: "end_mask"
    value {
      i: 3
    }
  }
  attr {
    key: "new_axis_mask"
    value {
      i: 0
    }
  }
  attr {
    key: "shrink_axis_mask"
    value {
      i: 0
    }
  }
}
node {
  name: "LSTM_1/strided_slice_8/stack"
  op: "Const"
  attr {
    key: "dtype"
    value {
      type: DT_INT32
    }
  }
  attr {
    key: "value"
    value {
      tensor {
        dtype: DT_INT32
        tensor_shape {
          dim {
            size: 1
          }
        }
        int_val: 0
      }
    }
  }
}
node {
  name: "LSTM_1/strided_slice_8/stack_1"
  op: "Const"
  attr {
    key: "dtype"
    value {
      type: DT_INT32
    }
  }
  attr {
    key: "value"
    value {
      tensor {
        dtype: DT_INT32
        tensor_shape {
          dim {
            size: 1
          }
        }
        int_val: 32
      }
    }
  }
}
node {
  name: "LSTM_1/strided_slice_8/stack_2"
  op: "Const"
  attr {
    key: "dtype"
    value {
      type: DT_INT32
    }
  }
  attr {
    key: "value"
    value {
      tensor {
        dtype: DT_INT32
        tensor_shape {
          dim {
            size: 1
          }
        }
        int_val: 1
      }
    }
  }
}
node {
  name: "LSTM_1/strided_slice_8"
  op: "StridedSlice"
  input: "LSTM_1/bias/read"
  input: "LSTM_1/strided_slice_8/stack"
  input: "LSTM_1/strided_slice_8/stack_1"
  input: "LSTM_1/strided_slice_8/stack_2"
  attr {
    key: "Index"
    value {
      type: DT_INT32
    }
  }
  attr {
    key: "T"
    value {
      type: DT_FLOAT
    }
  }
  attr {
    key: "begin_mask"
    value {
      i: 1
    }
  }
  attr {
    key: "ellipsis_mask"
    value {
      i: 0
    }
  }
  attr {
    key: "end_mask"
    value {
      i: 0
    }
  }
  attr {
    key: "new_axis_mask"
    value {
      i: 0
    }
  }
  attr {
    key: "shrink_axis_mask"
    value {
      i: 0
    }
  }
}
node {
  name: "LSTM_1/strided_slice_9/stack"
  op: "Const"
  attr {
    key: "dtype"
    value {
      type: DT_INT32
    }
  }
  attr {
    key: "value"
    value {
      tensor {
        dtype: DT_INT32
        tensor_shape {
          dim {
            size: 1
          }
        }
        int_val: 32
      }
    }
  }
}
node {
  name: "LSTM_1/strided_slice_9/stack_1"
  op: "Const"
  attr {
    key: "dtype"
    value {
      type: DT_INT32
    }
  }
  attr {
    key: "value"
    value {
      tensor {
        dtype: DT_INT32
        tensor_shape {
          dim {
            size: 1
          }
        }
        int_val: 64
      }
    }
  }
}
node {
  name: "LSTM_1/strided_slice_9/stack_2"
  op: "Const"
  attr {
    key: "dtype"
    value {
      type: DT_INT32
    }
  }
  attr {
    key: "value"
    value {
      tensor {
        dtype: DT_INT32
        tensor_shape {
          dim {
            size: 1
          }
        }
        int_val: 1
      }
    }
  }
}
node {
  name: "LSTM_1/strided_slice_9"
  op: "StridedSlice"
  input: "LSTM_1/bias/read"
  input: "LSTM_1/strided_slice_9/stack"
  input: "LSTM_1/strided_slice_9/stack_1"
  input: "LSTM_1/strided_slice_9/stack_2"
  attr {
    key: "Index"
    value {
      type: DT_INT32
    }
  }
  attr {
    key: "T"
    value {
      type: DT_FLOAT
    }
  }
  attr {
    key: "begin_mask"
    value {
      i: 0
    }
  }
  attr {
    key: "ellipsis_mask"
    value {
      i: 0
    }
  }
  attr {
    key: "end_mask"
    value {
      i: 0
    }
  }
  attr {
    key: "new_axis_mask"
    value {
      i: 0
    }
  }
  attr {
    key: "shrink_axis_mask"
    value {
      i: 0
    }
  }
}
node {
  name: "LSTM_1/strided_slice_10/stack"
  op: "Const"
  attr {
    key: "dtype"
    value {
      type: DT_INT32
    }
  }
  attr {
    key: "value"
    value {
      tensor {
        dtype: DT_INT32
        tensor_shape {
          dim {
            size: 1
          }
        }
        int_val: 64
      }
    }
  }
}
node {
  name: "LSTM_1/strided_slice_10/stack_1"
  op: "Const"
  attr {
    key: "dtype"
    value {
      type: DT_INT32
    }
  }
  attr {
    key: "value"
    value {
      tensor {
        dtype: DT_INT32
        tensor_shape {
          dim {
            size: 1
          }
        }
        int_val: 96
      }
    }
  }
}
node {
  name: "LSTM_1/strided_slice_10/stack_2"
  op: "Const"
  attr {
    key: "dtype"
    value {
      type: DT_INT32
    }
  }
  attr {
    key: "value"
    value {
      tensor {
        dtype: DT_INT32
        tensor_shape {
          dim {
            size: 1
          }
        }
        int_val: 1
      }
    }
  }
}
node {
  name: "LSTM_1/strided_slice_10"
  op: "StridedSlice"
  input: "LSTM_1/bias/read"
  input: "LSTM_1/strided_slice_10/stack"
  input: "LSTM_1/strided_slice_10/stack_1"
  input: "LSTM_1/strided_slice_10/stack_2"
  attr {
    key: "Index"
    value {
      type: DT_INT32
    }
  }
  attr {
    key: "T"
    value {
      type: DT_FLOAT
    }
  }
  attr {
    key: "begin_mask"
    value {
      i: 0
    }
  }
  attr {
    key: "ellipsis_mask"
    value {
      i: 0
    }
  }
  attr {
    key: "end_mask"
    value {
      i: 0
    }
  }
  attr {
    key: "new_axis_mask"
    value {
      i: 0
    }
  }
  attr {
    key: "shrink_axis_mask"
    value {
      i: 0
    }
  }
}
node {
  name: "LSTM_1/strided_slice_11/stack"
  op: "Const"
  attr {
    key: "dtype"
    value {
      type: DT_INT32
    }
  }
  attr {
    key: "value"
    value {
      tensor {
        dtype: DT_INT32
        tensor_shape {
          dim {
            size: 1
          }
        }
        int_val: 96
      }
    }
  }
}
node {
  name: "LSTM_1/strided_slice_11/stack_1"
  op: "Const"
  attr {
    key: "dtype"
    value {
      type: DT_INT32
    }
  }
  attr {
    key: "value"
    value {
      tensor {
        dtype: DT_INT32
        tensor_shape {
          dim {
            size: 1
          }
        }
        int_val: 0
      }
    }
  }
}
node {
  name: "LSTM_1/strided_slice_11/stack_2"
  op: "Const"
  attr {
    key: "dtype"
    value {
      type: DT_INT32
    }
  }
  attr {
    key: "value"
    value {
      tensor {
        dtype: DT_INT32
        tensor_shape {
          dim {
            size: 1
          }
        }
        int_val: 1
      }
    }
  }
}
node {
  name: "LSTM_1/strided_slice_11"
  op: "StridedSlice"
  input: "LSTM_1/bias/read"
  input: "LSTM_1/strided_slice_11/stack"
  input: "LSTM_1/strided_slice_11/stack_1"
  input: "LSTM_1/strided_slice_11/stack_2"
  attr {
    key: "Index"
    value {
      type: DT_INT32
    }
  }
  attr {
    key: "T"
    value {
      type: DT_FLOAT
    }
  }
  attr {
    key: "begin_mask"
    value {
      i: 0
    }
  }
  attr {
    key: "ellipsis_mask"
    value {
      i: 0
    }
  }
  attr {
    key: "end_mask"
    value {
      i: 1
    }
  }
  attr {
    key: "new_axis_mask"
    value {
      i: 0
    }
  }
  attr {
    key: "shrink_axis_mask"
    value {
      i: 0
    }
  }
}
node {
  name: "LSTM_1/zeros_like"
  op: "ZerosLike"
  input: "LSTM_1_input"
  attr {
    key: "T"
    value {
      type: DT_FLOAT
    }
  }
}
node {
  name: "LSTM_1/Sum/reduction_indices"
  op: "Const"
  attr {
    key: "dtype"
    value {
      type: DT_INT32
    }
  }
  attr {
    key: "value"
    value {
      tensor {
        dtype: DT_INT32
        tensor_shape {
          dim {
            size: 2
          }
        }
        tensor_content: "\001\000\000\000\002\000\000\000"
      }
    }
  }
}
node {
  name: "LSTM_1/Sum"
  op: "Sum"
  input: "LSTM_1/zeros_like"
  input: "LSTM_1/Sum/reduction_indices"
  attr {
    key: "T"
    value {
      type: DT_FLOAT
    }
  }
  attr {
    key: "Tidx"
    value {
      type: DT_INT32
    }
  }
  attr {
    key: "keep_dims"
    value {
      b: false
    }
  }
}
node {
  name: "LSTM_1/ExpandDims/dim"
  op: "Const"
  attr {
    key: "dtype"
    value {
      type: DT_INT32
    }
  }
  attr {
    key: "value"
    value {
      tensor {
        dtype: DT_INT32
        tensor_shape {
        }
        int_val: -1
      }
    }
  }
}
node {
  name: "LSTM_1/ExpandDims"
  op: "ExpandDims"
  input: "LSTM_1/Sum"
  input: "LSTM_1/ExpandDims/dim"
  attr {
    key: "T"
    value {
      type: DT_FLOAT
    }
  }
  attr {
    key: "Tdim"
    value {
      type: DT_INT32
    }
  }
}
node {
  name: "LSTM_1/Tile/multiples"
  op: "Const"
  attr {
    key: "dtype"
    value {
      type: DT_INT32
    }
  }
  attr {
    key: "value"
    value {
      tensor {
        dtype: DT_INT32
        tensor_shape {
          dim {
            size: 2
          }
        }
        tensor_content: "\001\000\000\000 \000\000\000"
      }
    }
  }
}
node {
  name: "LSTM_1/Tile"
  op: "Tile"
  input: "LSTM_1/ExpandDims"
  input: "LSTM_1/Tile/multiples"
  attr {
    key: "T"
    value {
      type: DT_FLOAT
    }
  }
  attr {
    key: "Tmultiples"
    value {
      type: DT_INT32
    }
  }
}
node {
  name: "LSTM_1/Tile_1/multiples"
  op: "Const"
  attr {
    key: "dtype"
    value {
      type: DT_INT32
    }
  }
  attr {
    key: "value"
    value {
      tensor {
        dtype: DT_INT32
        tensor_shape {
          dim {
            size: 2
          }
        }
        tensor_content: "\001\000\000\000 \000\000\000"
      }
    }
  }
}
node {
  name: "LSTM_1/Tile_1"
  op: "Tile"
  input: "LSTM_1/ExpandDims"
  input: "LSTM_1/Tile_1/multiples"
  attr {
    key: "T"
    value {
      type: DT_FLOAT
    }
  }
  attr {
    key: "Tmultiples"
    value {
      type: DT_INT32
    }
  }
}
node {
  name: "LSTM_1/transpose/perm"
  op: "Const"
  attr {
    key: "dtype"
    value {
      type: DT_INT32
    }
  }
  attr {
    key: "value"
    value {
      tensor {
        dtype: DT_INT32
        tensor_shape {
          dim {
            size: 3
          }
        }
        tensor_content: "\001\000\000\000\000\000\000\000\002\000\000\000"
      }
    }
  }
}
node {
  name: "LSTM_1/transpose"
  op: "Transpose"
  input: "LSTM_1_input"
  input: "LSTM_1/transpose/perm"
  attr {
    key: "T"
    value {
      type: DT_FLOAT
    }
  }
  attr {
    key: "Tperm"
    value {
      type: DT_INT32
    }
  }
}
node {
  name: "LSTM_1/Shape"
  op: "Shape"
  input: "LSTM_1/transpose"
  attr {
    key: "T"
    value {
      type: DT_FLOAT
    }
  }
  attr {
    key: "out_type"
    value {
      type: DT_INT32
    }
  }
}
node {
  name: "LSTM_1/strided_slice_12/stack"
  op: "Const"
  attr {
    key: "dtype"
    value {
      type: DT_INT32
    }
  }
  attr {
    key: "value"
    value {
      tensor {
        dtype: DT_INT32
        tensor_shape {
          dim {
            size: 1
          }
        }
        int_val: 0
      }
    }
  }
}
node {
  name: "LSTM_1/strided_slice_12/stack_1"
  op: "Const"
  attr {
    key: "dtype"
    value {
      type: DT_INT32
    }
  }
  attr {
    key: "value"
    value {
      tensor {
        dtype: DT_INT32
        tensor_shape {
          dim {
            size: 1
          }
        }
        int_val: 1
      }
    }
  }
}
node {
  name: "LSTM_1/strided_slice_12/stack_2"
  op: "Const"
  attr {
    key: "dtype"
    value {
      type: DT_INT32
    }
  }
  attr {
    key: "value"
    value {
      tensor {
        dtype: DT_INT32
        tensor_shape {
          dim {
            size: 1
          }
        }
        int_val: 1
      }
    }
  }
}
node {
  name: "LSTM_1/strided_slice_12"
  op: "StridedSlice"
  input: "LSTM_1/Shape"
  input: "LSTM_1/strided_slice_12/stack"
  input: "LSTM_1/strided_slice_12/stack_1"
  input: "LSTM_1/strided_slice_12/stack_2"
  attr {
    key: "Index"
    value {
      type: DT_INT32
    }
  }
  attr {
    key: "T"
    value {
      type: DT_INT32
    }
  }
  attr {
    key: "begin_mask"
    value {
      i: 0
    }
  }
  attr {
    key: "ellipsis_mask"
    value {
      i: 0
    }
  }
  attr {
    key: "end_mask"
    value {
      i: 0
    }
  }
  attr {
    key: "new_axis_mask"
    value {
      i: 0
    }
  }
  attr {
    key: "shrink_axis_mask"
    value {
      i: 1
    }
  }
}
node {
  name: "LSTM_1/strided_slice_13/stack"
  op: "Const"
  attr {
    key: "dtype"
    value {
      type: DT_INT32
    }
  }
  attr {
    key: "value"
    value {
      tensor {
        dtype: DT_INT32
        tensor_shape {
          dim {
            size: 1
          }
        }
        int_val: 0
      }
    }
  }
}
node {
  name: "LSTM_1/strided_slice_13/stack_1"
  op: "Const"
  attr {
    key: "dtype"
    value {
      type: DT_INT32
    }
  }
  attr {
    key: "value"
    value {
      tensor {
        dtype: DT_INT32
        tensor_shape {
          dim {
            size: 1
          }
        }
        int_val: 1
      }
    }
  }
}
node {
  name: "LSTM_1/strided_slice_13/stack_2"
  op: "Const"
  attr {
    key: "dtype"
    value {
      type: DT_INT32
    }
  }
  attr {
    key: "value"
    value {
      tensor {
        dtype: DT_INT32
        tensor_shape {
          dim {
            size: 1
          }
        }
        int_val: 1
      }
    }
  }
}
node {
  name: "LSTM_1/strided_slice_13"
  op: "StridedSlice"
  input: "LSTM_1/transpose"
  input: "LSTM_1/strided_slice_13/stack"
  input: "LSTM_1/strided_slice_13/stack_1"
  input: "LSTM_1/strided_slice_13/stack_2"
  attr {
    key: "Index"
    value {
      type: DT_INT32
    }
  }
  attr {
    key: "T"
    value {
      type: DT_FLOAT
    }
  }
  attr {
    key: "begin_mask"
    value {
      i: 0
    }
  }
  attr {
    key: "ellipsis_mask"
    value {
      i: 0
    }
  }
  attr {
    key: "end_mask"
    value {
      i: 0
    }
  }
  attr {
    key: "new_axis_mask"
    value {
      i: 0
    }
  }
  attr {
    key: "shrink_axis_mask"
    value {
      i: 1
    }
  }
}
node {
  name: "LSTM_1/MatMul"
  op: "MatMul"
  input: "LSTM_1/strided_slice_13"
  input: "LSTM_1/strided_slice"
  attr {
    key: "T"
    value {
      type: DT_FLOAT
    }
  }
  attr {
    key: "transpose_a"
    value {
      b: false
    }
  }
  attr {
    key: "transpose_b"
    value {
      b: false
    }
  }
}
node {
  name: "LSTM_1/MatMul_1"
  op: "MatMul"
  input: "LSTM_1/strided_slice_13"
  input: "LSTM_1/strided_slice_1"
  attr {
    key: "T"
    value {
      type: DT_FLOAT
    }
  }
  attr {
    key: "transpose_a"
    value {
      b: false
    }
  }
  attr {
    key: "transpose_b"
    value {
      b: false
    }
  }
}
node {
  name: "LSTM_1/MatMul_2"
  op: "MatMul"
  input: "LSTM_1/strided_slice_13"
  input: "LSTM_1/strided_slice_2"
  attr {
    key: "T"
    value {
      type: DT_FLOAT
    }
  }
  attr {
    key: "transpose_a"
    value {
      b: false
    }
  }
  attr {
    key: "transpose_b"
    value {
      b: false
    }
  }
}
node {
  name: "LSTM_1/MatMul_3"
  op: "MatMul"
  input: "LSTM_1/strided_slice_13"
  input: "LSTM_1/strided_slice_3"
  attr {
    key: "T"
    value {
      type: DT_FLOAT
    }
  }
  attr {
    key: "transpose_a"
    value {
      b: false
    }
  }
  attr {
    key: "transpose_b"
    value {
      b: false
    }
  }
}
node {
  name: "LSTM_1/BiasAdd"
  op: "BiasAdd"
  input: "LSTM_1/MatMul"
  input: "LSTM_1/strided_slice_8"
  attr {
    key: "T"
    value {
      type: DT_FLOAT
    }
  }
  attr {
    key: "data_format"
    value {
      s: "NHWC"
    }
  }
}
node {
  name: "LSTM_1/BiasAdd_1"
  op: "BiasAdd"
  input: "LSTM_1/MatMul_1"
  input: "LSTM_1/strided_slice_9"
  attr {
    key: "T"
    value {
      type: DT_FLOAT
    }
  }
  attr {
    key: "data_format"
    value {
      s: "NHWC"
    }
  }
}
node {
  name: "LSTM_1/BiasAdd_2"
  op: "BiasAdd"
  input: "LSTM_1/MatMul_2"
  input: "LSTM_1/strided_slice_10"
  attr {
    key: "T"
    value {
      type: DT_FLOAT
    }
  }
  attr {
    key: "data_format"
    value {
      s: "NHWC"
    }
  }
}
node {
  name: "LSTM_1/BiasAdd_3"
  op: "BiasAdd"
  input: "LSTM_1/MatMul_3"
  input: "LSTM_1/strided_slice_11"
  attr {
    key: "T"
    value {
      type: DT_FLOAT
    }
  }
  attr {
    key: "data_format"
    value {
      s: "NHWC"
    }
  }
}
node {
  name: "LSTM_1/MatMul_4"
  op: "MatMul"
  input: "LSTM_1/Tile"
  input: "LSTM_1/strided_slice_4"
  attr {
    key: "T"
    value {
      type: DT_FLOAT
    }
  }
  attr {
    key: "transpose_a"
    value {
      b: false
    }
  }
  attr {
    key: "transpose_b"
    value {
      b: false
    }
  }
}
node {
  name: "LSTM_1/add"
  op: "Add"
  input: "LSTM_1/BiasAdd"
  input: "LSTM_1/MatMul_4"
  attr {
    key: "T"
    value {
      type: DT_FLOAT
    }
  }
}
node {
  name: "LSTM_1/mul/x"
  op: "Const"
  attr {
    key: "dtype"
    value {
      type: DT_FLOAT
    }
  }
  attr {
    key: "value"
    value {
      tensor {
        dtype: DT_FLOAT
        tensor_shape {
        }
        float_val: 0.20000000298023224
      }
    }
  }
}
node {
  name: "LSTM_1/mul"
  op: "Mul"
  input: "LSTM_1/mul/x"
  input: "LSTM_1/add"
  attr {
    key: "T"
    value {
      type: DT_FLOAT
    }
  }
}
node {
  name: "LSTM_1/add_1/y"
  op: "Const"
  attr {
    key: "dtype"
    value {
      type: DT_FLOAT
    }
  }
  attr {
    key: "value"
    value {
      tensor {
        dtype: DT_FLOAT
        tensor_shape {
        }
        float_val: 0.5
      }
    }
  }
}
node {
  name: "LSTM_1/add_1"
  op: "Add"
  input: "LSTM_1/mul"
  input: "LSTM_1/add_1/y"
  attr {
    key: "T"
    value {
      type: DT_FLOAT
    }
  }
}
node {
  name: "LSTM_1/Const_3"
  op: "Const"
  attr {
    key: "dtype"
    value {
      type: DT_FLOAT
    }
  }
  attr {
    key: "value"
    value {
      tensor {
        dtype: DT_FLOAT
        tensor_shape {
        }
        float_val: 0.0
      }
    }
  }
}
node {
  name: "LSTM_1/Const_4"
  op: "Const"
  attr {
    key: "dtype"
    value {
      type: DT_FLOAT
    }
  }
  attr {
    key: "value"
    value {
      tensor {
        dtype: DT_FLOAT
        tensor_shape {
        }
        float_val: 1.0
      }
    }
  }
}
node {
  name: "LSTM_1/clip_by_value/Minimum"
  op: "Minimum"
  input: "LSTM_1/add_1"
  input: "LSTM_1/Const_4"
  attr {
    key: "T"
    value {
      type: DT_FLOAT
    }
  }
}
node {
  name: "LSTM_1/clip_by_value"
  op: "Maximum"
  input: "LSTM_1/clip_by_value/Minimum"
  input: "LSTM_1/Const_3"
  attr {
    key: "T"
    value {
      type: DT_FLOAT
    }
  }
}
node {
  name: "LSTM_1/MatMul_5"
  op: "MatMul"
  input: "LSTM_1/Tile"
  input: "LSTM_1/strided_slice_5"
  attr {
    key: "T"
    value {
      type: DT_FLOAT
    }
  }
  attr {
    key: "transpose_a"
    value {
      b: false
    }
  }
  attr {
    key: "transpose_b"
    value {
      b: false
    }
  }
}
node {
  name: "LSTM_1/add_2"
  op: "Add"
  input: "LSTM_1/BiasAdd_1"
  input: "LSTM_1/MatMul_5"
  attr {
    key: "T"
    value {
      type: DT_FLOAT
    }
  }
}
node {
  name: "LSTM_1/mul_1/x"
  op: "Const"
  attr {
    key: "dtype"
    value {
      type: DT_FLOAT
    }
  }
  attr {
    key: "value"
    value {
      tensor {
        dtype: DT_FLOAT
        tensor_shape {
        }
        float_val: 0.20000000298023224
      }
    }
  }
}
node {
  name: "LSTM_1/mul_1"
  op: "Mul"
  input: "LSTM_1/mul_1/x"
  input: "LSTM_1/add_2"
  attr {
    key: "T"
    value {
      type: DT_FLOAT
    }
  }
}
node {
  name: "LSTM_1/add_3/y"
  op: "Const"
  attr {
    key: "dtype"
    value {
      type: DT_FLOAT
    }
  }
  attr {
    key: "value"
    value {
      tensor {
        dtype: DT_FLOAT
