node {
  name: "keras_learning_phase/input"
  op: "Const"
  attr {
    key: "dtype"
    value {
      type: DT_BOOL
    }
  }
  attr {
    key: "value"
    value {
      tensor {
        dtype: DT_BOOL
        tensor_shape {
        }
        bool_val: false
      }
    }
  }
}
node {
  name: "keras_learning_phase"
  op: "PlaceholderWithDefault"
  input: "keras_learning_phase/input"
  attr {
    key: "dtype"
    value {
      type: DT_BOOL
    }
  }
  attr {
    key: "shape"
    value {
      shape {
      }
    }
  }
}
node {
  name: "LSTM_1_input"
  op: "Placeholder"
  attr {
    key: "dtype"
    value {
      type: DT_FLOAT
    }
  }
  attr {
    key: "shape"
    value {
      shape {
        dim {
          size: -1
        }
        dim {
          size: 250
        }
        dim {
          size: 6
        }
      }
    }
  }
}
node {
  name: "LSTM_1/kernel/initial_value"
  op: "Const"
  attr {
    key: "dtype"
    value {
      type: DT_FLOAT
    }
  }
  attr {
    key: "value"
    value {
      tensor {
        dtype: DT_FLOAT
        tensor_shape {
          dim {
            size: 6
          }
          dim {
            size: 128
          }
        }
        tensor_content: "q\032\227\274\2205\202<\351\265\"=K\364\264=\366\266\363\274\266\274\324;\036\222\377;\276\234\346=m_&>\202\222\212\275&s\376=\351\312\300:I\312\323=\320\\4\275\024\264\'\276j\001~=\242\006\264=\252K\272;r\344\373\270QP<\276\270BU<\273\235p\272\330\222N\275RY\016>\223\271\215\2753\303l=d\335.=\304\246\346=6\203\336\275A\323[=\256\277:\276&\177Y\275\373\232\321\275Dq\264<v)\021=\214\376>=Xd$=\3526Z\274\364~\244=\355\367\315\275\266\242\367=A\001 \274\302+a\274\035FS\275\301s\201\275\261Y\221\275vN\331=i\344\206\273\202\331\365<\231J\000\275 \031V\275b\252\030\275\3260\r\275\225\030+>#\207\267\273\213I\234=g\205\312=|\3759\275\225 \244=^Y\001\276K\335P=x\345\337;?\022\004\276\356SW<\271W\331=\230/\016\275\254\264\005\276q\363\017\276\332N:\276\262l+>\2766 \275\006\343\r>\030\215F\275\270k=\275\024r\344=h\264\230\275<\273\335<\322\255\000>\275\343\365=\244\321=>\365X\212\276\366Wg\275x`\343\275\257\221\324\274\213\263\274\274\352+\253\273A\215\021\2761\354\252\273\357\343\310\275\341\210\276\275\0207\033>\201M\261=\244T\312\274_r\317\274\036V\217;\252\257z=\367\235\302\273\301\363\001>Rf\305<\0338\233=\367\"\227\275\216\254\010>\276\001\263\275\221#\030\274\370\202n==0%\276\360nw\275\224\'\254<G\000\033\276\214~p\275\002/\373=_\203\237\275QP\351\274\204\274W=\347\340\217=B\275\344;\207\007\316=j\345A=\353T/\275\340]\247\275/\211\t<\367\336\355\275\314\321\036=:Z\307=\317\266\210\274.\'g=\366\241\204;c\272\312\275\321\2633=\034?\322=\351\004\365\275\346\224\225\275L\267^\2752\0243\275|-\025=\233\257p\275\007\357\006>_\345\244\275\313\024\021=\333\213c<u\227}<\013\342\231\275\242\364\241=S\231Z\275\374BN\275\233p1\275_\375\362\274\037\240\307\275h\3571:\221\354Q\275\263\263b\275\204\263\227=\323@\004>\333\232z\275y\374\231=\314v\030\275S\371\007\276*\346\311<\327\353\306=\221\324F\275\335U\201=h\350\023=\260\221\320\275\236\252+\275T*3=\177\016\221=#\303\035\275R#\246<P\236\002\276}e\351\275\202O\234\275p\024~\275\342\331\276\2754\007\332<\t\017\262=`\241\274=\313\246\225\275]\016\322\274\3600\001>\002\323\013=i\037k=\331\271,<uz4>\334X\221\275\310\244O=5F\317\275\334\007P\275\306\033P>\316\260I\275\363Q\006>\352t>=\341+/>\213\3512\275\2531J\276}T\035\276AY\027\275/K\252\275`b\262=\1774\007\275\035\224\332=\337S\310;\374C\322<\255\330\325\275\271\331K\275\267\235\020\275\3473g>\255\250\307\273[\025s\275\002^\334<\025\323\307=E\373`=\327\204\003=\344Z\010>\345\252^\276\377\311%>\351\202\213\2755K\257\275\266\310\262\275W\204==\332\240\324\274=\005\237\2759\2349>\323\000\301<\206\224\235\274\007\217\031\276\234W\363\275A0\327\275H\316\252=\230\2114=\203\0102\275\245\362F\275\215-\014=E6\364\275\334\311c=0qR>m\212\271\274\277\007\360\275\265\024\243\275,\007\023\275P\232.\275\326\255E\275\272\356\215=\253\361)\274\231\013\207=; \370=\354\272\244:\342\300\020\276C\274\320<\345\211\205=!;\276=\245\261\367\275\274\2709=k\034\006\276\261\035\365995\004<m\013\205=Ci\352=Q\300\t>%Ve<8O\317\274\225\213-\274L\261\211\274\347%\226<R\253b<c.\224=\177-7\274H\367==\230m\031\276\363\231Z\275\340\363\370\275o7\r\276\371_\300\275\305*\244=\350\357\326\275h\246->l\266 \276S`\275<\221\210\375<\205u\246=\223\270\001\275\010\353\226\275\334?\021\274\362(]\275\213a\230=\027h5<O\r\356=O\307M\275e\241\205<9\316\347\275\221\327$>\024\313b=\337\'\024>\370\001\341<a6\363\275\274\0105\274\352\345\243=h\232\326=\271\312\016<%\335\370\275LL\325\273ac]\273S\212\003\276\312\270\231\275V\244\253\2755`\234=E7!<W~\200>\337\021\227\275]\037\271\275\230\2121\272\r\322\250=\"A\033\275M~\342\275\003K_\275$G\024=\034\352$<\037\250\233=8\254\311<\036F\237\275Svg=?~b=2\201\315=\n\036W\274\242\241\317=E#\000=\210\355\254\275\027\377\342=\272\320\344;\312\371\317=H\t\223\275W\236\020\275z\233\313=S\\\212\274\016oL=\003\032o\275\3103\036\276\006g1=\211C\232=@S\270;\326\016\025\275N\245!<[\030\010\276W\024\241\275;`\206=\3069\360\275\013\351\343\273\332_`\276\226S\341<\024t\235=\025\006\326<\216\2269\275e7\005=C\237\377=a%\033\275\255m\313\275\200\236\033\276\2717~=gK\231\273\017\364\314\275}\330&\276\3553\361<\373\303\"\276\202%\261<\227-\370\275u\\\024>\241\033\362=:\000\333<\026\316\352=v\313_>\r{\237\275\017sr<>\335y;\005\002 =\347%\033=%\323\364\2755i{=\355\376\202<{i\272=Rj\346\273\251\301U=\352g0\276\000\3760=\355%\311<\237\277\314\275\213\372\034=\002\3475\276X\327\230\275\360\021\352\272\334V\301:\362q}\276B\3263<\277{\334\275N\361`\276A\223\352\274\3035\270<Q\252\266\275F\260\251=\353g\035<YW\000>\367\203\232=+l\246;$\341\320\275\353V0=gz\302=Z\332\232=\356\240\350<s\360\341\275\301|\206=\331\301\237\275\250g>\275oQ\000\276\0230 >\331\312+\276\301gC\276\003\377\344=\251>\207\274\301\312\213<-\333Z\275\327\332%;\202\276f=\352\362\320<u\350\245\273\237\231\031>\317N\013\273\000\017\370=\202\377V=\360\212\035\275i,\273\275\311\022Q\273R\367\207\275\273\221\213\275\374a\237\275\327\377\247;\236.\035=\000\242\020>\341\256\224=\334\214\302\273\375YG\276O\014\355=\260U\027\2731\234\272<\244V#\274\352\213[=\020\351\363=Y\353\235\275\302\252\331\275\215f\360\275\256\"*\276\245M:\2748\240\226\275>\313M\272\225\002\315<\363\205\020\276\206E_=\2018\334=\357\256j=\340\327\243<\203Nd=\tM\016>\357\233\016\275\300<\374\275 wD<\300\343\334;{\370l;\247fP\275\366\346\263\275\377[\306=\377\302\302\275\312\251\374;\365\336\206=c%\033\275Ea\316=x\230\332\275\334\317z\276\273K\035\275\367\357\225\274\353\375\'=\231\225\253=\306\3173>\364\255\236=z\321\272\274\230\221\245\274\004\206\371\274S{\227=\242\351\014>D\367\205=XFl=\034\315V=\265gU\273\230(\276=\"l\311<wo~=\263\327\334\274w\230==b\255\232=#\365\266={\377\233=\320T3\276\344t\236=\306_[=\204\264q=\007\263e\275u\352\361=E\036R\275\347\362\213<\034\355\354<+Z\002=U\361\203\275\205\330\250=\231\204\232=\207.\230=\375\371\235\274\355\214\300\275S\376\330\275{\013\360:R\330\213\272<\215\234\275M9\222\275R\241K\274Q>\273=c\324\306<[\222\024=\303i\032\276\351B\362\274\264\003>=:\032\211<\203o\036\276\362\240\023\276\366u\344\275\272\206\020<\n\263\003\276\222a\225\275\355\314(>\260s\343<\252\223\233=\'*\377=\324\374]=\322v\207<\271>\257\275\032#\326\274\307\241\347<8`\244= \221\233\274\206\017l>\211\335/>zO\"\276\247\274\260\275s&3=\234\337\027>\211r\\\275:*\270\274k\270\372\2751Q\212=\201sO\276\365\257m<\274\224\030\276\"\343\257\274e\361\301\275\3236\317\273\325\334n\275\346\222\000\275\241I\335\2731d\207\275W^\230\274D\235\362\275\2271;>\242zr\274\372Q\245\274\007\274\251<)\306\222=\375SH=;\231\016>\027L\214\275\317p\277\275\035\204U\275\313M-\276\3531\327\274\276v\036=\231\356\233<H;\257\2750-\'\276\032\024\306\275\020\272\326\275v\235\n\276\022\341\365;\307\231\030\275\352o\336;f\337\262<YGS<\014\303\003\275\023\'\004\275\242\216j=`\225\315\275>\317\r\274\20373\275\271\021\000\274\222\303\001\276\307\\>=\335;6>Q\352r\275\002\343\221<\225\214\361<ni7\276zg\350<\305\ri=\226\376\344=\216\246\236=\370\215#<q\221v\275\216\247\352\274M\355>\276\237\2161\275w\345J<,\t\010\276\370\027%\273U\231\357<\rrT=\205\222A\272\244l\210\275\220\003J\275\346G\373\274\276\301\r\276pA&\276j\247\272<\245y\002>\213i\023=\205\021\373\274\333\007\003\276e2f=v\001\020\275\344\026\213\274\253\271\231<=\226\201=Q\033\023>Y\254\354=\260A\314\273\236KB\2752\212D=\352\322\007\276\305\247\271<\3540\260<\335\342Q=X\302\021<\225\271\t=\370\272\254=\005\301\235=\253\352\230=\340\243\3439I\026\342=\360u\036\276\tv\r<]\203\310\275\343\304#=;w\237<f\363\313<\377\277A\275\241u/\275\303D\033\275\220\227&\275\247\322\232=\2270z=Q\tP\275\274l\367<B\031\r>\027\260\232=]\'\300\275\007\333\034\276%\305-\276\253\222\352\275!`\254=\310\275\352<>\226\357;P\'Z\275\200\323\031\276$\225U>d|\013\273\340\355c<\333Y\364\275\361\026:\276\007\007Z=^ry\274U\034\333\2733\230\026<\252\325\t>\260\0072<\204I\225\275\366\335\000=\235\366\r\276\345\312\363\274\177|\245=\021\250\231\275\r\312\233\275\237\350\360<\2452\027\276j@\231=\220\224=>F\r\300;\340W\252\275\364>\036\275\321\244\317\272J\270\372<\370\354\000\275\245\322\304\275\007Y3\276u\275\250=\223&\211\273\027H&;\226\277\340\2759a\006>9\t\221=K\244k=\256(\325=\342eR\274\3565u=~n%=\2151H\275\243\213\221<\302\231\271\275B3`\276\261\301\312=r\256\303=\035:\354;D\235\316\275<\222X\2744\251\003>mM\366\275\301\341\234=\022\017\233=\220<&\275DUM\2757(\370\273r\330\335=\307oQ\276]\020\302=\001\034\310\275\257\373i\274\274\005\334\275\274\017\313=\010\215\335=\r[\220=^\351J\276\200J\314\275\346\264=>wv\222;T\3431\274\355xE=\230\362\254;\207\241\372\275\263\322\312=\371\242\032=F\233\257<\206%\322=\0049\304=\323\030\205=kz\024>\004\036\177\275ex\332=\303\312 \272g@\253=\022\267\031\273\035r\272<\321\004\245\275\346a\"=\213`\017\275T\022i\275\245R\260\274wR\250\275\305\343\317\274"
      }
    }
  }
}
node {
  name: "LSTM_1/kernel"
  op: "VariableV2"
  attr {
    key: "container"
    value {
      s: ""
    }
  }
  attr {
    key: "dtype"
    value {
      type: DT_FLOAT
    }
  }
  attr {
    key: "shape"
    value {
      shape {
        dim {
          size: 6
        }
        dim {
          size: 128
        }
      }
    }
  }
  attr {
    key: "shared_name"
    value {
      s: ""
    }
  }
}
node {
  name: "LSTM_1/kernel/Assign"
  op: "Assign"
  input: "LSTM_1/kernel"
  input: "LSTM_1/kernel/initial_value"
  attr {
    key: "T"
    value {
      type: DT_FLOAT
    }
  }
  attr {
    key: "_class"
    value {
      list {
        s: "loc:@LSTM_1/kernel"
      }
    }
  }
  attr {
    key: "use_locking"
    value {
      b: true
    }
  }
  attr {
    key: "validate_shape"
    value {
      b: true
    }
  }
}
node {
  name: "LSTM_1/kernel/read"
  op: "Identity"
  input: "LSTM_1/kernel"
  attr {
    key: "T"
    value {
      type: DT_FLOAT
    }
  }
  attr {
    key: "_class"
    value {
      list {
        s: "loc:@LSTM_1/kernel"
      }
    }
  }
}
node {
  name: "LSTM_1/weight_regularizer/Square"
  op: "Square"
  input: "LSTM_1/kernel/read"
  attr {
    key: "T"
    value {
      type: DT_FLOAT
    }
  }
}
node {
  name: "LSTM_1/weight_regularizer/mul/x"
  op: "Const"
  attr {
    key: "dtype"
    value {
      type: DT_FLOAT
    }
  }
  attr {
    key: "value"
    value {
      tensor {
        dtype: DT_FLOAT
        tensor_shape {
        }
        float_val: 9.999999974752427e-07
      }
    }
  }
}
node {
  name: "LSTM_1/weight_regularizer/mul"
  op: "Mul"
  input: "LSTM_1/weight_regularizer/mul/x"
  input: "LSTM_1/weight_regularizer/Square"
  attr {
    key: "T"
    value {
      type: DT_FLOAT
    }
  }
}
node {
  name: "LSTM_1/weight_regularizer/Const"
  op: "Const"
  attr {
    key: "dtype"
    value {
      type: DT_INT32
    }
  }
  attr {
    key: "value"
    value {
      tensor {
        dtype: DT_INT32
        tensor_shape {
          dim {
            size: 2
          }
        }
        tensor_content: "\000\000\000\000\001\000\000\000"
      }
    }
  }
}
node {
  name: "LSTM_1/weight_regularizer/Sum"
  op: "Sum"
  input: "LSTM_1/weight_regularizer/mul"
  input: "LSTM_1/weight_regularizer/Const"
  attr {
    key: "T"
    value {
      type: DT_FLOAT
    }
  }
  attr {
    key: "Tidx"
    value {
      type: DT_INT32
    }
  }
  attr {
    key: "keep_dims"
    value {
      b: false
    }
  }
}
node {
  name: "LSTM_1/weight_regularizer/add/x"
  op: "Const"
  attr {
    key: "dtype"
    value {
      type: DT_FLOAT
    }
  }
  attr {
    key: "value"
    value {
      tensor {
        dtype: DT_FLOAT
        tensor_shape {
        }
        float_val: 0.0
      }
    }
  }
}
node {
  name: "LSTM_1/weight_regularizer/add"
  op: "Add"
  input: "LSTM_1/weight_regularizer/add/x"
  input: "LSTM_1/weight_regularizer/Sum"
  attr {
    key: "T"
    value {
      type: DT_FLOAT
    }
  }
}
node {
  name: "LSTM_1/recurrent_kernel/initial_value"
  op: "Const"
  attr {
    key: "dtype"
    value {
      type: DT_FLOAT
    }
  }
  attr {
    key: "value"
    value {
      tensor {
        dtype: DT_FLOAT
        tensor_shape {
          dim {
            size: 32
          }
          dim {
            size: 128
          }
        }
        tensor_content: ";\031\303\273\373B\027\276O\307\221\275\355\255\201\275I\230\312=*\253\376=\246\0106=C\311\224=\360I\037=\037kG=\257t,=\345\272\271\275\006\334,<1\213\010=B\033\016=\030\246]<\361w\037\276\026[\353<\263\317\353=\004\004\024\276:\334\006=v\206\217<\013\205\254\275h\254\217<\315S\003\272\231\247&=\222\213\370\275\014\320\215\275Q\374\374<\242\032M=\000\357)\276k\237\351=\277_\027\2768\227\267<\275\251\245\275(\320\000\276\215\332\302=\300\304\016\276W2\022\276\1773\333\275\t\276\273\275\311\237\241=nH!<-l\230\275\n\nz;\030\374A\275\234\245*>\264\2621\275<\353\322\275ao\331\275\013W$\275\246\217\016\276\233\034\377;\tg\307\275c\210\023=\034T\223<\030\202\016>\022\017p=,n\r\273%I\330\274\300\245\007\276\332\304\177=\275!\352=U1\014\274wV\240=\240U?>\360\271\335<V\312\001\274x\256\347\275\t*\231=\37562<@\331\033\276\'\201\025>\337\025V=\024\271U\275n~\215<\221\312\035=c\025\222\275\314O\217\275\233_\333\275\367W\351<\375\372\222=\350\026\304\275\307\334\270=`\362\316\274\353\302>\276+\325\223\275|\223\342=\362I8:e\0007>3D\234\275\0351\244\275\232\036\242=_\323\016>;\234[\275r\004\225=\350\344\030>\036\325$\276\177\004P=\203\223H\274E\024\372\275\023\274\233=\203|\000=\007j\330\275\005+\342\274]\2727=rI\234=\302D\273\275\230:z\275\3470:>\240\204\373;\337\023\000\276?\006\215<\313@\202=\366\347\004\276\333\033\334\274\376\300*\275H9^\274s\237\'>,\377\224=\300/\273=\324\023)\275\331\271R=\202\367\372\274\350\317\031=\250\335\222=\255C\263<F\347J;\365\034\310\275\203t\375\275\214\336-=;!\007>\032\222q\275)W\254\273\230=\307\274!\207\226=&)G\274\241\036_=\201h\217\275\356\361\316=\350\256;\276\236\005\311=.\244>;\373O\225\275\342%\235\275N{\241\275\3625[=\232\007\306\275\3364\256\274\323\222\375<\017jG\273A}\236=\226Na\275K\277\353=\251\233\214\274\334\014\315=\026a\002=\200\374\307\275L\006[\275W\014\327;\031P7>,{\325<\273`\363=\022\016\205=37,=\177\364\"\276#\241\006\276B\021-=\306\364C=\202nb\276\231\253f\275\365#-\275\010\364\240=\266w\032>V-\255\275Y\263Y\275|d\330\275\334\351\031\276\321\247\022=\227s\031\274\245\365\'<a\275^\275\213f\276=*LU=\026c\023>\000\314\307\275\034L\341\270\331\275\006\276\320/\267\2743P\'\276\227\273\303\2756\276\331=s\210\263=\200\'\303;\007{\335\275\027\3521;\301\2535\275\214\223\351\275 v\223;\t\001\006\274Z\030\315\275\314\177\224=\216\254\022<c\002\233\275kF(\276A\306\026\276\3606\006\276)\213\217=\352\300;\275\010\025\322\275\224\377\014=\232<\304=(9\004\276,R\311\274\223E\216;\253X\033\274\215\247@=\265\031\365=\307\350\203\275oW?\275\361R\352=\271\200\240<\026\301\221<\214\270\014=\"\003\005<\366h\364\274\223A\272=tA\216=ft\217=\355\351\001>#\275\307=\0271o>/\244\235\275\004\253\200\275.\343\030\275\"p\200\273J\266Z<=\037\235\2750\230\320\274p\274\325;%B\303=a\273\035>\375J\312=lq\375\275zu\304\275N:\230<U\263\272\2756\340o\275\017#\365\275\312\200J\275\254,\002\276\265\205\371=Q\256l<\321\001\235\275\305g\223\275 \345\325\275I-\251=\200\303W=\037r\"\276\'\3637\275\000\277\332\274SCn>l\013\213\276ag/\276?\344\346<\215J0\275\271g\003>\213,\214\274\376\034R=\tcw\275\363\253\250\274\215K\006>\316a\277<\317g\215\274\350\241x=\242\037\333\274\311\345.\276\305\343\353\275c\253\003>Jo\000>\373\252\211\273\r\026\237\275\025\361\247\273\234\323V=\371\277\354<J\236\276:\230\227p=\276\016\363\274\317Mc=\226w\341\274\225\2328=\307a\225\275v7\t\276yN\330\275\263gO\275YJv=?\320$>I\3025=\003$3\275m\200%\273\360\226`=\017S\340=\315\007\205<\3361\321=\354s#\276\270\360n\275G\275\"=\227\206C\275\374\2022\276\333\314U\275V\037\224\275F\327\006>\200\264\232=\375C\024\274\206\013\204\274S\331\016\276\332\356\310<\307\014\320\274\'\206\271\275_EB\273\357\202\270\275\27509\275\236`\270=\351hW>.\343\300=\255\212\354\275\006\001\353=W#\345\274)\330\272<\0312\032\275\374\312\037;Yv\322;YV\025\2741t\024=\032\376\340<A\225\260\275\213\374\013=X\273\264\275s\000N\276\360x\020\274\345w\265=mL\226\275\373e\337\274?\030\316\275\003\r\352\274\375K\262\275\371}G\275\305c%\275\336r8=\232\003*>\244\025;\275f\276\233=\200%\354\275=\221\020=\314\355\211\275)%\016\275u\272\005\274\222\347\245\274\272\240\022<\317\325\025\276X\346>\275\275\324[\275\303\261\004>\334\253\002\276\000z\202=\330\346\326=\227\277\254=\r\274\024>,\210\030\275\355\326\351=\255D\214=o\037\231\274B\343\262=\321*\266\275\237\322\263\275\031\221\277\275\226\2244\274j\320\222=\337\373U\275\202\305\004<\267\330\n=\000\221\353=\254\316\006=0\273\317\275\202#\031>f\311n=\225~\344<\323\232\r>R\310\217=\251\345\363\2756[\007\276\026\177\003>\241\306\245\274\345\257\351\273\376\342\225=\002\304\202\274e-\357\2752\374\220\275\372S)<%\205\270\275\342D\255=\264\212C>\366\336k>\224\'-=_h\246=\352;\n>1\217\000>6\227\307=m\314\245<y\306\233\274m\tB:i\225T=\031X\261;\312\266\205=\376\253\301=\006=\320\274|\237D\273\315\245\027>\2343\024\276\233\317\010\276\226\002E=\032E\272\274R\350Q>\217\244\312=\001\225\225=\321B\325\274\"\337\220=\0333v=Y\271\000\275:\303\221<H\233\207\274\235\274\000>\003\177\360\275c\200\345=L):\275\355\221->F\302\302\275\223o\202\275\344\225\021>D\251\227\275\264P\224\275\232\225\262\274\n\317\272=`\005\001>p\n\227\274A\223\254\275T\325\231\275\353c\265=O\330l\274\353\377 >\005\001d\276\226\341\377<\371\313\254\275<\250s=pm\300=|v\234\275s\313\322\274\306\010\260\274\262\204\300\275\307=\205=\302\347\245<\254\223&\274\311\273(<\256 \020\276\323\240\020\275\245/\021\276.o\377=\031\013\265\2755\307\206\275c\212\221\274-\"\224=\343\304&=Y\247\224\275\242\362\267<1\235\247<\304\216\372\274\256\300j\274\341\360.=z%\247\275fsc=\362U\312\274\024\335\002\275\202\223\254\275\004\243\324<?\222k\275\004^\241\275\030;_=\344\214\263\271\225\371\255=\207\2255=\306\312\216=\325\212t\275\310E3<HM\312=\351\376\n\276\377&\367=\227\267\266=b0\007=\226\345\225\275\220\332\314=\225\0355\276d\232r=0H\213=k\003%\275\225b\r>+ \355\274KM}\275@K\323=\017^-\274=\003\014\275I\331\036\274+\'\363\275\251\360\364\275\251\272\341=\374t\020>\213|\006\276\327I\207\275_z\314=\327B\255;>\374\334\275\235\265\265=/d\240=!\276\377<1{\262\275\267L$=\225\001\376=\233-\261=\341\037d<\024\010&\275\214\216\325\275\206D\210=\252CZ\275\204\014\026=\333\001\262\275\201#\352\275\256\212\257\274s\366\202\273\256#\245=\223%\021<g\273\034<\002w\225\275\376\357i=\231^\265=\267\320T=\t\364\037>p\220\330\275\307]\236\275H\365\232<\345H2=\224Jw=\341\336\343=G\256\275\272t\350\265=X#\331<\257\'p=\244p:=\215\334\237=Qqm\275\272\246f=f\022\304\275\t\230\203<\\\031M>\311sN<\337\336\205\275\336\361E=\242\027\227\2753,i=\303\237}=+pr\275)q\230\275\211\304s=d9)>\206\377\241\275qo\325<\261\004\272\274\377z\266=\023\227\205<\035`A\275\023\275x\275\212a\016\275\031\262\307;\322\t\017=\353\032\356\274\226k\021>\035\337\234=g;J>\225\212\246\275\032\013\277=\237R\210\276AV\205\274\247\272\003=\004\260\2069\216\356\254=\033\252\252=\004\240[\275\367\347\203\275k\244b\275\361\311\372\275-HV\276\254\377\312=\300\262\362\274\363\272\301;\\d\037=\"\206\340<S\017\203<\026\214\236=\263{\322\275d!\034\273\234u&=j|\203\275\006\023\303<\330\030\316<)\311\215=>L\311\275\017=\253=\000\310\265<\240\244\003\276Q\031R\275.>)\275\356\222\224\275\351\325\365\274\370\005J<B\340L=r.B>\301\334p>\327?\031=|\t\264\275v\326\030>\263vS\275\260l\277\275\306y[\276\342y\232\275v\255^=\263\277\335=\223\270\021=\241\246 :\njA\2765wB=\270b\203\275\021n\257=\307\372\245\274:\026\376=\266\365\333\275V5\252=\025\356P\275\360\004M>\230\344\021\2766\306\003>V=q<};\216\273e(\327=\201H\034\275\221\303\301=\347\336\267\274\020\347\324\275\377\003\376\275\\\355\260\275\232\337\036\276\316\325\240<`\341\262<\241J\255\275\014\304\353=x\270\206\275\330Y\273\275x\261\266;\350\3125\275\213M\246\2744v\'=\302\267b\276\255\302\313;\261\320^=\361\267H>\014\334\014\276*e\267=\002\373\316=\021\232\225<\022L0<\264\315p=\037\352\002<r\260\020\275\r\210\037\276\371\247\255<R1\216\274n\033*\275\266\370T\276E\016\220:vPX\275\247\244\277<\007\205\037>\2142\352=\352\2037<I\371\371=\261\334\303\275\304/\212\275\204\034\230\273\315\036\220\275\230G\370\275Z\244~\274to\005\275\357\210\247<\235\227\246=b\007\226\275M\177k\275ll-\276\210P\230\275c\274\177=\220+A\275\255\302\006>\031\271\347\273=\213(\275\300\221\343\275\201\355\032<\364,\335<\213\212\306=\221\216\325<\2164[\275\322\353\276\275\323\302\023=\260\316\035\276\220\265\027\274\336iy<\374\177\275=Ic\354\274\366\315s=\215~\036\276\234v\275\274)\254\004\275\t\201\267;h\375\'=\304\207\"\275\033z\010\275;\000\246=\344\"\304=\347\224\014\276y\322\013=\231\356\262=\274\001\317\275\347\365\003>-\217J>\330\006\314\274\226\244\t\276\035*R=M8\021=\224\307\261=\346e\225\275\177\341#=p\374\341<6\245\032\276\303\331w\275\006\0009=\303:\322\275\234\351O=\262,\323\275\013g\253=\275\204\215\275\255\336M\275\253\226k\274\000\361\232\274\223\037\214\275&\013\375=\357d\204=\243\376\247=j\205 \276\357:\257<\237\007\356=:\200\376\274^+A\275)f\315=hP\234\275\245\000>>& \204\274;\351\232>\232L\215=\257\271\013>@\347\261=\020[\240=\205\352\027\275*\347\347\272f\230\207\272\214N\033\276\261c\314\272\"Uh\275\027Qt=\344N\207<\"\002\037\275\'\310i=\367\224\223=2\013\031\2759n;\275\2354\027\276\322\350\031\275u\361>\275!\366T\271\234\364\307=\377\031\250\273\344\"\210<\r~\235=\314_\312<\256,\201=\307\340\r>g\210:>\331\'?\275\001\027\021\273\331 \337=T\336\255;\232Z\210=o\022\276=\313Li=\322\233\206\275YxS\274\214\250\267\274\236\265\301<K\220\0179P\236\014\275b%\350<\257\365i<vJ(\275\323Q\312\275\'B\001=~5\337\274\262\251\304\275D\334o\275.\373\270\275\316>\242\275\257\257\320=\340k]\275mjW>\177\025\254\274\r\366\373= a\013\272\317A\014<\313\251\352\2759\275\"\276\364v\001\276\025K\002>\010W\305;\357\036\212\275\234\342C==\304\004\275s\256G=\322\216r\274\247\255\343\275P\311\250=lNO<\376B\001=\204\366\032\275\354\0016\274\205\214\315\275L\030\363=\342\210\321=\023\036\000\276d#\243\275\350\336\024=F\303\255\274\243[\356=\264b\022\275q\351\010\276H\276\224=\217\3545\276\254h\204<\267\322<\275\014#\025\276\233^\316\274 \264w\275\221\"0>\242.\316<\212\\\013\275\n\255\022>09\200\273\0102`=\263D(>\225\301\352<\213\363\275<\373\377\r\2755D\363\275[\260\343\274\034\004\344=\'D\340\275\270eS\275\016F<=6\207\242=6i\'=n-\032\276]\3639\2758\341X=\271\002O\275\007\260\362=\344\244\263\275\204\317\335=\304,\033\276a\346\224=1\322\332\275\225\004\306\271\234\356\001\276\350\021\262=I\346\363\275\026`\366=\3557\350\274D\035\354<\373\337V>\023\t\374\275\351D3\275 \204\010\2744\241a\275p\215m==\332M\275\301\014\024\276\202\351 \276<\362{>\250\334@<\264\274\030\276v\203\007>\027j?\276Ub\255\275]Y\223=aP\026>T\334\322\275\343KR\275W\354\352\275\257\212\277\275e\031\367\275N\314\000\276\306\265\036=CpC\276\345\244H>@\345\025\274;\3016\276\'Z\010\275[a\246<\246\355\256\275\231\343\347=\264\335\342\275\266^\210\275l\353\004=\236\002\250=~\241\254=\005\314\207=\330}\004=\362\020m\275>\203\264\275\326\256B\275\377\027\320=%\n\336\274\376k\002\275\201\362\016>\242\t0<\217\200G=\035m\314\273\276G\322=\315\373L=\001\243\210=\267\217\216\274\315\220/\273L\351\243\275\016\345\265< -}=\016\353\213;\263\254\222<\222|\016>\207s\271\275\240I=\275\277oO=:\213\236\275\226]\216=/N\321\275\277E\201\275\264\211\035>[\025\312=x\266\\\273q!\336\275\003\247\305\275\246L\234;\265\243\230\274\'\206c=\235U\202<\372\302\326\274\007\235\233=>\035\202\275\010<\357<mT\376;\346\366n\275\003D\344=?\376\346<\255\216o=\230\315\032>\272\035\017=G\262\254\275\365\340\020\276l\335\026>\364\232\233=\322b\277\275\363\030\276;kn\233\275=b\276\275X\362\202=(Q\201=\352\016\300=\035&\347\275\260\265^<X\r9\275\260\234\266=q\222#\275}\241\367\274\227\263\215=B\252\206\275:\315\264=\'#\266\274\356\266\264\275\306\362\307<\3662\245\273x\230\216\275}\333\267<g\0130\275v\221\323;u\254\262\274\301\245D\275\334\321\031;\357\215\364<\036V\275\275\312\2079\274]i&\2751?\311\275\22796\276\331\227\321\275\371\374\212\276\342%\253=#x@\276\204\261\216\273\260\361u\274\010-\255=\242\375\230\275\200\257\306\274\362\313\026\276 \273R\275wt\332\274\016>\364=0\345\007=+B\035>\237_$\275\n\005A=6\000\270=\230\027/\275\307\010\370\275}[\035>\262\000\203=\344\256\340=r\005\327<C\231\253=\233n\305\275\255@\345=i\301\364\275\312\346r=6\331\245\274\276\210i\274\tU\021\2762\237\003<\340\263d=\270\211[=KJ\242\274\322X7\274\364\245\017\275\214\350\207<w\rA=U\216\201<\370\220\275\275\035\026\000>5\376\201<!+\351=6\020q=/\376D<>w5\275\353\003\204\273Y\312\262\274\274\262\254=\234i\376=Q\361\234=\312\247D=2f\266=w\177\n=#H-\276\321\"\275=\252\207\202\275w\222\270<|u\250=\016\036G<-`\226=x\023\t\276o\200\302=4\037\337\273[\360?=\250\317\255<\026p!\275a\200=\276\212.\362\274\265U\317<\347o\333\274\224&G=\322\227\r\276\276^+=>\n\014==1\207\274\004}\013\276\240Tc=\331\246^\276\371\251\007>\312Wf:\332\370\023=)\207\325\274h\275<<h\024o=\273\247\026\275\214/(>\232\371\343<\235q&=\025\337.\275\344\025\242=\177\t\347<\362\263\033>r\023\214<7\337\350\275C\203\232\275V\242\326=>\321\211\274\256\342\270\271\354Y!>7VB\275LfM=,\t\234<b|\024>\322\022\231=1Qx\275z\026\334<W.\261=\201Q\n>\344\243\263\274N\201\246\274\353B\352\273&u\337=\347\262\201\275/\210\005\276o5\002>=\377\337<\002l\204\274\232H\220=\r\373\361\275c\250\245\275F\210N=aIU=\371\345|=\210>j>=\266\250\275\362\347\357=\020\204\311\275\317b#\274\014\005B=\302\340\300<o\365\036=p\275\276=\305\311\203=lFK=\274\034#=c\200\316\275\370\017@\2759\003H\275\333\203<\275t\036\037=\2211\203=l\251\017>\226o\356\275\211\353\016\275\376F\217\276CZz\2758\354\026\2761\r\360=s5\030=\266\203D\272\241\312C=\272\022:>;\305.=\034u\026\276\304J\300\2757\034\261=\026*\\\275\017\217\025\27676\221<\2439?<>4\317\275\314b\200\274s\027X>\264\262\004\275+\303\244\274\264\314\007>\304\333\245<\332B\226\275\205\010\202\275\364\232\302=F\353\211\275\253\211\235=\221\022\274\275\035\236\334\274b[&=\003\310K>\026\2050<w\020\276\275\254\373\355\273e\243\327\271\376o\036<\253\276\215=\216Y\343\274\233\240/>^\203\205=\311\376@=\\\177\252\275\267h\347<p\000\223<\257\265\200=\272\221j\275D$\t>\224v\251=$9$>W\036\323\274mf\017\274 \304\254;\334p\271\275\352\217:\2758\224\004\272(\333\000=1\200\201\276>P\345\274;;\232\275l\r_\275\360x\025=-\213\000=\255e)\276\346\0074>\344j\210=\016\031S<d\265\022>\027[\344=\332J-\275\216J)\276\024h6\275T~\033\275`{\005\276)s\246=\210\302\246\275^\361\265\275\r\265[\275\273\362\357\274\326\3259\275\301\275(\275\"N\223=\206\244b\275\377i\013\275\357\342\235\275,\332Q\273I\356?\274\206\344R=JyU\274J\302\017\276p\020\003=\363\346[=n\256\233=>E\000>Olx\275`p\317<L\222\251\275)\372\374=\000\316\215=\272\265\024\276\n\237\250==\355\272\274\3072\236\275\204\267#<\243TG\275,e\206\275\366A\257\275\263\331\216\274\2365\007>\2156\t=\3344\361<\'^\224\275L\341\351\274\350\242,\273\205R\241\275\367d[>S\311\234=\302\270\257=|tE\274\275X\034>m\250!=3\246<<\037\215\272=\225\177\357<\253\222_=\340\355\204=d\207\025\275@O\212;\014\260\276;\033\036E>\230\322\217\2758\262\010\275B\257\201<(&\340\275RO\261\274\334\231\271=\t\022\370<g)\306\2743Cl\271\023[\005>\320\335\3369\257\352\234=m\345\353\275\016\330[<a\367^\275\230\003\214<Z\345\261\275\277,D\274Z\331\314\274{V\303=\354\364\t>w\356\314\275\215\203t<M\356\311<\227&l>E\2314=v\030\033\275\267\014\260\275\352\366\203\275 A\271\274/ys;\204J\325<\023\"\371\275l\226\304=\252\260^\275\"4\262=\373\020&\276\024U\257<\003,\356\274.\354\010\275\"w\273=\251\362\346\275\326?\031\276\032\321\034==\323f>\244\231\013>K\332!\273\3152^=\212\313\203\275]ZG=+\376^=c\240\014>ZB\333\275\010\343\203\275\3271\227<\251\020\337\275y*\320\275\341\223z\274\266\371x\275\345/\305\275\263\377\262\275\023\025\230=\177\024\223=D\363q\274\034\223\331;\226\253J\276\3037\t\275P\034\321\274\370\340\264\275h\233:=\2753\030>\261a\241=\027\346P=9\217\274=,\304\027:e\312\366=o\370\322=\003\016!=\014z0<N\332\n=U\330\034\275\336\252*\276\221!S\275l\214\263\274HmO>\214aF=\037A\'\275\362\377\252\267tC\034\276\263\363\341\275\031\354\344\275Cn\201\275\243\005U<\347\271\372\275\002aC<\205uz<\3631e><\237\003>/\266q\274\276\247\365<\241`\370\274h\341P\275\321\262\306=\274\364\273\275\237\342R=\354[,\276\343E9=\1774*\274@W\241=p\346\344<\323EH=i\371\021<8\334I>dE\326\271\233ra=\354\007m=8se>\261\320\322=:\263\345=\343o}=\343\363-\275\023\'\366=\000\336J>\225\010T<\036<\333=\334\r(\2759\357!\276\212~\372=l\305#\276\311l;\275k\240g<\266\205[=p\341\030\275\214G.\275\037\271\251\275\022\240\314\274\200\366\355<\344\333\252\2753\000\226\274\371\323\277;\320\202\240\274\365\270\324\275EjQ<\022\240G\275\025\265\305<\005X\246=q\257\035=(J\'<\352 v\275\332D\337;\372O+\276\320\253X\2738\230\010;\211\204\030\276a\267\007=#Q\337<w\363\273\275<\317\010=:\305\375<O\272\323=\215/\332\2748d\030>A\321\226\275\3731~=\265\266%\275e\'f\275os\307\2751h\311=\225h\202\275\261\362\013\276\213\030b<}\231\244\274V\211.\275f\364\031<\273?\246;+T\344=\024<.=\244V\217<\355l\331=\312\362\246:\232\204{\275{\013\030>\264\273\311\275I\324K\274$3\326=R` \275\254\212\364=\341mD\275\265\255v=\333\232\033=7\226\n\275\rh\311\275y\000N\275\272\332i=T\267\256\275\3151/>ok\211= \032\225\2757;\335=\025o\344\274\346\210\004>\346\004\261\275\005\227\242=\310/\002\276\032\260\021>\351\t\310\275\327\363\226\2758\322:\275\033\273\271\275\214\034\013> C\210\275\301\022\021;\030t\375\274\341~)\272E5\341\275\307nE\276\304\256\033>5\030a;\'\267*\275\322\217\212\275{\366\260=\211\264\360=\034\024\033=\234\221=\275\213\256i\274\333{\250=\336]\006=\250s\272\274\310\207\002\276]<l=7\373\'\2733uo\275\375X>>\241\354\220\275\327yO\276\254\324%\276\271\327\365\272!?\254:XG\362\275\316\217\231=\202<\264=\373S\013\274sm\214\275\225\260x\271\356\225D>\315\350\005=K\306\262=\335\300\246\274\026\032\205\275\256\301\026\272U:\344\275\210p}\273t/0;~\322R\275|P\n=j\217w\275q\374\005\276\223\371\271\275\273\320\300;\277\020\262\275_\224\025=\250\253+\275;\335\344=unx=\272\225\337\273\257>;=\'\002\362\275\3008i<\263-\233=s\027\327\274~\251\370\274\004\n\266\274\376@\006>\217\207\366=\023\235a\275\235c\303\273\t\310+\276 \2335\275\201\214\227<f\340\276=\316\032\t=w4\010\274\222\306z\275\235\224\007\276\355<\357\275^H\230\274\332\021\306\274\321\022\341=\331\271\226\275\226Kx=\337\355\252\275\023\331\253=%e\216\275wd}\275ZD\006\276H\301.=\240\031m<\372\327\343=\207\326\017>\357bI>trV\275\227^=\274\226|\345\274\2536\362\275\271\327\220>\244\310r\275\t\305\222\275\260c\004=\334\247\255\273\367\2221\275 \266\342=\373>\031>\240\353\257\275jX\205\275\247\234\334=VU\312=Xq\350;\344\177\217\275\355\036\023<)-\357=\216\356\261\274pC:;\206\233\033\275\272\245\013=\013d\230;\377U\200\275\205\250Y\275\014\220\254\274W\212=>pA*\275\246t\207\275]\032s>\202i1\275\001\304\347;\316S1\276\027\\\025=\207\317\006>C\306\023=\022\027\310=\347\r\252\275\013H8>\363\370\320\275\365\2518=}\034\320\274\371;\234<\232vC=3\262<\276\t\366}\2755\363T\275\254|\342\274\262\\\374\275\205G^=\274\177Y\275\367 \243=\325\2706=\256\213\207=T\376\230\275PT;\276\275\367\365;\035\026\220=%^x\275>\317A\274>\261\266=\024\303\'>\231\250\311=\356\332\200=\365\016\204\275\036\353X\2751\035\371=\226\235\277<\220S\274\272\333\331\267\275\352O\224=D\2666\275H\272\020\276x\331\001>\231\261\244\275u?[\276\212\323\204=I\327\365<F\251x\275\014X6>\205\270\236=J>\005>\376\274#>\250t\216\275\343o\351\275\374R\225=t\236\006=.\003\277\274\251:Q\274,:&<\022\006%\275\000R^\276!f\036\2750(;>\334t\032\274=x\255\274\0102\330<I\376\277<\225\331A>j\320\364\274\365UX=\276\344Z\275\034\324\363\274\336\243!\275\356\267\223=Tg\214=y\001\340=\226\302\310\275\301\362\204\275\213\243\004\276g\270\342\275\036N\003>\\\000\204<\273\312!\276PW\032=b3\006\276\260\300\374\274\023|\312=3|\206<\357\003\240\275\343\344\021\276[B\373\273\210XN<\347\230\206\275\202\342\260\273\222\001\357\274\261]i\275k\020\361=\371\n\021\275\305\t\306=\243\031\242\275\034\222\323\275\225%:\275\210AJ\275\030\224\005\274\030\003\255<\024\356\026<zc\030\276\361\372\231\2756\211#=p\322\245;B\253\226\275\356\204\031\275;\r\206=\306\273\240<\226u\327=\323/\330=\3655 >Q\334\336;\274\245E;\211\222\255\274G\372\016\275C!\246=\203\2010\275\255zE=\222\321\336\275ox\016\276\353\255|=;\333\323<(\213\247=_Q\324=\276,\367\275\366>i=\206\341W\275\200\253\347=\225\303\330\275Gr\277=\035\\\016\27508\223\275\352yW>\340g\215=skb\274\035oQ\275\360\224\305=\017\026\305\275\2766\245\275\221-\363\275\262\034\030\276e\215I\275\215\373\267\275\177\245\326\275\200\333*=\035\236\201\275\334\200\340=\237IS=\333\363\273\275\353\020\340<\277\264\271<\276*>\275\321o\014\276[q\212<\325\211\244=/a\260=\"\356\261:O\271i\276\366\033\004>\027I\031=\315\274\257=\350;\274=R#\026<\313\220\213=\t\221\022>Q\355\021=\334\203\300=i\004\360\274\321\236:\276@\241\021\275{\360\274=\303\267\207=\311\323!>\3309==\031\212\037<>%/<\331\362z\274\337\177\027=<d\316\275\260\330\232\274\301j\225\275~\321V<\361\004.>q{?<\225l+<\033\306\234=\217\365%\275\217#\312=eG\274=\201a\214=X_\241\274\255}\361=z@\000=NIJ>\300Mz=;\220\370\273\304\302l=\361\254\303\274\356\345\177=\351%\272<\217=y=\00116\275\261\333\372;\320#\000=\032\001\027\276\336\332\021\275\230\224\006=NH\232\275\224\300\316\275\332\254\026\276\274\212\361=\261\037\254\275\325\361\216\275\376\226\246=\010\177\321\274nn\353<\217\212\r>\346j\211<<\222\233=\317\273\007>\371\362\223;\350TG=\362\272(\276\300\313\336\275\236\321\350\275\376\002q>\3078v=PU$=\264\323\265\274`\202:\274\001\250\337\275\356\301\237<\360xc\275\327xV=\230_,\276\035^\263=YM\254<[\026\375\273|\243D=\241\344^=3\261\271<\304eX>\361\221\214\274\275\n\256\273?\215\205<l[\271<\332T\027<\3739\326\274\003H\307\275I\322+\274z\275\272\275\363\225\006\275\211\323\306<\210\026M\275\371 \031>\0011]>\333:(9\231T\'\276\'i\367\275\243\325\220\274\221]\375=mb\272=f\001*\2751\000\337\274\\\337,\276J\036\202=\252\025\220\275\3236.\274]V\331=MXW=]!\263=\016Z\205=\3729~=()\253=l\263\275=\351C>=m\221>\275\237\"\304=2\030\255=$\'\366=\302d\016\275\246\323\201=\323\256 \275\350\322\316\274\027\347\016==\305\311<\3324\261\275\376q\201<\265\316\270\275\327\345!\275wT\334:\211\255G\275\356\022\215\275cM\023\276\327z#>\0004+\274\240!B\275\245\336\217<\341\313L\275\231Q\254=%\330\263=\273=\253\275\243&->\203\024\264<\2522H\276\036\314\237=\261\014A<\316]V=!^r>\372T\214=4\007\n\276\236\357\014=m\203\371\275\261\026@\276\032\207\025=\211H\343\274\261A\367=V$\244==\331\275;\211\024\351<\267VW:\373\037\212\274N\036\253=im\026\275=\014?\275\377p\215=\024BZ=\214i\017\276\373\351\014\275\347|\227\275\017)(>\010\223\n\275x\247\020\276d\031\243\275\274u%=\2168\306\275\215b\326<\222\002\261=l3\210\272\305\202u=u\336\245\274\217\253\244\275\362\340\021\276\221#\030\276ID \275U\033\306=,\327\342\275[nR\274\317\336\265\275P\307\032=\333\266\216\275\263\rm\274\351\277\267=\214\351\357\2737\323\333<\016\362\372=\207\350\370\274\3718&>\020O\203\275u\002\000=\31077\276\207\023\025>LDP\274\303\202\001\276!\344\376\275\352\225\321\274x\212\216=\316W6<\231\014\025\276\221!\243=\275%.<\026\265\236\275.\257\200\275P\247\222\275\352y\221\275\002,\357\275\247\220\003>g,\001\275L\275M\276K\312\225=\024/\275=\342\351\t\276\020e\207=R:\245<\314\245g\275l\225F<\273JH=\374\300\207\275]E\210\275\330\366\315\275\2715\204=t\354}\275\234\2724\276o\377\360\273\370\312\303\275\246\227\270\275\200\336\036<n\3677=\026\366\212\275{\251\332\275\263A\202\275\334\370\010<7\216\233=\244\"\300;M\322\315\274\227\376\006\276\020\256\343=\375\350\257\275\017.\230=\331\014\362=\240l\336\274#.\r\275w\221 =\373\265R\275C\255\243=Z\315\355=\3165\036\276\036\364q\275\376\\d;\321\250\347\275N\351\251=\347\"2>X~\177<\220Bm\274coY;\206\243\017=\325\216\002\275\270\255\036>\350\253\277<\270\003\256\275\274\273m\274^\245:\275;\353\221=\265\250\231\275\025\235e=\220\212\300<(\265\003=wP\372\274\022\003\217=>\367\334=\nn^<\223\231\n>\027\245\t\276\003G\345<\365\216\267=\212\240\317;,k/\276\315p\233\273\245\022\246<\313\027\207;yE\252\275\367\362.\275\320\201\251=\202\014\321:0\240\242\275\373\212j\276\003K\305=@\274\024\275\232 \031=\321\234\255<\362\2641=\222\374n\276X,e\274\213\355\233=\377\372\021<t\2373=\027\271b\275\212\261\271=,gF<\235}\013\276\334\013\264\275\270\213\204=\320\226\324\273\224O\245\2741f\310<\034N$<\257i)\275\234,\022\275\356\266\303<\265=#\276\'A\223=}\242:=\002\271\247=\336\016\334=\020\275\247=\204\r\243\274\363\000}\274/,.>l\205O=\2304\274\273b6\201<)\017\221=\3401\037\275\332Xx=\020\367{<-Q\227\275\232m\202=\241\000\254\275OT*>z8\230<Q\032\373\275\226\020\214\274l\262\002\276s\232\234<\256\035\331=,u7\275\262y\341=\232\234\211:D{\204<J\356\234=\236\311\270=\355Ai\276\315\301\371<\234\202i\274OZr>\332\036:>\277\226\247=\020\027\236=\226\355\330=\003\274\002>hH\002\276\370\245\354<T\'[\274\317\3537\275fD\255=\370v\027\275\335jB\2756FA>\235}\'>\356\260\220\274p\237\013>\332\253\207=Fg\n=\334L\371=\032\340R\275O\036\226\275V\343\037=\271;\233\274\023W==\236\377\271=\004n\227=B\020\253;\377\340\244\275E\365\266<\345\310\003\276\355\212\002>o\325\312=q+\247\272J\230\352\274\250\001\331=\352\3259\274\002\271G\275{$?=\2668\303=\226\372\372\275\255\036/=b\223\023=\226\031\226=\361\347G\2737\"\270=\020\034\311=\t\'\225\275\225\200\312;\261ni\275\200mP\275\302U\266=5\204\275\275\024\300Q=@F\214=\033\213\023\275\275\366?\275s\206\t\275Qd\343\274\263)7\275\374\321\001\276g>F;z\316\242<\342\367\344\275W\'a<\006l\216>\262\341\345\272\207\230b\275\251H\002=\002\"\003>\006]$\276\322\307I=\030\321\023=\361\255\004\276Y\215\217=\367\304\313\275p\312\302\275\221\0043\276\214\212\227\275\272\0252>\211&\315<\0313\321;\034qz=&\264W=~\177\264=\257E\251\275\025\213\t>LV\320=\261\343v\275\266\344\006\275\327\213_=\335\027\001\2765\2318\276\006\332F\274\221\305\032=\017^\305\275\037GQ=\214\2627=\272\276\342=B@\245\274\202\232\236\275K\356\245\274\216\271\177\275\360,Z\276\350\3447<b\231W=\377 \326=\225R\237;\222\246\034>\237{X=t\2325\275\352\343\227=\206\262\276\274\335h\330<\276\255\366\274\277\226\201=\311O\021\275$\275%=\030^M\275\350\022X=A\346\013>\260o\217;W\016\314;\024\313\316\274\235o1>\220`\037=\225\315\004=\233\017\277=\223r\000\275\n\342\024\276\263\300o\276ad\023\276a\245\023>\253\026\207=xF\367\274\324\364\376<\300\210\256\275\303\271\001>+\025D>\335G\322=\224\323\260\275\"\222\235=\324[.=\rY\351<\227\346\332=Wzw<5r\r\275\330\357\317\274\253\204?\274\004~\002>\274n\262\275\007Q\215=\250\371\004=\216P\032;E\234\311=`\206\211\274\247\341\002=f\020n=-\r\314\2757\314\203=~fu\275t\317\274\275\026\035*\275Jqx=#\tA=\363\243\370=n\362|\274?0\006=\214\316Z\275\354\275\331\275\224\376\260\274\234\3234>\243\222\r=\3222\344\275\256[\334\2747\244\216\275\000C\250<\336ZF;>R\004\276F\254\320\275Z\374;\275\315\037\007>>?-=\3352O\274\264\320:>\344*6=.\357e\275H\221W<\226\020\253<Z\203\355\274\222C\375\275\214F\216<iz\220=\266\000g=\022\033\316<\3709O=\023\221\313=T3\303\2744\035\203=&\366\245\274\273\000\221\274&\305\230\273\027c\346\274*\240N\276m\213\352=\334\tI=\244r\000>\005\226\017\274E\210]>\3065-\276\3506\260\275\211\2133\275\201\376\306=$C/\274\357C\334=\254\354v\275\246e\'\276#\211\334<\306i\245=\364r8=ut\016>u\270\261\275\205@\003=\375\034\002\274Z\250r\274\'\372\301\275\031\332x\275V\322\004=B\263,>\276\211\216\274@\260\323=\365p\253=\026\267\267\275/\020H\275\303\320q\275p\207\324\275\332\370\001\275\344\326B\275\200\n\364\275\336\340\222=|\005\346=v;B=\267G\215=\3648m=jW\360<\237\221\005>\36261=_\000G=\265\317\001<Wft:\306\234!>c>\311\274\223G\310\274Z\215I<\327>:>@\356$>\rq\277<`1\n\276_j\207=\204_\004>\327f\223>\263\317\305\275l\337\n<cj\211=\223_j\274)\227\207\275^d\335\275#?\351\273\206e\372<\375\3450\273\207\272S=\262\371:=\004\025L<a\364\203==(\037>{\330\n\276\240\241\222=\032 \342<\216\342G\276\373f\266\274\025\306\273=S\264\034=hd\013\276\223\202\255\274\263\2613<\227\342g>p\\\200<\253X\320=:\177\000>3\216\001\276\376\340\3669\241\177\355=Y\212\242=\276\177C=\031\3165\274\035%\365\274\306\343%\275\342\370^\275\2112d<\t\010\222=\266\316i\275nK\027\2742\252\017\276\016\373\304\275\035\374\314\275a\360\221\274e\000/>JZ#=mR\256=E\354k;\270\337\237\274\"\243\355=\247\030\037;l\357\206<qc\314=\355\331\014<\3769\377\275\022\341\t\275)\362/\276\323\231\226=\254*\216=\005Sq\275\372\342\021\275\010\304\363=\321\026l=\304\233\310\274\351\'O=3\201\021<\0204\316\274\331\311\006\276.\315\363;\317)k\275?G\355\275a%\254=L\264\024\274\217m\000>o\241c\275\253+\200>\303\026\205\275\255)\335=k8\234\274 \337\215\275\225Rp\274\327\\S=Zh\032>\263W\026\275\361\377\214\272(\2435<\206L\205\273q\307\033\275\3765\310\273]l%\276\200\271\204;\251\217[\276\353|q=\231\014\366=\221\312\360=\177E\035<\342\265\214=\036\217\246=\345=3<#\024G\274!9\350=}<\244=\302o\306\2743\262\036>1\325(>\003\2043\273\300\243$\276\222\330h=\3222\200\275\016\031\362<z\022\204\275p\220K=\250H\230<%\006\320\275\255\332\356\272N\345\304\275\316\243<\275\022r\361\275\256a\025\276\tO\346=\273\024Y<\307\376\337<4\262u\275\374\306\002<o\215\034\276!\233\373=?2\024\275\252\250\001\276\325\307\377<\036\2135\276T\273)\275.\234\263\275\330E\324<\2252(\274$\201\352;+%\"=\341\341\362=g\036\217\275\343Q\242\274\200b#\276)\325\256=\325z)\275\032\354,>!\021\235<-\235\272\273_Z<>\340\351\212=H-\231=)\224\016\275\207\rO\275B\223\001>\013\247J\275\342\030Q\275u)(\276\036\276H=<\200\024<M/U\275\367\214Q\275\312\267\231\275\304\341\204<\230#\233<\254\310\326\271\r\310\216\272\236\276o=\n\213\316<-\332P\274\255<T\274>o4\271t8\242\275w\234\033\275H\320q\275\020\351B=e\274F=\034\353\331\275\227i\302\275m2u\276\341\274\365\275x\226t\274zA\226=\303\n%=\357=\320\274\273I\343<\202\360\363<YN\263\275wY\260\275#-\016\276\014Jv=\342\264\223=\202\271W>\231\027\344\275\t ,\2731B\330<l=\207\275\376\321 \273\0225\361\275\\mx\275\010\021\037=\026\000\355<\262\250\232\275\227{j<\017\361\357=\"\245\242\275\266\344\336\275\360\362\357=u\0103\275\240H!>\3350\231\275\363\362\212\274\016\335\376<\324C\245=\241\021\270\275\",\206>\270\242U=\244\375\"\275\021|\005>O-\272\273\215\353\r\276AM?=(\321\033>\263\323\320<\266\211@\273\225\225\306<\317\372\325<\253a\'=v\210\374\273\301r\235=\250+\016\275\252\275\316=+\213\241=\006>\246<\255\301\351=\017@S\274f\303\277<\342~:\275g\340<>\177\310\220=*v\313\273P\222\220\275\237~\326=\327\311\260\274r\327\203\275\336n>\274\206\362\017>\034\312>\275l\\\001\276\200\253\320\275\355\030\250\275\353\005\242\274\236\341\352=\035EE=\313\023E\275?z\204\274\340\3306\273\267\240\300=\227\305>=\365\277\003\276\341\t.\276\024\341S>2E\345\273(It\274o\0348>\001\005\201<L\374\215\275\245\271\027\275\032$u\276b4\366\275\223\263s<\206f\345\275\222D\261<Gk\204\274\n$\215\275\373\0038\275\250H@=;\331\330\274,\354&\2752\306\310\275\204\315\016\276\264\004\263\274.\275n\276\211\345\264\275EQ\234=\355F\002\275h\302y\275\307)I=\233\200\373\274\347(K\273\362^Q=\263_I=w\277c>\220B\346\275\354\351\'> \213\027\276\313:3=$\324\013>\256\017\247<\021\2753=\202\037\333=\313\344{\275\217\320\372\275\000\345H\275\361m\014=;\247\000=\3129s\275\031nJ=W\234\031\273\260\316\323=,\336\371\275\370\355(<I\341.>\031\251\005\272\007Q\241=\307rx\275~\2665>\255d\246\275\344K\235<\214\342\204\275\035\303\332=D=\013=\231\355\302<@3\037\276\253\253\205=\375\363\322=\357\355\314\275\002qN\274\236$O\274\233 y<\253\353\214=\245\347\222\275\271`\236\275y\232\370\275\336q!\275\306\230\213\275>o\275\275,\271\277<K\370\215\275\2070\360\275\271\206b;\233<\233\2751&\"=\357aJ=C^3=\312\250\300=\317\361\375=%/Z\275\022\223\037=/S\357=JE\225=\272(\003\276\035\032:=\215\334;\276\037Uy==2/\275_D\"\276}\244\341\275H\336\340=R\r\351\275IcE=\323D\231;&}\005\276\206\224\272<\336\371\220\275C\221\213\274\023\315D>\264\202I:\262\032\304\273\271\342\253=rr\314\275\323{\254\275\272\023\364\274\260\023\323\2756^\216\275IP\230=\27456<w\021\371;W=\353\274\371\305_=,\361\330\273\304\232\324=\032\214\231\275\251_\205\275\003W$\276\274\267\021\275b\364\037<\346\033\255<xN\330\275_\265{=_C\252\275v\346\306<\325`?=\351\356\255\275\tX\303\275Xl\204>\217\201\027=\253\217t<:\017\212=)\315\335\275\320]z=d\224\260\275\301r\014=e:1<\226\203]\274\370\027\003\276D\037\256=\0065\344\275\027-\265=\275\024\010>4\021\232\275\335\r\200\275i\263\271<T\334\274\275\222\333Q\275k\257\351\275\202O4<UAB>\230\215\212\275\361Q!=P\311\010=\031A;=\026}\343=\030\246\244\274R\231\337\273\217\r\216=\3321\r=\313#\230\275\221J7\274A\254E>\276\rS\275\201\200\341<\366\0076\275\177\352\300=V$\365<\310`m\275p\256\232\275L\214 \276\314\377\323\274\215\312u\273\236\370\037\275\360\030\230=\256\3037\275\303\245\236<\331\031\200=\221\212%=\253\324\270:T-\277<pR+\275\353z\263=\r*\r\276{\273\216=8\000p=\351\343\323\273c}\300<\222\324#\275\265\016\251=\373\376`\276\346`\314;\026A\001\273P\273B\275X\020\334\274\2448E\275[\007\022=\222\032\"\275\021\234\004=\200`\274\274\035b =\337\210\372:\377\244d>b\005g=\244\335@=\000&r=\321\311\206=\357\372l\275\235uE=\223\213!\276\224\"\216\275\035ok\273\033\214\343=\020\327\211\274\375zZ\276\014\236\272\274\003\314\237\275\215\343\342=\230\272\236\275\006\3063>\022\267\025\2753h\351\274\000\236\323\274\301b\270\275\377\344\204=u\241\031>\376\357\355=y\025\216\275S\324\001\275\223\030\327=Mx]=1\266\205\275\346\335\032>\353\364q\274\372\261\333\275rf\013\276\307\326j==\313\000>\201\025\347=p\264~=r\216\235\275,\264\301<\334\306\030\276\214\211\031=KA\312=jA\027<\3364\204>\277\304\243=\241\330\235\275\001>\254\275\000\300H=+m\002\276\024Le<\310\221\253=\367\037&=\320\207\024\276d\306\341\275\202\236*\276A\337\221\275\372#\217\275C\355\243\274n\202\025\275\037\332\024\276\364\303X<\254\224\367\274\031o9\275Q`\002\275j\245Q\274W\374\017>KGF>\327\000R\275@6\246\275\311\337\257\275\003[\325\275\007\301Z=:\326\222\275+ \203\272*\224\017=\003\350u\274O\024\332=\303\022\337=\222\312\301=\377\370\215\275\264\013\312\275Z/4>\242\313\266\274F\274\025\275\254\354\377\273\250\026$\2746\035r\275Cl/>]\315\273\275p\'W={/\263=\217\021\237=%\210\233\274\014\260\252<\356\211\236;\001\203p\275u\357|\275O\253q;b\320\325\274\260.\204=^\337\227\274\222\332\253<\277\350\206=\265\255\032:\307\207T\2746\307\316;\303\221\314=C\3367\276\335\271\030>\276\301\251\270\376\224\321=\033\214J\274\035\261\225=\311\323;\275I,\374\274o^\350\275\310\346\320\274w\324\347\275\350\032\221\275@\372\321\275\013 \317\275\376\376\014=-S\231\275\274\304\327\274\201\227H\274\346z\206\274\232U.=\317\322\036\274\313+\360\274g)1\275\032k\247<MGz;\177!\010>\226\200\024\276=\tC\275G\336\235\275\016\256\374=\341\024\036\276M\312(=\246\356\n=\026^\253=+-a\276\'\005\327<\275T`\275a\373B\275\314\n\003<\276LS\275\333\242\301=\245\364\214<\222Xr=\2157\225=\264AO\276\260\324\277=\367\3727=\321s\006=\276\316W>.Z\265=E\264\276=\305]K\276bz3>3\343J;uV\227=t!\372\275C\356\007>\225\327\022\275OD\311\275\\tu\275\306\256\324\274{\320\336\275\306\r\231<\375\\%=\322=\226\275\241\331\223\274\373\376\"=\314\367x\275\260^\031\276V\345\205\274\330\363\221\2757E\274\275ko\025=aQ\217=\222\332\230\275O\376{\274\353\350\253\275m\261\345\275\267\267K>\036\001e\274.\315\245=\025\037`>\226w\273;\221\352\227=\210\034\273\274\277i\272=\222=\016\276]%\r<\002\3553\276\265W\271<\312(\003=E\366\323=\206\217\220\275\261\2015=\031\tD\275\257\330\213\275\247\366\033\276\203\271\030\275\020T\233==?\252=\233\342\266\275a:\231<\215\177\250\274K\216+\276CX/\276\001q\364=(QE>vK\301=x\231\351<\277\242L=P\247\352=\354p\250\275\037\222\256\275C\273\234\275w\257\336\275\237@\315<\230\317\362=\027\001\274\275b<\336=@\302\345=J\242\356=4]\303=\340\335\343<ez\263<\017*r=\347\\0>5\252\202=\263\267\333\2755\232\267\274\366\355\020\275Sm\300\273\363\306#<\312\225\007\276@\257\213;\345\014\373\274\232\360\301<zd\270\274\323\202\206\275`\331\002\276\272=\001\274\n\357\253=\336\362\362\275\353\347\304\275\233\234~\275\355{0=j\304\001\2760\010\"=u\346\262\275\301@\303<\251\021\361:\n\322q=\317\025\224\275j\207\211\275\000V\220\275\032\017\301<\226\256I<\301\033+\275.\003\365=\224R_\276\336=\301\274\\\254\210=\225G\354=\001\020\273=Q\317\212\272>\325\036\273t\315\007\275\372\217y=v\177=<W\214\265\275\213PV=1\003\305=\331*\361=>\340\204=\033K\021\275\007x\356=MD\337=n;\365\275\315\273\214=l\365\004>6\005q=\347\214B\275/e\226\273=\275\307=\251\352\273=wn%=\376\300\245;Z-2\273b\372\313\273\304&P=\211t#\275\227\304\312=\336\032\314\274\215\327\004\275rUL>\212\025\320=\260)\301=\207\026K=Y\301\026\276\nh\013=8\031\021=\233W\224\274\002=\003>`\251,\274l\n.>\'I\205=\\/\335\275u\2427>s\366\330\275\013|\372\275y\014\311\275]\000\244\275\247\031\034=\377v\366=Si\262=\304\177\201\275\275\346\021\274\017\270\010=\374\256\267=\254\036i\275\233\324\376\275\333\361\031=\031\255\230\275\315$\230=\217\325\367=\327\323@\275\314\220\025>@\251\315=\371\013\245=\316\240\207\275(3\317\275\345\360\367<\252<;>\342\013\260=\312~\002\276j\256\277\274\361\td\275\201\365\261=\205:,=\200V\302;B\206%>;{\301=\302a\005>\300\251\277\275\224=\266<)*\251=\307\'\274=\016\023\344=\330j\230=\272\006C=\223\303\333=\246\n\223\272\376\354\245;\343\333+\275`\276@=\247\370&>\261$k\274P\276?\275\321\022\020\276\024pH=\323\271O\275G\326\326:\003\017Y\276\306\214\'\275\223p\262<9\322\274\273\350$\254=:\210$>1\353\204=W\313w\275\260\233C\274d`\255\274p\305\304=\211\313\246\274\2761\253\275c\266f\275\362\n3\275\227o0\276\356\376\020>\243\205\001\276T\257\023\274o\000\032\276\025\031\310=_\343\t;\201\330\235;\273\346)\276\342og=\017NO\274\274\275%\275q\225\237<\355\3133=\316\263:\276\363\273\367=\023\327.\275\257\266\327\275\200\336O=\307w\270=g\343 =$\016\241=\006`5\274\242\266\255\275#o\006>X4\203\275\026N2\275@\326\037>\t\3461\276\003Q\024\2746vr=\257\346\346<p\211\031\274:\207$\276\327\223\213\275\234\236>>U3\242=\030T\210=\214\233+\274\235-\306\275\272\367\032=\305;\202=\277\026\331=\277s\030\275\220+\220\275\204Q\267;\004\333\254=\024(+\275\340\210\243=m\r\305=\376\374?=\253td\275\271\333\213\273ge\014\276\323\243\353=\336\256\020\275\335\2537\274\340\237\242=\026\241\";}\231\003\276\245HS\275\t\205==W\033\311=\3036\244=\344\361-=\224\244\261\274\034P\323\275\202\224k=:D\346\275\255^\207\275\377\205\220\275\275\235v<\016\n\227=\000\323\234=p0\245=MH.>\213\234\027\275-\347\233<M\365\246\273c\371\';\2225\216\275\031\276\205=U\312\237;R\361\221\275\357\2508=\035\271\256=]7\r\275\315\271\344\275\347\033\330=\372\221e\275\n_\253\275<\311\007\275\260b\336\275\327W\327\274\306w\230=\255\245\310\275E^\237=\025\215\200=\307\2256\276\036\275\362\274?\251\244\275\331\253\320<\365\201n\273B\303 \274?\332\225\273\253KI;\346\'.<\265: \275;\006\252<\221f\210\275\337\n\376\274i\233M=\366&Q>\266{\022=i\361\273\274\027e\315\275\201\365\025\276\351N\301\275\264\360,\276\017\3360=\000\210\256\274\207\371 \276\020F\306=D\336\013\275b\275=<U\272I\275\035\313(>\204\270\301\274\227\261\226=T\035E\273sk\020\276f\274\325=\357PV<\335+\314\275\027y\233\275\267j\320=n\217\221\275\334\372\310=)@\027>m\321@\272_\315\241=|k\330<\303\203\331=y\033;\274(\017\017>\224\254\365=R\363\r>\210\2376>\205Y\221\275\304\306\031\275O\363\020\276*\024\240=,\374\202=j\255S=2d\202<<c\226\274\005\244\312\275\007\271\t>\0164\251;\273\341(\276\306\235+\275\231w\016\276\375\307)\275DL\023\275\336R\210<2K\024=Vwl\275&\014C\275\211e=>\215\320\n\275Z\304\210\275\244\326\207=h\373\265<;\232j;\316\272M>19\177=\304\177\371<\350w\303=,L\277\275\251\2465\276\024\023\006>\007\315m=n\201\250=\224\324\205\275b9\031\274~\224b\275\263>7\276)P\211<\334G\217\275\344\245f\275\337z<>P+\301\275\201\227V;\004\240\033<\010\277\375=x\235\274<E\236\013>\203L\200=\333\r\213\275\2556a=\243N\241\275\344\026\224;\000\277I=\\zR=\232\217\n=\371\034\204= !\254\2752\366\344\275$n\333\274O\243\327\274)J\242<\254YH>\"\222\322\274\207@\206:\207V\023>\210q\375;\277\336\304=\317\256\013\275&K\331=>\325\272\275y\004H\275\313R\331\275q\224X\274`\273K=f\",:\220\360\311\275\350e\340=\231\305\262<\300&W\275\345\367\251\275.\362Z<\354|\372:\214\342]\274j\362>\275\3730\263\275\250q@\275\240\034\024\274\265\235\013>[O\235=\355\2329>\207\376#\276\260\361\300\275s\330V\275:\260H\276\322r\223=\337\321\237\275\352}%\275\347\276\227\275\246\337\275=qzI>\302Y/\275h\2362>\341\360\240\2758\336\212\275\257%{\274\244\016\303\275%\313l\275L\\v=\235ln\275\210\344\000\276-W\013=S\313\275\275\32307\276\367-\333=\024h\004\275\252\331\361<\003\277*\275\303+\005\274\026\260\007\276\333\274\271=\027\225\203<L\0149=0\006;\276\211i\003>\034W3=n\223R\274\300\313\035=\350\002\220\275C\202^\275:\326\033<@\026 =ARd=\3244\\\275\267\270\223\275\2200\273\275\205\203\317<\265\310\002=:D\353\275O\355(<`\235\246==D=\275\275\363\203=u\030\r\2761\275\205\275;C\234\275\261\005\013\276i\236&>\347\032_\273\226T!\276\002\342M=\2429F>\313o\035>\330ve\275\223F\374<\317\303\023\275\261\250\t>\350\244\201\274-\211\242=\273\204\232\274\017\251,=9D\262;\204\204\306\275\223\310\346\275\323\375\247\275w\332\253\275\357\323\033\275\nI\035\276\234Z5\275\336P(;\341\356@>9\022\016\274\026\310#>\361d\n>P\255!\276U=\201\275\026\326\035>2\223\340;\360\322b\274\314\256R\276\232~0\272\306\032\327\275\345\330v\275W\003\250=1\213\021=\237\346N\2753$\250={\'8=\020\017\036=\361\271\233\272,\216~\276\035\3773<C|\325=\270\360\034=\233sP=\274^\212\274\220\304\300\274h\025\025>&\250\305<\214\200\010>\026\234\235=\341\315\361\275\304Y\031=\201\212\234:\333}\226;\362\034\n<\302 \264=\243\026\344\275.\t\310=\363(?<IC\300=\030h\212\27347\302\275\177\225\235=\315\344\257\275\'\2157< \347\234\275m0\034=\312\031\177=O\\\017\275w\201X\275,\220\203=\014{\212<\265\031\322</Yf>.\202E\2754r\254:\226\236\311\274f\002\n\276\227\344\240\274\255\347\247=\317\263\342\275\240\301\331\273[\341\203\275\005\014k=\307}C\275fD4=\226]\002\276\006\2466=s{\324=\316\377=\275\002\315!\275S\007\210=Zh1<\272\221\014=\350{4>\005\3173\274h\322\010>\236m5\2759\357\363\274#\345\337=\256\244\004\275\273u\032=\333$\007\274\013Z\220=\300`\336\275\342\350\214=T\374O=\244k\001\275\024V-<\350\377\221=\031oN>\251x\201\274\324\034\031>\201\225\213=DW3\274\033\206\n\2760\'\016>\037\251Y<U\372\265=\230@\246<\002\027y\276\202\364\212=Q\333(>d\246.\276#K\010>\321\337\010>\375c\r=^\205\351<O\267\253=\"\264\037\275\263\212\323;\306$h<Y\243\246\275Z\375\013\275\372\365\300\275\261\215\221\2733x\373\275rV\370\275M\345\241\275\'\022N\274<\024\265;\226\336\014\271M\313\227:Q\266\025>\307\205\376<CJ,=\207\264\022=B\277\300\275F\'C\276R\327\016\276b*8\275\334\311\177=\320X=\275\003\244\031\276\004\245\366\275NY\227=\233\034\031=\264!\244\274\374N\201\275\376\363J\27508\022=\310~\021>\343\245\\\274\252\245\315=\310_\351\275o\336$=\206\225\231\275ND\226=M-\261\275\347\327\316\275\242\206\234=\253N\261=\263L\013>`\353@>\212\326\357\275e+\007\275\302<\270\275Y\036\000=\337\372d<\333\2644=|@\016\276\233Bo\275)\nX=,\357\304\272s\n\017\276\241\214,<\355\215G=&\\\234:\366\034\314\275\343\001)>Yu@=\363\265\251\275\311\026\253\273g{&\276\016\204\342\275\372\2422\275g\277\310\275\250\353\220\272\000*3\275\337\343\025\276\006\206.=\032@\203\275\266\337\344=`H\036=E\222\274<b\345S\275\332L\213=\230O%>J\035\333=\207\313A\2765\t&>%l\240=\271\215\213<\316\267\002\270o\014\231\275l\250;;T\200\220==\243n=V\303\277\275c\006\345=\n;\357\274\351\252h\275D\231\343<\027\000\263<\372\250\341\274A\273\317=\323\310\325<\'\245\371<^\321\264=\254\254\016\275}\235\030=*\207%=f9\'\275\212\320\377;\262\252\342=XtL\276\331/\215\275\211\362\037\275\241\275\017>9\355\021\276\330\226\274\274\273\322\201=\205E&>9#n=r\373\206=/^\007>>\273\252\274{\325\340\275E\001p<\313\177+\275e\336*>\311\216A<>\352\330\275$\373\275<\361@\265=\204\202i\271\252\273\306=|A.=\032L\310\275s\013\030\276x\005g<\275~\005=\332\323\206<\254\235\n=d\003\202<\376\3613=#\305(\275\242\244\357\275 ?\253=\020o\022>\371\022\370<\310!\222=\211\'\243=\326\307\201=\214@\365=\312\036\331\275D\252\255\275S\036H\275\374\347\002>\353Z\262\275FD\035\2767t\255\274\375\340\247\275A;%>\240.\t=O\352\014=\250\337\234\275se*\276\301\217\201\275\255\305\373\275\321}\r=\305U\347;#\352\263=:?r\274\002;\207\274#\373\335=OC6=\242\246\222\275E\033\032\276\255\361\356;\232r\004=\351\231|=?\226\267=\266\020\302\275\255\327\026\275X\325\236\2742\366\260\275.\334A\275\240\340/>9\352\311=\327\301\202<\346\233?=w\377\240=\200\301\020\276\005\365\274\2750\333\264<\207k\007\2764/\276\274\205\202%\273\253&\026\275\206t\316\275Sr\032\276\302E\245< Z\336=\374\010\374\275\325\363\233=\310\316\224=\240e\021\274\301\226\211\276\235t\030>R\304\243=\0265\024\276\376P\324\2754\030\325<\221\222\013>\246\352i=\250J;<\217\254\322<\202;=\274\324i\370\274\220XS=\336\013\302<\373\212\234\275\212W\013\276\244\204\321;\305\263\300<\227pl=\300\353\242\275Z\206\264\273L\266\250=\317\262\220\275\017.Z\275l\023\217=`C\323=\007\276\222=7\020 <S\260\303\275M\030\201\275\310r\010\276\016=\214=a\002#>\020\231#\275\20377\276\371\034\005\276\022\246\200=X\325\355\275\272xz\274\036h\203\275\306\320V\275\331+\013>\010\310\027\275\371R\013=\346\252*\276*^>=\016\334\301=\\\353i;\341<u=L\364\000>xV\256=S`l\2758\000\010<\206j\016\275\241\245:\276\235\341\206\275!4\251\275\021\242!\274\271\256\245=\326;\366\274!\010\325\275\370\240O\274\327p\360\275$I\265\274\373G\330=-: \274q\177\373;hu\000\276m9\\\275\330\210!\275\334,\224=\204\023\240=\252\224\313=,s\310\275NP\215\2750\301\026\275JA\367\275\226\341\365=\340>\336<\277\3041\275\006vv=\317\256_=Pp\253\274\036\2446=\2071\\=gFM\2766\016\350\274[\365\'\2754\272i\275\321\341\211<\212\310\n=q\330\314\275\333\3252<P-\261<\310\300\310\274^p\215=\315\216\200=lZ\330<\200B\247\274\024\233\234>\352\034\253\275=\r\332\275\306\251 >m\035\235\275\rY\274\275\010\033 >m\235Q=\360\360\317\275\211f\250\275\003\014\341=MU\304\274\330\357m=\376\036\232\271\033tx\275o7\037\274\177\330`>:\220\337;\376\232\313=\355x\244<\266\036\322\273\225\307\230=i$\365=\007\304\271=\3770#\276\254\275W>\n|\205\273\310;\373<\304\353:\275S\363w\2759\316\207\275\320\313%=\337\326;>\2440\344\274\301\353\273\272\201\210\\=\267\341\234=sb\224\273\246\344\367\2758\323\327\275\361\t\002\275\244\302\014>\260\220\241\275\2359\370\273\201P\336\275\034\027{\275\353\241\240\275V\227\277\275?\206\375<\254\224R\275\035\216\312\274\237\315S<m\205\003=\302\255\354=8\230\331=\354\273\206\274\232\205\315=\215m\301=\252\354{=\340J-\275\311\351\212\275q]\321=\177\"p;-\273#\275\032nW\275\235\2013=\215(\312<9\345\227\275\242\247\004\274\253\236\205=\221\266g<\307\216!\275\357\273\357<\024[s>\215%\275<\334\211\255\275\262\324\303\275\354\315\310=\274\315|=\032k\253=\330\300;\275\205.\346;\177\364\020\276\225F6>\321\2138\275\314m\267<\0075\310=\355\335i=\322#\217\275+W\312\273I\246\270\275\t\250U\275|\364\311\275\332\330\224\275\270w\030=P\230\214=K\2360=F}\263\275ckN\275\326:)\276}\323\202\275s;T=p\224\020\276V\324\t\276-\331\222="
      }
    }
  }
}
node {
  name: "LSTM_1/recurrent_kernel"
  op: "VariableV2"
  attr {
    key: "container"
    value {
      s: ""
    }
  }
  attr {
    key: "dtype"
    value {
      type: DT_FLOAT
    }
  }
  attr {
    key: "shape"
    value {
      shape {
        dim {
          size: 32
        }
        dim {
          size: 128
        }
      }
    }
  }
  attr {
    key: "shared_name"
    value {
      s: ""
    }
  }
}
node {
  name: "LSTM_1/recurrent_kernel/Assign"
  op: "Assign"
  input: "LSTM_1/recurrent_kernel"
  input: "LSTM_1/recurrent_kernel/initial_value"
  attr {
    key: "T"
    value {
      type: DT_FLOAT
    }
  }
  attr {
    key: "_class"
    value {
      list {
        s: "loc:@LSTM_1/recurrent_kernel"
      }
    }
  }
  attr {
    key: "use_locking"
    value {
      b: true
    }
  }
  attr {
    key: "validate_shape"
    value {
      b: true
    }
  }
}
node {
  name: "LSTM_1/recurrent_kernel/read"
  op: "Identity"
  input: "LSTM_1/recurrent_kernel"
  attr {
    key: "T"
    value {
      type: DT_FLOAT
    }
  }
  attr {
    key: "_class"
    value {
      list {
        s: "loc:@LSTM_1/recurrent_kernel"
      }
    }
  }
}
node {
  name: "LSTM_1/weight_regularizer_1/Square"
  op: "Square"
  input: "LSTM_1/recurrent_kernel/read"
  attr {
    key: "T"
    value {
      type: DT_FLOAT
    }
  }
}
node {
  name: "LSTM_1/weight_regularizer_1/mul/x"
  op: "Const"
  attr {
    key: "dtype"
    value {
      type: DT_FLOAT
    }
  }
  attr {
    key: "value"
    value {
      tensor {
        dtype: DT_FLOAT
        tensor_shape {
        }
        float_val: 9.999999974752427e-07
      }
    }
  }
}
node {
  name: "LSTM_1/weight_regularizer_1/mul"
  op: "Mul"
  input: "LSTM_1/weight_regularizer_1/mul/x"
  input: "LSTM_1/weight_regularizer_1/Square"
  attr {
    key: "T"
    value {
      type: DT_FLOAT
    }
  }
}
node {
  name: "LSTM_1/weight_regularizer_1/Const"
  op: "Const"
  attr {
    key: "dtype"
    value {
      type: DT_INT32
    }
  }
  attr {
    key: "value"
    value {
      tensor {
        dtype: DT_INT32
        tensor_shape {
          dim {
            size: 2
          }
        }
        tensor_content: "\000\000\000\000\001\000\000\000"
      }
    }
  }
}
node {
  name: "LSTM_1/weight_regularizer_1/Sum"
  op: "Sum"
  input: "LSTM_1/weight_regularizer_1/mul"
  input: "LSTM_1/weight_regularizer_1/Const"
  attr {
    key: "T"
    value {
      type: DT_FLOAT
    }
  }
  attr {
    key: "Tidx"
    value {
      type: DT_INT32
    }
  }
  attr {
    key: "keep_dims"
    value {
      b: false
    }
  }
}
node {
  name: "LSTM_1/weight_regularizer_1/add/x"
  op: "Const"
  attr {
    key: "dtype"
    value {
      type: DT_FLOAT
    }
  }
  attr {
    key: "value"
    value {
      tensor {
        dtype: DT_FLOAT
        tensor_shape {
        }
        float_val: 0.0
      }
    }
  }
}
node {
  name: "LSTM_1/weight_regularizer_1/add"
  op: "Add"
  input: "LSTM_1/weight_regularizer_1/add/x"
  input: "LSTM_1/weight_regularizer_1/Sum"
  attr {
    key: "T"
    value {
      type: DT_FLOAT
    }
  }
}
node {
  name: "LSTM_1/Const"
  op: "Const"
  attr {
    key: "dtype"
    value {
      type: DT_FLOAT
    }
  }
  attr {
    key: "value"
    value {
      tensor {
        dtype: DT_FLOAT
        tensor_shape {
          dim {
            size: 32
          }
        }
        float_val: 0.0
      }
    }
  }
}
node {
  name: "LSTM_1/Const_1"
  op: "Const"
  attr {
    key: "dtype"
    value {
      type: DT_FLOAT
    }
  }
  attr {
    key: "value"
    value {
      tensor {
        dtype: DT_FLOAT
        tensor_shape {
          dim {
            size: 32
          }
        }
        float_val: 1.0
      }
    }
  }
}
node {
  name: "LSTM_1/Const_2"
  op: "Const"
  attr {
    key: "dtype"
    value {
      type: DT_FLOAT
    }
  }
  attr {
    key: "value"
    value {
      tensor {
        dtype: DT_FLOAT
        tensor_shape {
          dim {
            size: 64
          }
        }
        float_val: 0.0
      }
    }
  }
}
node {
  name: "LSTM_1/concat/axis"
  op: "Const"
  attr {
    key: "dtype"
    value {
      type: DT_INT32
    }
  }
  attr {
    key: "value"
    value {
      tensor {
        dtype: DT_INT32
        tensor_shape {
        }
        int_val: 0
      }
    }
  }
}
node {
  name: "LSTM_1/concat"
  op: "ConcatV2"
  input: "LSTM_1/Const"
  input: "LSTM_1/Const_1"
  input: "LSTM_1/Const_2"
  input: "LSTM_1/concat/axis"
  attr {
    key: "N"
    value {
      i: 3
    }
  }
  attr {
    key: "T"
    value {
      type: DT_FLOAT
    }
  }
  attr {
    key: "Tidx"
    value {
      type: DT_INT32
    }
  }
}
node {
  name: "LSTM_1/bias"
  op: "VariableV2"
  attr {
    key: "container"
    value {
      s: ""
    }
  }
  attr {
    key: "dtype"
    value {
      type: DT_FLOAT
    }
  }
  attr {
    key: "shape"
    value {
      shape {
        dim {
          size: 128
        }
      }
    }
  }
  attr {
    key: "shared_name"
    value {
      s: ""
    }
  }
}
node {
  name: "LSTM_1/bias/Assign"
  op: "Assign"
  input: "LSTM_1/bias"
  input: "LSTM_1/concat"
  attr {
    key: "T"
    value {
      type: DT_FLOAT
    }
  }
  attr {
    key: "_class"
    value {
      list {
        s: "loc:@LSTM_1/bias"
      }
    }
  }
  attr {
    key: "use_locking"
    value {
      b: true
    }
  }
  attr {
    key: "validate_shape"
    value {
      b: true
    }
  }
}
node {
  name: "LSTM_1/bias/read"
  op: "Identity"
  input: "LSTM_1/bias"
  attr {
    key: "T"
    value {
      type: DT_FLOAT
    }
  }
  attr {
    key: "_class"
    value {
      list {
        s: "loc:@LSTM_1/bias"
      }
    }
  }
}
node {
  name: "LSTM_1/weight_regularizer_2/Square"
  op: "Square"
  input: "LSTM_1/bias/read"
  attr {
    key: "T"
    value {
      type: DT_FLOAT
    }
  }
}
node {
  name: "LSTM_1/weight_regularizer_2/mul/x"
  op: "Const"
  attr {
    key: "dtype"
    value {
      type: DT_FLOAT
    }
  }
  attr {
    key: "value"
    value {
      tensor {
        dtype: DT_FLOAT
        tensor_shape {
        }
        float_val: 9.999999974752427e-07
      }
    }
  }
}
node {
  name: "LSTM_1/weight_regularizer_2/mul"
  op: "Mul"
  input: "LSTM_1/weight_regularizer_2/mul/x"
  input: "LSTM_1/weight_regularizer_2/Square"
  attr {
    key: "T"
    value {
      type: DT_FLOAT
    }
  }
}
node {
  name: "LSTM_1/weight_regularizer_2/Const"
  op: "Const"
  attr {
    key: "dtype"
    value {
      type: DT_INT32
    }
  }
  attr {
    key: "value"
    value {
      tensor {
        dtype: DT_INT32
        tensor_shape {
          dim {
            size: 1
          }
        }
        int_val: 0
      }
    }
  }
}
node {
  name: "LSTM_1/weight_regularizer_2/Sum"
  op: "Sum"
  input: "LSTM_1/weight_regularizer_2/mul"
  input: "LSTM_1/weight_regularizer_2/Const"
  attr {
    key: "T"
    value {
      type: DT_FLOAT
    }
  }
  attr {
    key: "Tidx"
    value {
      type: DT_INT32
    }
  }
  attr {
    key: "keep_dims"
    value {
      b: false
    }
  }
}
node {
  name: "LSTM_1/weight_regularizer_2/add/x"
  op: "Const"
  attr {
    key: "dtype"
    value {
      type: DT_FLOAT
    }
  }
  attr {
    key: "value"
    value {
      tensor {
        dtype: DT_FLOAT
        tensor_shape {
        }
        float_val: 0.0
      }
    }
  }
}
node {
  name: "LSTM_1/weight_regularizer_2/add"
  op: "Add"
  input: "LSTM_1/weight_regularizer_2/add/x"
  input: "LSTM_1/weight_regularizer_2/Sum"
  attr {
    key: "T"
    value {
      type: DT_FLOAT
    }
  }
}
node {
  name: "LSTM_1/strided_slice/stack"
  op: "Const"
  attr {
    key: "dtype"
    value {
      type: DT_INT32
    }
  }
  attr {
    key: "value"
    value {
      tensor {
        dtype: DT_INT32
        tensor_shape {
          dim {
            size: 2
          }
        }
        tensor_content: "\000\000\000\000\000\000\000\000"
      }
    }
  }
}
node {
  name: "LSTM_1/strided_slice/stack_1"
  op: "Const"
  attr {
    key: "dtype"
    value {
      type: DT_INT32
    }
  }
  attr {
    key: "value"
    value {
      tensor {
        dtype: DT_INT32
        tensor_shape {
          dim {
            size: 2
          }
        }
        tensor_content: "\000\000\000\000 \000\000\000"
      }
    }
  }
}
node {
  name: "LSTM_1/strided_slice/stack_2"
  op: "Const"
  attr {
    key: "dtype"
    value {
      type: DT_INT32
    }
  }
  attr {
    key: "value"
    value {
      tensor {
        dtype: DT_INT32
        tensor_shape {
          dim {
            size: 2
          }
        }
        tensor_content: "\001\000\000\000\001\000\000\000"
      }
    }
  }
}
node {
  name: "LSTM_1/strided_slice"
  op: "StridedSlice"
  input: "LSTM_1/kernel/read"
  input: "LSTM_1/strided_slice/stack"
  input: "LSTM_1/strided_slice/stack_1"
  input: "LSTM_1/strided_slice/stack_2"
  attr {
    key: "Index"
    value {
      type: DT_INT32
    }
  }
  attr {
    key: "T"
    value {
      type: DT_FLOAT
    }
  }
  attr {
    key: "begin_mask"
    value {
      i: 3
    }
  }
  attr {
    key: "ellipsis_mask"
    value {
      i: 0
    }
  }
  attr {
    key: "end_mask"
    value {
      i: 1
    }
  }
  attr {
    key: "new_axis_mask"
    value {
      i: 0
    }
  }
  attr {
    key: "shrink_axis_mask"
    value {
      i: 0
    }
  }
}
node {
  name: "LSTM_1/strided_slice_1/stack"
  op: "Const"
  attr {
    key: "dtype"
    value {
      type: DT_INT32
    }
  }
  attr {
    key: "value"
    value {
      tensor {
        dtype: DT_INT32
        tensor_shape {
          dim {
            size: 2
          }
        }
        tensor_content: "\000\000\000\000 \000\000\000"
      }
    }
  }
}
node {
  name: "LSTM_1/strided_slice_1/stack_1"
  op: "Const"
  attr {
    key: "dtype"
    value {
      type: DT_INT32
    }
  }
  attr {
    key: "value"
    value {
      tensor {
        dtype: DT_INT32
        tensor_shape {
          dim {
            size: 2
          }
        }
        tensor_content: "\000\000\000\000@\000\000\000"
      }
    }
  }
}
node {
  name: "LSTM_1/strided_slice_1/stack_2"
  op: "Const"
  attr {
    key: "dtype"
    value {
      type: DT_INT32
    }
  }
  attr {
    key: "value"
    value {
      tensor {
        dtype: DT_INT32
        tensor_shape {
          dim {
            size: 2
          }
        }
        tensor_content: "\001\000\000\000\001\000\000\000"
      }
    }
  }
}
node {
  name: "LSTM_1/strided_slice_1"
  op: "StridedSlice"
  input: "LSTM_1/kernel/read"
  input: "LSTM_1/strided_slice_1/stack"
  input: "LSTM_1/strided_slice_1/stack_1"
  input: "LSTM_1/strided_slice_1/stack_2"
  attr {
    key: "Index"
    value {
      type: DT_INT32
    }
  }
  attr {
    key: "T"
    value {
      type: DT_FLOAT
    }
  }
  attr {
    key: "begin_mask"
    value {
      i: 1
    }
  }
  attr {
    key: "ellipsis_mask"
    value {
      i: 0
    }
  }
  attr {
    key: "end_mask"
    value {
      i: 1
    }
  }
  attr {
    key: "new_axis_mask"
    value {
      i: 0
    }
  }
  attr {
    key: "shrink_axis_mask"
    value {
      i: 0
    }
  }
}
node {
  name: "LSTM_1/strided_slice_2/stack"
  op: "Const"
  attr {
    key: "dtype"
    value {
      type: DT_INT32
    }
  }
  attr {
    key: "value"
    value {
      tensor {
        dtype: DT_INT32
        tensor_shape {
          dim {
            size: 2
          }
        }
        tensor_content: "\000\000\000\000@\000\000\000"
      }
    }
  }
}
node {
  name: "LSTM_1/strided_slice_2/stack_1"
  op: "Const"
  attr {
    key: "dtype"
    value {
      type: DT_INT32
    }
  }
  attr {
    key: "value"
    value {
      tensor {
        dtype: DT_INT32
        tensor_shape {
          dim {
            size: 2
          }
        }
        tensor_content: "\000\000\000\000`\000\000\000"
      }
    }
  }
}
node {
  name: "LSTM_1/strided_slice_2/stack_2"
  op: "Const"
  attr {
    key: "dtype"
    value {
      type: DT_INT32
    }
  }
  attr {
    key: "value"
    value {
      tensor {
        dtype: DT_INT32
        tensor_shape {
          dim {
            size: 2
          }
        }
        tensor_content: "\001\000\000\000\001\000\000\000"
      }
    }
  }
}
node {
  name: "LSTM_1/strided_slice_2"
  op: "StridedSlice"
  input: "LSTM_1/kernel/read"
  input: "LSTM_1/strided_slice_2/stack"
  input: "LSTM_1/strided_slice_2/stack_1"
  input: "LSTM_1/strided_slice_2/stack_2"
  attr {
    key: "Index"
    value {
      type: DT_INT32
    }
  }
  attr {
    key: "T"
    value {
      type: DT_FLOAT
    }
  }
  attr {
    key: "begin_mask"
    value {
      i: 1
    }
  }
  attr {
    key: "ellipsis_mask"
    value {
      i: 0
    }
  }
  attr {
    key: "end_mask"
    value {
      i: 1
    }
  }
  attr {
    key: "new_axis_mask"
    value {
      i: 0
    }
  }
  attr {
    key: "shrink_axis_mask"
    value {
      i: 0
    }
  }
}
node {
  name: "LSTM_1/strided_slice_3/stack"
  op: "Const"
  attr {
    key: "dtype"
    value {
      type: DT_INT32
    }
  }
  attr {
    key: "value"
    value {
      tensor {
        dtype: DT_INT32
        tensor_shape {
          dim {
            size: 2
          }
        }
        tensor_content: "\000\000\000\000`\000\000\000"
      }
    }
  }
}
node {
  name: "LSTM_1/strided_slice_3/stack_1"
  op: "Const"
  attr {
    key: "dtype"
    value {
      type: DT_INT32
    }
  }
  attr {
    key: "value"
    value {
      tensor {
        dtype: DT_INT32
        tensor_shape {
          dim {
            size: 2
          }
        }
        tensor_content: "\000\000\000\000\000\000\000\000"
      }
    }
  }
}
node {
  name: "LSTM_1/strided_slice_3/stack_2"
  op: "Const"
  attr {
    key: "dtype"
    value {
      type: DT_INT32
    }
  }
  attr {
    key: "value"
    value {
      tensor {
        dtype: DT_INT32
        tensor_shape {
          dim {
            size: 2
          }
        }
        tensor_content: "\001\000\000\000\001\000\000\000"
      }
    }
  }
}
node {
  name: "LSTM_1/strided_slice_3"
  op: "StridedSlice"
  input: "LSTM_1/kernel/read"
  input: "LSTM_1/strided_slice_3/stack"
  input: "LSTM_1/strided_slice_3/stack_1"
  input: "LSTM_1/strided_slice_3/stack_2"
  attr {
    key: "Index"
    value {
      type: DT_INT32
    }
  }
  attr {
    key: "T"
    value {
      type: DT_FLOAT
    }
  }
  attr {
    key: "begin_mask"
    value {
      i: 1
    }
  }
  attr {
    key: "ellipsis_mask"
    value {
      i: 0
    }
  }
  attr {
    key: "end_mask"
    value {
      i: 3
    }
  }
  attr {
    key: "new_axis_mask"
    value {
      i: 0
    }
  }
  attr {
    key: "shrink_axis_mask"
    value {
      i: 0
    }
  }
}
node {
  name: "LSTM_1/strided_slice_4/stack"
  op: "Const"
  attr {
    key: "dtype"
    value {
      type: DT_INT32
    }
  }
  attr {
    key: "value"
    value {
      tensor {
        dtype: DT_INT32
        tensor_shape {
          dim {
            size: 2
          }
        }
        tensor_content: "\000\000\000\000\000\000\000\000"
      }
    }
  }
}
node {
  name: "LSTM_1/strided_slice_4/stack_1"
  op: "Const"
  attr {
    key: "dtype"
    value {
      type: DT_INT32
    }
  }
  attr {
    key: "value"
    value {
      tensor {
        dtype: DT_INT32
        tensor_shape {
          dim {
            size: 2
          }
        }
        tensor_content: "\000\000\000\000 \000\000\000"
      }
    }
  }
}
node {
  name: "LSTM_1/strided_slice_4/stack_2"
  op: "Const"
  attr {
    key: "dtype"
    value {
      type: DT_INT32
    }
  }
  attr {
    key: "value"
    value {
      tensor {
        dtype: DT_INT32
        tensor_shape {
          dim {
            size: 2
          }
        }
        tensor_content: "\001\000\000\000\001\000\000\000"
      }
    }
  }
}
node {
  name: "LSTM_1/strided_slice_4"
  op: "StridedSlice"
  input: "LSTM_1/recurrent_kernel/read"
  input: "LSTM_1/strided_slice_4/stack"
  input: "LSTM_1/strided_slice_4/stack_1"
  input: "LSTM_1/strided_slice_4/stack_2"
  attr {
    key: "Index"
    value {
      type: DT_INT32
    }
  }
  attr {
    key: "T"
    value {
      type: DT_FLOAT
    }
  }
  attr {
    key: "begin_mask"
    value {
      i: 3
    }
  }
  attr {
    key: "ellipsis_mask"
    value {
      i: 0
    }
  }
  attr {
    key: "end_mask"
    value {
      i: 1
    }
  }
  attr {
    key: "new_axis_mask"
    value {
      i: 0
    }
  }
  attr {
    key: "shrink_axis_mask"
    value {
      i: 0
    }
  }
}
node {
  name: "LSTM_1/strided_slice_5/stack"
  op: "Const"
  attr {
    key: "dtype"
    value {
      type: DT_INT32
    }
  }
  attr {
    key: "value"
    value {
      tensor {
        dtype: DT_INT32
        tensor_shape {
          dim {
            size: 2
          }
        }
        tensor_content: "\000\000\000\000 \000\000\000"
      }
    }
  }
}
node {
  name: "LSTM_1/strided_slice_5/stack_1"
  op: "Const"
  attr {
    key: "dtype"
    value {
      type: DT_INT32
    }
  }
  attr {
    key: "value"
    value {
      tensor {
        dtype: DT_INT32
        tensor_shape {
          dim {
            size: 2
          }
        }
        tensor_content: "\000\000\000\000@\000\000\000"
      }
    }
  }
}
node {
  name: "LSTM_1/strided_slice_5/stack_2"
  op: "Const"
  attr {
    key: "dtype"
    value {
      type: DT_INT32
    }
  }
  attr {
    key: "value"
    value {
      tensor {
        dtype: DT_INT32
        tensor_shape {
          dim {
            size: 2
          }
        }
        tensor_content: "\001\000\000\000\001\000\000\000"
      }
    }
  }
}
node {
  name: "LSTM_1/strided_slice_5"
  op: "StridedSlice"
  input: "LSTM_1/recurrent_kernel/read"
  input: "LSTM_1/strided_slice_5/stack"
  input: "LSTM_1/strided_slice_5/stack_1"
  input: "LSTM_1/strided_slice_5/stack_2"
  attr {
    key: "Index"
    value {
      type: DT_INT32
    }
  }
  attr {
    key: "T"
    value {
      type: DT_FLOAT
    }
  }
  attr {
    key: "begin_mask"
    value {
      i: 1
    }
  }
  attr {
    key: "ellipsis_mask"
    value {
      i: 0
    }
  }
  attr {
    key: "end_mask"
    value {
      i: 1
    }
  }
  attr {
    key: "new_axis_mask"
    value {
      i: 0
    }
  }
  attr {
    key: "shrink_axis_mask"
    value {
      i: 0
    }
  }
}
node {
  name: "LSTM_1/strided_slice_6/stack"
  op: "Const"
  attr {
    key: "dtype"
    value {
      type: DT_INT32
    }
  }
  attr {
    key: "value"
    value {
      tensor {
        dtype: DT_INT32
        tensor_shape {
          dim {
            size: 2
          }
        }
        tensor_content: "\000\000\000\000@\000\000\000"
      }
    }
  }
}
node {
  name: "LSTM_1/strided_slice_6/stack_1"
  op: "Const"
  attr {
    key: "dtype"
    value {
      type: DT_INT32
    }
  }
  attr {
    key: "value"
    value {
      tensor {
        dtype: DT_INT32
        tensor_shape {
          dim {
            size: 2
          }
        }
        tensor_content: "\000\000\000\000`\000\000\000"
      }
    }
  }
}
node {
  name: "LSTM_1/strided_slice_6/stack_2"
  op: "Const"
  attr {
    key: "dtype"
    value {
      type: DT_INT32
    }
  }
  attr {
    key: "value"
    value {
      tensor {
        dtype: DT_INT32
        tensor_shape {
          dim {
            size: 2
          }
        }
        tensor_content: "\001\000\000\000\001\000\000\000"
      }
    }
  }
}
node {
  name: "LSTM_1/strided_slice_6"
  op: "StridedSlice"
  input: "LSTM_1/recurrent_kernel/read"
  input: "LSTM_1/strided_slice_6/stack"
  input: "LSTM_1/strided_slice_6/stack_1"
  input: "LSTM_1/strided_slice_6/stack_2"
  attr {
    key: "Index"
    value {
      type: DT_INT32
    }
  }
  attr {
    key: "T"
    value {
      type: DT_FLOAT
    }
  }
  attr {
    key: "begin_mask"
    value {
      i: 1
    }
  }
  attr {
    key: "ellipsis_mask"
    value {
      i: 0
    }
  }
  attr {
    key: "end_mask"
    value {
      i: 1
    }
  }
  attr {
    key: "new_axis_mask"
    value {
      i: 0
    }
  }
  attr {
    key: "shrink_axis_mask"
    value {
      i: 0
    }
  }
}
node {
  name: "LSTM_1/strided_slice_7/stack"
  op: "Const"
  attr {
    key: "dtype"
    value {
      type: DT_INT32
    }
  }
  attr {
    key: "value"
    value {
      tensor {
        dtype: DT_INT32
        tensor_shape {
          dim {
            size: 2
          }
        }
        tensor_content: "\000\000\000\000`\000\000\000"
      }
    }
  }
}
node {
  name: "LSTM_1/strided_slice_7/stack_1"
  op: "Const"
  attr {
    key: "dtype"
    value {
      type: DT_INT32
    }
  }
  attr {
    key: "value"
    value {
      tensor {
        dtype: DT_INT32
        tensor_shape {
          dim {
            size: 2
          }
        }
        tensor_content: "\000\000\000\000\000\000\000\000"
      }
    }
  }
}
node {
  name: "LSTM_1/strided_slice_7/stack_2"
  op: "Const"
  attr {
    key: "dtype"
    value {
      type: DT_INT32
    }
  }
  attr {
    key: "value"
    value {
      tensor {
        dtype: DT_INT32
        tensor_shape {
          dim {
            size: 2
          }
        }
        tensor_content: "\001\000\000\000\001\000\000\000"
      }
    }
  }
}
node {
  name: "LSTM_1/strided_slice_7"
  op: "StridedSlice"
  input: "LSTM_1/recurrent_kernel/read"
  input: "LSTM_1/strided_slice_7/stack"
  input: "LSTM_1/strided_slice_7/stack_1"
  input: "LSTM_1/strided_slice_7/stack_2"
  attr {
    key: "Index"
    value {
      type: DT_INT32
    }
  }
  attr {
    key: "T"
    value {
      type: DT_FLOAT
    }
  }
  attr {
    key: "begin_mask"
    value {
      i: 1
    }
  }
  attr {
    key: "ellipsis_mask"
    value {
      i: 0
    }
  }
  attr {
    key: "end_mask"
    value {
      i: 3
    }
  }
  attr {
    key: "new_axis_mask"
    value {
      i: 0
    }
  }
  attr {
    key: "shrink_axis_mask"
    value {
      i: 0
    }
  }
}
node {
  name: "LSTM_1/strided_slice_8/stack"
  op: "Const"
  attr {
    key: "dtype"
    value {
      type: DT_INT32
    }
  }
  attr {
    key: "value"
    value {
      tensor {
        dtype: DT_INT32
        tensor_shape {
          dim {
            size: 1
          }
        }
        int_val: 0
      }
    }
  }
}
node {
  name: "LSTM_1/strided_slice_8/stack_1"
  op: "Const"
  attr {
    key: "dtype"
    value {
      type: DT_INT32
    }
  }
  attr {
    key: "value"
    value {
      tensor {
        dtype: DT_INT32
        tensor_shape {
          dim {
            size: 1
          }
        }
        int_val: 32
      }
    }
  }
}
node {
  name: "LSTM_1/strided_slice_8/stack_2"
  op: "Const"
  attr {
    key: "dtype"
    value {
      type: DT_INT32
    }
  }
  attr {
    key: "value"
    value {
      tensor {
        dtype: DT_INT32
        tensor_shape {
          dim {
            size: 1
          }
        }
        int_val: 1
      }
    }
  }
}
node {
  name: "LSTM_1/strided_slice_8"
  op: "StridedSlice"
  input: "LSTM_1/bias/read"
  input: "LSTM_1/strided_slice_8/stack"
  input: "LSTM_1/strided_slice_8/stack_1"
  input: "LSTM_1/strided_slice_8/stack_2"
  attr {
    key: "Index"
    value {
      type: DT_INT32
    }
  }
  attr {
    key: "T"
    value {
      type: DT_FLOAT
    }
  }
  attr {
    key: "begin_mask"
    value {
      i: 1
    }
  }
  attr {
    key: "ellipsis_mask"
    value {
      i: 0
    }
  }
  attr {
    key: "end_mask"
    value {
      i: 0
    }
  }
  attr {
    key: "new_axis_mask"
    value {
      i: 0
    }
  }
  attr {
    key: "shrink_axis_mask"
    value {
      i: 0
    }
  }
}
node {
  name: "LSTM_1/strided_slice_9/stack"
  op: "Const"
  attr {
    key: "dtype"
    value {
      type: DT_INT32
    }
  }
  attr {
    key: "value"
    value {
      tensor {
        dtype: DT_INT32
        tensor_shape {
          dim {
            size: 1
          }
        }
        int_val: 32
      }
    }
  }
}
node {
  name: "LSTM_1/strided_slice_9/stack_1"
  op: "Const"
  attr {
    key: "dtype"
    value {
      type: DT_INT32
    }
  }
  attr {
    key: "value"
    value {
      tensor {
        dtype: DT_INT32
        tensor_shape {
          dim {
            size: 1
          }
        }
        int_val: 64
      }
    }
  }
}
node {
  name: "LSTM_1/strided_slice_9/stack_2"
  op: "Const"
  attr {
    key: "dtype"
    value {
      type: DT_INT32
    }
  }
  attr {
    key: "value"
    value {
      tensor {
        dtype: DT_INT32
        tensor_shape {
          dim {
            size: 1
          }
        }
        int_val: 1
      }
    }
  }
}
node {
  name: "LSTM_1/strided_slice_9"
  op: "StridedSlice"
  input: "LSTM_1/bias/read"
  input: "LSTM_1/strided_slice_9/stack"
  input: "LSTM_1/strided_slice_9/stack_1"
  input: "LSTM_1/strided_slice_9/stack_2"
  attr {
    key: "Index"
    value {
      type: DT_INT32
    }
  }
  attr {
    key: "T"
    value {
      type: DT_FLOAT
    }
  }
  attr {
    key: "begin_mask"
    value {
      i: 0
    }
  }
  attr {
    key: "ellipsis_mask"
    value {
      i: 0
    }
  }
  attr {
    key: "end_mask"
    value {
      i: 0
    }
  }
  attr {
    key: "new_axis_mask"
    value {
      i: 0
    }
  }
  attr {
    key: "shrink_axis_mask"
    value {
      i: 0
    }
  }
}
node {
  name: "LSTM_1/strided_slice_10/stack"
  op: "Const"
  attr {
    key: "dtype"
    value {
      type: DT_INT32
    }
  }
  attr {
    key: "value"
    value {
      tensor {
        dtype: DT_INT32
        tensor_shape {
          dim {
            size: 1
          }
        }
        int_val: 64
      }
    }
  }
}
node {
  name: "LSTM_1/strided_slice_10/stack_1"
  op: "Const"
  attr {
    key: "dtype"
    value {
      type: DT_INT32
    }
  }
  attr {
    key: "value"
    value {
      tensor {
        dtype: DT_INT32
        tensor_shape {
          dim {
            size: 1
          }
        }
        int_val: 96
      }
    }
  }
}
node {
  name: "LSTM_1/strided_slice_10/stack_2"
  op: "Const"
  attr {
    key: "dtype"
    value {
      type: DT_INT32
    }
  }
  attr {
    key: "value"
    value {
      tensor {
        dtype: DT_INT32
        tensor_shape {
          dim {
            size: 1
          }
        }
        int_val: 1
      }
    }
  }
}
node {
  name: "LSTM_1/strided_slice_10"
  op: "StridedSlice"
  input: "LSTM_1/bias/read"
  input: "LSTM_1/strided_slice_10/stack"
  input: "LSTM_1/strided_slice_10/stack_1"
  input: "LSTM_1/strided_slice_10/stack_2"
  attr {
    key: "Index"
    value {
      type: DT_INT32
    }
  }
  attr {
    key: "T"
    value {
      type: DT_FLOAT
    }
  }
  attr {
    key: "begin_mask"
    value {
      i: 0
    }
  }
  attr {
    key: "ellipsis_mask"
    value {
      i: 0
    }
  }
  attr {
    key: "end_mask"
    value {
      i: 0
    }
  }
  attr {
    key: "new_axis_mask"
    value {
      i: 0
    }
  }
  attr {
    key: "shrink_axis_mask"
    value {
      i: 0
    }
  }
}
node {
  name: "LSTM_1/strided_slice_11/stack"
  op: "Const"
  attr {
    key: "dtype"
    value {
      type: DT_INT32
    }
  }
  attr {
    key: "value"
    value {
      tensor {
        dtype: DT_INT32
        tensor_shape {
          dim {
            size: 1
          }
        }
        int_val: 96
      }
    }
  }
}
node {
  name: "LSTM_1/strided_slice_11/stack_1"
  op: "Const"
  attr {
    key: "dtype"
    value {
      type: DT_INT32
    }
  }
  attr {
    key: "value"
    value {
      tensor {
        dtype: DT_INT32
        tensor_shape {
          dim {
            size: 1
          }
        }
        int_val: 0
      }
    }
  }
}
node {
  name: "LSTM_1/strided_slice_11/stack_2"
  op: "Const"
  attr {
    key: "dtype"
    value {
      type: DT_INT32
    }
  }
  attr {
    key: "value"
    value {
      tensor {
        dtype: DT_INT32
        tensor_shape {
          dim {
            size: 1
          }
        }
        int_val: 1
      }
    }
  }
}
node {
  name: "LSTM_1/strided_slice_11"
  op: "StridedSlice"
  input: "LSTM_1/bias/read"
  input: "LSTM_1/strided_slice_11/stack"
  input: "LSTM_1/strided_slice_11/stack_1"
  input: "LSTM_1/strided_slice_11/stack_2"
  attr {
    key: "Index"
    value {
      type: DT_INT32
    }
  }
  attr {
    key: "T"
    value {
      type: DT_FLOAT
    }
  }
  attr {
    key: "begin_mask"
    value {
      i: 0
    }
  }
  attr {
    key: "ellipsis_mask"
    value {
      i: 0
    }
  }
  attr {
    key: "end_mask"
    value {
      i: 1
    }
  }
  attr {
    key: "new_axis_mask"
    value {
      i: 0
    }
  }
  attr {
    key: "shrink_axis_mask"
    value {
      i: 0
    }
  }
}
node {
  name: "LSTM_1/zeros_like"
  op: "ZerosLike"
  input: "LSTM_1_input"
  attr {
    key: "T"
    value {
      type: DT_FLOAT
    }
  }
}
node {
  name: "LSTM_1/Sum/reduction_indices"
  op: "Const"
  attr {
    key: "dtype"
    value {
      type: DT_INT32
    }
  }
  attr {
    key: "value"
    value {
      tensor {
        dtype: DT_INT32
        tensor_shape {
          dim {
            size: 2
          }
        }
        tensor_content: "\001\000\000\000\002\000\000\000"
      }
    }
  }
}
node {
  name: "LSTM_1/Sum"
  op: "Sum"
  input: "LSTM_1/zeros_like"
  input: "LSTM_1/Sum/reduction_indices"
  attr {
    key: "T"
    value {
      type: DT_FLOAT
    }
  }
  attr {
    key: "Tidx"
    value {
      type: DT_INT32
    }
  }
  attr {
    key: "keep_dims"
    value {
      b: false
    }
  }
}
node {
  name: "LSTM_1/ExpandDims/dim"
  op: "Const"
  attr {
    key: "dtype"
    value {
      type: DT_INT32
    }
  }
  attr {
    key: "value"
    value {
      tensor {
        dtype: DT_INT32
        tensor_shape {
        }
        int_val: -1
      }
    }
  }
}
node {
  name: "LSTM_1/ExpandDims"
  op: "ExpandDims"
  input: "LSTM_1/Sum"
  input: "LSTM_1/ExpandDims/dim"
  attr {
    key: "T"
    value {
      type: DT_FLOAT
    }
  }
  attr {
    key: "Tdim"
    value {
      type: DT_INT32
    }
  }
}
node {
  name: "LSTM_1/Tile/multiples"
  op: "Const"
  attr {
    key: "dtype"
    value {
      type: DT_INT32
    }
  }
  attr {
    key: "value"
    value {
      tensor {
        dtype: DT_INT32
        tensor_shape {
          dim {
            size: 2
          }
        }
        tensor_content: "\001\000\000\000 \000\000\000"
      }
    }
  }
}
node {
  name: "LSTM_1/Tile"
  op: "Tile"
  input: "LSTM_1/ExpandDims"
  input: "LSTM_1/Tile/multiples"
  attr {
    key: "T"
    value {
      type: DT_FLOAT
    }
  }
  attr {
    key: "Tmultiples"
    value {
      type: DT_INT32
    }
  }
}
node {
  name: "LSTM_1/Tile_1/multiples"
  op: "Const"
  attr {
    key: "dtype"
    value {
      type: DT_INT32
    }
  }
  attr {
    key: "value"
    value {
      tensor {
        dtype: DT_INT32
        tensor_shape {
          dim {
            size: 2
          }
        }
        tensor_content: "\001\000\000\000 \000\000\000"
      }
    }
  }
}
node {
  name: "LSTM_1/Tile_1"
  op: "Tile"
  input: "LSTM_1/ExpandDims"
  input: "LSTM_1/Tile_1/multiples"
  attr {
    key: "T"
    value {
      type: DT_FLOAT
    }
  }
  attr {
    key: "Tmultiples"
    value {
      type: DT_INT32
    }
  }
}
node {
  name: "LSTM_1/transpose/perm"
  op: "Const"
  attr {
    key: "dtype"
    value {
      type: DT_INT32
    }
  }
  attr {
    key: "value"
    value {
      tensor {
        dtype: DT_INT32
        tensor_shape {
          dim {
            size: 3
          }
        }
        tensor_content: "\001\000\000\000\000\000\000\000\002\000\000\000"
      }
    }
  }
}
node {
  name: "LSTM_1/transpose"
  op: "Transpose"
  input: "LSTM_1_input"
  input: "LSTM_1/transpose/perm"
  attr {
    key: "T"
    value {
      type: DT_FLOAT
    }
  }
  attr {
    key: "Tperm"
    value {
      type: DT_INT32
    }
  }
}
node {
  name: "LSTM_1/Shape"
  op: "Shape"
  input: "LSTM_1/transpose"
  attr {
    key: "T"
    value {
      type: DT_FLOAT
    }
  }
  attr {
    key: "out_type"
    value {
      type: DT_INT32
    }
  }
}
node {
  name: "LSTM_1/strided_slice_12/stack"
  op: "Const"
  attr {
    key: "dtype"
    value {
      type: DT_INT32
    }
  }
  attr {
    key: "value"
    value {
      tensor {
        dtype: DT_INT32
        tensor_shape {
          dim {
            size: 1
          }
        }
        int_val: 0
      }
    }
  }
}
node {
  name: "LSTM_1/strided_slice_12/stack_1"
  op: "Const"
  attr {
    key: "dtype"
    value {
      type: DT_INT32
    }
  }
  attr {
    key: "value"
    value {
      tensor {
        dtype: DT_INT32
        tensor_shape {
          dim {
            size: 1
          }
        }
        int_val: 1
      }
    }
  }
}
node {
  name: "LSTM_1/strided_slice_12/stack_2"
  op: "Const"
  attr {
    key: "dtype"
    value {
      type: DT_INT32
    }
  }
  attr {
    key: "value"
    value {
      tensor {
        dtype: DT_INT32
        tensor_shape {
          dim {
            size: 1
          }
        }
        int_val: 1
      }
    }
  }
}
node {
  name: "LSTM_1/strided_slice_12"
  op: "StridedSlice"
  input: "LSTM_1/Shape"
  input: "LSTM_1/strided_slice_12/stack"
  input: "LSTM_1/strided_slice_12/stack_1"
  input: "LSTM_1/strided_slice_12/stack_2"
  attr {
    key: "Index"
    value {
      type: DT_INT32
    }
  }
  attr {
    key: "T"
    value {
      type: DT_INT32
    }
  }
  attr {
    key: "begin_mask"
    value {
      i: 0
    }
  }
  attr {
    key: "ellipsis_mask"
    value {
      i: 0
    }
  }
  attr {
    key: "end_mask"
    value {
      i: 0
    }
  }
  attr {
    key: "new_axis_mask"
    value {
      i: 0
    }
  }
  attr {
    key: "shrink_axis_mask"
    value {
      i: 1
    }
  }
}
node {
  name: "LSTM_1/strided_slice_13/stack"
  op: "Const"
  attr {
    key: "dtype"
    value {
      type: DT_INT32
    }
  }
  attr {
    key: "value"
    value {
      tensor {
        dtype: DT_INT32
        tensor_shape {
          dim {
            size: 1
          }
        }
        int_val: 0
      }
    }
  }
}
node {
  name: "LSTM_1/strided_slice_13/stack_1"
  op: "Const"
  attr {
    key: "dtype"
    value {
      type: DT_INT32
    }
  }
  attr {
    key: "value"
    value {
      tensor {
        dtype: DT_INT32
        tensor_shape {
          dim {
            size: 1
          }
        }
        int_val: 1
      }
    }
  }
}
node {
  name: "LSTM_1/strided_slice_13/stack_2"
  op: "Const"
  attr {
    key: "dtype"
    value {
      type: DT_INT32
    }
  }
  attr {
    key: "value"
    value {
      tensor {
        dtype: DT_INT32
        tensor_shape {
          dim {
            size: 1
          }
        }
        int_val: 1
      }
    }
  }
}
node {
  name: "LSTM_1/strided_slice_13"
  op: "StridedSlice"
  input: "LSTM_1/transpose"
  input: "LSTM_1/strided_slice_13/stack"
  input: "LSTM_1/strided_slice_13/stack_1"
  input: "LSTM_1/strided_slice_13/stack_2"
  attr {
    key: "Index"
    value {
      type: DT_INT32
    }
  }
  attr {
    key: "T"
    value {
      type: DT_FLOAT
    }
  }
  attr {
    key: "begin_mask"
    value {
      i: 0
    }
  }
  attr {
    key: "ellipsis_mask"
    value {
      i: 0
    }
  }
  attr {
    key: "end_mask"
    value {
      i: 0
    }
  }
  attr {
    key: "new_axis_mask"
    value {
      i: 0
    }
  }
  attr {
    key: "shrink_axis_mask"
    value {
      i: 1
    }
  }
}
node {
  name: "LSTM_1/MatMul"
  op: "MatMul"
  input: "LSTM_1/strided_slice_13"
  input: "LSTM_1/strided_slice"
  attr {
    key: "T"
    value {
      type: DT_FLOAT
    }
  }
  attr {
    key: "transpose_a"
    value {
      b: false
    }
  }
  attr {
    key: "transpose_b"
    value {
      b: false
    }
  }
}
node {
  name: "LSTM_1/MatMul_1"
  op: "MatMul"
  input: "LSTM_1/strided_slice_13"
  input: "LSTM_1/strided_slice_1"
  attr {
    key: "T"
    value {
      type: DT_FLOAT
    }
  }
  attr {
    key: "transpose_a"
    value {
      b: false
    }
  }
  attr {
    key: "transpose_b"
    value {
      b: false
    }
  }
}
node {
  name: "LSTM_1/MatMul_2"
  op: "MatMul"
  input: "LSTM_1/strided_slice_13"
  input: "LSTM_1/strided_slice_2"
  attr {
    key: "T"
    value {
      type: DT_FLOAT
    }
  }
  attr {
    key: "transpose_a"
    value {
      b: false
    }
  }
  attr {
    key: "transpose_b"
    value {
      b: false
    }
  }
}
node {
  name: "LSTM_1/MatMul_3"
  op: "MatMul"
  input: "LSTM_1/strided_slice_13"
  input: "LSTM_1/strided_slice_3"
  attr {
    key: "T"
    value {
      type: DT_FLOAT
    }
  }
  attr {
    key: "transpose_a"
    value {
      b: false
    }
  }
  attr {
    key: "transpose_b"
    value {
      b: false
    }
  }
}
node {
  name: "LSTM_1/BiasAdd"
  op: "BiasAdd"
  input: "LSTM_1/MatMul"
  input: "LSTM_1/strided_slice_8"
  attr {
    key: "T"
    value {
      type: DT_FLOAT
    }
  }
  attr {
    key: "data_format"
    value {
      s: "NHWC"
    }
  }
}
node {
  name: "LSTM_1/BiasAdd_1"
  op: "BiasAdd"
  input: "LSTM_1/MatMul_1"
  input: "LSTM_1/strided_slice_9"
  attr {
    key: "T"
    value {
      type: DT_FLOAT
    }
  }
  attr {
    key: "data_format"
    value {
      s: "NHWC"
    }
  }
}
node {
  name: "LSTM_1/BiasAdd_2"
  op: "BiasAdd"
  input: "LSTM_1/MatMul_2"
  input: "LSTM_1/strided_slice_10"
  attr {
    key: "T"
    value {
      type: DT_FLOAT
    }
  }
  attr {
    key: "data_format"
    value {
      s: "NHWC"
    }
  }
}
node {
  name: "LSTM_1/BiasAdd_3"
  op: "BiasAdd"
  input: "LSTM_1/MatMul_3"
  input: "LSTM_1/strided_slice_11"
  attr {
    key: "T"
    value {
      type: DT_FLOAT
    }
  }
  attr {
    key: "data_format"
    value {
      s: "NHWC"
    }
  }
}
node {
  name: "LSTM_1/MatMul_4"
  op: "MatMul"
  input: "LSTM_1/Tile"
  input: "LSTM_1/strided_slice_4"
  attr {
    key: "T"
    value {
      type: DT_FLOAT
    }
  }
  attr {
    key: "transpose_a"
    value {
      b: false
    }
  }
  attr {
    key: "transpose_b"
    value {
      b: false
    }
  }
}
node {
  name: "LSTM_1/add"
  op: "Add"
  input: "LSTM_1/BiasAdd"
  input: "LSTM_1/MatMul_4"
  attr {
    key: "T"
    value {
      type: DT_FLOAT
    }
  }
}
node {
  name: "LSTM_1/mul/x"
  op: "Const"
  attr {
    key: "dtype"
    value {
      type: DT_FLOAT
    }
  }
  attr {
    key: "value"
    value {
      tensor {
        dtype: DT_FLOAT
        tensor_shape {
        }
        float_val: 0.20000000298023224
      }
    }
  }
}
node {
  name: "LSTM_1/mul"
  op: "Mul"
  input: "LSTM_1/mul/x"
  input: "LSTM_1/add"
  attr {
    key: "T"
    value {
      type: DT_FLOAT
    }
  }
}
node {
  name: "LSTM_1/add_1/y"
  op: "Const"
  attr {
    key: "dtype"
    value {
      type: DT_FLOAT
    }
  }
  attr {
    key: "value"
    value {
      tensor {
        dtype: DT_FLOAT
        tensor_shape {
        }
        float_val: 0.5
      }
    }
  }
}
node {
  name: "LSTM_1/add_1"
  op: "Add"
  input: "LSTM_1/mul"
  input: "LSTM_1/add_1/y"
  attr {
    key: "T"
    value {
      type: DT_FLOAT
    }
  }
}
node {
  name: "LSTM_1/Const_3"
  op: "Const"
  attr {
    key: "dtype"
    value {
      type: DT_FLOAT
    }
  }
  attr {
    key: "value"
    value {
      tensor {
        dtype: DT_FLOAT
        tensor_shape {
        }
        float_val: 0.0
      }
    }
  }
}
node {
  name: "LSTM_1/Const_4"
  op: "Const"
  attr {
    key: "dtype"
    value {
      type: DT_FLOAT
    }
  }
  attr {
    key: "value"
    value {
      tensor {
        dtype: DT_FLOAT
        tensor_shape {
        }
        float_val: 1.0
      }
    }
  }
}
node {
  name: "LSTM_1/clip_by_value/Minimum"
  op: "Minimum"
  input: "LSTM_1/add_1"
  input: "LSTM_1/Const_4"
  attr {
    key: "T"
    value {
      type: DT_FLOAT
    }
  }
}
node {
  name: "LSTM_1/clip_by_value"
  op: "Maximum"
  input: "LSTM_1/clip_by_value/Minimum"
  input: "LSTM_1/Const_3"
  attr {
    key: "T"
    value {
      type: DT_FLOAT
    }
  }
}
node {
  name: "LSTM_1/MatMul_5"
  op: "MatMul"
  input: "LSTM_1/Tile"
  input: "LSTM_1/strided_slice_5"
  attr {
    key: "T"
    value {
      type: DT_FLOAT
    }
  }
  attr {
    key: "transpose_a"
    value {
      b: false
    }
  }
  attr {
    key: "transpose_b"
    value {
      b: false
    }
  }
}
node {
  name: "LSTM_1/add_2"
  op: "Add"
  input: "LSTM_1/BiasAdd_1"
  input: "LSTM_1/MatMul_5"
  attr {
    key: "T"
    value {
      type: DT_FLOAT
    }
  }
}
node {
  name: "LSTM_1/mul_1/x"
  op: "Const"
  attr {
    key: "dtype"
    value {
      type: DT_FLOAT
    }
  }
  attr {
    key: "value"
    value {
      tensor {
        dtype: DT_FLOAT
        tensor_shape {
        }
        float_val: 0.20000000298023224
      }
    }
  }
}
node {
  name: "LSTM_1/mul_1"
  op: "Mul"
  input: "LSTM_1/mul_1/x"
  input: "LSTM_1/add_2"
  attr {
    key: "T"
    value {
      type: DT_FLOAT
    }
  }
}
node {
  name: "LSTM_1/add_3/y"
  op: "Const"
  attr {
